memory_initialization_radix=10;
memory_initialization_vector =
0,
22,
44,
66,
88,
1,
23,
45,
67,
89,
2,
24,
46,
68,
90,
3,
25,
47,
69,
91,
4,
26,
48,
70,
92,
5,
27,
49,
71,
93,
6,
28,
50,
72,
94,
7,
29,
51,
73,
95,
8,
30,
52,
74,
96,
9,
31,
53,
75,
97,
10,
32,
54,
76,
98,
11,
33,
55,
77,
99,
12,
34,
56,
78,
100,
13,
35,
57,
79,
101,
14,
36,
58,
80,
102,
15,
37,
59,
81,
103,
16,
38,
60,
82,
104,
17,
39,
61,
83,
105,
