memory_initialization_radix=10;
memory_initialization_vector =
65503,
65465,
65440,
65527,
65530,
30,
65530,
65451,
48,
66,
95,
80,
145,
144,
18,
37,
125,
13,
202,
159,
245,
11,
277,
65508,
177,
298,
110,
298,
203,
47,
49,
70,
64,
225,
237,
65499,
39,
65522,
39,
65524,
53,
65489,
65429,
65495,
65440,
65407,
26,
65496,
65447,
193,
220,
44,
65479,
65481,
65473,
65476,
23,
244,
27,
35,
65470,
65478,
65489,
85,
56,
40,
65431,
65524,
120,
29,
45,
65493,
24,
65456,
71,
65483,
75,
65466,
65525,
65441,
65454,
65495,
65421,
87,
102,
45,
36,
13,
65534,
58,
65476,
65516,
9,
65441,
65517,
65448,
65480,
65449,
65484,
65495,
65520,
65375,
14,
65518,
23,
73,
75,
98,
54,
17,
27,
91,
65444,
65527,
65440,
53,
58,
65532,
65503,
65467,
65394,
65377,
65484,
65486,
65482,
65400,
19,
65522,
65484,
65416,
65503,
65457,
65499,
65522,
65357,
85,
65460,
28,
65506,
65438,
65420,
65338,
65458,
23,
51,
65450,
65456,
65457,
66,
65446,
20,
65442,
53,
65477,
61,
65469,
64,
32,
65499,
65435,
66,
4,
33,
23,
75,
65472,
65443,
50,
79,
65523,
50,
68,
55,
53,
92,
11,
7,
65462,
65476,
65508,
65503,
65529,
47,
65399,
65455,
65483,
65443,
65442,
65447,
65271,
65402,
65380,
65404,
65447,
26,
65413,
65402,
65413,
65341,
65428,
65439,
65334,
65340,
65434,
65337,
65336,
65442,
65407,
65393,
65379,
65494,
65332,
65438,
65401,
65403,
65463,
22,
10,
32,
65479,
68,
51,
65442,
65383,
65448,
65447,
65434,
15,
65382,
13,
65501,
170,
110,
65422,
41,
6,
146,
128,
175,
65354,
52,
184,
172,
218,
65415,
65427,
45,
65478,
44,
30,
65418,
65448,
8,
65525,
83,
71,
82,
65,
127,
189,
54,
65453,
95,
65477,
59,
65535,
120,
59,
8,
75,
44,
65532,
43,
101,
13,
38,
65448,
18,
65521,
120,
54,
50,
65448,
19,
65499,
65520,
65472,
73,
65486,
141,
64,
65494,
15,
47,
12,
115,
43,
65529,
65390,
52,
33,
7,
21,
65514,
65445,
65503,
32,
65530,
65474,
74,
106,
19,
106,
65430,
65300,
65391,
12,
94,
23,
148,
52,
69,
45,
65505,
87,
65518,
65501,
65474,
18,
65465,
63,
65500,
65465,
65457,
30,
89,
42,
86,
65514,
65419,
65449,
19,
41,
117,
65492,
66,
20,
65528,
87,
65499,
65527,
65437,
84,
65399,
40,
65444,
65441,
65472,
65533,
65517,
65476,
34,
65500,
70,
68,
65453,
32,
45,
65534,
65527,
65483,
64,
48,
30,
65522,
19,
74,
5,
65466,
65530,
65496,
65494,
65437,
1,
65443,
65501,
55,
39,
38,
65465,
10,
68,
65516,
27,
65465,
65452,
65510,
65356,
65467,
61,
17,
65499,
65444,
132,
10,
7,
21,
65403,
65419,
29,
65533,
113,
36,
65466,
11,
65462,
117,
65522,
65485,
20,
65351,
22,
65475,
65509,
103,
73,
16,
65373,
65450,
65308,
65521,
58,
65527,
16,
108,
80,
134,
28,
17,
24,
65,
161,
272,
52,
123,
170,
25,
114,
45,
115,
21,
35,
215,
242,
68,
29,
98,
257,
370,
78,
145,
28,
45,
144,
176,
142,
51,
86,
30,
65449,
65439,
65439,
65454,
65503,
65488,
65484,
65285,
65338,
65532,
65534,
9,
133,
65516,
65503,
89,
53,
65496,
65450,
186,
39,
65476,
65514,
28,
65278,
247,
132,
65509,
196,
101,
65454,
169,
0,
110,
119,
95,
65499,
65489,
64,
94,
65533,
11,
253,
65,
152,
180,
139,
164,
79,
15,
80,
26,
267,
112,
95,
167,
74,
168,
181,
149,
173,
133,
49,
126,
60,
15,
11,
207,
145,
125,
20,
67,
62,
65481,
65453,
65471,
65524,
148,
59,
127,
157,
55,
73,
74,
64,
6,
45,
28,
65512,
1,
27,
41,
138,
248,
65459,
120,
134,
55,
100,
65535,
65505,
107,
103,
211,
93,
98,
81,
62,
65453,
38,
63,
66,
65487,
65495,
65516,
65329,
65340,
65487,
65474,
65453,
65395,
65444,
65400,
65361,
65459,
65457,
65425,
65378,
65428,
65424,
65515,
65519,
65447,
65429,
65357,
65495,
65439,
65421,
55,
65458,
65528,
65475,
65515,
65479,
65474,
6,
14,
54,
65502,
27,
18,
65304,
65274,
65441,
99,
25,
65511,
65418,
65205,
65310,
83,
8,
65407,
65397,
65152,
65276,
65354,
50,
65170,
65425,
65181,
65196,
65519,
38,
65534,
65463,
65531,
132,
164,
90,
65513,
30,
21,
120,
65485,
153,
178,
2,
37,
50,
239,
241,
65532,
210,
283,
293,
232,
395,
145,
282,
135,
249,
65505,
165,
120,
235,
264,
283,
107,
57,
138,
161,
59,
36,
65435,
65459,
21,
65485,
12,
65468,
65528,
228,
113,
65396,
65535,
76,
65533,
254,
65498,
65421,
65521,
100,
257,
248,
272,
293,
168,
335,
65345,
188,
302,
219,
396,
256,
150,
66,
216,
160,
203,
215,
161,
13,
65515,
65465,
11,
65520,
65517,
65534,
106,
86,
104,
37,
65388,
65451,
65408,
65497,
65438,
182,
65408,
65511,
65469,
65443,
100,
65455,
65397,
65456,
18,
65376,
65450,
65464,
65463,
65430,
65469,
65507,
65457,
65350,
65441,
110,
21,
9,
65514,
112,
20,
65339,
65210,
65483,
65310,
65330,
23,
65307,
65188,
65287,
65250,
65211,
65460,
65349,
64976,
64987,
65113,
65101,
65421,
65396,
65039,
65003,
64961,
64985,
65378,
65404,
65318,
65344,
65398,
65353,
7,
3,
33,
27,
27,
9,
65509,
65249,
65432,
48,
65504,
65442,
65452,
65306,
65471,
65426,
65307,
65378,
65519,
65416,
65267,
65038,
64919,
65201,
65501,
65236,
65364,
65128,
65238,
65213,
65442,
65473,
65279,
65358,
65200,
65195,
65445,
82,
65497,
65443,
12,
118,
54,
33,
93,
249,
52,
191,
70,
65490,
65347,
65262,
65272,
65273,
13,
102,
65310,
65248,
65232,
65291,
27,
65493,
65509,
65241,
65382,
65390,
6,
65497,
65411,
65443,
65339,
65522,
65530,
41,
65482,
80,
65499,
57,
65455,
45,
18,
134,
145,
11,
65478,
65479,
65433,
93,
113,
118,
65526,
22,
65513,
65440,
65514,
65514,
92,
65528,
74,
65454,
65489,
14,
65508,
65473,
71,
65498,
65506,
31,
33,
134,
78,
114,
65516,
6,
26,
65228,
65226,
65318,
65149,
65295,
65510,
65332,
65063,
65278,
65357,
65265,
65476,
65321,
64927,
64977,
65106,
65213,
65386,
65530,
65095,
64779,
65006,
65164,
65385,
9,
65376,
65324,
65163,
65274,
38,
33,
65517,
65481,
65441,
45,
65494,
137,
218,
151,
65500,
33,
74,
178,
182,
65510,
24,
186,
38,
107,
200,
82,
10,
65475,
65444,
161,
65498,
252,
65512,
98,
179,
30,
65526,
69,
33,
99,
79,
65463,
65493,
65495,
47,
65462,
65500,
61,
170,
101,
64,
101,
104,
235,
173,
50,
158,
84,
84,
207,
214,
267,
199,
194,
65496,
65443,
133,
163,
307,
168,
63,
65534,
65522,
44,
33,
65482,
65475,
65446,
16,
65474,
43,
65433,
65483,
29,
89,
65534,
65468,
19,
46,
78,
23,
65523,
26,
1,
65529,
72,
70,
65468,
65441,
65434,
51,
65515,
54,
65476,
24,
49,
65522,
50,
13,
19,
65484,
65505,
65453,
67,
28,
17,
65504,
37,
65500,
65383,
82,
65462,
1,
35,
65378,
65535,
25,
140,
42,
167,
27,
65414,
65370,
65505,
65443,
65451,
65518,
65523,
44,
65252,
65528,
65370,
65509,
65419,
65412,
65480,
65397,
65510,
65472,
18,
91,
65493,
61,
30,
65461,
65464,
65490,
25,
65461,
65465,
56,
65455,
65509,
65458,
65484,
65487,
65468,
65516,
65472,
65471,
32,
73,
65461,
65487,
52,
65464,
80,
65463,
65531,
47,
5,
65489,
65466,
65457,
65457,
65527,
64,
65462,
65450,
65448,
26,
87,
299,
240,
65379,
100,
65524,
110,
0,
24,
253,
226,
65400,
162,
152,
240,
154,
32,
64,
99,
113,
135,
225,
233,
11,
28,
184,
75,
39,
20,
65486,
65495,
65458,
52,
31,
63,
5,
65490,
65496,
22,
65511,
65471,
65442,
65503,
65504,
65440,
65517,
65490,
65474,
64,
65459,
65463,
34,
65487,
7,
65514,
102,
65435,
65452,
65451,
31,
65452,
93,
106,
65483,
65467,
65526,
65439,
65509,
65512,
65511,
4,
3,
65441,
105,
74,
47,
65483,
65453,
65478,
38,
192,
192,
4,
65487,
160,
166,
152,
39,
70,
65513,
19,
224,
65432,
65477,
130,
24,
48,
65460,
65464,
65411,
61,
23,
131,
158,
113,
71,
124,
10,
65480,
65495,
137,
170,
114,
65507,
238,
152,
181,
49,
178,
65488,
179,
65533,
257,
161,
189,
164,
83,
17,
145,
130,
206,
121,
29,
41,
93,
127,
14,
63,
40,
18,
65500,
65499,
65527,
65401,
25,
65405,
65345,
65376,
65463,
65506,
65433,
65439,
236,
98,
65445,
62,
65359,
65373,
65389,
56,
65477,
65481,
65412,
2,
65513,
65493,
5,
65427,
65448,
65510,
3,
65401,
65443,
46,
61,
14,
65492,
65454,
79,
65523,
58,
65477,
65442,
65424,
82,
65509,
92,
155,
183,
65525,
65484,
63,
65533,
148,
358,
65438,
65524,
67,
54,
141,
385,
264,
58,
44,
65532,
139,
231,
224,
51,
86,
65446,
65426,
65475,
113,
41,
8,
98,
17,
238,
89,
65396,
65489,
149,
279,
213,
314,
184,
151,
160,
230,
173,
286,
285,
65498,
65478,
404,
413,
450,
358,
40,
17,
325,
191,
180,
155,
91,
65462,
65465,
6,
65530,
65487,
32,
65485,
65449,
65512,
65395,
65443,
65485,
65492,
0,
50,
101,
65507,
65457,
65479,
65465,
98,
29,
65468,
65464,
3,
65411,
65505,
65485,
65483,
2,
50,
65484,
31,
84,
103,
65487,
65456,
65449,
49,
65413,
65436,
65513,
65453,
65415,
65293,
65368,
65509,
65526,
65518,
65477,
65478,
65162,
65379,
65339,
65277,
65287,
65318,
65359,
65390,
65334,
65424,
65434,
65418,
65403,
65357,
65383,
65426,
0,
58,
116,
108,
22,
65490,
25,
65529,
51,
65507,
32,
65531,
65440,
64,
65445,
66,
14,
28,
65519,
65459,
65477,
84,
65506,
65489,
21,
65462,
65493,
65532,
65506,
59,
65492,
65436,
20,
0,
35,
58,
53,
5,
61,
32,
65511,
83,
65467,
65523,
94,
84,
0,
65513,
98,
56,
127,
106,
65475,
65405,
65462,
10,
65528,
41,
13,
60,
65378,
57,
232,
65479,
65492,
65506,
18,
145,
142,
39,
128,
65453,
65524,
65398,
65507,
65437,
48,
2,
33,
18,
65460,
65470,
65467,
65489,
65414,
65459,
65432,
65378,
100,
65482,
65524,
256,
22,
65484,
79,
65482,
43,
65488,
65269,
65393,
112,
65526,
65470,
65392,
65367,
65517,
11,
59,
65448,
65481,
65485,
65494,
101,
31,
65490,
65504,
123,
65499,
65484,
40,
30,
189,
203,
175,
16,
194,
284,
92,
104,
115,
315,
229,
459,
463,
82,
245,
110,
70,
334,
319,
352,
261,
155,
91,
222,
129,
73,
119,
65,
65472,
57,
93,
65514,
65471,
65376,
132,
87,
128,
81,
165,
45,
125,
38,
65428,
46,
65410,
65453,
241,
229,
89,
53,
29,
38,
81,
17,
175,
117,
27,
40,
18,
65507,
48,
65521,
36,
65452,
65488,
65514,
76,
23,
33,
65477,
65471,
65458,
65436,
29,
65446,
65473,
65526,
80,
50,
65503,
57,
65493,
65456,
65456,
56,
65469,
56,
65497,
65469,
28,
65511,
65,
72,
65442,
65,
65477,
64,
65522,
52,
72,
65480,
65449,
18,
81,
65450,
65471,
65517,
65524,
43,
35,
65527,
65515,
37,
65279,
65411,
178,
175,
65369,
41,
65406,
65440,
103,
14,
65437,
65526,
36,
14,
180,
210,
65528,
65508,
1,
65464,
65534,
65465,
65517,
65459,
65479,
65467,
65459,
29,
41,
210,
159,
4,
168,
188,
108,
242,
304,
10,
65,
114,
118,
66,
179,
155,
154,
333,
65352,
132,
270,
237,
267,
343,
33,
88,
91,
267,
404,
298,
82,
25,
65507,
65451,
48,
40,
65488,
65460,
65507,
65486,
57,
21,
65535,
65427,
65361,
65486,
65438,
65333,
65527,
65406,
65525,
65444,
13,
65507,
65525,
23,
65525,
65497,
65521,
33,
65532,
65471,
36,
30,
27,
57,
67,
65447,
67,
48,
38,
54,
65459,
65463,
65430,
65483,
65447,
53,
57,
96,
65505,
7,
65482,
65458,
65518,
53,
6,
18,
52,
24,
65505,
65462,
65414,
65475,
65,
40,
65450,
65,
65440,
2,
65523,
2,
65505,
66,
65497,
65480,
65433,
65445,
9,
134,
65480,
65398,
65456,
65446,
64,
65424,
65370,
65309,
65321,
65394,
32,
4,
65395,
65464,
65372,
65465,
77,
156,
65481,
155,
65523,
65472,
56,
65461,
35,
65510,
30,
26,
65450,
65461,
65426,
27,
65440,
55,
65460,
65232,
65189,
65141,
65251,
65267,
65373,
65256,
65018,
65155,
65181,
65244,
65522,
65202,
64886,
64755,
64912,
65002,
65358,
65398,
64935,
64823,
64813,
65021,
25,
52,
65333,
65244,
65268,
65364,
65471,
27,
65488,
65509,
65529,
65493,
65482,
65441,
110,
65468,
65530,
90,
38,
65513,
65489,
40,
65472,
66,
65498,
40,
65518,
37,
65479,
65493,
65497,
65508,
46,
65486,
65406,
16,
13,
56,
4,
65524,
65507,
65519,
73,
68,
70,
67,
69,
65488,
48,
12,
34,
65416,
5,
35,
101,
103,
65475,
86,
47,
65444,
34,
6,
85,
125,
65506,
65511,
65487,
65528,
194,
272,
75,
8,
13,
35,
146,
230,
158,
128,
38,
65486,
65391,
91,
112,
23,
41,
65491,
65487,
110,
193,
65472,
65408,
24,
65484,
65489,
15,
65499,
70,
212,
98,
22,
80,
97,
65516,
64,
145,
11,
96,
65511,
107,
65476,
65509,
65517,
65407,
1,
65519,
65531,
65457,
65462,
65489,
61,
65436,
175,
19,
65464,
114,
27,
93,
115,
59,
85,
65481,
101,
65535,
65374,
65535,
8,
141,
163,
65315,
65456,
65502,
175,
99,
219,
65508,
65501,
72,
174,
255,
130,
27,
73,
65457,
65488,
92,
119,
41,
34,
226,
193,
123,
146,
65493,
100,
186,
33,
68,
65478,
61,
214,
78,
67,
68,
65415,
99,
71,
201,
144,
75,
168,
165,
65517,
65527,
65524,
194,
65498,
65411,
76,
31,
57,
65486,
3,
47,
65535,
65471,
80,
65512,
65443,
65477,
57,
77,
65465,
65510,
65520,
31,
65463,
65493,
65463,
18,
65,
65495,
6,
65523,
65452,
65392,
65392,
29,
65481,
65480,
105,
36,
65532,
69,
65477,
22,
65476,
47,
65499,
39,
65480,
48,
65448,
3,
65521,
70,
65533,
0,
65416,
65271,
65418,
85,
65457,
70,
65509,
65422,
65501,
61,
65493,
65494,
65533,
65506,
12,
65465,
23,
79,
74,
53,
24,
65465,
65456,
72,
146,
96,
35,
65482,
65338,
65235,
65447,
25,
65350,
65457,
65373,
65260,
65314,
65450,
65327,
65344,
65300,
65081,
65063,
65043,
65268,
65432,
65449,
65083,
64982,
65140,
65229,
65345,
65528,
65505,
65271,
65345,
65217,
65421,
67,
99,
65518,
65501,
119,
14,
129,
130,
211,
160,
117,
87,
144,
222,
155,
68,
186,
260,
260,
556,
287,
92,
231,
140,
263,
380,
287,
165,
146,
291,
71,
275,
282,
146,
86,
40,
65457,
65511,
13,
65534,
65511,
65507,
142,
91,
216,
2,
65506,
65518,
100,
137,
223,
133,
321,
143,
99,
310,
265,
65521,
20,
65437,
49,
199,
312,
322,
214,
0,
50,
5,
65512,
65361,
65415,
14,
29,
76,
65444,
65491,
65420,
65498,
65450,
65242,
65118,
65200,
65230,
65505,
65381,
65158,
65319,
65321,
65151,
65455,
65283,
65055,
65055,
65282,
64967,
65360,
65393,
65217,
65245,
65031,
65157,
65442,
65520,
65436,
65258,
65182,
65409,
65492,
69,
20,
93,
65444,
13,
65487,
45,
75,
65474,
7,
54,
3,
6,
30,
65492,
65472,
65453,
42,
142,
205,
162,
120,
65484,
39,
27,
65515,
195,
65527,
1,
116,
86,
65526,
65501,
61,
64,
65511,
8,
78,
65493,
49,
75,
65455,
3,
61,
3,
139,
28,
18,
10,
84,
164,
74,
103,
8,
65512,
158,
31,
106,
65443,
65508,
4,
65502,
36,
65513,
65436,
65504,
65494,
65482,
65534,
65466,
65519,
47,
76,
65475,
65509,
65453,
65474,
65456,
65359,
65427,
65384,
65474,
65436,
65499,
65306,
65381,
65307,
65433,
65427,
65445,
65432,
65442,
65282,
65272,
65396,
32,
65431,
65477,
22,
64,
65377,
65429,
65475,
65368,
65385,
65454,
65423,
65466,
65514,
72,
61,
65508,
92,
38,
88,
65419,
65451,
65489,
65402,
19,
65514,
65398,
65460,
47,
65522,
113,
44,
65440,
65504,
65485,
65512,
92,
65532,
65502,
65435,
65395,
65499,
24,
65528,
118,
61,
35,
65461,
67,
15,
55,
65473,
0,
66,
2,
65488,
65505,
94,
65415,
85,
65498,
65405,
65343,
65448,
65470,
65321,
65403,
15,
65486,
100,
65473,
65406,
65485,
65472,
65339,
65353,
65462,
65298,
65438,
65488,
65452,
65412,
65438,
62,
117,
65461,
75,
65456,
70,
65502,
88,
8,
56,
65493,
65472,
19,
66,
232,
195,
65532,
65513,
138,
25,
286,
284,
177,
202,
229,
127,
265,
456,
181,
185,
223,
232,
181,
266,
464,
247,
190,
65509,
98,
65484,
65504,
7,
32,
65493,
65433,
55,
65512,
24,
65448,
72,
65469,
65511,
65449,
65391,
65421,
7,
122,
65534,
65301,
21,
65514,
50,
87,
65484,
65416,
65370,
65508,
65485,
86,
15,
65482,
65499,
65448,
77,
65528,
27,
65459,
13,
60,
65398,
77,
41,
65502,
65470,
145,
89,
210,
56,
84,
57,
65526,
65523,
172,
29,
94,
58,
65440,
3,
114,
65495,
331,
112,
50,
65515,
65498,
34,
55,
65452,
65532,
65528,
50,
65472,
65454,
36,
65488,
65525,
30,
65515,
7,
60,
36,
65510,
65402,
65484,
65499,
65379,
65426,
65491,
65504,
18,
70,
65534,
66,
45,
65423,
65452,
65521,
65477,
15,
12,
7,
65496,
65504,
65533,
46,
35,
21,
65459,
54,
65528,
65510,
65401,
90,
7,
65499,
65438,
65436,
48,
65438,
65458,
58,
103,
65529,
65432,
65421,
65489,
65437,
65437,
116,
65374,
65310,
65317,
65467,
147,
127,
65458,
16,
65353,
65362,
65315,
65347,
65487,
65471,
65513,
49,
65432,
65429,
46,
65503,
65495,
225,
93,
65393,
36,
65429,
17,
36,
38,
113,
28,
65434,
65463,
96,
21,
179,
37,
65508,
65481,
65411,
65470,
77,
7,
65510,
83,
90,
65489,
65477,
65501,
65440,
65429,
23,
65435,
65450,
65467,
47,
65433,
65504,
65481,
65530,
15,
24,
65387,
63,
235,
97,
65503,
65368,
65433,
65491,
164,
108,
65388,
65451,
4,
65325,
65352,
50,
20,
65437,
65488,
65411,
76,
96,
65509,
65530,
55,
23,
53,
65472,
19,
46,
51,
65470,
65445,
65499,
78,
74,
65517,
65495,
90,
71,
65496,
39,
15,
17,
12,
65511,
65459,
65471,
65476,
30,
37,
65480,
62,
72,
26,
65464,
65471,
43,
65528,
65482,
65496,
65496,
46,
65446,
65512,
65445,
65408,
65394,
65503,
94,
65431,
65285,
10,
65532,
65367,
65495,
65422,
65278,
65404,
65503,
65331,
65293,
65519,
65271,
65456,
65402,
65468,
65345,
65384,
65507,
65420,
65415,
65340,
65283,
65408,
27,
62,
65524,
65533,
65497,
12,
37,
27,
65507,
65364,
65442,
65483,
65443,
65339,
65265,
65351,
65448,
65475,
65510,
65426,
65439,
65438,
65525,
65463,
65373,
65369,
12,
65336,
203,
137,
65477,
65505,
65495,
49,
142,
62,
65525,
42,
65526,
65492,
69,
31,
65445,
65502,
170,
65466,
65454,
12,
65385,
65455,
65348,
65095,
65254,
65500,
65446,
65377,
65206,
65175,
65226,
65301,
65472,
65227,
64947,
65083,
65227,
65393,
65457,
65407,
65476,
65266,
65367,
65419,
65491,
49,
65472,
74,
65487,
65515,
65265,
65152,
65119,
65254,
65265,
0,
65124,
65148,
65410,
65467,
65401,
65361,
65239,
65128,
65282,
65447,
65175,
65466,
65162,
65127,
65244,
65231,
65295,
65315,
65436,
65220,
65250,
65395,
65392,
65476,
75,
65513,
42,
65448,
77,
52,
65527,
82,
40,
76,
28,
1,
10,
65482,
65470,
11,
65434,
53,
85,
65501,
65499,
65453,
65530,
65454,
51,
85,
65507,
9,
65436,
93,
65510,
65503,
65534,
65487,
65522,
31,
65406,
65427,
3,
53,
65453,
65515,
65480,
65514,
65534,
38,
55,
65482,
65451,
13,
65472,
65420,
65434,
65486,
41,
65479,
65344,
47,
65400,
65493,
65472,
65530,
66,
65505,
65378,
65478,
44,
65419,
65428,
65332,
65411,
13,
65524,
65509,
65529,
65420,
6,
79,
65510,
65526,
33,
65505,
65522,
65483,
65435,
65366,
65411,
65412,
65318,
65460,
65294,
65321,
65213,
65312,
65185,
67,
65419,
65249,
65130,
65109,
65217,
65418,
65452,
65315,
65389,
20,
8,
65380,
65519,
65504,
23,
65470,
34,
65489,
65491,
65516,
65514,
65528,
65455,
65507,
116,
109,
23,
65412,
65484,
5,
65498,
7,
65523,
65514,
65484,
65510,
46,
48,
101,
65467,
65480,
65472,
65511,
120,
134,
65491,
65482,
105,
75,
21,
65482,
65446,
65435,
109,
65337,
65342,
85,
26,
65385,
65499,
65293,
65249,
65264,
65388,
65292,
65466,
65530,
65144,
65125,
65208,
65330,
32,
65440,
65330,
65068,
65198,
65418,
71,
65419,
65330,
65215,
65210,
65432,
65456,
65482,
4,
65471,
96,
65526,
56,
65514,
65340,
65334,
65,
40,
65421,
65397,
65299,
65247,
65304,
65503,
65480,
65415,
65444,
65384,
65511,
65472,
65336,
65340,
65462,
24,
65496,
0,
65509,
76,
51,
65490,
168,
65464,
65516,
65454,
65507,
32,
51,
120,
69,
13,
140,
134,
0,
58,
65530,
41,
62,
91,
8,
66,
134,
140,
193,
247,
40,
299,
87,
280,
104,
127,
199,
248,
53,
23,
155,
28,
95,
65489,
73,
65399,
34,
65480,
56,
35,
65504,
133,
67,
48,
9,
65459,
14,
169,
50,
98,
152,
133,
15,
65380,
92,
109,
93,
128,
65482,
65517,
159,
2,
159,
329,
67,
90,
53,
117,
93,
189,
13,
65437,
65452,
2,
65442,
73,
52,
65500,
65473,
65401,
65385,
65521,
65494,
50,
65425,
65361,
65484,
65515,
65527,
65297,
65254,
65401,
149,
317,
65335,
65364,
65321,
65480,
134,
181,
133,
65519,
1,
152,
268,
97,
65499,
51,
38,
65445,
65464,
65504,
65480,
65478,
65502,
19,
65534,
42,
65502,
65532,
65447,
65507,
32,
65446,
55,
38,
65528,
65520,
1,
65448,
50,
24,
65503,
65522,
65526,
2,
16,
19,
71,
65453,
39,
65449,
27,
36,
65475,
65493,
68,
65461,
65507,
51,
43,
70,
67,
65516,
65475,
65504,
51,
65490,
42,
7,
65426,
65,
65499,
65491,
74,
61,
65449,
65501,
8,
65501,
65486,
65500,
95,
3,
32,
65518,
39,
65519,
8,
65492,
47,
101,
65480,
69,
4,
65471,
147,
23,
176,
128,
86,
65483,
141,
207,
176,
98,
40,
65511,
87,
139,
93,
172,
20,
41,
51,
3,
210,
1,
61,
80,
65522,
44,
39,
55,
65446,
65490,
62,
111,
223,
65518,
65481,
65521,
112,
301,
220,
375,
89,
30,
65394,
65249,
65201,
65364,
91,
135,
65530,
65318,
65126,
65371,
132,
150,
65487,
65030,
65294,
65417,
12,
112,
37,
65370,
65349,
65451,
51,
2,
65459,
38,
65507,
65412,
65501,
46,
81,
73,
123,
249,
65518,
134,
139,
206,
247,
156,
65497,
63,
157,
308,
188,
97,
65485,
122,
79,
444,
221,
182,
65510,
65509,
9,
10,
65475,
158,
65509,
65477,
84,
65451,
42,
65451,
65453,
65386,
65319,
65380,
65339,
65377,
20,
65294,
65230,
65330,
65351,
65320,
65405,
65432,
65053,
65123,
65286,
65335,
65470,
65376,
65289,
65167,
65068,
65206,
65339,
65366,
65377,
65300,
65375,
65464,
65505,
65495,
65496,
6,
65534,
65478,
62,
65489,
65344,
65224,
65293,
65423,
65488,
65443,
42,
65508,
75,
2,
65451,
65295,
65355,
65511,
20,
65515,
7,
65428,
65290,
65278,
65333,
65508,
66,
65506,
65450,
65262,
65368,
65417,
14,
65526,
65491,
65483,
65480,
65475,
62,
65509,
65400,
65417,
65477,
65444,
65525,
58,
103,
15,
65405,
62,
39,
65508,
124,
15,
147,
27,
55,
65512,
57,
65478,
65387,
28,
48,
65509,
65445,
5,
59,
104,
65510,
65534,
65504,
65528,
65456,
65533,
1,
69,
65438,
28,
50,
84,
40,
65498,
65519,
65529,
67,
36,
232,
68,
65422,
65527,
110,
174,
143,
43,
44,
65522,
120,
65535,
146,
2,
66,
99,
90,
65484,
65459,
19,
42,
19,
14,
33,
110,
65493,
65462,
65529,
10,
65503,
65500,
34,
101,
71,
60,
131,
65492,
65506,
89,
118,
81,
30,
35,
65507,
21,
65508,
65516,
80,
102,
65476,
65521,
164,
104,
237,
65516,
65499,
87,
12,
65515,
78,
65504,
65534,
65521,
65531,
65512,
65482,
97,
65474,
21,
65494,
110,
116,
65442,
69,
53,
56,
65447,
65501,
64,
65466,
9,
65489,
65456,
65497,
65387,
42,
2,
65390,
65483,
64,
65503,
65535,
65503,
95,
12,
49,
65510,
149,
65438,
89,
80,
85,
83,
43,
259,
221,
191,
65526,
65425,
163,
393,
197,
386,
179,
65385,
120,
219,
212,
146,
69,
65522,
83,
89,
105,
175,
65527,
74,
65494,
41,
74,
38,
37,
65514,
65443,
84,
50,
16,
65518,
65449,
16,
65485,
65511,
65380,
65511,
65438,
254,
302,
41,
140,
74,
126,
162,
329,
80,
105,
47,
70,
36,
220,
341,
206,
65516,
57,
65477,
65532,
104,
65501,
51,
65449,
92,
18,
43,
65408,
65501,
65464,
65459,
65473,
5,
65415,
65372,
65472,
102,
254,
65521,
65344,
65340,
83,
65517,
65431,
65435,
65448,
65307,
66,
65484,
106,
38,
65488,
65494,
65450,
12,
58,
65531,
65475,
65486,
65508,
4,
57,
148,
6,
15,
65518,
201,
98,
76,
145,
65489,
65435,
230,
171,
275,
200,
69,
116,
84,
135,
128,
153,
61,
77,
53,
187,
169,
125,
92,
65513,
61,
13,
8,
54,
65499,
36,
65475,
65436,
72,
141,
65524,
19,
65425,
65406,
65373,
65367,
65405,
65360,
65455,
65286,
65269,
65301,
65399,
82,
65411,
65432,
65254,
65263,
65463,
14,
65417,
65318,
65192,
65350,
65403,
65502,
65534,
28,
119,
173,
106,
65457,
19,
65352,
65462,
116,
65516,
65462,
65504,
7,
19,
13,
65439,
65497,
9,
33,
29,
101,
181,
65413,
65514,
40,
55,
151,
22,
65520,
65451,
65483,
65392,
65394,
62,
65454,
65504,
65484,
65476,
65474,
53,
65523,
65487,
65528,
24,
65507,
65476,
26,
65445,
65514,
65494,
48,
72,
65439,
65488,
65480,
65465,
5,
56,
65491,
93,
65491,
65474,
65470,
8,
50,
65463,
65441,
60,
65435,
65448,
73,
65520,
53,
31,
65423,
16,
65493,
29,
23,
8,
59,
114,
49,
223,
33,
72,
97,
22,
182,
99,
71,
318,
243,
89,
59,
172,
65534,
205,
65507,
65491,
131,
97,
79,
164,
226,
95,
101,
65485,
40,
65525,
44,
95,
38,
65519,
65432,
40,
65492,
65503,
31,
65528,
65417,
25,
16,
65355,
65532,
82,
65396,
65354,
65266,
65279,
131,
196,
137,
65429,
65457,
16,
65421,
65470,
23,
19,
65405,
65514,
65509,
65510,
65446,
22,
65464,
65451,
65504,
128,
0,
131,
31,
65438,
35,
202,
232,
100,
145,
114,
65430,
17,
155,
155,
236,
127,
65268,
83,
327,
358,
570,
378,
138,
8,
55,
98,
130,
282,
65518,
65461,
65454,
14,
65527,
65503,
48,
65496,
65516,
79,
65535,
38,
51,
27,
65427,
65363,
65330,
65397,
28,
65510,
65476,
65363,
65402,
65523,
65492,
65529,
65509,
65353,
0,
65464,
24,
65521,
65498,
15,
62,
65481,
65500,
65524,
65523,
65520,
65485,
65470,
25,
65452,
65425,
65405,
65408,
65480,
106,
65337,
65342,
65517,
65518,
65477,
65492,
18,
65329,
65395,
65508,
65346,
65441,
70,
65366,
115,
89,
65303,
65513,
8,
65311,
65447,
5,
65490,
23,
8,
65431,
65476,
65426,
1,
42,
65519,
132,
74,
135,
65,
14,
100,
93,
26,
65454,
65309,
167,
109,
65476,
32,
65469,
65448,
110,
98,
65535,
25,
33,
86,
65506,
65529,
6,
22,
65465,
65499,
48,
27,
36,
12,
71,
65516,
65485,
145,
81,
140,
11,
6,
65497,
65482,
49,
168,
59,
37,
65444,
65517,
65444,
65519,
27,
65484,
65474,
65473,
65474,
20,
65518,
65513,
65526,
65458,
44,
97,
65506,
51,
65456,
94,
106,
77,
65526,
66,
118,
114,
80,
54,
65484,
65529,
140,
261,
20,
71,
333,
178,
28,
235,
149,
154,
53,
170,
65513,
150,
121,
376,
181,
134,
11,
24,
30,
41,
65504,
65497,
65476,
61,
65518,
84,
75,
65457,
65451,
65533,
72,
65494,
65527,
34,
65493,
65505,
65446,
65457,
65327,
65382,
65447,
60,
65518,
52,
56,
65480,
65521,
109,
11,
9,
65482,
65372,
30,
57,
65474,
65504,
9,
65347,
19,
45,
30,
65461,
55,
65503,
70,
65467,
29,
144,
65397,
65441,
59,
65484,
29,
26,
65463,
65467,
65480,
68,
43,
65240,
65400,
65370,
58,
65470,
92,
65496,
65281,
10,
29,
65523,
3,
65345,
65282,
65396,
65435,
99,
65515,
66,
52,
89,
93,
65459,
65502,
65424,
4,
65531,
1,
196,
24,
238,
171,
98,
47,
121,
202,
347,
151,
65533,
37,
65517,
340,
291,
129,
70,
17,
14,
24,
137,
181,
98,
65483,
65499,
22,
65535,
65526,
45,
27,
147,
130,
121,
187,
187,
65502,
25,
75,
65309,
65137,
65442,
65511,
130,
65523,
6,
65502,
49,
141,
41,
65489,
7,
57,
59,
41,
9,
46,
65481,
65456,
20,
65471,
1,
16,
65494,
91,
65443,
65444,
137,
44,
79,
81,
126,
86,
238,
107,
168,
273,
180,
65517,
69,
166,
143,
117,
150,
65527,
88,
277,
330,
288,
301,
23,
59,
65515,
65493,
78,
127,
12,
