memory_initialization_radix=10;
memory_initialization_vector =
105,
65,
22,
91,
129,
132,
117,
65528,
65513,
44,
207,
197,
65516,
62,
49,
31,
268,
270,
44,
68,
76,
12,
157,
195,
97,
72,
153,
139,
208,
20,
65507,
33,
77,
84,
116,
114,
65411,
65439,
65500,
65529,
21,
65484,
65432,
39,
49,
65424,
65449,
65475,
65508,
65488,
65483,
65427,
65444,
65437,
65471,
65514,
26,
65518,
65478,
5,
65451,
65463,
65501,
65520,
65507,
65531,
65454,
15,
65428,
31,
65525,
65523,
78,
171,
162,
176,
199,
156,
208,
160,
161,
118,
174,
301,
120,
77,
67,
53,
325,
168,
86,
85,
109,
65532,
100,
107,
83,
136,
140,
91,
35,
110,
82,
65501,
65528,
103,
65493,
119,
31,
65442,
65483,
65530,
84,
65438,
65435,
65427,
65456,
65470,
65375,
65307,
65404,
65328,
65358,
6,
65309,
65426,
65390,
65248,
65503,
7,
65360,
65444,
32,
65370,
65420,
65432,
65340,
65463,
65513,
65528,
65484,
65527,
65508,
65445,
84,
65487,
58,
65535,
58,
65443,
56,
65473,
65478,
48,
70,
65478,
63,
65474,
73,
65511,
29,
65452,
69,
67,
65527,
65448,
0,
49,
65493,
65521,
65471,
88,
65521,
65513,
66,
65510,
65484,
65535,
65510,
65447,
189,
76,
72,
214,
203,
104,
64,
122,
167,
124,
169,
86,
173,
85,
36,
12,
106,
124,
128,
65535,
41,
161,
65506,
170,
183,
154,
137,
65516,
65525,
73,
164,
117,
225,
64,
116,
147,
128,
84,
116,
105,
137,
207,
245,
240,
31,
155,
90,
205,
236,
57,
10,
75,
50,
27,
65,
141,
98,
4,
20,
79,
57,
10,
40,
48,
77,
37,
117,
65518,
40,
104,
96,
48,
50,
129,
119,
140,
65507,
55,
80,
65534,
8,
57,
28,
65463,
1,
37,
65481,
7,
65427,
65521,
42,
65423,
65445,
44,
78,
96,
54,
65437,
94,
65499,
65534,
73,
189,
246,
47,
127,
151,
147,
65473,
65508,
65417,
65492,
65443,
65351,
65483,
65465,
65469,
4,
65400,
65263,
65429,
65504,
65535,
65474,
65383,
65289,
65428,
65478,
65388,
65496,
65523,
65499,
65431,
65405,
65520,
65380,
46,
65513,
65433,
65498,
65480,
65417,
39,
65450,
65418,
4,
65471,
33,
66,
47,
3,
18,
65479,
36,
65481,
65521,
65485,
39,
47,
17,
57,
65481,
65508,
49,
65526,
65505,
90,
65510,
65523,
65514,
65472,
65472,
2,
38,
0,
65445,
22,
65504,
1,
65426,
65485,
86,
65468,
65524,
55,
7,
65527,
65489,
65526,
72,
10,
65524,
65472,
65450,
9,
65492,
64,
65,
84,
65459,
67,
65500,
65529,
41,
65508,
65524,
65485,
38,
49,
65507,
65455,
19,
65507,
9,
87,
80,
195,
200,
146,
221,
120,
274,
212,
190,
181,
55,
214,
124,
152,
4,
65517,
44,
1,
101,
209,
65459,
100,
65508,
142,
110,
53,
64,
65533,
47,
16,
113,
281,
64,
239,
235,
275,
297,
65463,
65442,
45,
65503,
65451,
65424,
7,
88,
18,
65420,
65322,
65495,
65476,
57,
60,
65492,
65459,
65428,
65532,
65452,
65489,
65482,
47,
65451,
65459,
56,
65457,
21,
112,
34,
17,
65472,
65472,
65434,
65499,
65512,
65392,
65402,
65420,
6,
65481,
65455,
65336,
65522,
65527,
65480,
65459,
4,
32,
30,
92,
55,
39,
158,
65503,
17,
87,
65514,
98,
137,
65497,
125,
30,
65525,
65505,
1,
5,
65463,
2,
65443,
65451,
77,
65415,
65350,
65462,
65367,
65441,
65353,
65429,
65482,
65485,
25,
65425,
5,
65397,
65491,
51,
25,
65488,
65354,
65356,
13,
65410,
38,
80,
65396,
65387,
43,
65533,
65534,
65451,
65355,
65437,
65384,
65270,
65332,
65415,
65263,
65323,
65355,
65451,
65523,
65476,
23,
65419,
65462,
65430,
19,
54,
65488,
65361,
65445,
65531,
65525,
65534,
59,
65430,
65523,
65454,
65476,
65503,
65457,
65480,
65458,
65534,
17,
65508,
65498,
65458,
65448,
44,
53,
65510,
65455,
47,
70,
94,
140,
137,
222,
175,
163,
7,
3,
54,
96,
155,
158,
7,
77,
203,
155,
74,
8,
13,
65534,
80,
168,
66,
72,
1,
108,
30,
73,
101,
36,
101,
98,
164,
82,
65390,
65413,
65443,
65450,
65428,
65519,
65438,
65442,
65435,
65514,
65394,
65489,
65526,
8,
2,
71,
68,
101,
5,
35,
65499,
65496,
65516,
39,
33,
61,
65498,
104,
29,
201,
25,
65443,
65508,
1,
173,
106,
65198,
65334,
65520,
65466,
65394,
65449,
65377,
65488,
65530,
23,
65507,
65460,
65508,
16,
12,
33,
43,
87,
65500,
58,
65453,
65502,
136,
43,
103,
132,
37,
117,
52,
0,
65346,
65476,
65473,
4,
32,
65427,
65188,
65450,
65408,
65457,
65461,
65503,
65317,
65366,
65355,
65463,
98,
172,
65325,
65528,
25,
75,
87,
82,
65433,
75,
65473,
65492,
76,
48,
65478,
65534,
65491,
68,
65509,
97,
65445,
65376,
65366,
65308,
65463,
65473,
272,
158,
261,
302,
135,
248,
148,
58,
83,
65526,
39,
52,
182,
72,
91,
65468,
27,
128,
133,
65458,
96,
65478,
92,
27,
93,
65497,
152,
73,
38,
162,
259,
125,
306,
199,
145,
313,
6,
65510,
115,
44,
96,
48,
65501,
65439,
65534,
52,
3,
60,
65333,
65420,
63,
7,
5,
62,
65440,
14,
65520,
65424,
102,
9,
73,
65457,
6,
31,
65480,
84,
75,
65517,
8,
45,
112,
2,
182,
113,
101,
65480,
53,
65470,
73,
99,
83,
65453,
14,
65363,
95,
60,
65,
65522,
65332,
65491,
22,
12,
65465,
65445,
65502,
65414,
72,
65514,
40,
65506,
65440,
92,
65514,
65526,
86,
65491,
48,
106,
25,
128,
65514,
50,
87,
132,
59,
92,
44,
28,
65523,
19,
67,
65484,
65531,
65454,
65492,
65486,
65500,
65433,
18,
65511,
65477,
65485,
19,
102,
65521,
18,
177,
99,
42,
144,
148,
125,
138,
13,
65528,
65463,
52,
65512,
10,
25,
65424,
65441,
4,
65422,
65487,
65496,
65481,
91,
65479,
65529,
65410,
20,
65386,
45,
4,
65496,
65534,
65501,
65415,
17,
65452,
69,
65498,
68,
65445,
65519,
65385,
65511,
65461,
65499,
156,
122,
146,
95,
14,
174,
96,
17,
17,
65480,
96,
66,
161,
150,
9,
65498,
65465,
135,
22,
61,
65500,
65417,
4,
85,
65535,
65505,
65484,
29,
65498,
120,
98,
19,
114,
27,
150,
60,
47,
65415,
126,
46,
20,
38,
65403,
65486,
65449,
65411,
65346,
65422,
65463,
65456,
65379,
65360,
65467,
65514,
65535,
65499,
65512,
65408,
65457,
20,
65528,
65489,
68,
86,
175,
114,
65455,
20,
32,
88,
65529,
37,
65296,
65425,
7,
65473,
6,
65343,
65299,
65407,
65414,
65305,
65498,
65508,
65353,
65376,
65407,
65432,
18,
104,
65534,
65452,
65405,
65495,
65507,
120,
65501,
12,
65469,
5,
65486,
23,
65456,
65393,
65443,
65475,
45,
68,
65515,
65474,
38,
65486,
65461,
22,
65478,
71,
65462,
16,
65534,
27,
65479,
65498,
65495,
28,
14,
36,
65482,
65461,
64,
65442,
65462,
65502,
45,
65490,
2,
65468,
65441,
44,
66,
65494,
65511,
88,
82,
27,
288,
202,
170,
252,
202,
219,
151,
161,
191,
130,
216,
143,
78,
111,
155,
65523,
70,
219,
87,
60,
109,
33,
64,
163,
32,
57,
209,
65475,
196,
61,
220,
120,
96,
215,
123,
249,
65531,
65473,
65522,
65523,
65451,
65450,
65450,
8,
25,
0,
16,
29,
65531,
65480,
65508,
46,
65496,
65527,
65507,
57,
78,
65476,
20,
85,
65462,
70,
65484,
70,
36,
65455,
40,
12,
83,
65516,
75,
54,
23,
65509,
133,
65518,
65483,
2,
65455,
65504,
65474,
65341,
65454,
65436,
65467,
65429,
20,
65465,
65473,
60,
65520,
65263,
65515,
65403,
65468,
65532,
20,
65391,
14,
65484,
123,
0,
20,
65416,
13,
108,
102,
40,
65482,
65503,
89,
65476,
65462,
65500,
65512,
65492,
65446,
46,
65469,
65517,
37,
21,
36,
53,
65513,
65501,
65528,
69,
8,
65455,
65439,
65466,
65485,
65469,
65458,
39,
65445,
65520,
65478,
9,
84,
65527,
89,
92,
65530,
40,
1,
65534,
65484,
41,
65483,
65471,
65477,
43,
28,
65431,
39,
65486,
65514,
65433,
25,
65416,
65414,
65484,
65528,
1,
65465,
10,
65449,
65535,
65428,
33,
18,
65506,
65420,
3,
65416,
65475,
30,
65431,
65382,
65519,
65453,
65428,
65388,
65399,
41,
65426,
65505,
65371,
65371,
65461,
13,
65527,
65534,
57,
65535,
65517,
65520,
65498,
35,
65525,
4,
65496,
65448,
65514,
65469,
5,
66,
65522,
65413,
65511,
65449,
65476,
65529,
65465,
65527,
65418,
65535,
59,
65535,
65461,
65533,
65365,
65461,
65469,
65517,
65330,
65449,
65372,
23,
65508,
65298,
65374,
65449,
65517,
65469,
97,
65362,
65412,
65449,
65352,
65479,
65534,
65435,
65535,
65453,
65475,
65394,
65373,
65414,
80,
57,
65440,
56,
13,
65520,
34,
65525,
65495,
65450,
188,
84,
111,
106,
22,
48,
72,
65520,
133,
28,
65451,
57,
117,
34,
5,
118,
150,
18,
141,
134,
65499,
108,
36,
65464,
60,
139,
91,
65530,
65400,
65487,
65483,
65507,
65420,
11,
65473,
65498,
65465,
65468,
65462,
65451,
65479,
65471,
65474,
65467,
9,
65392,
65453,
40,
65492,
28,
65491,
65499,
65352,
65528,
65493,
65485,
65383,
65435,
65411,
27,
65391,
65488,
65497,
161,
55,
165,
52,
85,
52,
66,
91,
38,
42,
168,
17,
111,
56,
65465,
84,
13,
129,
25,
93,
98,
65525,
98,
145,
159,
13,
115,
65473,
37,
91,
174,
63,
186,
79,
168,
77,
208,
231,
134,
95,
143,
213,
292,
200,
194,
165,
131,
192,
233,
194,
159,
61,
290,
253,
221,
124,
118,
52,
230,
172,
187,
251,
65516,
65524,
104,
95,
288,
117,
139,
159,
133,
65531,
87,
62,
65461,
65531,
65455,
67,
65488,
65489,
80,
11,
58,
65461,
43,
65518,
7,
51,
65449,
65491,
65517,
9,
22,
84,
65458,
63,
37,
35,
65445,
65496,
42,
20,
60,
65486,
44,
10,
65512,
47,
336,
185,
132,
157,
132,
104,
253,
61,
65499,
24,
189,
62,
93,
65503,
65491,
65502,
108,
90,
22,
65534,
65503,
89,
65518,
22,
142,
125,
119,
122,
132,
131,
140,
37,
188,
145,
186,
184,
65279,
65373,
65521,
65412,
65348,
125,
65376,
65462,
65455,
65533,
161,
83,
65459,
46,
87,
90,
18,
29,
59,
83,
2,
135,
118,
17,
65379,
65498,
65454,
65409,
65503,
65444,
65411,
65468,
65435,
65420,
65400,
65345,
65369,
65355,
65377,
65492,
65342,
65363,
65503,
65458,
65456,
65476,
65422,
65486,
65344,
65494,
65529,
65408,
0,
65508,
65379,
65380,
65472,
65511,
65528,
65430,
65443,
65483,
65455,
65434,
65439,
65488,
65386,
65442,
65514,
65364,
65360,
65349,
65330,
65437,
67,
65452,
65517,
65409,
65248,
65387,
65457,
65532,
65476,
65508,
65443,
4,
65522,
2,
31,
25,
88,
29,
21,
32,
65475,
161,
65517,
65512,
16,
106,
137,
29,
65300,
65454,
65490,
14,
94,
41,
65502,
25,
65494,
64,
57,
83,
65444,
59,
65462,
27,
38,
65455,
65503,
65511,
65479,
65444,
87,
86,
4,
8,
91,
50,
17,
65469,
82,
24,
18,
38,
51,
2,
48,
47,
36,
3,
27,
53,
65472,
65504,
65446,
31,
59,
65507,
65421,
65427,
65473,
65462,
65448,
65420,
21,
7,
20,
15,
65460,
14,
65438,
65481,
65535,
65509,
65521,
26,
65480,
65458,
34,
65534,
30,
65430,
65413,
65463,
21,
9,
65491,
65510,
65378,
65524,
33,
26,
65512,
58,
65482,
65521,
65400,
37,
16,
129,
65522,
65454,
65521,
65511,
171,
214,
65528,
65525,
16,
65521,
21,
146,
65482,
65527,
65453,
65449,
154,
65501,
65450,
65382,
65493,
65364,
41,
65463,
65407,
32,
65459,
65531,
65450,
65458,
65504,
65482,
65530,
65438,
65432,
65461,
34,
73,
5,
8,
30,
65491,
38,
64,
19,
65456,
65496,
65493,
32,
56,
94,
7,
52,
41,
65421,
91,
55,
4,
69,
65524,
141,
44,
65534,
156,
65534,
108,
52,
121,
85,
40,
178,
36,
95,
16,
65508,
33,
125,
28,
95,
60,
65486,
65493,
24,
71,
137,
21,
22,
65508,
96,
117,
15,
148,
41,
39,
67,
65529,
65395,
65453,
52,
31,
72,
65432,
65394,
65501,
65530,
65464,
65489,
52,
65380,
65528,
57,
16,
65521,
29,
78,
90,
119,
34,
42,
40,
37,
75,
53,
76,
65513,
47,
9,
100,
65455,
65503,
27,
65454,
274,
65489,
65481,
19,
65535,
114,
80,
65462,
132,
45,
53,
65504,
73,
65489,
65519,
65481,
50,
143,
98,
65526,
65535,
65523,
97,
55,
10,
65476,
24,
62,
68,
106,
151,
14,
65508,
163,
66,
218,
31,
40,
90,
51,
65480,
6,
4,
30,
27,
65473,
65466,
65519,
65433,
65502,
41,
65464,
65502,
44,
2,
58,
2,
65442,
0,
65478,
65477,
65520,
65480,
59,
65528,
65453,
65448,
65506,
65501,
65494,
12,
65479,
73,
65483,
31,
65461,
17,
77,
65518,
9,
65436,
60,
65478,
0,
65513,
80,
65527,
65475,
65431,
67,
52,
82,
65484,
65480,
65466,
65507,
65453,
65535,
65446,
65505,
18,
65441,
36,
65458,
17,
65453,
23,
65480,
65512,
46,
135,
136,
32,
2,
65492,
65393,
65292,
65324,
3,
123,
67,
65470,
65389,
65527,
65385,
52,
114,
65412,
65521,
65491,
65527,
87,
145,
65512,
50,
25,
152,
95,
16,
32,
121,
45,
43,
206,
1,
65484,
65397,
65371,
65387,
65485,
65507,
65445,
65481,
65452,
11,
103,
65443,
65498,
8,
87,
68,
13,
65448,
65425,
65506,
19,
68,
68,
65489,
65417,
10,
65490,
65512,
0,
65350,
65404,
65534,
65505,
65482,
65478,
316,
198,
66,
108,
75,
122,
58,
119,
51,
65441,
65446,
19,
141,
65534,
65468,
65468,
65461,
65500,
69,
65479,
65500,
65490,
128,
56,
65470,
65522,
75,
87,
50,
11,
252,
179,
126,
116,
287,
179,
65411,
65517,
65402,
65494,
65380,
65438,
65342,
65431,
65471,
23,
65419,
65343,
65439,
65441,
63,
65469,
65388,
65332,
65485,
65519,
65435,
65527,
65508,
65392,
65514,
65469,
65395,
65481,
43,
65423,
23,
65464,
65454,
65455,
65512,
65460,
65429,
46,
31,
65513,
65489,
65461,
65434,
42,
65534,
36,
40,
65447,
42,
65485,
65454,
63,
65502,
65476,
3,
2,
65519,
65448,
25,
65452,
8,
65487,
65506,
65467,
65471,
65,
65459,
65457,
65533,
75,
65503,
26,
129,
65513,
24,
60,
138,
110,
70,
65482,
65511,
65534,
95,
65419,
82,
65426,
110,
65460,
65353,
3,
65440,
65429,
26,
14,
65453,
65533,
15,
65484,
1,
65405,
65459,
53,
65506,
14,
71,
20,
65508,
185,
65266,
65289,
65423,
65289,
65380,
65287,
65434,
65530,
65507,
65366,
65347,
65474,
65398,
65465,
65426,
65500,
65432,
65352,
65412,
65358,
65390,
65436,
65522,
65334,
65414,
65423,
65463,
65530,
19,
65428,
65335,
65380,
65290,
65362,
65447,
65361,
65412,
65379,
65403,
65531,
29,
65440,
65506,
65345,
65485,
65315,
65533,
65470,
65415,
65375,
65429,
65355,
65490,
116,
65441,
65391,
65524,
65393,
65372,
65447,
43,
65528,
65431,
65421,
65465,
91,
65449,
65471,
65511,
65341,
35,
65472,
229,
88,
65532,
163,
179,
284,
181,
129,
296,
132,
161,
144,
108,
203,
220,
122,
148,
239,
85,
99,
51,
161,
164,
295,
78,
203,
130,
183,
259,
192,
160,
127,
191,
211,
213,
177,
79,
65528,
65426,
32,
98,
56,
75,
43,
65409,
65530,
45,
65457,
65442,
76,
65468,
4,
65509,
65531,
58,
19,
10,
65463,
65528,
48,
55,
4,
16,
49,
65451,
103,
68,
78,
69,
12,
65529,
57,
403,
158,
65473,
92,
65477,
146,
304,
176,
216,
134,
180,
9,
198,
135,
68,
33,
80,
65456,
101,
97,
99,
137,
91,
65353,
140,
65530,
184,
107,
57,
65508,
292,
207,
65437,
26,
65498,
65508,
8,
77,
196,
221,
138,
85,
142,
65535,
78,
91,
87,
227,
92,
84,
12,
49,
120,
112,
126,
38,
78,
143,
65491,
106,
169,
33,
135,
137,
21,
155,
24,
65532,
98,
8,
121,
194,
65454,
65332,
65441,
65411,
65464,
65292,
65480,
65409,
65390,
65415,
65392,
65379,
65493,
65411,
65511,
65426,
65405,
65364,
65382,
65331,
65524,
65498,
65418,
65418,
65420,
1,
65471,
65408,
65451,
4,
65317,
65467,
65304,
65341,
65496,
65353,
65299,
65426,
65423,
65459,
65501,
65481,
65473,
65472,
48,
65486,
36,
13,
65397,
49,
65511,
65507,
12,
65476,
32,
65533,
11,
130,
29,
58,
65494,
65498,
29,
96,
0,
51,
65338,
65354,
65316,
65390,
65461,
65320,
65465,
65391,
65492,
65336,
65454,
65374,
65523,
65459,
65410,
65427,
65353,
65431,
65437,
40,
4,
58,
65491,
65412,
65446,
65529,
36,
99,
55,
65397,
65482,
10,
57,
64,
65507,
65369,
65449,
65445,
65495,
65367,
20,
65523,
65378,
65353,
65504,
65469,
65408,
65344,
65507,
65479,
65414,
36,
65463,
65485,
65390,
65503,
65406,
16,
65515,
65392,
65413,
65480,
65436,
65404,
65423,
65447,
65476,
65505,
65465,
65415,
65399,
30,
65427,
65398,
65457,
65534,
65420,
65477,
65503,
65369,
14,
157,
69,
65535,
65506,
65427,
65397,
105,
45,
225,
65477,
38,
55,
47,
168,
331,
65516,
136,
65501,
43,
85,
130,
56,
196,
51,
174,
209,
81,
65531,
32,
72,
61,
203,
65525,
65497,
65504,
63,
65531,
46,
65495,
35,
65454,
65487,
30,
65464,
86,
65501,
65528,
55,
10,
65492,
65509,
65466,
65463,
1,
51,
45,
16,
65474,
65505,
4,
65471,
53,
113,
19,
65509,
65488,
83,
32,
128,
65482,
65393,
65346,
65465,
65511,
65355,
65476,
65428,
65452,
15,
65439,
65437,
46,
65440,
65463,
6,
65315,
65472,
65507,
65463,
65437,
65486,
65343,
39,
65363,
65439,
65463,
65415,
65497,
65421,
65280,
65366,
65374,
65359,
65470,
65453,
65502,
65408,
65457,
65423,
65399,
65314,
65409,
65419,
25,
65421,
65386,
65201,
65381,
65340,
65467,
65402,
65402,
65318,
65422,
65401,
65387,
65453,
65417,
65312,
65478,
65389,
17,
65342,
65308,
65399,
65416,
65413,
65519,
65469,
3,
14,
65390,
65470,
92,
60,
4,
65421,
65506,
65535,
65522,
65447,
65519,
65489,
58,
65524,
51,
54,
65450,
65506,
65436,
65517,
65527,
48,
65519,
65457,
65495,
65534,
0,
81,
65490,
65375,
65434,
21,
73,
65429,
65413,
65462,
65494,
65455,
43,
34,
20,
75,
65488,
65508,
80,
65504,
33,
65477,
65473,
65451,
65443,
47,
23,
61,
77,
65471,
65514,
8,
65496,
77,
65483,
65493,
65514,
84,
65447,
98,
48,
27,
65503,
57,
11,
96,
174,
187,
147,
68,
244,
223,
96,
119,
15,
34,
151,
160,
38,
5,
65529,
94,
31,
67,
201,
27,
107,
65468,
32,
209,
50,
57,
54,
61,
65490,
201,
158,
65527,
159,
33,
152,
218,
65419,
65381,
65450,
65471,
65458,
65496,
0,
10,
65459,
57,
65384,
65458,
65413,
65413,
15,
55,
16,
65414,
65432,
16,
65514,
36,
65535,
65483,
65517,
62,
61,
65485,
65451,
65448,
65525,
65440,
65520,
65416,
65439,
65362,
99,
65491,
30,
29,
65531,
65477,
65459,
77,
138,
58,
65518,
65306,
34,
65472,
65503,
96,
65340,
65426,
65460,
21,
65448,
65425,
65527,
65533,
65440,
65522,
58,
30,
65532,
6,
94,
65533,
76,
128,
211,
125,
31,
143,
174,
65502,
65529,
27,
115,
95,
69,
10,
65525,
45,
127,
170,
136,
7,
125,
113,
118,
41,
73,
153,
106,
139,
2,
37,
139,
65529,
65472,
136,
26,
5,
65487,
65504,
67,
104,
65511,
47,
8,
18,
24,
65447,
31,
65470,
31,
65451,
81,
39,
46,
8,
70,
59,
10,
55,
81,
65470,
50,
65525,
65472,
16,
78,
65506,
65494,
78,
81,
65516,
65473,
37,
65486,
58,
65442,
65513,
271,
142,
276,
260,
174,
193,
172,
190,
130,
199,
53,
62,
258,
152,
140,
44,
40,
145,
125,
80,
12,
58,
23,
163,
113,
110,
55,
149,
95,
178,
250,
108,
326,
217,
284,
328,
65355,
65432,
65454,
13,
65444,
65425,
65417,
65449,
65512,
65472,
65462,
65463,
65531,
6,
65530,
65442,
65443,
65483,
65408,
0,
65520,
50,
33,
65355,
65403,
65421,
65378,
65456,
65522,
65532,
65488,
65384,
65480,
65518,
65411,
65418,
65468,
65448,
80,
80,
65513,
65440,
65464,
65495,
65472,
65481,
74,
65514,
12,
65493,
13,
65513,
15,
65533,
65505,
47,
23,
57,
65524,
65438,
35,
65438,
65477,
65476,
65524,
65442,
65535,
65491,
17,
11,
65467,
58,
65390,
65505,
65470,
65359,
40,
65424,
65467,
65495,
40,
6,
65447,
65320,
17,
65507,
65526,
42,
65455,
65514,
65513,
65369,
65459,
65534,
65468,
65453,
65446,
65460,
2,
65522,
65308,
4,
65523,
12,
65312,
65439,
65491,
16,
28,
65446,
65469,
38,
65481,
65454,
80,
14,
65519,
65472,
65432,
64,
14,
65505,
119,
117,
88,
99,
44,
100,
82,
71,
36,
73,
85,
65532,
65479,
42,
65525,
32,
65465,
65465,
65491,
65487,
65523,
65391,
65383,
65317,
65402,
65416,
65503,
65347,
65441,
0,
65527,
65497,
65432,
65401,
65427,
65417,
65507,
65487,
65506,
65300,
65336,
65391,
55,
58,
65530,
65322,
65386,
65433,
65385,
65482,
65528,
65342,
65437,
65519,
65515,
65362,
6,
65289,
65535,
65381,
65364,
65470,
65371,
65372,
65496,
65462,
65524,
65437,
65521,
65412,
5,
65484,
65442,
65514,
65386,
65488,
65487,
65475,
65478,
65520,
65469,
65488,
65500,
65415,
65479,
65356,
65459,
65518,
65498,
65454,
65459,
65466,
65490,
8,
54,
65472,
65426,
65463,
65514,
65438,
15,
26,
65473,
65468,
65420,
65512,
65526,
65432,
60,
65445,
4,
65522,
65519,
58,
65496,
45,
65493,
65381,
65496,
65532,
70,
65515,
31,
65479,
12,
65469,
36,
43,
65447,
65457,
65481,
65,
65473,
65449,
65487,
0,
41,
12,
65522,
37,
65504,
15,
44,
65494,
88,
65490,
11,
93,
65465,
65484,
32,
39,
6,
65462,
90,
65490,
44,
13,
65465,
65463,
9,
41,
65460,
65491,
65481,
65498,
65504,
88,
65476,
65447,
65448,
65499,
65463,
65520,
65448,
76,
65448,
65446,
65448,
65483,
68,
87,
65494,
65473,
65532,
65483,
44,
65440,
35,
44,
14,
0,
73,
65474,
65499,
65526,
65491,
52,
65464,
70,
65525,
65522,
65501,
31,
65500,
65420,
6,
65533,
46,
62,
69,
65506,
65469,
9,
65530,
21,
65508,
65494,
65426,
65442,
34,
65513,
32,
10,
95,
65435,
65487,
56,
65481,
19,
65504,
65428,
65443,
99,
72,
95,
89,
50,
44,
65482,
17,
65507,
65423,
65384,
65494,
65443,
65461,
10,
16,
65421,
65490,
65479,
65405,
20,
65361,
65323,
65534,
65393,
65412,
65501,
65432,
65348,
65454,
65442,
65446,
65535,
65439,
37,
65491,
65530,
75,
65471,
59,
65490,
25,
153,
85,
165,
137,
236,
65509,
65521,
35,
169,
135,
240,
100,
30,
30,
83,
255,
347,
39,
11,
70,
99,
248,
109,
127,
159,
0,
66,
193,
187,
151,
32,
38,
21,
30,
14,
110,
65517,
65526,
65528,
65527,
65473,
65493,
70,
78,
75,
93,
65530,
65478,
65526,
72,
68,
7,
65455,
65447,
8,
72,
78,
65468,
80,
65519,
65495,
65429,
65477,
65502,
65451,
198,
43,
79,
108,
16,
20,
65435,
65491,
65398,
65471,
65443,
65530,
65408,
65452,
65455,
65460,
65489,
65385,
65365,
14,
65518,
122,
65490,
65506,
65410,
65494,
130,
27,
70,
60,
65428,
65475,
65378,
65487,
65358,
65363,
65361,
65341,
65313,
65310,
65271,
65421,
65503,
65464,
18,
6,
21,
65410,
65416,
65443,
33,
30,
65427,
65445,
65518,
65432,
65488,
65479,
48,
65402,
58,
18,
66,
65489,
65463,
65512,
10,
65518,
76,
64,
65446,
11,
65456,
32,
65475,
65476,
65434,
65427,
65517,
65388,
65501,
79,
65445,
65374,
14,
65449,
65454,
65483,
65493,
65516,
65449,
65464,
65387,
1,
27,
65415,
65461,
65389,
65460,
8,
65379,
65461,
65489,
65490,
65360,
7,
128,
65525,
65449,
32,
65470,
65497,
122,
108,
15,
65498,
65414,
65376,
65485,
26,
195,
98,
96,
78,
26,
65499,
65529,
73,
131,
155,
45,
65480,
21,
170,
65506,
57,
65496,
65346,
65486,
5,
65522,
27,
65424,
65446,
65497,
65447,
65416,
65498,
65346,
65403,
65359,
17,
65446,
65397,
65514,
65459,
1,
65497,
65460,
65438,
65448,
0,
65445,
65528,
30,
56,
65396,
65529,
9,
65512,
65527,
65467,
65446,
65535,
60,
65408,
65507,
65494,
19,
30,
0,
65475,
65439,
65428,
10,
12,
138,
86,
31,
65515,
65489,
99,
76,
65519,
99,
46,
65502,
65469,
148,
2,
65518,
3,
108,
65533,
78,
65518,
75,
65484,
75,
65400,
65529,
65526,
125,
23,
65527,
65466,
80,
135,
65503,
65482,
65480,
46,
256,
19,
85,
65394,
65492,
172,
110,
137,
60,
68,
65450,
92,
114,
53,
42,
65453,
65516,
15,
29,
52,
87,
83,
65477,
65321,
65387,
65515,
69,
47,
65489,
65468,
65468,
65462,
65437,
65470,
65434,
65407,
65498,
65507,
65531,
65420,
65370,
65451,
95,
17,
65483,
65313,
65351,
65411,
65421,
65523,
2,
65475,
65326,
65432,
65473,
65418,
65428,
65406,
65307,
65396,
65469,
65348,
59,
65481,
65517,
65407,
65344,
65530,
86,
65482,
46,
143,
26,
65493,
40,
65454,
65343,
65391,
18,
65482,
65415,
65372,
65384,
65379,
4,
44,
65471,
65508,
65453,
65398,
32,
65466,
65503,
5,
65520,
65426,
65430,
65417,
65491,
58,
65512,
65479,
65383,
7,
65531,
65447,
65455,
65520,
65500,
12,
65407,
20,
3,
65346,
65395,
40,
49,
19,
65432,
65320,
25,
20,
65449,
65473,
65502,
65393,
65455,
65459,
65533,
67,
65496,
65482,
43,
65436,
65473,
65430,
65422,
25,
39,
23,
65385,
65454,
65522,
65440,
65473,
65371,
65407,
14,
53,
65495,
65457,
65447,
65271,
65348,
65407,
65504,
65434,
65401,
65438,
65459,
65436,
65422,
65476,
65516,
65464,
65424,
65395,
65427,
17,
65387,
65429,
65472,
92,
65478,
65493,
65508,
65522,
10,
14,
65517,
65482,
58,
73,
1,
65456,
40,
50,
0,
65455,
65504,
65525,
65488,
64,
65531,
69,
65479,
65505,
65490,
65518,
79,
65470,
65521,
85,
65506,
46,
21,
26,
65498,
80,
65468,
65535,
65454,
65471,
49,
11,
65469,
65253,
65325,
65308,
65329,
65373,
65438,
65345,
65381,
65445,
65460,
65528,
27,
65343,
65497,
65488,
65453,
65,
105,
65394,
52,
65461,
35,
132,
59,
65499,
65395,
65474,
65460,
65518,
17,
65327,
65382,
65318,
65347,
65517,
65368,
65535,
65460,
65514,
65534,
65461,
65423,
65521,
65503,
68,
65445,
38,
65361,
65423,
65520,
65442,
65501,
65391,
65396,
65473,
65504,
65519,
42,
65483,
65437,
65463,
9,
65482,
65482,
65367,
65508,
65424,
65416,
65522,
65502,
65334,
65418,
118,
5,
52,
65442,
65393,
65416,
65465,
65502,
51,
65427,
65535,
65395,
65504,
65523,
5,
65520,
65412,
65512,
65369,
12,
65509,
85,
65497,
65450,
65427,
65529,
26,
65480,
65518,
65404,
3,
78,
50,
65413,
44,
65483,
7,
38,
65447,
34,
21,
65505,
20,
37,
65525,
87,
65446,
65523,
65534,
65517,
72,
65475,
106,
56,
65532,
52,
55,
65500,
49,
65493,
4,
10,
65453,
65490,
47,
65525,
65510,
65529,
65472,
65456,
65500,
65433,
65535,
97,
153,
110,
132,
205,
60,
29,
141,
176,
288,
220,
159,
202,
144,
77,
122,
284,
114,
220,
45,
80,
68,
191,
112,
218,
125,
139,
161,
87,
130,
52,
123,
151,
62,
185,
65511,
56,
65520,
43,
53,
28,
7,
67,
62,
15,
57,
60,
65468,
65457,
65509,
65482,
68,
60,
65532,
86,
65469,
52,
65,
3,
42,
83,
65449,
31,
73,
65477,
65451,
34,
10,
14,
65437,
21,
65430,
65471,
29,
65490,
16,
0,
65465,
65479,
65505,
65503,
65507,
65473,
46,
65475,
65471,
65509,
65524,
48,
65525,
65414,
65487,
41,
65462,
24,
65514,
65441,
46,
65508,
65501,
41,
65443,
45,
65490,
65483,
38,
90,
65350,
65285,
65359,
65511,
65486,
65505,
65317,
65356,
65500,
65494,
65504,
26,
65356,
55,
0,
52,
112,
65,
65409,
65526,
13,
67,
97,
3,
65316,
65474,
65525,
97,
64,
65530,
65337,
65328,
65354,
65410,
65416,
65361,
33,
65468,
101,
20,
65470,
65480,
65534,
65527,
65488,
33,
65446,
65453,
65466,
65523,
65502,
118,
58,
65502,
31,
28,
47,
97,
89,
65524,
65510,
65503,
65507,
55,
65467,
54,
65533,
82,
24,
65535,
69,
100,
327,
122,
200,
102,
82,
117,
153,
85,
113,
216,
208,
93,
126,
160,
65501,
65535,
25,
50,
69,
201,
65457,
50,
167,
156,
120,
47,
88,
16,
185,
177,
248,
149,
84,
117,
93,
167,
131,
16,
138,
82,
151,
95,
128,
2,
100,
111,
219,
139,
78,
49,
23,
65535,
3,
161,
86,
65508,
65517,
65486,
22,
149,
85,
129,
65523,
65531,
65457,
72,
65481,
65478,
65487,
65513,
65489,
69,
65412,
18,
65452,
19,
62,
34,
65470,
65404,
65527,
2,
20,
65530,
65496,
65475,
65435,
0,
32,
20,
65535,
65525,
65448,
12,
65506,
65533,
10,
31,
32,
65470,
106,
65502,
15,
65410,
65498,
65506,
65519,
65426,
118,
116,
205,
119,
65530,
233,
89,
132,
65534,
130,
170,
234,
77,
131,
58,
114,
156,
213,
65535,
220,
158,
112,
177,
197,
65513,
157,
127,
246,
150,
85,
117,
65523,
26,
142,
114,
119,
