memory_initialization_radix=10;
memory_initialization_vector =
19,
65325,
28,
65526,
65522,
65411,
238,
49,
106,
316,
74,
128,
57,
65494,
202,
25,
65502,
53,
67,
25,
175,
149,
65527,
83,
65503,
228,
204,
219,
218,
33,
55,
65341,
195,
185,
65535,
65464,
65467,
17,
175,
165,
65445,
52,
62,
22,
198,
156,
50,
73,
117,
65471,
85,
201,
65464,
65412,
4,
65495,
65355,
65458,
79,
65336,
65479,
5,
65392,
65510,
65526,
18,
65469,
54,
65494,
65431,
65360,
65369,
28,
26,
150,
157,
65520,
65246,
85,
309,
364,
483,
137,
65353,
34,
237,
260,
309,
123,
65251,
65469,
65468,
34,
294,
112,
65427,
65429,
65498,
55,
229,
65533,
21,
65404,
65494,
65392,
65451,
65509,
65468,
65450,
65514,
65489,
65340,
65307,
65527,
65300,
65087,
65199,
65213,
65496,
65503,
65319,
65112,
65113,
65136,
65397,
60,
65395,
65183,
65151,
65179,
65527,
65339,
65441,
65322,
65197,
65241,
65452,
65349,
65524,
65443,
65266,
65251,
65343,
65433,
65532,
33,
83,
19,
6,
10,
65485,
28,
65491,
65521,
65469,
65455,
68,
65493,
29,
65456,
65440,
65535,
4,
65456,
65529,
87,
5,
65457,
42,
20,
65486,
65478,
21,
65487,
65514,
65529,
65528,
65457,
65514,
65473,
65405,
65441,
65498,
65498,
65309,
65216,
65389,
65486,
65529,
130,
65514,
65268,
65415,
65484,
65443,
65303,
49,
65361,
65335,
65244,
65284,
65299,
65447,
65216,
3,
65382,
65456,
65393,
65390,
65214,
65497,
65406,
65283,
65252,
65302,
65157,
65407,
65421,
25,
313,
157,
65420,
306,
230,
352,
487,
331,
201,
214,
8,
93,
126,
176,
127,
65422,
65488,
65404,
65469,
96,
13,
65458,
65415,
2,
65500,
45,
92,
65462,
65293,
65355,
65436,
65451,
65415,
65508,
28,
65378,
65524,
65372,
65508,
65436,
65338,
65239,
65352,
65336,
65523,
66,
65355,
65527,
65437,
65463,
3,
43,
65518,
65515,
64,
3,
65415,
65493,
129,
65499,
29,
97,
65386,
65487,
65427,
42,
85,
65460,
65496,
15,
31,
174,
90,
39,
281,
50,
5,
65500,
65513,
25,
147,
77,
91,
65523,
66,
96,
173,
65485,
67,
65504,
52,
65516,
186,
67,
81,
65532,
57,
75,
197,
52,
90,
86,
27,
84,
155,
65502,
94,
130,
55,
76,
120,
65520,
103,
231,
122,
101,
1,
40,
130,
76,
290,
209,
87,
307,
135,
65446,
169,
121,
247,
207,
155,
65518,
115,
6,
231,
241,
14,
170,
137,
167,
189,
87,
5,
65459,
65464,
63,
60,
65479,
65499,
65478,
65436,
10,
40,
65494,
65440,
65504,
48,
65507,
39,
82,
67,
66,
67,
46,
65534,
24,
65482,
65434,
65533,
65457,
51,
65471,
65440,
65501,
65497,
46,
65432,
65258,
65285,
65063,
65359,
65249,
65038,
17,
65475,
65436,
65356,
65472,
65350,
56,
75,
65471,
65381,
65499,
65513,
65514,
168,
65435,
65528,
65431,
65489,
65488,
104,
23,
65437,
32,
65392,
65455,
65321,
65450,
65467,
65366,
65222,
65510,
106,
65377,
65507,
65416,
65442,
65443,
65299,
65347,
65399,
11,
42,
65506,
22,
65523,
65426,
65453,
54,
101,
186,
129,
65491,
83,
44,
107,
65516,
65440,
65472,
65494,
4,
65499,
65521,
65474,
65478,
65517,
88,
65517,
65521,
140,
65521,
65385,
65260,
70,
20,
67,
65304,
65287,
65525,
65470,
65212,
291,
130,
65519,
46,
65473,
347,
485,
372,
65480,
175,
65235,
140,
403,
208,
36,
65533,
65217,
8,
65344,
65282,
65281,
65349,
158,
70,
142,
183,
93,
117,
65522,
256,
107,
98,
65474,
183,
40,
85,
168,
361,
22,
190,
78,
173,
231,
126,
124,
198,
14,
53,
121,
103,
77,
206,
108,
186,
253,
221,
197,
300,
71,
65435,
65479,
65516,
65480,
35,
65467,
65313,
65510,
65311,
65486,
37,
65388,
65407,
12,
65239,
65216,
65259,
65369,
50,
138,
65495,
65377,
65198,
65475,
65518,
65488,
65519,
65426,
65307,
65473,
65423,
84,
39,
65476,
65378,
11,
65480,
65491,
65425,
65458,
65382,
65431,
60,
146,
65502,
65427,
65407,
65455,
41,
56,
65473,
16,
65360,
65453,
31,
65510,
65479,
65459,
65337,
23,
8,
65409,
65438,
65471,
65466,
65420,
65489,
65381,
65450,
65381,
65363,
33,
3,
65492,
65469,
65317,
65146,
61,
45,
13,
65273,
65158,
65335,
65361,
65365,
118,
117,
65425,
34,
65225,
62,
543,
357,
65442,
65379,
65401,
65464,
382,
263,
65473,
65437,
31,
65508,
65461,
2,
65303,
65529,
230,
171,
130,
56,
208,
326,
65465,
65439,
106,
138,
168,
116,
65363,
65255,
121,
182,
49,
65464,
65532,
65523,
297,
142,
66,
220,
65447,
190,
81,
157,
243,
243,
65444,
65405,
65475,
65344,
26,
65474,
97,
65367,
10,
65341,
65466,
65140,
36,
65190,
13,
31,
123,
65361,
65396,
65237,
65532,
65500,
65215,
65188,
65325,
26,
108,
77,
65501,
65455,
65476,
29,
246,
130,
65388,
65329,
67,
65454,
99,
243,
65529,
65173,
65386,
65249,
65053,
65231,
65218,
65111,
59,
65497,
65367,
65396,
65416,
65399,
24,
65528,
65465,
65235,
65437,
65372,
65524,
20,
65356,
65527,
65527,
65463,
65482,
67,
65478,
65491,
50,
65419,
65426,
65290,
42,
19,
65327,
65398,
243,
65457,
65445,
30,
65466,
191,
406,
183,
232,
65528,
65496,
69,
132,
171,
207,
106,
247,
263,
140,
256,
62,
224,
73,
318,
162,
119,
123,
99,
53,
250,
273,
37,
186,
182,
100,
316,
16,
241,
135,
65490,
65452,
65483,
163,
65427,
65403,
65379,
65469,
65374,
1,
65531,
65318,
65470,
65344,
65385,
65335,
93,
14,
65435,
65295,
65517,
65456,
44,
65454,
65393,
65358,
65305,
82,
184,
65504,
65499,
41,
1,
22,
47,
65375,
65458,
3,
30,
65501,
20,
65197,
65281,
65453,
65438,
65342,
65482,
65288,
65298,
77,
32,
65435,
65460,
232,
164,
65387,
33,
183,
65372,
25,
65477,
4,
1,
221,
142,
97,
170,
87,
140,
65442,
83,
57,
232,
249,
230,
186,
167,
65473,
133,
8,
74,
49,
13,
65438,
36,
216,
49,
162,
65473,
65413,
65396,
85,
74,
126,
65468,
65266,
65476,
65470,
276,
147,
111,
35,
65463,
65523,
218,
129,
20,
65488,
65533,
65321,
26,
65525,
65444,
65349,
65259,
65375,
65484,
65374,
23,
65484,
65356,
65146,
110,
65203,
68,
65432,
65473,
65319,
60,
65435,
65503,
34,
65385,
65518,
65455,
186,
65480,
65452,
65434,
63,
222,
65487,
65358,
65322,
65390,
65373,
65454,
65341,
65132,
65155,
65432,
65328,
65419,
65463,
65240,
65333,
65250,
65321,
65505,
8,
65442,
6,
65498,
13,
65441,
65434,
107,
169,
65,
34,
65384,
65435,
65411,
52,
146,
10,
115,
65357,
65397,
65364,
65428,
32,
65409,
65495,
65289,
65251,
65408,
65375,
65311,
65234,
65237,
65346,
65365,
65468,
65390,
65346,
65314,
65517,
65434,
65364,
65359,
65407,
65376,
65407,
65503,
65456,
65306,
65419,
65348,
13,
55,
65509,
65328,
65530,
52,
65491,
65502,
13,
65454,
65463,
65460,
15,
65527,
65436,
68,
65437,
12,
29,
4,
7,
65516,
65441,
37,
65535,
68,
65459,
65521,
65481,
65463,
6,
33,
65533,
65448,
65500,
18,
65472,
38,
65434,
65468,
65316,
65403,
65293,
65394,
65377,
65110,
137,
81,
0,
65343,
65271,
65372,
134,
181,
45,
65366,
47,
22,
66,
207,
65427,
25,
44,
65467,
13,
26,
82,
94,
5,
65369,
65357,
65466,
65419,
65383,
65397,
65409,
65529,
28,
65498,
65479,
53,
48,
65516,
65453,
5,
45,
65533,
65493,
84,
70,
19,
65527,
42,
65466,
28,
65509,
65469,
65446,
65461,
65482,
65481,
22,
57,
65467,
65437,
65454,
65474,
65522,
65491,
90,
65466,
65459,
65336,
65305,
65211,
65386,
65395,
65523,
65343,
65120,
65180,
65358,
65384,
65481,
65500,
65194,
65282,
65207,
65344,
3,
65379,
65478,
65524,
65526,
65523,
65527,
65535,
65498,
71,
65491,
65385,
65338,
65473,
65368,
65532,
159,
65441,
65426,
65471,
65532,
65481,
5,
72,
65457,
44,
35,
65459,
65485,
68,
65485,
65502,
49,
65514,
34,
41,
38,
62,
75,
31,
65495,
38,
65441,
65454,
65477,
57,
65432,
65504,
65458,
18,
28,
65441,
77,
65474,
65477,
127,
62,
20,
176,
73,
142,
56,
39,
65419,
101,
65479,
65487,
101,
65483,
65323,
65428,
22,
65489,
40,
65278,
65253,
65459,
50,
108,
65494,
104,
65468,
98,
65522,
120,
227,
16,
18,
155,
33,
187,
19,
65471,
4,
65451,
65412,
20,
65355,
65294,
65434,
65416,
49,
32,
65316,
65487,
65533,
65483,
65440,
65450,
52,
37,
63,
65503,
65460,
65433,
14,
6,
65463,
65300,
65368,
65437,
65422,
65503,
65510,
65448,
65523,
65433,
65451,
65468,
23,
74,
238,
65509,
65,
65368,
65441,
170,
101,
65436,
65513,
122,
139,
350,
209,
65483,
194,
8,
65234,
11,
243,
130,
80,
237,
107,
9,
341,
149,
65443,
65449,
113,
163,
65499,
65225,
65522,
65472,
45,
105,
65523,
65521,
191,
59,
55,
106,
65496,
12,
248,
154,
96,
105,
65444,
65470,
264,
59,
65373,
65368,
47,
65421,
65394,
55,
65450,
65471,
16,
47,
65445,
87,
86,
65466,
65396,
65124,
347,
82,
24,
20,
109,
168,
65479,
7,
107,
0,
65426,
251,
65471,
33,
65431,
65445,
65514,
197,
115,
65374,
65284,
65220,
158,
43,
53,
65484,
65332,
65440,
65529,
46,
25,
35,
40,
62,
61,
65453,
2,
65456,
65421,
77,
9,
82,
36,
65471,
125,
48,
65516,
65471,
78,
65476,
65519,
65323,
65510,
65523,
65494,
65461,
65464,
65446,
107,
65505,
55,
65450,
65456,
65487,
65501,
65477,
65377,
65321,
65358,
65445,
65488,
65474,
215,
45,
65475,
18,
65362,
65197,
94,
6,
69,
204,
126,
65450,
65449,
65491,
348,
362,
35,
65395,
65531,
522,
396,
218,
50,
65472,
65448,
65406,
177,
65494,
65469,
65489,
65436,
17,
145,
65470,
65259,
65388,
65471,
33,
74,
45,
65499,
65450,
42,
3,
65476,
65504,
65457,
65518,
32,
22,
65526,
65499,
26,
72,
65531,
4,
65512,
55,
65464,
1,
65,
65486,
65527,
65435,
43,
88,
65503,
74,
52,
63,
65446,
65504,
65371,
65430,
65309,
65432,
65273,
65320,
17,
65457,
65434,
65364,
65251,
65371,
111,
78,
65516,
65365,
65527,
65465,
7,
63,
65494,
33,
65521,
65459,
25,
65531,
2,
65431,
2,
65517,
10,
65404,
65416,
59,
65519,
65467,
65417,
65374,
65384,
65361,
65418,
65360,
65528,
65459,
65469,
65478,
65276,
65292,
33,
33,
65340,
65382,
65396,
65451,
65518,
0,
65250,
65329,
65399,
192,
65389,
65254,
65368,
65339,
65323,
65412,
65477,
65417,
65433,
65412,
65530,
36,
235,
65518,
65273,
129,
65404,
65474,
65325,
65434,
65416,
65401,
65500,
41,
65316,
65253,
65231,
65099,
65305,
93,
65412,
65298,
65271,
65363,
65433,
91,
59,
65336,
65433,
65480,
66,
65464,
202,
163,
172,
381,
251,
114,
7,
65439,
4,
65500,
291,
41,
243,
65399,
65529,
65532,
136,
65512,
3,
65454,
143,
209,
71,
65473,
58,
65535,
219,
245,
278,
28,
87,
163,
330,
238,
47,
56,
108,
65427,
134,
332,
215,
65502,
65465,
65490,
65482,
65453,
19,
65475,
20,
65448,
57,
87,
41,
48,
65510,
56,
65480,
60,
65517,
12,
65465,
13,
66,
0,
9,
94,
51,
65527,
59,
65507,
23,
65500,
82,
65490,
65494,
5,
65521,
65517,
65394,
59,
65512,
65448,
180,
157,
65378,
65506,
65453,
117,
274,
135,
19,
65521,
65508,
33,
120,
113,
65517,
16,
65417,
65530,
74,
3,
65533,
45,
65478,
15,
41,
65510,
118,
65412,
65520,
65513,
65480,
78,
87,
65282,
65406,
65322,
65399,
65334,
65424,
65304,
6,
92,
65468,
65426,
65378,
65271,
65424,
65328,
65215,
65356,
65346,
65529,
65512,
45,
65286,
65364,
65482,
65430,
65518,
65497,
65340,
65215,
14,
65390,
76,
136,
2,
65233,
85,
22,
53,
169,
164,
68,
1,
129,
65440,
60,
228,
121,
28,
179,
205,
93,
65517,
31,
35,
280,
185,
65534,
28,
65460,
65534,
65488,
65482,
65412,
33,
65442,
65469,
65497,
65433,
65322,
96,
65457,
65476,
65414,
6,
65501,
65488,
65431,
51,
35,
21,
109,
22,
65477,
65505,
65530,
126,
65521,
65514,
65465,
71,
65503,
65492,
1,
9,
65512,
2,
65472,
6,
8,
65514,
65438,
65437,
65418,
65495,
27,
65481,
65494,
108,
29,
196,
74,
19,
65517,
227,
65516,
106,
273,
196,
65461,
123,
27,
18,
326,
214,
65534,
235,
26,
5,
221,
117,
26,
154,
69,
118,
184,
92,
1,
161,
65443,
93,
106,
65484,
97,
58,
65527,
65401,
105,
65304,
65372,
117,
40,
65431,
65312,
65234,
65324,
65455,
65469,
65481,
65392,
65152,
65533,
65224,
173,
65447,
65447,
65306,
65386,
65338,
65520,
179,
45,
89,
65360,
65490,
4,
65455,
74,
65344,
65324,
80,
38,
65453,
45,
65475,
65522,
65489,
0,
65364,
65419,
3,
65485,
60,
3,
65429,
65434,
1,
65486,
1,
65495,
12,
65433,
65535,
62,
65516,
28,
65534,
26,
65526,
21,
65504,
48,
0,
48,
65449,
65,
65423,
65440,
65402,
9,
65458,
65470,
106,
47,
65461,
65533,
108,
65458,
65525,
65484,
65518,
65413,
65492,
65520,
65446,
65462,
65470,
65446,
65402,
23,
65330,
65444,
65471,
65477,
2,
70,
65477,
65463,
65459,
65439,
7,
51,
65431,
21,
65322,
65186,
65364,
65441,
65448,
65484,
65256,
65289,
65274,
65464,
65305,
65310,
65355,
65400,
65397,
65305,
65426,
65287,
65403,
34,
85,
18,
65415,
65387,
65447,
65501,
13,
65464,
65452,
65485,
65529,
74,
65507,
21,
65489,
65410,
65504,
65,
65523,
65376,
65470,
55,
417,
231,
65413,
37,
65522,
159,
184,
419,
65402,
100,
65493,
370,
357,
64,
161,
65317,
65232,
78,
440,
146,
56,
65,
65307,
65504,
65338,
65388,
65416,
65337,
65279,
65445,
65359,
65441,
65376,
65312,
65341,
65268,
65211,
65372,
65453,
10,
66,
65389,
65488,
65281,
65480,
7,
65521,
162,
65461,
65446,
65529,
65524,
65472,
65481,
65527,
65409,
65526,
65377,
65467,
65425,
13,
77,
65463,
65297,
102,
125,
157,
161,
132,
368,
61,
201,
199,
49,
34,
169,
171,
143,
58,
104,
133,
187,
140,
186,
112,
31,
55,
69,
85,
75,
193,
106,
161,
338,
143,
110,
131,
69,
200,
173,
181,
45,
65451,
65490,
65466,
39,
65473,
41,
65524,
65395,
65506,
9,
65337,
123,
65533,
82,
8,
65426,
65410,
38,
61,
58,
17,
65512,
65482,
35,
78,
65522,
65434,
65442,
65440,
65469,
65491,
41,
95,
29,
66,
206,
65413,
49,
36,
254,
65399,
65421,
65360,
65437,
65398,
63,
65377,
65344,
65387,
47,
65458,
93,
65236,
26,
24,
65450,
65522,
87,
26,
15,
65444,
65415,
65493,
108,
30,
65467,
65472,
65439,
14,
49,
388,
63,
60,
17,
72,
65519,
65175,
65317,
65418,
78,
186,
65426,
106,
65430,
65345,
65390,
65473,
197,
124,
65531,
65384,
2,
19,
124,
85,
65524,
65504,
65455,
80,
26,
145,
50,
168,
318,
323,
281,
246,
42,
65452,
65520,
63,
75,
65383,
65532,
65396,
94,
65496,
205,
65493,
65416,
65363,
65435,
65458,
187,
97,
65163,
65278,
65389,
226,
65510,
65431,
2,
65456,
65480,
78,
34,
65480,
65506,
91,
30,
35,
63,
65435,
65204,
65239,
65463,
65429,
10,
12,
65525,
216,
76,
65424,
65505,
65533,
65450,
141,
65513,
65302,
217,
65173,
334,
196,
243,
65488,
28,
65439,
38,
438,
289,
65491,
65511,
65440,
209,
48,
65328,
65164,
65426,
65497,
35,
125,
65465,
65510,
31,
63,
52,
65534,
65448,
65494,
47,
65403,
65476,
65435,
65513,
65381,
15,
65520,
65417,
19,
65474,
65436,
65501,
50,
84,
65466,
4,
65531,
65492,
78,
65453,
65527,
18,
63,
55,
18,
65448,
228,
124,
29,
65468,
3,
145,
239,
22,
65520,
65422,
179,
337,
232,
151,
18,
120,
134,
18,
65456,
65420,
14,
172,
65533,
65514,
65413,
26,
141,
35,
65506,
21,
16,
65418,
65442,
33,
15,
22,
65433,
6,
65484,
65359,
26,
115,
100,
223,
44,
65531,
89,
161,
66,
24,
128,
65496,
159,
65464,
65353,
65477,
94,
65392,
48,
65513,
65510,
65415,
135,
65314,
65487,
65462,
65393,
65214,
61,
65351,
65493,
65376,
65529,
65446,
65457,
65466,
65403,
65362,
65466,
65476,
65357,
65410,
65350,
65394,
65390,
65505,
65423,
65326,
65406,
65338,
10,
65436,
65330,
65383,
65434,
65236,
65402,
65423,
65274,
65363,
21,
65474,
65436,
65471,
65353,
65444,
65412,
65494,
114,
65357,
101,
102,
46,
65492,
59,
29,
65517,
21,
65473,
50,
7,
227,
71,
40,
65407,
65490,
122,
135,
65507,
32,
65447,
65432,
20,
7,
7,
180,
108,
65467,
65488,
27,
62,
4,
101,
65499,
12,
78,
65416,
65496,
65467,
65506,
65474,
65349,
23,
65455,
102,
65403,
65331,
65281,
65312,
133,
65364,
65249,
65485,
65422,
65347,
65492,
65389,
65246,
65504,
65481,
65535,
65287,
65333,
64,
65514,
55,
206,
131,
238,
174,
97,
50,
228,
417,
58,
227,
188,
114,
71,
242,
36,
131,
29,
202,
80,
167,
189,
212,
77,
141,
182,
321,
36,
35,
81,
139,
46,
375,
176,
250,
156,
127,
111,
365,
72,
65517,
65470,
65438,
199,
65246,
92,
65505,
251,
271,
198,
65485,
81,
35,
249,
313,
188,
65389,
142,
224,
118,
357,
392,
64,
152,
139,
339,
233,
253,
244,
207,
21,
175,
199,
131,
65507,
65368,
65454,
65510,
27,
65403,
65488,
65398,
65287,
65480,
65530,
57,
65362,
65440,
65473,
65515,
65446,
65432,
65482,
65417,
27,
127,
65489,
0,
65416,
65409,
65491,
16,
65509,
65522,
65347,
65468,
65403,
65406,
65357,
65496,
65395,
65287,
65389,
4,
251,
65529,
65475,
65301,
65344,
65365,
98,
167,
78,
65177,
65180,
65333,
65387,
48,
65304,
65474,
65297,
65059,
65096,
232,
65408,
65424,
77,
65477,
65516,
134,
82,
32,
65363,
65348,
65380,
21,
65459,
16,
112,
65438,
80,
65387,
244,
65410,
65517,
65375,
65357,
65392,
65509,
65400,
65477,
65422,
65390,
65342,
22,
65326,
65486,
65410,
65404,
65340,
65393,
65454,
65366,
65386,
65417,
65346,
65487,
65424,
58,
65386,
65509,
65466,
47,
65470,
65534,
65521,
139,
197,
65532,
167,
196,
403,
455,
159,
279,
100,
243,
303,
215,
169,
174,
68,
112,
65411,
70,
303,
174,
58,
152,
13,
3,
154,
198,
154,
65385,
65513,
65291,
65515,
58,
65489,
65535,
65475,
28,
65448,
80,
52,
57,
65529,
9,
65502,
65477,
65449,
65445,
1,
19,
6,
80,
54,
1,
28,
0,
65477,
65534,
65519,
39,
65520,
65483,
65525,
65484,
44,
38,
65444,
79,
19,
51,
65410,
65438,
65430,
65351,
65315,
65333,
65499,
65444,
65522,
65403,
2,
65349,
65515,
65300,
65311,
65112,
65514,
65200,
65457,
65221,
65140,
65142,
65367,
65231,
65419,
65339,
65291,
65335,
65515,
65135,
65486,
65378,
65251,
65311,
65354,
65222,
65480,
2,
65517,
73,
65474,
65221,
65529,
65429,
65493,
65296,
65236,
65435,
65469,
11,
92,
35,
65429,
65465,
65394,
65478,
65476,
65465,
4,
65257,
65426,
65473,
41,
88,
65491,
65362,
65270,
65493,
65502,
65389,
65396,
65271,
65459,
37,
65476,
85,
123,
102,
88,
65493,
65324,
65327,
65520,
65349,
65474,
65432,
65420,
65298,
65293,
65439,
65012,
65491,
165,
65385,
65474,
65460,
65426,
65384,
92,
65387,
65526,
65301,
65518,
44,
65515,
85,
48,
80,
65497,
65515,
33,
53,
138,
65500,
140,
142,
475,
287,
33,
122,
34,
157,
312,
276,
245,
29,
10,
156,
31,
191,
125,
0,
65436,
139,
42,
238,
65490,
65338,
65277,
17,
65441,
65369,
65329,
65236,
22,
65478,
65524,
65477,
65474,
45,
65533,
65532,
65463,
65518,
57,
65530,
42,
65445,
65437,
42,
65513,
65479,
49,
29,
7,
10,
65514,
71,
82,
65498,
69,
57,
65491,
46,
7,
34,
58,
65522,
33,
20,
65234,
65245,
65149,
65331,
65137,
65188,
5,
65481,
65306,
28,
65213,
65325,
148,
65500,
65523,
65128,
65454,
65395,
90,
65502,
65461,
31,
65499,
65359,
65477,
95,
65459,
65,
65469,
65469,
65452,
65422,
65426,
65520,
65416,
65405,
129,
71,
65521,
65493,
269,
241,
151,
158,
195,
116,
138,
185,
49,
154,
274,
422,
139,
83,
151,
168,
85,
195,
202,
180,
65489,
161,
89,
52,
65509,
264,
12,
47,
89,
108,
65529,
247,
18,
65500,
35,
65484,
18,
14,
65509,
77,
12,
65442,
65488,
42,
1,
68,
4,
65490,
65480,
12,
61,
65507,
40,
65481,
65524,
21,
89,
1,
27,
77,
109,
143,
48,
62,
9,
13,
114,
65499,
120,
115,
65526,
193,
15,
270,
65508,
65436,
65513,
65246,
65371,
54,
65387,
65442,
65337,
65496,
65346,
119,
65135,
65419,
65524,
65446,
65423,
17,
65511,
65300,
65387,
65324,
65201,
65448,
65,
27,
65412,
65283,
65336,
193,
76,
83,
65509,
116,
42,
65443,
65497,
178,
65504,
354,
294,
55,
65362,
86,
203,
221,
65398,
65490,
65420,
470,
225,
201,
51,
65441,
65443,
37,
65497,
65456,
65410,
65239,
65351,
65328,
65513,
65216,
65347,
65466,
180,
32,
67,
65464,
65502,
322,
68,
135,
232,
80,
1,
179,
62,
123,
49,
106,
65521,
221,
155,
171,
65522,
49,
55,
239,
26,
65532,
129,
0,
124,
313,
161,
154,
136,
225,
25,
187,
107,
168,
65523,
65529,
105,
218,
65530,
137,
47,
65451,
65490,
65489,
103,
65493,
65444,
65493,
65458,
85,
65498,
65465,
65508,
78,
65482,
65443,
65472,
2,
65432,
65344,
65483,
118,
65513,
162,
149,
28,
78,
12,
65251,
68,
132,
10,
124,
65482,
125,
65426,
202,
65384,
65386,
30,
124,
135,
305,
175,
65488,
325,
163,
173,
51,
9,
10,
99,
71,
118,
145,
90,
19,
40,
65322,
88,
22,
65399,
65479,
65405,
65521,
77,
22,
37,
31,
65497,
77,
65446,
65501,
65489,
48,
21,
65527,
9,
65490,
65461,
65476,
65478,
32,
63,
65496,
34,
65532,
23,
8,
73,
27,
9,
65444,
65500,
58,
87,
23,
0,
65532,
3,
65461,
65527,
65431,
144,
45,
50,
65535,
65443,
65447,
25,
21,
65522,
65359,
65526,
65480,
65455,
89,
5,
65412,
65506,
65457,
65464,
49,
75,
65453,
65438,
65393,
36,
90,
123,
65497,
65524,
19,
82,
59,
98,
14,
10,
65461,
21,
65348,
28,
43,
65520,
65407,
65496,
65479,
28,
65416,
65500,
37,
65414,
65420,
65450,
65416,
65514,
92,
65479,
65408,
65508,
65432,
61,
65512,
65442,
3,
65408,
65521,
65530,
65497,
65448,
65393,
65493,
152,
179,
47,
65473,
65528,
131,
82,
65520,
65373,
65409,
65513,
65409,
65437,
65394,
65439,
65333,
65319,
65434,
65187,
65493,
121,
2,
58,
65528,
65397,
65333,
65495,
65433,
65388,
65442,
191,
94,
65457,
91,
9,
237,
65305,
65452,
65214,
65470,
65450,
65022,
65412,
65471,
37,
65501,
65508,
65231,
65315,
81,
128,
65500,
65480,
65126,
65332,
65519,
32,
211,
65372,
65201,
65359,
65516,
2,
195,
65386,
65217,
65322,
65452,
65486,
74,
65431,
65217,
9,
72,
65371,
90,
61,
81,
109,
85,
201,
207,
234,
363,
65493,
44,
97,
241,
37,
144,
123,
162,
48,
123,
247,
15,
65393,
22,
205,
179,
24,
4,
65523,
65485,
156,
65429,
65433,
65417,
65332,
65436,
65492,
155,
65428,
65470,
65398,
80,
263,
60,
65454,
65379,
65230,
65476,
85,
65523,
65412,
65383,
65403,
65521,
24,
65526,
65313,
65190,
65089,
65331,
65412,
65408,
65291,
65272,
65300,
65491,
65405,
65109,
65249,
65378,
6,
65470,
65485,
30,
65427,
65360,
65450,
123,
246,
75,
65469,
65486,
65459,
167,
108,
87,
5,
31,
121,
94,
81,
20,
65,
65475,
65515,
112,
65467,
130,
178,
31,
65505,
11,
96,
65471,
65464,
65359,
121,
65478,
152,
65282,
65348,
12,
124,
65453,
65493,
65265,
65328,
65492,
65484,
65463,
65392,
65211,
65211,
65220,
152,
65490,
27,
65531,
65318,
65417,
116,
60,
65350,
65504,
65260,
65179,
178,
27,
22,
209,
64,
65321,
65449,
65526,
213,
215,
65523,
65374,
65346,
229,
218,
24,
65401,
65430,
65343,
73,
52,
65439,
65449,
65400,
65344,
25,
108,
65252,
65278,
65461,
65414,
65377,
65317,
65383,
65437,
65469,
65378,
100,
65385,
65420,
65427,
65389,
132,
33,
83,
41,
77,
72,
65533,
65283,
65328,
27,
33,
46,
65340,
65280,
65235,
65420,
88,
65392,
65485,
65235,
65198,
65296,
117,
14,
67,
65278,
65217,
65236,
65522,
23,
96,
65446,
16,
65356,
65520,
29,
229,
65519,
21,
168,
174,
63,
108,
52,
12,
85,
188,
102,
150,
65505,
65446,
12,
65490,
187,
208,
65271,
65245,
65382,
65521,
65476,
65390,
44,
65348,
32,
2,
65493,
12,
153,
65529,
47,
65422,
65423,
125,
86,
65480,
79,
39,
200,
65455,
65467,
5,
280,
328,
37,
89,
93,
43,
65477,
65527,
58,
65513,
81,
65411,
65301,
65408,
122,
65431,
65411,
65262,
65216,
65416,
12,
31,
65383,
65505,
65322,
13,
278,
65281,
65299,
65427,
43,
65385,
82,
65272,
65341,
65121,
65368,
65527,
89,
65421,
65200,
65295,
65388,
65512,
65474,
65422,
65361,
4,
65509,
65477,
65343,
3,
65522,
73,
65467,
65298,
65446,
65386,
42,
65446,
68,
65382,
65476,
65522,
65383,
65344,
65499,
89,
65500,
65426,
65285,
50,
65498,
65463,
65488,
65318,
65511,
65427,
65439,
65522,
93,
65389,
31,
56,
65412,
65381,
26,
65506,
65446,
65452,
65387,
65430,
65370,
65431,
54,
86,
60,
65355,
23,
65502,
183,
65470,
119,
103,
217,
65529,
133,
65492,
65436,
65526,
83,
65501,
65481,
10,
100,
71,
22,
65358,
94,
62,
65515,
40,
128,
158,
65436,
65408,
25,
65431,
65480,
34,
152,
69,
65478,
65514,
165,
65506,
65442,
65463,
65519,
65443,
65474,
65272,
65466,
65188,
65307,
1,
65455,
65385,
65225,
69,
78,
6,
65427,
65429,
98,
23,
65408,
65384,
65333,
65468,
65368,
65489,
65347,
65398,
65355,
65359,
65479,
65472,
78,
77,
65523,
65533,
65533,
65432,
22,
90,
65494,
59,
9,
65435,
25,
67,
65466,
21,
65514,
65,
65511,
65479,
48,
65502,
65437,
65437,
65474,
65454,
33,
63,
65469,
13,
27,
65434,
20,
65473,
65459,
65535,
18,
65520,
65441,
65386,
65458,
65518,
65405,
65329,
65240,
65455,
65404,
65374,
65234,
65271,
65258,
65447,
65395,
65509,
65377,
65224,
65353,
65199,
65379,
109,
65475,
65308,
65394,
65187,
65329,
65475,
65519,
65416,
65260,
65435,
65323,
65473,
65380,
65464,
65298,
135,
165,
214,
34,
249,
171,
20,
8,
1,
155,
65513,
72,
40,
6,
65426,
65535,
28,
11,
135,
65415,
65520,
65503,
65532,
188,
7,
65509,
65395,
65298,
65463,
65522,
164,
21,
43,
65437,
85,
151,
65316,
65452,
25,
70,
45,
65523,
16,
105,
275,
326,
219,
331,
30,
240,
132,
65450,
65371,
510,
89,
59,
65252,
65381,
125,
65532,
65445,
31,
102,
65519,
65459,
137,
97,
65466,
65434,
72,
65515,
65460,
134,
65499,
72,
89,
67,
16,
29,
20,
61,
70,
4,
65492,
65445,
6,
84,
109,
111,
65,
65432,
65534,
203,
49,
39,
104,
65421,
77,
183,
65431,
141,
66,
57,
170,
25,
1,
76,
105,
65502,
65437,
40,
126,
65502,
65357,
160,
8,
180,
266,
91,
148,
74,
65505,
228,
88,
127,
88,
15,
65468,
113,
239,
155,
106,
23,
21,
149,
214,
127,
65535,
20,
65387,
65530,
65461,
82,
65519,
65482,
30,
65474,
65504,
65414,
65417,
65470,
65495,
65389,
65360,
65301,
65460,
65479,
44,
65239,
21,
65508,
65434,
140,
65472,
78,
35,
65397,
143,
201,
65477,
49,
106,
65503,
73,
94,
295,
6,
223,
125,
65355,
65475,
65414,
65491,
65462,
15,
38,
15,
65516,
65367,
65459,
46,
65454,
38,
65430,
10,
6,
65469,
84,
24,
65475,
14,
26,
65500,
65518,
65528,
65463,
25,
16,
56,
65472,
11,
33,
31,
65517,
58,
65444,
65387,
65445,
65471,
104,
55,
65416,
65359,
65461,
13,
16,
90,
65378,
65306,
65458,
65465,
65507,
65521,
65400,
65444,
1,
5,
65501,
65513,
65411,
65332,
33,
65411,
65333,
65447,
65442,
65453,
0,
65454,
65527,
65461,
65374,
41,
65459,
27,
157,
13,
70,
123,
55,
1,
254,
295,
233,
141,
77,
161,
319,
147,
146,
143,
138,
82,
252,
185,
216,
146,
194,
212,
257,
65,
279,
245,
113,
106,
179,
151,
151,
65460,
65516,
65332,
65282,
0,
205,
204,
91,
65466,
65273,
65364,
65427,
200,
78,
29,
51,
56,
68,
478,
91,
28,
164,
136,
176,
400,
261,
187,
220,
357,
418,
435,
274,
300,
398,
450,
332,
335,
81,
65444,
65324,
65394,
139,
65517,
65518,
65269,
65376,
60,
67,
65462,
65412,
65458,
65146,
65341,
65367,
65443,
65261,
65389,
65247,
65169,
65470,
65449,
65526,
65339,
65122,
65363,
65334,
65448,
65480,
65358,
65363,
63,
65437,
136,
22,
65526,
65428,
65427,
65485,
65449,
65419,
65192,
65306,
65492,
65424,
65393,
65405,
65485,
65470,
65528,
65455,
65408,
80,
216,
43,
65522,
204,
65518,
65504,
54,
65358,
16,
65529,
69,
147,
86,
66,
65474,
65392,
65292,
65447,
65250,
65416,
65380,
65085,
65454,
31,
65474,
32,
65415,
65187,
65456,
65434,
134,
29,
65435,
65277,
65365,
21,
136,
176,
65527,
65189,
65390,
65423,
41,
137,
65476,
65178,
65386,
65394,
65486,
21,
65520,
65274,
