memory_initialization_radix=10;
memory_initialization_vector =
229,
65477,
65420,
65231,
65254,
65490,
8,
65525,
1,
65391,
65462,
65449,
65500,
39,
65502,
65502,
65439,
65487,
65474,
65414,
65487,
25,
65481,
65443,
65370,
65499,
33,
4,
65350,
65401,
65331,
65290,
65407,
65324,
65377,
65489,
65439,
65498,
65531,
45,
65444,
3,
65333,
65495,
108,
65526,
65451,
36,
65365,
65407,
17,
7,
19,
65475,
65367,
65489,
60,
69,
65486,
65500,
65350,
65393,
65508,
65445,
65446,
2,
65472,
65535,
65482,
33,
65478,
48,
78,
65490,
65517,
15,
65367,
65468,
51,
65482,
65518,
88,
65456,
65488,
67,
78,
65393,
2,
65440,
78,
77,
42,
49,
65469,
34,
65526,
99,
1,
12,
190,
22,
1,
65525,
65509,
65497,
65465,
65514,
65490,
65411,
65350,
65389,
65322,
65498,
65423,
65435,
51,
53,
24,
133,
84,
65357,
65490,
65531,
65456,
65481,
65493,
65336,
65460,
65522,
75,
124,
65449,
65321,
65412,
65415,
65533,
9,
65520,
65235,
65313,
65363,
65520,
65482,
65229,
45,
30,
65506,
65476,
70,
65521,
87,
65491,
65467,
86,
65532,
24,
65497,
65485,
65516,
65437,
79,
65482,
46,
18,
41,
6,
9,
7,
65492,
65470,
65525,
52,
25,
65456,
77,
65523,
21,
65518,
76,
65494,
65502,
65386,
65337,
65339,
65376,
65498,
65463,
65523,
31,
65419,
65503,
177,
65411,
65462,
65525,
104,
59,
7,
65364,
65448,
60,
139,
91,
65492,
65470,
65372,
65307,
65389,
65493,
52,
28,
74,
65452,
65488,
65380,
132,
65405,
65480,
114,
150,
65479,
65523,
65440,
65406,
65395,
17,
65476,
65482,
65336,
65289,
65371,
104,
58,
65451,
65534,
65482,
65442,
37,
65425,
30,
65513,
65429,
65461,
65431,
65515,
65535,
65468,
65491,
65472,
65460,
65399,
37,
65533,
65361,
65201,
65056,
65237,
65455,
65530,
12,
65283,
65160,
65237,
65516,
115,
20,
65462,
65452,
20,
65469,
129,
72,
124,
102,
41,
9,
62,
29,
142,
87,
65489,
146,
65382,
65368,
65523,
65452,
65474,
65419,
65414,
145,
168,
286,
298,
65527,
1,
65532,
55,
204,
189,
120,
65419,
42,
58,
65406,
65488,
141,
37,
65530,
65434,
65497,
65492,
35,
78,
65506,
65385,
65458,
65254,
65493,
8,
43,
65478,
11,
65531,
99,
65464,
65456,
65413,
65386,
65480,
17,
65434,
65356,
65444,
65458,
65524,
65440,
65411,
27,
65450,
65530,
65495,
65380,
9,
65452,
65499,
65299,
65528,
65511,
65511,
70,
26,
89,
48,
65461,
62,
134,
40,
9,
131,
65513,
65499,
73,
43,
65506,
65526,
65475,
20,
65490,
49,
65526,
65505,
65526,
65508,
65531,
65473,
65508,
55,
45,
6,
17,
65459,
65483,
65470,
55,
65525,
51,
65498,
34,
65509,
32,
30,
31,
68,
40,
16,
65505,
65269,
65341,
65023,
64953,
65313,
65278,
65500,
65204,
65112,
65066,
65149,
65307,
65525,
65529,
65497,
65509,
65365,
65335,
97,
72,
65515,
65504,
65472,
65470,
78,
144,
113,
212,
165,
155,
65337,
65481,
105,
47,
65377,
65420,
124,
65522,
65310,
65376,
65452,
65471,
115,
65490,
65448,
65498,
40,
65467,
26,
8,
65512,
8,
124,
65503,
130,
46,
65430,
65302,
65509,
65533,
14,
93,
53,
65504,
65471,
6,
65508,
144,
235,
155,
56,
27,
356,
207,
187,
284,
238,
341,
197,
100,
40,
65534,
153,
315,
65447,
0,
65455,
22,
49,
128,
65478,
102,
65455,
65413,
65489,
32,
65394,
65161,
65318,
65193,
65239,
65492,
65399,
65311,
65380,
65296,
65437,
65472,
72,
101,
151,
233,
76,
109,
65530,
65513,
105,
37,
34,
10,
2,
26,
38,
43,
65481,
44,
17,
27,
65513,
65496,
162,
65508,
34,
65529,
101,
126,
65455,
146,
215,
121,
119,
182,
218,
257,
145,
122,
151,
37,
65532,
29,
65475,
17,
106,
197,
65483,
65526,
72,
65519,
47,
128,
100,
48,
56,
65516,
110,
54,
65437,
65458,
65498,
65392,
65519,
65443,
65500,
42,
8,
65356,
65415,
65400,
65533,
65531,
65462,
65430,
65458,
14,
65522,
12,
65463,
65490,
65439,
65463,
65513,
1,
45,
65501,
31,
8,
65409,
65467,
70,
34,
74,
39,
18,
65500,
65528,
64,
67,
41,
65442,
65472,
65467,
65466,
65437,
65493,
65528,
65492,
439,
258,
293,
293,
199,
345,
259,
201,
77,
73,
188,
173,
65515,
236,
99,
65444,
170,
121,
65516,
65532,
65349,
56,
14,
205,
65506,
65106,
65303,
65310,
65268,
65395,
65427,
65283,
65317,
65305,
65474,
65368,
232,
65283,
65259,
65381,
65361,
65438,
210,
65385,
47,
65443,
65514,
65513,
31,
55,
105,
188,
65487,
65384,
105,
8,
74,
65382,
65427,
65447,
188,
185,
211,
65506,
65413,
114,
324,
148,
167,
291,
299,
286,
458,
74,
237,
172,
65416,
72,
161,
27,
94,
382,
15,
64,
141,
229,
65372,
68,
65,
56,
65468,
65534,
93,
65510,
65454,
65341,
65365,
65416,
65495,
6,
65306,
65362,
65403,
65319,
65445,
65425,
65511,
65498,
65319,
65233,
65057,
65030,
65254,
65338,
65438,
65136,
65084,
65029,
65191,
65306,
47,
65493,
65534,
65506,
65305,
65421,
65529,
32,
28,
65487,
65525,
32,
34,
266,
48,
104,
184,
146,
65187,
22,
63,
74,
65337,
65348,
65464,
150,
28,
43,
65502,
56,
135,
65372,
47,
65521,
65310,
65318,
121,
65453,
13,
65339,
65415,
65360,
186,
65395,
65520,
65516,
65305,
65488,
287,
147,
134,
16,
88,
65,
76,
150,
229,
127,
150,
99,
65264,
89,
65408,
65459,
65533,
119,
65388,
65445,
65497,
65524,
65443,
65489,
22,
179,
65495,
65371,
65502,
65509,
39,
174,
77,
9,
93,
8,
65508,
223,
284,
182,
194,
9,
65249,
65526,
65525,
166,
65418,
65220,
65428,
65527,
65425,
65348,
65525,
1,
34,
65326,
65299,
65384,
65259,
65312,
156,
110,
53,
65419,
65251,
65369,
221,
194,
111,
33,
65484,
65462,
213,
221,
189,
45,
183,
57,
25,
211,
107,
117,
65427,
68,
65464,
31,
65478,
65478,
59,
65442,
65376,
65431,
65378,
65485,
65336,
65363,
65338,
65467,
32,
65486,
65524,
12,
65403,
65434,
65391,
65433,
65471,
57,
65526,
26,
65486,
7,
5,
87,
28,
65498,
65526,
65465,
6,
65506,
65414,
165,
319,
161,
104,
129,
65533,
17,
3,
25,
74,
65499,
99,
71,
65416,
65445,
111,
65424,
25,
166,
141,
250,
59,
41,
29,
65354,
48,
87,
238,
67,
65320,
65521,
65521,
148,
4,
65396,
35,
65167,
65130,
65070,
65146,
65337,
134,
65448,
65410,
65435,
9,
65399,
214,
65514,
60,
81,
109,
65357,
65530,
65425,
65,
65509,
65363,
65405,
44,
119,
65445,
65383,
65471,
65465,
65516,
2,
139,
65486,
65442,
65442,
122,
65354,
65253,
65155,
65343,
65510,
69,
55,
15,
65498,
65471,
65372,
34,
72,
65427,
63,
66,
65380,
11,
65497,
65494,
36,
67,
65424,
65384,
65535,
65489,
65436,
4,
65485,
138,
65464,
44,
65494,
26,
45,
65496,
65490,
62,
5,
65480,
65471,
4,
65529,
81,
65455,
65525,
65530,
65437,
65,
65456,
65499,
40,
65509,
14,
65456,
65445,
65425,
65466,
20,
31,
65527,
17,
65457,
63,
65438,
65523,
65454,
65469,
65442,
65468,
1,
65400,
65416,
65327,
65384,
65280,
65373,
8,
65304,
65197,
65185,
65369,
65359,
102,
65450,
65389,
65405,
65403,
65366,
79,
65408,
65478,
65522,
8,
43,
73,
152,
136,
7,
23,
120,
65458,
46,
65,
16,
65463,
65503,
11,
64,
65478,
65526,
65518,
65442,
85,
65449,
65469,
65518,
65442,
52,
46,
6,
60,
23,
65478,
8,
86,
28,
65436,
4,
65455,
79,
65483,
65531,
65474,
32,
31,
65479,
65506,
28,
49,
30,
34,
65482,
65454,
65262,
65020,
65036,
65287,
65376,
130,
65478,
65438,
65298,
65381,
65275,
90,
23,
101,
51,
65523,
65246,
65468,
32,
67,
65503,
65441,
65359,
65527,
88,
13,
65449,
65477,
65386,
65395,
65488,
82,
15,
65534,
65335,
65517,
65533,
65483,
9,
65494,
65495,
65491,
83,
65502,
7,
7,
87,
65452,
65461,
94,
41,
65485,
89,
72,
65450,
65471,
24,
16,
6,
67,
65532,
17,
65438,
65477,
80,
57,
74,
24,
65519,
79,
65462,
65460,
65449,
7,
9,
145,
65517,
65372,
66,
65474,
65297,
65386,
30,
68,
72,
24,
65424,
65304,
65487,
81,
65528,
44,
65394,
15,
65408,
127,
65510,
65487,
64,
29,
58,
109,
68,
65407,
65456,
65525,
65516,
90,
65520,
6,
65417,
24,
65456,
65443,
65495,
118,
65501,
39,
65424,
3,
57,
34,
26,
62,
65477,
139,
36,
11,
65472,
49,
45,
106,
219,
65516,
150,
79,
125,
229,
243,
238,
347,
187,
20,
65442,
65203,
65084,
65092,
65221,
65368,
65337,
65495,
65430,
20,
15,
65513,
65414,
65481,
65500,
155,
152,
2,
65105,
65314,
65386,
234,
65246,
65411,
65237,
65201,
65343,
28,
65437,
65389,
34,
65504,
65325,
65466,
65431,
65323,
65486,
71,
100,
225,
65440,
65497,
65464,
75,
88,
10,
65430,
65410,
65405,
22,
65494,
65535,
65523,
65487,
65459,
94,
141,
60,
65480,
65418,
75,
245,
33,
57,
21,
65441,
113,
149,
65488,
65485,
65421,
65485,
65439,
65491,
164,
64,
138,
65406,
65378,
160,
65405,
65515,
4,
65399,
65364,
41,
140,
65480,
102,
9,
32,
198,
18,
65370,
97,
65445,
65438,
111,
22,
65508,
65493,
65422,
65404,
65300,
69,
65512,
65525,
65419,
0,
65351,
65521,
9,
65453,
0,
65420,
65463,
65514,
77,
81,
11,
65426,
65398,
65450,
65485,
65433,
65472,
65530,
65488,
117,
119,
113,
65479,
43,
65480,
65472,
65534,
84,
65477,
65427,
65464,
65533,
65434,
65455,
65526,
60,
187,
344,
190,
196,
149,
65486,
32,
166,
65532,
134,
65452,
65507,
118,
65520,
65463,
65520,
11,
65484,
61,
65460,
65456,
65498,
138,
55,
65491,
149,
149,
65448,
17,
65474,
65509,
61,
65450,
65424,
65484,
0,
65495,
28,
33,
65458,
65510,
18,
42,
65444,
65446,
34,
65490,
65518,
65492,
65441,
65464,
11,
65504,
65468,
65516,
65535,
60,
65442,
48,
65501,
65454,
65502,
0,
30,
65440,
65511,
65468,
65513,
65516,
55,
53,
65456,
65238,
65142,
65127,
65296,
65460,
65409,
65352,
65242,
65236,
65315,
65508,
92,
40,
65526,
65448,
65455,
65394,
65506,
126,
50,
65508,
65413,
77,
61,
296,
120,
33,
127,
31,
65442,
144,
103,
96,
20,
65500,
113,
138,
123,
309,
111,
208,
127,
196,
241,
53,
90,
56,
28,
92,
155,
65486,
46,
171,
281,
95,
48,
178,
294,
140,
420,
15,
24,
65484,
65459,
93,
517,
286,
64,
309,
291,
457,
65513,
20,
186,
8,
65447,
65401,
65458,
65501,
120,
65514,
65355,
65378,
90,
137,
210,
38,
107,
65415,
229,
237,
126,
104,
65446,
1,
132,
303,
464,
305,
65507,
33,
43,
103,
142,
256,
144,
250,
214,
65150,
65110,
65048,
65162,
0,
216,
65470,
65272,
65389,
65493,
65336,
100,
65482,
65376,
62,
65526,
65385,
65486,
65314,
65385,
65477,
65374,
65383,
65418,
65377,
21,
14,
65406,
65461,
65385,
65446,
65517,
65504,
65410,
65533,
8,
17,
82,
65508,
65442,
65528,
10,
77,
77,
65517,
4,
65474,
82,
10,
65530,
65461,
79,
65526,
65511,
65529,
65476,
1,
65468,
65510,
65466,
65498,
65523,
65496,
28,
65526,
65498,
65471,
79,
65456,
68,
65533,
65530,
65480,
65474,
115,
153,
16,
25,
65471,
65397,
59,
22,
38,
65510,
65392,
65331,
86,
184,
71,
65501,
65527,
65359,
65316,
65441,
3,
65435,
65446,
65454,
18,
28,
65534,
65484,
65497,
65501,
65488,
65502,
76,
191,
39,
271,
154,
20,
72,
65490,
76,
168,
87,
213,
66,
98,
43,
130,
199,
127,
65512,
65444,
84,
190,
111,
65443,
65511,
65364,
65285,
87,
95,
65359,
65457,
65257,
65332,
65382,
65483,
65443,
65459,
97,
65499,
65404,
35,
65496,
33,
116,
68,
141,
9,
65442,
50,
65506,
65467,
65438,
65374,
65519,
26,
65437,
65511,
65481,
65500,
65530,
0,
65464,
65365,
65505,
28,
34,
74,
65497,
65447,
65487,
65460,
65452,
64,
18,
65501,
65413,
31,
65480,
65460,
65472,
65488,
65518,
65533,
65516,
50,
65432,
65492,
20,
65483,
65465,
71,
37,
21,
23,
65490,
36,
21,
65448,
101,
34,
15,
81,
65496,
48,
68,
65507,
42,
93,
28,
111,
65309,
65129,
65041,
65193,
61,
224,
65371,
65329,
65295,
65450,
65425,
7,
65410,
65452,
50,
65470,
65524,
65458,
65505,
65337,
65421,
65432,
65484,
37,
65322,
65505,
65325,
65516,
65489,
65421,
65396,
101,
72,
40,
65489,
2,
367,
323,
64,
65475,
162,
97,
65489,
65528,
27,
9,
178,
233,
64,
14,
63,
6,
20,
170,
65415,
12,
71,
267,
58,
65474,
65359,
65438,
65390,
137,
65509,
65222,
38,
65492,
65502,
65453,
65280,
65519,
65511,
73,
65425,
73,
3,
90,
65484,
91,
4,
72,
65521,
10,
65524,
65493,
65475,
10,
3,
44,
65465,
65455,
2,
48,
65433,
65496,
65445,
65530,
5,
41,
65456,
65506,
65475,
65504,
65529,
65428,
1,
106,
11,
145,
61,
65494,
65463,
110,
160,
12,
65532,
65496,
65506,
105,
20,
65472,
70,
126,
50,
8,
115,
65527,
65485,
23,
65490,
45,
65522,
65429,
65529,
65494,
46,
73,
65478,
0,
13,
65499,
36,
65408,
65285,
65115,
64970,
65165,
65355,
65458,
65421,
65413,
65525,
65339,
65268,
65481,
65327,
65376,
65471,
9,
65314,
1,
36,
65489,
111,
65429,
65416,
65414,
65502,
65533,
65408,
65530,
65411,
65408,
65265,
65502,
65470,
65461,
65282,
143,
12,
209,
322,
229,
85,
75,
57,
197,
201,
70,
256,
65336,
65270,
65376,
65506,
13,
65526,
65385,
46,
65408,
65484,
65529,
65414,
65388,
65242,
65408,
65405,
65345,
65325,
65516,
65378,
65260,
65314,
65321,
65438,
65450,
65375,
65240,
65066,
65301,
65477,
65441,
65440,
65323,
65290,
65318,
65435,
95,
86,
65459,
65446,
65489,
65352,
65437,
82,
7,
65472,
65410,
65490,
97,
319,
111,
153,
189,
55,
65340,
65521,
255,
38,
65395,
65360,
65413,
3,
108,
141,
165,
10,
6,
26,
65493,
45,
65506,
92,
65521,
65449,
170,
65383,
65519,
190,
13,
65468,
65479,
60,
65484,
81,
71,
65478,
65449,
65456,
65466,
53,
65521,
137,
65501,
77,
47,
65527,
46,
65494,
22,
154,
67,
63,
134,
123,
25,
65505,
25,
54,
1,
65515,
65518,
65366,
65398,
65528,
44,
14,
15,
65509,
65534,
65458,
63,
32,
32,
65517,
59,
81,
59,
65509,
31,
45,
65506,
65510,
65366,
217,
23,
195,
271,
157,
65452,
65329,
65467,
65522,
65458,
65443,
35,
9,
65533,
55,
55,
65354,
65511,
75,
68,
65406,
26,
65529,
65446,
65517,
96,
54,
110,
65468,
65151,
65435,
65366,
65498,
65426,
65397,
116,
44,
271,
246,
65514,
88,
65474,
51,
8,
65451,
70,
41,
72,
134,
65479,
57,
65479,
167,
221,
218,
208,
5,
65333,
69,
276,
317,
267,
250,
132,
23,
99,
116,
318,
310,
288,
158,
65329,
65415,
1,
65447,
81,
65375,
65303,
65467,
7,
161,
104,
65512,
65287,
65524,
26,
45,
91,
65485,
65494,
65373,
65364,
65423,
9,
65257,
65516,
65507,
65310,
65439,
65362,
65424,
65505,
65291,
65323,
65375,
65430,
65425,
166,
213,
159,
147,
288,
108,
189,
65490,
115,
65510,
65476,
85,
60,
84,
86,
173,
21,
10,
16,
13,
65339,
13,
65494,
65467,
76,
65362,
65373,
65345,
65289,
65414,
65394,
65496,
65363,
65167,
65325,
65342,
65514,
65422,
65456,
65415,
65436,
65441,
65489,
65466,
7,
65446,
69,
65406,
65,
65458,
92,
65513,
44,
3,
86,
30,
65466,
65479,
65437,
28,
65516,
31,
8,
65454,
65480,
65459,
37,
21,
64,
65475,
91,
65461,
65527,
84,
70,
114,
65473,
35,
65361,
65318,
65442,
65450,
65487,
100,
65466,
127,
27,
41,
29,
61,
21,
189,
108,
132,
58,
159,
80,
64,
167,
208,
168,
256,
115,
6,
33,
58,
65532,
132,
72,
65268,
65271,
65144,
65205,
65439,
65526,
65503,
65438,
65472,
53,
65388,
65377,
65396,
42,
65427,
65459,
65428,
49,
65372,
65492,
65380,
65507,
6,
159,
65498,
65455,
60,
10,
65486,
84,
65525,
16,
43,
65459,
127,
65463,
180,
261,
456,
283,
221,
65456,
65,
227,
226,
283,
297,
65423,
65368,
65470,
56,
121,
286,
65363,
79,
65529,
65516,
87,
112,
65464,
65352,
65286,
65469,
65291,
56,
135,
65458,
65428,
66,
194,
22,
137,
65454,
156,
37,
65482,
65526,
132,
66,
142,
104,
86,
105,
77,
234,
79,
106,
30,
186,
47,
4,
42,
43,
65466,
171,
136,
65448,
65376,
65361,
65515,
93,
459,
306,
89,
163,
128,
353,
156,
47,
299,
265,
65442,
65509,
64,
177,
132,
13,
105,
65415,
125,
144,
126,
65494,
4,
10,
194,
209,
257,
65384,
65529,
65434,
185,
111,
27,
82,
65484,
65498,
50,
176,
226,
165,
137,
34,
65400,
65469,
75,
156,
103,
65531,
65524,
65456,
65413,
29,
65425,
65485,
42,
65382,
110,
65494,
65312,
199,
37,
65461,
65458,
65446,
65403,
70,
85,
88,
65459,
62,
65467,
72,
119,
65517,
65535,
32,
118,
65535,
324,
65237,
65042,
64820,
65261,
12,
97,
65504,
65328,
65394,
65487,
65361,
181,
4,
65429,
1,
1,
65317,
65354,
65326,
65465,
65509,
65392,
65350,
65440,
65441,
84,
103,
65439,
65454,
65396,
65441,
7,
65321,
65494,
163,
65524,
36,
65405,
65509,
65475,
121,
65485,
65519,
75,
3,
93,
65,
27,
78,
65505,
22,
24,
65489,
65428,
2,
43,
55,
60,
66,
5,
65512,
28,
16,
65405,
21,
12,
65475,
65391,
65518,
14,
65528,
65266,
65456,
6,
65465,
5,
65431,
65531,
124,
376,
661,
337,
178,
65372,
65426,
65296,
65420,
114,
65450,
65264,
65151,
65476,
65355,
65460,
65223,
65389,
65169,
65291,
65421,
65446,
65412,
188,
65495,
65368,
65432,
65492,
65453,
65384,
231,
224,
382,
222,
36,
65320,
196,
189,
179,
107,
60,
65308,
0,
65524,
17,
76,
253,
65420,
21,
74,
27,
143,
65527,
65307,
65459,
94,
65533,
37,
65492,
65290,
65245,
65415,
65430,
65496,
65218,
65484,
65423,
65378,
65420,
53,
65455,
65416,
65275,
65325,
65445,
65495,
35,
65264,
65224,
65385,
69,
22,
49,
65315,
65346,
65354,
65429,
65514,
65316,
65437,
65231,
65342,
65418,
45,
17,
65452,
65419,
65458,
65426,
65385,
65468,
25,
65524,
65513,
65482,
65448,
45,
65516,
68,
65468,
41,
65440,
65449,
65488,
6,
4,
40,
65523,
65506,
65466,
66,
43,
65493,
76,
65455,
65486,
65504,
65484,
67,
37,
65517,
65511,
65450,
14,
74,
65530,
48,
60,
65437,
65338,
65368,
65384,
65365,
65526,
33,
65499,
65507,
65534,
29,
46,
65521,
81,
83,
65458,
9,
65464,
65379,
65517,
11,
113,
65340,
65513,
65414,
65514,
110,
65481,
36,
65453,
65279,
65296,
65262,
65323,
65386,
78,
49,
65468,
65532,
65527,
42,
65507,
65532,
107,
65340,
12,
226,
65471,
65496,
90,
65528,
208,
67,
65414,
154,
177,
92,
27,
63,
65440,
65266,
65293,
65423,
65508,
65443,
65512,
65297,
65308,
65333,
65447,
50,
65421,
153,
88,
152,
113,
65517,
17,
65528,
34,
65448,
65483,
65443,
141,
62,
88,
65495,
65463,
59,
190,
327,
86,
128,
65496,
65473,
52,
103,
211,
65502,
143,
7,
65297,
65498,
127,
139,
65395,
65291,
59,
65514,
65512,
65459,
61,
8,
96,
65505,
65474,
65495,
65479,
58,
65354,
65457,
65371,
41,
56,
37,
65371,
65513,
5,
11,
65535,
65419,
65513,
65374,
65418,
65361,
96,
103,
229,
65530,
65343,
65330,
65488,
77,
14,
65487,
65498,
65463,
65449,
88,
65533,
80,
37,
65438,
65469,
65520,
80,
41,
65448,
27,
65454,
65471,
2,
65488,
65495,
78,
55,
84,
65508,
65439,
9,
38,
81,
65529,
65449,
30,
65480,
65522,
65494,
51,
65285,
65093,
64860,
65033,
65170,
65266,
65511,
65124,
65148,
65065,
65233,
65447,
65489,
65442,
74,
65518,
65264,
65194,
65490,
65493,
114,
65480,
52,
65446,
65530,
33,
143,
119,
87,
115,
65298,
65493,
65404,
65391,
65268,
65352,
34,
65512,
65315,
65336,
65483,
16,
171,
65427,
13,
65458,
65309,
65383,
65480,
65525,
65407,
65426,
65319,
65420,
65499,
65373,
65293,
65491,
65479,
44,
36,
41,
52,
31,
49,
80,
109,
125,
65512,
65446,
72,
62,
80,
104,
78,
76,
65457,
18,
107,
65523,
103,
65525,
2,
73,
139,
7,
24,
65516,
65496,
65429,
143,
44,
7,
73,
65510,
65460,
65476,
65521,
65489,
35,
65478,
65505,
72,
44,
65493,
77,
65529,
65485,
65345,
224,
50,
151,
87,
133,
65470,
17,
1,
171,
65450,
65477,
65472,
18,
87,
17,
65458,
65470,
65401,
13,
153,
90,
65522,
65413,
65497,
65433,
72,
65420,
65512,
65496,
65305,
65520,
2,
65514,
65380,
65324,
65456,
65437,
33,
65508,
32,
137,
46,
251,
120,
44,
7,
65528,
65365,
65290,
65337,
65326,
17,
55,
65383,
65459,
65258,
65474,
65449,
65499,
65431,
65501,
120,
62,
16,
18,
65474,
67,
64,
34,
65403,
65411,
32,
183,
213,
301,
199,
65493,
31,
65515,
6,
90,
65514,
58,
100,
65519,
43,
65446,
26,
94,
78,
53,
55,
65471,
3,
65502,
41,
125,
38,
16,
65476,
103,
22,
115,
120,
146,
30,
43,
65403,
190,
333,
389,
253,
61,
65353,
211,
107,
122,
118,
33,
65446,
18,
117,
96,
146,
78,
65532,
124,
27,
112,
105,
10,
65391,
65434,
65409,
65524,
65401,
65421,
65297,
65393,
65355,
65386,
65324,
65376,
65535,
108,
65481,
158,
65516,
1,
11,
65524,
161,
68,
191,
185,
65477,
65416,
56,
65516,
65434,
65494,
29,
6,
137,
333,
64,
65518,
65355,
65092,
65500,
65363,
65309,
65501,
65303,
65427,
65358,
65146,
65360,
65391,
54,
59,
65460,
65498,
65448,
65448,
65526,
65457,
28,
23,
65507,
48,
65501,
65515,
34,
65433,
65471,
65506,
49,
65455,
65524,
10,
82,
65528,
65518,
65505,
65493,
65524,
65442,
87,
65509,
65516,
65488,
58,
65463,
65471,
94,
48,
65,
65535,
65532,
14,
65518,
65527,
84,
65444,
65449,
65464,
106,
68,
58,
65474,
65495,
65443,
65534,
45,
61,
65484,
65494,
25,
142,
92,
80,
65509,
65526,
65465,
65521,
59,
65464,
80,
65469,
25,
48,
60,
65460,
65442,
33,
44,
35,
65403,
65394,
65495,
37,
65515,
68,
65515,
37,
65533,
195,
65485,
65531,
128,
65527,
65502,
104,
167,
65517,
46,
133,
98,
147,
146,
65416,
65456,
65493,
65496,
3,
20,
59,
65512,
175,
65457,
10,
87,
40,
40,
5,
65514,
65505,
65481,
199,
371,
125,
65472,
65457,
65463,
261,
85,
69,
65523,
65488,
65415,
265,
108,
112,
24,
56,
61,
122,
178,
184,
130,
25,
65528,
205,
65468,
65209,
64898,
65129,
65394,
27,
29,
65317,
65169,
65342,
65461,
143,
144,
65533,
65469,
65484,
65333,
65518,
65467,
83,
9,
65350,
65361,
74,
6,
51,
165,
115,
65430,
110,
109,
146,
65522,
10,
65516,
65500,
34,
46,
64,
65481,
65504,
93,
65452,
65514,
65448,
65477,
37,
65389,
65442,
65360,
65531,
106,
65519,
65516,
41,
34,
56,
207,
65475,
65489,
65435,
65390,
65378,
38,
29,
40,
65492,
13,
65396,
65500,
65530,
43,
113,
361,
324,
199,
156,
44,
213,
263,
158,
193,
124,
65413,
43,
65490,
212,
151,
136,
65432,
80,
82,
24,
48,
98,
65521,
65334,
65332,
65430,
65493,
65508,
291,
64,
65330,
65521,
100,
65526,
40,
25,
15,
65510,
65456,
65474,
65505,
35,
65493,
65463,
65450,
97,
65320,
65505,
65526,
65494,
88,
65478,
65394,
11,
65527,
82,
73,
8,
65349,
65353,
14,
47,
65501,
21,
65457,
65486,
65516,
65456,
65459,
3,
65530,
65435,
44,
31,
65507,
65475,
65457,
32,
57,
83,
102,
65524,
65514,
130,
97,
99,
29,
65494,
65500,
122,
164,
33,
14,
65452,
65482,
45,
129,
61,
65495,
91,
65521,
65443,
107,
211,
88,
61,
88,
493,
610,
748,
407,
268,
65514,
166,
149,
340,
196,
131,
65470,
190,
153,
99,
56,
186,
167,
134,
65447,
84,
46,
240,
65456,
0,
189,
159,
10,
46,
62,
65491,
1,
124,
223,
248,
65456,
65406,
65345,
65503,
65518,
65370,
65359,
53,
65519,
65504,
67,
65433,
65413,
15,
20,
65463,
65340,
11,
65474,
65498,
65370,
65200,
65521,
65524,
23,
212,
65455,
65306,
65484,
65425,
94,
65533,
51,
32,
65520,
69,
10,
65511,
112,
27,
65515,
65367,
65527,
65454,
65482,
65523,
65445,
65491,
29,
65482,
147,
65407,
34,
65444,
65470,
93,
152,
66,
65370,
65476,
65488,
61,
51,
63,
3,
36,
65403,
65469,
65508,
65516,
65497,
65400,
65445,
50,
139,
72,
8,
65490,
65391,
84,
74,
65509,
95,
65437,
82,
65447,
65533,
65535,
75,
72,
115,
62,
83,
31,
36,
65493,
173,
472,
135,
305,
196,
81,
190,
138,
116,
222,
81,
152,
65426,
65156,
65004,
65335,
65477,
65469,
127,
65396,
65471,
65461,
65484,
65411,
122,
65406,
65493,
65441,
65495,
65308,
65410,
65410,
98,
92,
65360,
65426,
65387,
65397,
37,
48,
65397,
65463,
65454,
65450,
65474,
65472,
65441,
65299,
172,
88,
64,
65406,
11,
6,
127,
65471,
129,
35,
62,
65427,
125,
0,
66,
65467,
104,
65531,
113,
58,
65418,
65496,
21,
65491,
80,
205,
221,
30,
112,
156,
91,
135,
241,
160,
261,
228,
65505,
70,
65461,
65441,
55,
125,
120,
60,
65519,
65516,
10,
3,
65525,
65529,
34,
43,
65443,
65462,
109,
65470,
74,
60,
65522,
18,
65488,
65532,
65495,
65418,
65532,
72,
65464,
100,
65520,
13,
65489,
65496,
65512,
65490,
65329,
65175,
65462,
65430,
65525,
65455,
145,
65453,
65531,
65523,
65494,
65445,
65483,
65488,
65493,
65426,
65435,
65442,
13,
202,
4,
65356,
65444,
65498,
65453,
65453,
65448,
65488,
65359,
65445,
12,
65417,
65532,
65425,
65463,
54,
65486,
70,
30,
3,
65513,
65519,
65469,
65473,
88,
63,
65505,
50,
43,
65445,
52,
65469,
65481,
74,
65530,
65455,
65453,
65531,
65445,
65451,
65483,
63,
30,
65515,
65439,
65517,
65504,
35,
65502,
82,
292,
318,
371,
657,
235,
199,
110,
289,
298,
359,
313,
221,
242,
249,
137,
101,
176,
359,
225,
207,
65478,
159,
225,
230,
124,
65309,
1,
65505,
65435,
65535,
241,
57,
65529,
182,
117,
240,
32,
65439,
65460,
65367,
51,
65506,
65455,
46,
45,
65455,
65484,
65416,
65524,
131,
43,
65446,
6,
65487,
172,
204,
65380,
65310,
65527,
65468,
219,
539,
126,
33,
87,
64,
292,
296,
348,
346,
282,
99,
65494,
87,
65533,
205,
42,
65345,
65369,
65469,
65409,
39,
65467,
72,
65324,
65344,
64,
182,
115,
148,
65348,
65320,
65459,
65423,
65398,
65494,
65470,
65483,
65458,
65496,
65461,
65417,
65449,
65469,
65441,
65335,
65451,
65460,
26,
16,
61,
65480,
11,
65465,
65524,
65461,
65520,
0,
65430,
65519,
40,
65480,
65489,
65397,
65500,
65439,
78,
18,
65427,
57,
65440,
65507,
16,
24,
4,
99,
16,
68,
33,
26,
71,
65532,
65497,
65495,
212,
65235,
65209,
65105,
65217,
65501,
10,
65480,
65344,
65437,
65328,
65332,
73,
65460,
65466,
65467,
65433,
65478,
65463,
65204,
65392,
65472,
65417,
65481,
72,
65449,
65458,
147,
11,
39,
65491,
65493,
65374,
65384,
20,
54,
14,
113,
109,
25,
72,
116,
65509,
122,
65418,
65309,
65390,
65491,
196,
237,
65513,
65446,
65461,
65456,
107,
107,
190,
88,
65518,
29,
65521,
65521,
65522,
22,
39,
65508,
57,
19,
67,
47,
91,
52,
88,
65425,
65432,
65485,
65458,
65477,
82,
65525,
65522,
46,
65514,
65469,
19,
45,
49,
45,
65497,
65464,
65492,
14,
77,
65528,
65527,
65460,
65509,
65482,
21,
35,
65492,
65456,
65458,
65437,
48,
65442,
40,
61,
200,
51,
35,
65432,
50,
124,
48,
157,
52,
254,
217,
63,
79,
65527,
246,
48,
143,
65490,
119,
41,
65422,
65518,
65505,
51,
246,
4,
150,
65513,
43,
115,
477,
319,
233,
215,
293,
445,
82,
65059,
65042,
64943,
65282,
65334,
58,
65343,
65339,
65369,
65472,
65341,
65527,
65403,
65435,
65323,
65504,
65532,
65533,
65405,
13,
65241,
65469,
65518,
75,
65448,
65449,
7,
75,
128,
65485,
65523,
65493,
65446,
65514,
65529,
65411,
65394,
65501,
60,
65347,
65497,
65427,
65400,
65187,
65189,
65217,
65262,
65487,
65493,
65396,
65369,
65309,
65425,
228,
111,
39,
75,
65407,
65444,
61,
423,
194,
209,
209,
204,
65507,
83,
203,
170,
17,
63,
65436,
65531,
65477,
157,
65337,
65457,
65431,
41,
79,
71,
73,
85,
65451,
65531,
214,
120,
10,
65530,
103,
103,
40,
65459,
83,
55,
37,
294,
288,
76,
17,
30,
207,
71,
235,
303,
46,
104,
21,
65527,
8,
65521,
65516,
95,
159,
35,
118,
43,
65461,
30,
219,
149,
143,
65463,
65467,
65415,
168,
112,
38,
128,
65491,
65429,
92,
68,
79,
65493,
44,
66,
65479,
3,
65484,
63,
65481,
31,
198,
65449,
65155,
65030,
65179,
65463,
99,
65403,
65339,
65446,
65398,
65412,
101,
176,
107,
65470,
65504,
65391,
53,
65480,
65519,
65459,
65424,
65330,
76,
47,
159,
112,
151,
65517,
21,
65493,
65520,
39,
65472,
57,
