memory_initialization_radix=10;
memory_initialization_vector =
65486,
65400,
43,
66,
65519,
65456,
51,
65507,
30,
207,
37,
65469,
36,
112,
136,
65479,
88,
65485,
5,
315,
233,
366,
293,
82,
46,
252,
43,
117,
113,
34,
65509,
34,
47,
36,
104,
65516,
65515,
65445,
65523,
23,
65468,
33,
65406,
65507,
65366,
65318,
65391,
65430,
65418,
154,
373,
222,
85,
65499,
65307,
184,
406,
234,
91,
51,
65480,
267,
529,
65483,
3,
98,
65510,
74,
70,
75,
65507,
16,
65521,
65459,
65477,
65379,
65423,
65431,
65441,
65478,
43,
9,
109,
65525,
65516,
124,
233,
284,
101,
44,
65496,
65526,
36,
3,
118,
65432,
65,
19,
65428,
2,
117,
65440,
62,
0,
65424,
65529,
35,
65516,
65425,
38,
65534,
65530,
65467,
65513,
65443,
65497,
83,
65475,
43,
65496,
65331,
65493,
65399,
65464,
8,
20,
65422,
65498,
65504,
65458,
140,
65532,
65461,
65498,
65491,
61,
65494,
55,
11,
72,
65485,
65406,
65420,
65452,
18,
65516,
34,
67,
65491,
65454,
19,
65521,
65526,
65462,
65502,
65475,
27,
65453,
65454,
65486,
40,
71,
65453,
65512,
39,
63,
5,
31,
65454,
65455,
71,
65520,
10,
22,
17,
87,
63,
88,
65453,
65452,
2,
65481,
1,
65433,
65497,
65398,
30,
41,
65462,
65428,
22,
65443,
65359,
56,
23,
65338,
123,
24,
65447,
65508,
65395,
65485,
65504,
65357,
65524,
65334,
65479,
65447,
65432,
8,
29,
37,
65497,
65465,
12,
22,
38,
65498,
65441,
65508,
65378,
43,
65471,
65331,
65332,
54,
87,
65410,
60,
65485,
260,
251,
205,
65382,
65475,
65463,
328,
470,
184,
65434,
65460,
65505,
106,
307,
109,
65432,
65446,
22,
65509,
86,
65459,
4,
65488,
65485,
130,
259,
156,
65529,
20,
117,
109,
45,
111,
65468,
65524,
65535,
65465,
65480,
32,
65530,
70,
122,
76,
125,
22,
91,
65453,
65405,
65468,
65407,
65522,
3,
65498,
52,
52,
65493,
65458,
16,
76,
65513,
65446,
72,
135,
147,
65486,
65474,
41,
65525,
65424,
70,
136,
24,
28,
18,
65395,
48,
59,
65489,
65513,
65476,
65532,
85,
45,
65511,
65427,
65359,
65515,
107,
65507,
65512,
113,
68,
65535,
65514,
65512,
65466,
65511,
6,
65521,
65515,
65500,
65532,
65429,
65486,
65437,
65471,
138,
70,
65482,
65516,
49,
91,
2,
115,
99,
26,
63,
65481,
19,
91,
46,
65532,
65505,
65523,
57,
65417,
65440,
28,
65504,
65426,
65470,
46,
65516,
65498,
29,
14,
70,
65449,
65488,
65505,
65445,
24,
28,
65509,
19,
65500,
65437,
65504,
13,
12,
46,
53,
65465,
26,
10,
24,
39,
65532,
65522,
65517,
65511,
7,
15,
39,
65451,
60,
23,
65513,
44,
82,
61,
65493,
65529,
65492,
43,
10,
19,
65383,
65278,
65458,
65427,
65384,
6,
65474,
65375,
65516,
65456,
84,
65524,
14,
65426,
65384,
65343,
65431,
65423,
65470,
65503,
65343,
65463,
65355,
13,
65529,
65495,
65500,
53,
165,
32,
65534,
28,
230,
96,
19,
135,
62,
177,
27,
41,
67,
65501,
64,
65481,
65529,
143,
123,
103,
47,
101,
89,
108,
139,
85,
102,
65508,
63,
138,
124,
32,
31,
65431,
65490,
42,
65451,
65525,
65535,
65461,
65483,
40,
65363,
65483,
94,
65511,
65496,
201,
33,
65378,
65422,
64,
65380,
157,
200,
65168,
65421,
65486,
65452,
65499,
65452,
65362,
288,
29,
55,
25,
26,
226,
155,
129,
43,
15,
23,
19,
117,
17,
78,
16,
89,
197,
93,
195,
65482,
22,
19,
65495,
113,
175,
65493,
66,
13,
51,
160,
130,
82,
62,
95,
18,
44,
65430,
65496,
45,
65504,
78,
109,
65511,
77,
154,
146,
83,
65524,
42,
65435,
110,
53,
65524,
67,
106,
93,
122,
346,
168,
13,
3,
65512,
199,
361,
125,
13,
63,
234,
260,
98,
55,
62,
65479,
47,
27,
80,
65437,
55,
65513,
65483,
65527,
65456,
65528,
65516,
4,
65460,
65465,
52,
65532,
1,
0,
65485,
65466,
65464,
65439,
7,
23,
65517,
65442,
65487,
65489,
9,
68,
65508,
1,
65475,
65454,
65528,
65511,
65471,
65445,
60,
65502,
86,
49,
39,
65532,
65445,
65496,
65489,
65503,
65288,
65338,
65248,
65448,
177,
65,
65468,
65317,
65174,
65349,
65440,
128,
65390,
65381,
65083,
64964,
65424,
112,
65297,
65355,
65130,
65152,
58,
73,
65518,
123,
65433,
170,
50,
65529,
65534,
11,
65503,
65454,
65512,
144,
5,
65433,
65481,
71,
176,
67,
65428,
103,
24,
54,
83,
42,
138,
33,
59,
58,
69,
65532,
65519,
65511,
37,
65521,
65511,
73,
65497,
65483,
15,
75,
65402,
65375,
65517,
59,
134,
44,
65487,
131,
279,
269,
65501,
212,
242,
25,
65436,
202,
153,
148,
161,
38,
98,
214,
267,
28,
65519,
27,
330,
84,
42,
89,
261,
113,
156,
23,
255,
158,
29,
65448,
65496,
65530,
65523,
9,
65456,
65342,
90,
65473,
65444,
65450,
65385,
65392,
65359,
65429,
65458,
6,
6,
65402,
65385,
65520,
85,
65462,
7,
65407,
65447,
65435,
65481,
65438,
65533,
65521,
65397,
65424,
65506,
65421,
65491,
81,
114,
65517,
65490,
36,
126,
65473,
65325,
65380,
65349,
65413,
21,
65492,
65246,
65025,
65113,
64993,
65430,
22,
65213,
64854,
64846,
65135,
65465,
65435,
65266,
65151,
65066,
64981,
65467,
24,
65359,
65453,
65332,
65344,
17,
126,
65455,
59,
45,
37,
5,
65396,
65472,
65309,
65414,
65453,
65423,
65287,
65326,
65009,
65103,
65126,
65469,
65352,
65147,
64829,
64854,
65031,
65354,
65428,
65257,
65174,
65125,
65270,
65386,
51,
65319,
65417,
65365,
65328,
65423,
72,
3,
187,
111,
40,
37,
85,
65398,
65344,
84,
101,
5,
41,
65209,
65004,
65098,
65061,
65495,
40,
65372,
64899,
64991,
65102,
65515,
65498,
65135,
64988,
65192,
65277,
65509,
33,
65520,
65424,
65358,
65431,
49,
65458,
65512,
65413,
65511,
65480,
74,
27,
176,
9,
3,
65534,
12,
49,
170,
103,
21,
51,
62,
9,
243,
95,
207,
116,
22,
24,
88,
127,
72,
54,
65496,
43,
65483,
65528,
65524,
89,
66,
105,
65533,
17,
65376,
65401,
65465,
65414,
65313,
65375,
65423,
65372,
65532,
65519,
65267,
65153,
65147,
65092,
65527,
65427,
65210,
64898,
64932,
65032,
65397,
7,
65250,
65127,
65113,
65044,
65406,
156,
65442,
65411,
65372,
65374,
42,
65449,
65494,
19,
65523,
65488,
35,
95,
321,
137,
65453,
98,
67,
106,
65509,
65455,
62,
65523,
65499,
28,
168,
91,
103,
192,
192,
175,
36,
164,
64,
58,
21,
65493,
19,
20,
40,
65478,
65479,
8,
37,
134,
76,
154,
65467,
38,
206,
64,
80,
242,
186,
223,
158,
65463,
247,
172,
151,
75,
250,
200,
117,
202,
199,
18,
15,
127,
147,
11,
17,
65530,
65450,
65461,
30,
65481,
65528,
65493,
78,
29,
33,
65,
61,
65462,
31,
65466,
65505,
5,
43,
35,
65480,
73,
65452,
43,
65485,
36,
65448,
65486,
65428,
65526,
65485,
65533,
22,
65521,
49,
65455,
66,
23,
13,
37,
65508,
65459,
65440,
65486,
49,
34,
65479,
65465,
65446,
65362,
65501,
65425,
65436,
34,
65471,
65321,
65493,
65367,
17,
9,
34,
65443,
65419,
65496,
75,
65419,
65364,
65513,
65422,
65370,
65496,
65432,
65466,
65442,
65447,
65463,
65457,
65467,
65521,
65488,
65502,
65521,
1,
33,
65505,
46,
56,
65487,
63,
65475,
65454,
65504,
65514,
43,
65479,
17,
32,
45,
65528,
65444,
65455,
12,
33,
62,
65462,
65468,
27,
65523,
65514,
48,
77,
25,
65493,
65496,
3,
61,
128,
413,
33,
65453,
58,
30,
235,
185,
43,
129,
65453,
44,
65468,
65465,
118,
58,
65405,
22,
130,
65499,
64,
57,
46,
113,
65503,
88,
65524,
49,
114,
115,
106,
182,
3,
73,
65472,
8,
65519,
65529,
65495,
65458,
65485,
65463,
65442,
65451,
83,
65527,
29,
65489,
65473,
65522,
65475,
65523,
65519,
65504,
14,
65483,
65464,
65451,
65479,
27,
39,
36,
52,
65483,
65521,
65,
65490,
53,
65517,
65443,
65494,
65528,
65452,
65476,
65499,
65473,
76,
65527,
277,
109,
22,
204,
65502,
18,
2,
96,
65511,
65470,
65442,
122,
83,
163,
133,
19,
26,
65511,
157,
65474,
65429,
65418,
37,
81,
65482,
65400,
65413,
65437,
65494,
2,
51,
61,
102,
65524,
65498,
65532,
65477,
104,
38,
108,
65527,
197,
65524,
84,
32,
78,
12,
91,
65524,
30,
65506,
248,
116,
1,
138,
153,
271,
139,
39,
6,
51,
110,
29,
12,
3,
65421,
65420,
35,
65468,
65519,
65480,
65403,
19,
65471,
65377,
65386,
65407,
65487,
35,
170,
73,
120,
65492,
65417,
244,
209,
28,
200,
65450,
65419,
198,
504,
135,
65483,
65531,
65452,
65424,
65457,
65486,
65436,
65501,
65513,
65502,
65475,
65531,
36,
74,
65,
65363,
65302,
65360,
65502,
37,
65506,
65517,
259,
157,
45,
65518,
65473,
137,
412,
143,
65347,
65438,
12,
397,
477,
319,
111,
65496,
13,
65501,
183,
140,
54,
65487,
65519,
65335,
65354,
65489,
65405,
45,
134,
202,
42,
244,
53,
65353,
105,
209,
292,
129,
287,
159,
65526,
319,
470,
361,
345,
65454,
65442,
329,
248,
369,
402,
45,
65445,
57,
82,
105,
179,
65405,
65484,
65503,
8,
65525,
65458,
65415,
65493,
65377,
22,
65462,
65517,
65521,
65466,
65441,
112,
59,
65401,
65513,
65516,
65455,
73,
15,
65379,
65478,
17,
65490,
65509,
243,
76,
65480,
65438,
65472,
3,
121,
140,
57,
25,
65475,
65427,
65468,
65495,
29,
65439,
65340,
37,
65409,
71,
65532,
65384,
65447,
164,
65430,
65327,
65504,
65337,
65329,
65267,
65223,
65127,
65394,
65501,
65456,
65505,
65446,
65490,
65507,
65531,
25,
49,
65498,
64,
5,
42,
22,
11,
22,
65436,
65525,
84,
65462,
67,
65482,
65522,
65480,
65513,
11,
42,
65466,
65497,
25,
71,
60,
29,
66,
65491,
65508,
65527,
83,
65511,
63,
65439,
66,
16,
65479,
65436,
28,
71,
65482,
65481,
19,
8,
30,
93,
88,
7,
103,
30,
65526,
16,
65486,
65392,
65356,
65351,
65445,
65515,
109,
65510,
2,
65507,
133,
4,
22,
65382,
65511,
70,
18,
48,
65445,
65448,
65465,
65460,
31,
65462,
36,
126,
114,
65512,
65480,
65427,
65531,
154,
87,
65459,
65488,
28,
62,
180,
199,
36,
65523,
65370,
50,
180,
65492,
65168,
65250,
65437,
108,
42,
65431,
65488,
5,
98,
12,
65511,
65426,
65461,
11,
65493,
43,
65503,
65503,
65504,
65533,
1,
41,
60,
137,
128,
43,
102,
38,
212,
211,
65465,
105,
94,
200,
78,
63,
40,
65503,
138,
20,
80,
81,
65266,
2,
0,
77,
65462,
94,
6,
65478,
65462,
65483,
65359,
65517,
359,
80,
92,
65497,
38,
58,
66,
154,
205,
17,
18,
65384,
19,
113,
65506,
231,
192,
159,
153,
106,
158,
65487,
65535,
107,
123,
50,
65535,
65532,
65498,
65471,
68,
65498,
7,
0,
50,
43,
52,
65510,
66,
65491,
81,
65477,
49,
65533,
40,
8,
89,
47,
65459,
65528,
27,
64,
20,
65530,
65505,
26,
10,
65453,
65489,
65506,
70,
72,
65445,
65482,
69,
65458,
65498,
65451,
65444,
65497,
65512,
65485,
65490,
65467,
65374,
65472,
65454,
65455,
65456,
199,
65535,
65512,
59,
65399,
65312,
326,
325,
65402,
78,
65520,
65468,
348,
460,
65374,
65481,
57,
8,
65468,
65451,
101,
24,
21,
51,
65413,
65435,
65434,
65409,
17,
65525,
135,
73,
65513,
65498,
50,
45,
46,
101,
215,
14,
120,
124,
194,
162,
65499,
65529,
151,
141,
120,
228,
93,
150,
144,
215,
88,
246,
65530,
65508,
13,
187,
164,
247,
65523,
49,
191,
129,
184,
65,
20,
65459,
65432,
65500,
1,
65427,
11,
65492,
65334,
65484,
45,
65457,
34,
10,
65367,
65401,
65444,
22,
65492,
65501,
6,
119,
65527,
2,
63,
65512,
65535,
65515,
66,
65448,
54,
63,
65479,
65489,
65426,
56,
65491,
27,
65449,
65527,
67,
53,
65468,
65509,
19,
66,
65488,
37,
65475,
21,
64,
101,
65504,
12,
13,
42,
5,
65507,
32,
65426,
65516,
65444,
23,
21,
73,
67,
81,
76,
65514,
65535,
65491,
65529,
25,
33,
65464,
65522,
65489,
65419,
65525,
6,
65401,
65328,
65453,
65432,
58,
57,
65434,
65481,
197,
65514,
111,
42,
65489,
65505,
23,
65527,
7,
109,
61,
58,
65504,
65526,
19,
62,
19,
65396,
65507,
65446,
85,
65353,
65329,
65157,
65302,
65305,
65452,
65452,
65116,
64952,
65033,
65100,
65519,
65355,
64979,
64690,
64710,
65001,
65303,
65526,
65164,
65092,
65110,
64922,
65441,
8,
65325,
65419,
65262,
65323,
65505,
22,
65521,
26,
65518,
19,
26,
65535,
52,
65446,
65516,
62,
21,
70,
65527,
65499,
65534,
69,
65460,
65453,
19,
65450,
21,
65460,
99,
25,
29,
65529,
9,
65435,
52,
65471,
26,
65440,
12,
65485,
66,
65496,
20,
65432,
18,
65513,
65524,
50,
65503,
65473,
65467,
65524,
65507,
65487,
13,
65485,
18,
65520,
44,
12,
65530,
1,
163,
116,
14,
65471,
65495,
103,
87,
65496,
30,
52,
65483,
85,
82,
44,
65517,
65519,
65492,
165,
408,
463,
65466,
65385,
65408,
215,
90,
25,
65378,
65462,
113,
65488,
65515,
65418,
65520,
7,
186,
114,
65485,
92,
13,
41,
22,
57,
10,
78,
35,
65500,
65503,
65417,
32,
65504,
65529,
65395,
65383,
65532,
100,
27,
65461,
65488,
5,
65534,
51,
104,
65477,
65521,
210,
166,
259,
275,
65463,
65417,
65507,
338,
296,
11,
65516,
1,
237,
390,
138,
16,
82,
65443,
128,
236,
334,
312,
52,
65439,
17,
65518,
112,
145,
8,
54,
65504,
65507,
191,
65436,
65523,
65419,
65385,
65390,
65523,
67,
93,
16,
4,
65525,
65447,
65504,
91,
0,
111,
79,
67,
73,
65514,
65467,
48,
36,
65466,
35,
65468,
65484,
65460,
13,
65,
128,
156,
65503,
65390,
0,
65477,
65483,
65535,
65,
65433,
65390,
65410,
65366,
65515,
3,
65486,
87,
65532,
14,
3,
65498,
65456,
31,
65491,
40,
65515,
30,
65445,
65450,
41,
65464,
44,
35,
157,
16,
65476,
65534,
79,
65433,
47,
23,
65457,
27,
14,
65461,
65534,
65420,
65445,
65451,
65530,
8,
9,
65481,
65332,
65397,
65449,
65481,
19,
66,
57,
65456,
65518,
10,
11,
65487,
3,
65529,
55,
92,
8,
65478,
65522,
95,
65515,
65482,
65394,
65405,
65441,
65333,
65517,
65515,
65327,
65161,
65121,
65340,
65297,
65441,
65329,
65174,
65185,
65236,
65333,
65440,
65483,
65325,
65212,
65331,
65395,
65438,
65444,
65326,
65366,
65373,
19,
83,
65521,
65452,
65509,
99,
108,
179,
195,
100,
65524,
114,
5,
180,
173,
18,
65474,
32,
115,
174,
90,
109,
131,
165,
147,
25,
133,
65518,
64,
65461,
108,
65474,
81,
96,
24,
65489,
63,
65522,
65324,
65358,
65406,
65424,
65472,
18,
31,
45,
141,
65527,
46,
65484,
127,
218,
139,
337,
1,
65504,
312,
457,
199,
378,
65533,
65421,
12,
164,
204,
204,
65494,
25,
46,
65378,
65330,
65479,
65531,
110,
65506,
65534,
65433,
65503,
71,
65491,
65233,
65402,
65393,
65430,
65432,
65420,
65264,
65153,
65221,
65217,
65365,
65454,
65214,
64986,
65017,
65104,
65291,
65487,
65214,
65029,
64928,
65001,
65428,
126,
65379,
65350,
65351,
65393,
25,
65475,
65507,
65532,
65531,
65475,
24,
65437,
65451,
21,
53,
27,
65515,
65502,
65491,
65480,
19,
40,
52,
65499,
76,
81,
77,
145,
65510,
122,
65507,
107,
83,
65526,
65504,
68,
27,
127,
65535,
65502,
65440,
65473,
1,
65494,
65372,
65439,
6,
5,
69,
3,
97,
1,
25,
65435,
44,
190,
280,
96,
10,
13,
46,
117,
191,
65442,
66,
43,
70,
43,
63,
65432,
65466,
65524,
65531,
0,
65460,
63,
50,
42,
65454,
65352,
65433,
65411,
49,
65500,
20,
65469,
65462,
65434,
65531,
65432,
65406,
65422,
65276,
65506,
65476,
33,
65491,
65367,
34,
65421,
65392,
49,
26,
172,
44,
65423,
65525,
48,
65475,
65438,
65402,
65448,
20,
96,
42,
65415,
65531,
65532,
67,
53,
65523,
112,
65447,
65403,
65513,
65513,
65510,
65527,
65502,
65440,
65534,
44,
65481,
128,
65484,
32,
14,
65500,
61,
14,
63,
111,
65466,
51,
65515,
45,
41,
65452,
65530,
160,
65501,
65518,
65451,
88,
160,
27,
11,
65470,
65484,
65499,
11,
71,
65422,
65406,
65468,
65303,
65361,
231,
65533,
65356,
65395,
65333,
65495,
65517,
65408,
65300,
65438,
65407,
24,
158,
67,
65504,
65492,
83,
99,
90,
69,
65511,
62,
65464,
65487,
24,
129,
31,
28,
34,
65532,
253,
3,
55,
82,
146,
65471,
284,
164,
105,
184,
197,
138,
80,
134,
120,
66,
162,
200,
121,
162,
276,
3,
72,
65522,
65496,
58,
65436,
91,
65509,
43,
65438,
65454,
43,
65535,
65460,
65516,
32,
65440,
0,
65483,
65307,
30,
155,
7,
65528,
3,
65492,
65486,
8,
65465,
65474,
65534,
65498,
16,
38,
65468,
65465,
102,
51,
49,
65364,
65431,
52,
65487,
65442,
65431,
121,
169,
96,
65518,
65533,
48,
86,
131,
148,
186,
141,
65534,
142,
179,
64,
157,
56,
92,
124,
30,
65453,
37,
65492,
74,
65485,
108,
65496,
65523,
65516,
65516,
52,
65533,
107,
111,
121,
13,
34,
65471,
65491,
65436,
65532,
109,
16,
65464,
24,
50,
54,
25,
65450,
15,
65377,
65348,
65414,
58,
36,
84,
65480,
65477,
65470,
65509,
65,
65478,
65531,
106,
109,
65526,
65513,
65465,
65391,
65330,
65465,
65441,
65504,
65510,
77,
65500,
13,
25,
65400,
43,
214,
178,
238,
65420,
65405,
66,
235,
28,
79,
65431,
65452,
65324,
137,
375,
65478,
65479,
50,
65337,
65384,
65391,
65398,
65505,
65531,
65523,
65498,
83,
65531,
3,
61,
65326,
65508,
45,
3,
65509,
65422,
65532,
65398,
65481,
125,
25,
65438,
65502,
65394,
65482,
65428,
5,
65509,
76,
86,
65479,
65487,
31,
65390,
65508,
65500,
65498,
16,
65513,
81,
65496,
65401,
65442,
65488,
65506,
65444,
65424,
65404,
65527,
65348,
65473,
65409,
152,
27,
197,
94,
65422,
65417,
229,
314,
262,
162,
65461,
85,
86,
241,
375,
146,
78,
18,
65474,
65496,
5,
31,
0,
65499,
46,
65462,
61,
65487,
65521,
65532,
65466,
65448,
75,
65516,
63,
35,
78,
65523,
65507,
10,
65490,
84,
2,
65473,
65449,
65487,
65515,
61,
65485,
65510,
65451,
65473,
65445,
65448,
65444,
65481,
65533,
52,
8,
65473,
65475,
19,
65414,
65458,
65479,
65487,
65531,
65450,
65415,
65454,
65489,
65279,
19,
8,
65362,
65519,
0,
65334,
65425,
65398,
65530,
65418,
65417,
65416,
65378,
10,
65347,
65522,
65374,
69,
65400,
65473,
65414,
65429,
65522,
65460,
65519,
65450,
65449,
65493,
43,
26,
65466,
65433,
65329,
65417,
65474,
65458,
65446,
65488,
65521,
114,
41,
92,
100,
130,
65506,
245,
65473,
34,
196,
191,
65487,
132,
265,
65529,
96,
65523,
74,
82,
65519,
29,
17,
65516,
66,
122,
65465,
65341,
65330,
68,
65460,
37,
65480,
65441,
65027,
64833,
64977,
65131,
65432,
65500,
65272,
64896,
64711,
64912,
65288,
65513,
65183,
64892,
64967,
65037,
65383,
63,
65441,
65485,
65313,
65278,
65441,
65528,
65533,
65411,
65523,
65416,
72,
65463,
65141,
65094,
65265,
65377,
14,
65285,
65175,
65458,
124,
65469,
65465,
65406,
65360,
65401,
100,
65513,
65372,
65417,
104,
170,
65491,
20,
65452,
1,
65355,
65468,
65441,
65517,
65462,
65494,
65460,
61,
27,
90,
65446,
81,
44,
13,
0,
4,
40,
65467,
76,
65515,
5,
65476,
65442,
65514,
88,
39,
65432,
4,
75,
12,
3,
65503,
65505,
65460,
65522,
65472,
65488,
40,
73,
8,
65528,
65445,
25,
118,
137,
65504,
65453,
65487,
107,
20,
65518,
65521,
65505,
65423,
65458,
65496,
65405,
65438,
65455,
65411,
65420,
37,
65511,
65490,
14,
42,
65403,
65457,
65487,
65430,
65444,
65480,
65427,
65376,
65450,
65367,
65488,
65436,
1,
65514,
58,
60,
65518,
65447,
65486,
65520,
44,
65498,
15,
65434,
15,
65377,
65494,
65252,
65498,
65514,
24,
65197,
65214,
65214,
65342,
65438,
65409,
65399,
65315,
65234,
65475,
65447,
65461,
65394,
6,
65457,
65508,
65434,
65481,
30,
37,
65519,
65450,
97,
65533,
65472,
42,
24,
7,
73,
31,
15,
65483,
73,
50,
119,
56,
77,
126,
20,
76,
77,
65521,
103,
50,
65462,
65515,
58,
47,
97,
65482,
86,
51,
26,
38,
75,
65507,
65476,
65503,
65532,
5,
65525,
7,
65436,
65511,
28,
65332,
65116,
65297,
65402,
81,
65514,
65266,
64986,
65236,
65475,
153,
65438,
65514,
65361,
65443,
65414,
65471,
57,
65381,
65255,
65488,
65416,
65464,
65485,
149,
148,
182,
71,
65452,
65371,
65361,
65423,
32,
27,
65497,
65459,
175,
61,
169,
58,
65450,
65252,
65444,
66,
17,
216,
65461,
65443,
120,
154,
189,
48,
73,
72,
5,
43,
49,
89,
65454,
18,
65495,
65477,
2,
81,
173,
108,
3,
34,
139,
46,
65508,
40,
65505,
70,
61,
116,
98,
153,
145,
93,
185,
133,
99,
136,
150,
82,
221,
129,
56,
65486,
99,
64,
65475,
103,
13,
4,
65509,
65475,
109,
65460,
65492,
65527,
65505,
36,
6,
235,
108,
24,
303,
179,
30,
233,
3,
65446,
93,
209,
112,
161,
94,
65465,
224,
64,
44,
136,
28,
65410,
42,
85,
38,
93,
38,
30,
65477,
65470,
33,
65481,
65514,
33,
65411,
65472,
65364,
65399,
65529,
10,
65465,
65422,
65392,
18,
65407,
65438,
65458,
112,
443,
227,
6,
28,
302,
212,
71,
164,
136,
65523,
82,
68,
194,
98,
65535,
90,
73,
65532,
26,
45,
56,
90,
31,
21,
65515,
65454,
16,
65511,
65443,
65452,
79,
65491,
65525,
65487,
88,
73,
18,
65504,
65467,
76,
65499,
65493,
65515,
65445,
65529,
65525,
65519,
80,
65481,
44,
84,
65513,
46,
29,
65534,
55,
31,
65521,
22,
79,
65530,
74,
65528,
80,
65525,
5,
65511,
65529,
25,
102,
6,
65430,
65442,
46,
65491,
59,
65429,
65381,
65499,
65522,
82,
65515,
49,
65467,
31,
65459,
65463,
102,
65508,
59,
145,
50,
65524,
42,
104,
65,
118,
51,
94,
96,
99,
174,
140,
138,
33,
65480,
25,
221,
307,
162,
118,
66,
65526,
118,
76,
54,
65509,
65498,
73,
27,
65503,
79,
48,
16,
65505,
277,
194,
196,
96,
65512,
65412,
193,
65434,
89,
186,
29,
65348,
65159,
65172,
65321,
44,
167,
65413,
64997,
64833,
65165,
25,
83,
65233,
64857,
65048,
65178,
65377,
4,
65384,
4,
65517,
65417,
65428,
65454,
21,
65514,
65484,
65468,
65401,
102,
161,
116,
213,
259,
111,
65501,
251,
189,
251,
168,
15,
26,
74,
242,
203,
213,
100,
65519,
58,
107,
66,
124,
65442,
65488,
65435,
65505,
91,
120,
65454,
65515,
84,
8,
65479,
52,
65449,
65493,
65422,
65383,
65343,
65514,
65406,
65430,
65315,
65259,
65406,
65332,
65460,
65485,
65378,
65251,
65326,
65281,
65345,
65453,
65414,
65403,
65377,
65429,
65361,
65448,
65388,
65523,
23,
49,
44,
78,
11,
65387,
65489,
65504,
65428,
65472,
65484,
65391,
65535,
65475,
84,
65476,
65470,
228,
52,
157,
13,
60,
79,
66,
65468,
107,
65470,
39,
65455,
54,
30,
181,
131,
36,
65511,
65423,
49,
65440,
24,
65473,
96,
65497,
65486,
83,
65464,
9,
54,
65457,
65318,
65327,
65430,
65414,
215,
115,
32,
203,
65463,
65498,
213,
259,
164,
200,
65401,
65514,
182,
317,
65530,
200,
120,
85,
15,
49,
32,
92,
51,
73,
65440,
65485,
65519,
46,
23,
65469,
7,
65462,
20,
34,
65524,
65465,
65442,
85,
65521,
65454,
140,
10,
65500,
65391,
65239,
65494,
47,
82,
26,
65448,
65433,
65535,
65419,
89,
48,
65452,
36,
32,
65505,
116,
65468,
65281,
65471,
65518,
96,
65475,
65511,
65533,
36,
2,
65485,
217,
225,
125,
23,
145,
65530,
65462,
120,
65530,
52,
53,
65435,
17,
19,
65525,
65514,
95,
31,
20,
138,
79,
98,
5,
65445,
25,
65400,
65307,
65385,
65402,
6,
65484,
249,
26,
45,
107,
65519,
98,
163,
101,
14,
19,
65446,
98,
41,
65516,
21,
113,
24,
65490,
39,
65505,
65501,
139,
65440,
65521,
65396,
65409,
65429,
65449,
65405,
65445,
42,
65524,
65504,
65490,
65466,
65535,
65492,
50,
146,
28,
4,
22,
73,
283,
296,
33,
65390,
65454,
80,
388,
385,
116,
65532,
65532,
146,
515,
192,
65451,
65504,
65496,
65458,
65505,
65,
65481,
65456,
65447,
65448,
65421,
65458,
65437,
75,
76,
64,
65526,
65450,
65426,
65480,
59,
173,
13,
65451,
65483,
65479,
134,
225,
65532,
22,
228,
117,
136,
65495,
129,
309,
179,
65493,
114,
127,
74,
36,
65533,
60,
65513,
214,
379,
276,
79,
16,
65507,
1,
24,
73,
37,
14,
2,
65429,
65511,
65403,
65503,
14,
65509,
124,
65485,
65341,
65303,
65418,
65448,
65527,
65464,
65365,
65371,
65434,
65522,
15,
47,
50,
65449,
66,
13,
65517,
80,
4,
35,
65532,
200,
188,
8,
65414,
65500,
65416,
206,
237,
64,
65519,
65481,
65441,
72,
107,
7,
65517,
40,
181,
81,
31,
106,
52,
65511,
51,
97,
65498,
14,
58,
4,
95,
45,
65487,
65484,
65509,
65470,
68,
65444,
149,
65526,
65406,
65505,
65461,
27,
65488,
65349,
65452,
65393,
65524,
65,
65396,
65253,
65383,
65374,
39,
5,
65520,
65385,
65469,
65498,
65480,
53,
65473,
65343,
65377,
65418,
64,
31,
104,
228,
298,
344,
9,
65528,
50,
179,
184,
21,
82,
65438,
24,
79,
0,
65371,
47,
16,
41,
65532,
65414,
35,
14,
65450,
3,
65465,
129,
92,
43,
65442,
53,
65509,
65447,
65526,
65530,
65468,
17,
32,
16,
90,
65446,
65457,
65479,
46,
65508,
0,
90,
9,
65445,
65445,
65509,
65467,
65469,
87,
65473,
67,
52,
5,
2,
84,
65458,
68,
65,
65438,
65450,
65453,
69,
8,
65522,
2,
1,
20,
65474,
65436,
31,
48,
42,
115,
45,
65521,
65466,
78,
179,
214,
186,
65523,
242,
33,
48,
198,
214,
18,
48,
65473,
242,
51,
163,
34,
65498,
65512,
65,
23,
26,
74,
88,
115,
81,
65509,
65455,
65368,
65341,
65333,
101,
0,
97,
65509,
65364,
72,
65478,
90,
65414,
65331,
65261,
65257,
65469,
65512,
7,
65145,
65244,
65306,
33,
18,
65338,
65264,
65481,
65503,
65372,
65477,
65467,
65473,
65415,
65375,
65435,
65379,
32,
65360,
65403,
65367,
65437,
10,
65447,
181,
180,
65370,
65505,
17,
274,
271,
271,
197,
65354,
65402,
253,
466,
334,
65500,
65383,
209,
341,
376,
410,
314,
210,
65499,
65393,
65497,
143,
118,
14,
65524,
83,
3,
119,
65510,
61,
8,
65494,
25,
65376,
62,
66,
27,
65283,
65302,
65374,
65348,
65502,
23,
65398,
65109,
65365,
65437,
65445,
47,
65371,
65245,
65383,
40,
65518,
65528,
109,
81,
13,
65534,
65522,
65499,
65529,
65530,
65454,
65475,
82,
31,
46,
65516,
91,
65527,
46,
24,
1,
65400,
79,
65487,
65473,
15,
98,
15,
52,
65458,
65479,
54,
65485,
65464,
65519,
65331,
65452,
65524,
4,
23,
56,
65507,
103,
56,
65503,
65500,
57,
65463,
65513,
79,
90,
65468,
65463,
90,
173,
158,
65427,
65403,
65318,
65301,
129,
133,
4,
65453,
65300,
65325,
65498,
77,
65500,
65481,
65521,
65489,
65481,
65487,
65511,
65503,
65526,
65478,
65519,
72,
125,
41,
122,
65505,
65491,
65493,
65509,
217,
44,
65510,
30,
49,
65514,
65479,
65392,
65506,
21,
65484,
41,
65449,
65432,
65486,
65446,
36,
26,
65520,
33,
65521,
50,
88,
20,
22,
86,
65525,
49,
105,
82,
23,
65503,
53,
84,
111,
212,
36,
71,
31,
81,
381,
166,
254,
160,
238,
36,
251,
279,
23,
128,
175,
57,
211,
65533,
126,
211,
30,
88,
6,
8,
65515,
65485,
65427,
101,
65516,
12,
127,
59,
47,
65513,
65499,
180,
65456,
65512,
65518,
4,
65464,
65418,
65527,
65429,
65351,
19,
94,
30,
65448,
46,
65483,
55,
9,
65419,
65475,
41,
65379,
65443,
65509,
64,
18,
95,
65462,
6,
50,
54,
10,
65443,
65439,
65530,
25,
5,
17,
60,
12,
65493,
65535,
8,
79,
65428,
65433,
106,
65532,
65468,
65507,
34,
65360,
1,
65511,
65432,
65386,
65376,
65455,
65451,
60,
65456,
65488,
65465,
65490,
65479,
65,
73,
65439,
26,
22,
114,
108,
44,
65411,
104,
127,
65447,
110,
242,
315,
208,
12,
65479,
5,
125,
123,
65449,
131,
65477,
65502,
187,
53,
65509,
9,
65358,
65524,
48,
65444,
35,
65486,
65354,
41,
49,
110,
261,
150,
65466,
16,
36,
94,
65482,
98,
212,
162,
65435,
65437,
65329,
65443,
38,
46,
65388,
65504,
65460,
65483,
95,
65519,
65384,
65491,
65513,
65516,
65447,
65495,
65496,
87,
31,
65418,
29,
65491,
65462,
36,
96,
65465,
65439,
93,
292,
156,
141,
289,
11,
49,
211,
244,
347,
204,
76,
65448,
150,
272,
292,
191,
65484,
85,
123,
112,
246,
156,
52,
75,
65478,
65481,
94,
19,
65448,
