memory_initialization_radix=10;
memory_initialization_vector =
65458,
65404,
65468,
65448,
65534,
16,
65388,
65458,
65459,
61,
158,
30,
65485,
96,
75,
151,
22,
65462,
13,
65523,
324,
241,
65451,
82,
65314,
65424,
65443,
65478,
65384,
42,
65493,
65410,
65456,
65439,
64,
65467,
175,
60,
65479,
65534,
85,
65508,
324,
229,
158,
65520,
65509,
54,
185,
142,
213,
85,
65510,
65480,
177,
49,
65459,
65508,
65475,
65450,
65397,
65462,
65449,
65418,
8,
80,
65233,
65467,
32,
65471,
65496,
44,
65471,
134,
79,
141,
65517,
65434,
65471,
56,
65516,
65455,
11,
29,
65307,
65458,
13,
69,
242,
65445,
65521,
50,
65526,
134,
201,
202,
65363,
65396,
128,
65499,
29,
65416,
65453,
65350,
65468,
65347,
76,
65443,
20,
65435,
65385,
65489,
281,
354,
109,
65496,
65483,
158,
151,
205,
212,
183,
154,
65421,
76,
128,
161,
65475,
19,
65431,
65474,
65410,
220,
94,
37,
94,
65493,
153,
50,
85,
151,
71,
65522,
59,
65454,
53,
65497,
80,
65451,
37,
65493,
65443,
65521,
65525,
2,
65468,
65456,
65470,
65504,
65506,
65502,
88,
29,
65484,
65522,
65500,
65504,
9,
65521,
37,
65510,
65525,
40,
65529,
65505,
65514,
78,
58,
59,
65514,
65377,
65420,
28,
98,
94,
75,
65363,
121,
246,
231,
131,
218,
65534,
325,
292,
287,
411,
166,
65419,
134,
65527,
149,
119,
12,
65445,
81,
65534,
17,
65511,
89,
65284,
65355,
65488,
65523,
65528,
65,
60,
450,
28,
156,
65444,
65457,
19,
486,
158,
132,
65475,
119,
137,
218,
78,
29,
89,
82,
105,
178,
65498,
65491,
65401,
33,
65216,
65522,
109,
65317,
65474,
65480,
65411,
65427,
65502,
65483,
65361,
17,
61,
29,
13,
82,
65515,
154,
103,
65355,
65288,
65321,
65458,
65350,
100,
0,
65419,
65503,
62,
65517,
65503,
65475,
117,
11,
65398,
65496,
16,
65487,
40,
65419,
65432,
65405,
115,
21,
40,
89,
65496,
65453,
220,
116,
86,
65406,
65391,
61,
96,
185,
96,
65526,
49,
4,
70,
79,
65404,
65342,
65258,
65485,
42,
65374,
0,
65535,
65527,
65503,
65522,
65510,
65468,
65503,
58,
183,
55,
65500,
65494,
190,
11,
114,
65410,
65418,
12,
65485,
28,
33,
23,
65414,
65517,
65439,
29,
65471,
65390,
65410,
13,
65381,
56,
9,
65387,
65505,
65428,
65487,
125,
78,
65369,
65517,
65477,
65289,
65483,
171,
65517,
65478,
65391,
65358,
65427,
23,
65475,
19,
68,
65457,
65500,
65508,
17,
65535,
65457,
49,
73,
30,
50,
65453,
0,
65497,
40,
65479,
0,
65435,
65477,
65456,
19,
65491,
28,
65535,
65464,
65504,
68,
27,
36,
65509,
70,
60,
65500,
65533,
65521,
1,
164,
199,
65519,
65378,
65367,
65361,
65424,
65220,
65474,
65429,
20,
65526,
65369,
65436,
151,
65454,
65500,
65510,
65422,
38,
73,
65525,
65506,
75,
170,
10,
8,
65411,
65412,
65456,
24,
65406,
65486,
65409,
65491,
65357,
65429,
65519,
84,
65522,
65356,
65302,
65182,
65314,
65470,
65533,
65408,
65328,
65229,
65380,
65470,
65471,
65435,
65433,
65442,
65415,
10,
91,
65479,
65413,
65481,
65338,
65470,
65461,
21,
115,
20,
65433,
65372,
65490,
239,
12,
65403,
1,
65374,
65498,
279,
146,
422,
115,
65510,
65344,
41,
336,
374,
253,
65260,
65178,
93,
266,
243,
401,
65446,
65197,
132,
65525,
65480,
198,
65532,
65195,
65395,
65458,
88,
60,
69,
65349,
226,
50,
65529,
65371,
65397,
17,
72,
65508,
65455,
65445,
65521,
6,
65438,
65439,
65340,
65444,
65329,
65426,
11,
65460,
65394,
65348,
65426,
119,
65526,
65535,
65500,
65521,
65423,
84,
219,
88,
14,
65486,
143,
74,
61,
65496,
65476,
4,
20,
65458,
162,
65470,
20,
18,
65486,
65391,
65436,
80,
65453,
65511,
65403,
65455,
65394,
65498,
65475,
65435,
65364,
65489,
65427,
65474,
22,
45,
65514,
65355,
65474,
65377,
65497,
65472,
65504,
56,
41,
65452,
45,
122,
65528,
27,
46,
65504,
65481,
84,
65454,
65515,
65512,
31,
120,
45,
65504,
65436,
65504,
95,
71,
38,
65493,
61,
29,
65515,
63,
65516,
37,
12,
65483,
65479,
65517,
65453,
65494,
50,
8,
65400,
24,
65,
65296,
65469,
52,
309,
331,
336,
65363,
65366,
132,
144,
436,
196,
65222,
65207,
41,
332,
350,
337,
65443,
65238,
13,
18,
65432,
293,
8,
65401,
65360,
65333,
65483,
216,
65521,
65394,
65370,
65170,
65259,
65318,
118,
150,
65380,
65304,
65348,
65463,
65431,
154,
65228,
65345,
65433,
65458,
65525,
65471,
65268,
32,
61,
65448,
65473,
79,
65312,
56,
65401,
65428,
65418,
143,
78,
84,
20,
13,
65470,
39,
65401,
65408,
65400,
65263,
24,
65433,
131,
25,
64,
65519,
32,
61,
65372,
65532,
65443,
65498,
65400,
65435,
65284,
96,
241,
167,
65470,
65519,
65491,
65520,
65490,
65416,
65349,
65452,
87,
65258,
65347,
65369,
65499,
65443,
65453,
65530,
128,
209,
65522,
65355,
65427,
65327,
65266,
65336,
48,
65458,
65415,
65424,
65389,
65312,
65526,
89,
6,
0,
65393,
61,
72,
109,
83,
12,
69,
65520,
2,
65306,
12,
65493,
202,
65482,
65491,
65334,
149,
104,
98,
65459,
65434,
65397,
65449,
65398,
7,
65499,
65466,
65310,
65487,
160,
21,
65522,
231,
65485,
65496,
14,
196,
140,
280,
65387,
127,
247,
199,
147,
233,
65509,
130,
148,
65492,
74,
52,
16,
65500,
65385,
113,
328,
237,
125,
65393,
65352,
65452,
189,
4,
81,
65451,
65396,
65352,
65390,
65466,
65502,
65348,
28,
65442,
65435,
65404,
65435,
337,
105,
71,
161,
65421,
65492,
322,
519,
383,
270,
218,
21,
65526,
65286,
115,
131,
65529,
55,
56,
65305,
65237,
65275,
65393,
65533,
65441,
65189,
65298,
65354,
65400,
46,
57,
65416,
65511,
19,
105,
65467,
290,
105,
65349,
11,
52,
2,
215,
387,
264,
239,
170,
79,
78,
64,
65368,
65462,
64,
65496,
65532,
65216,
65464,
65420,
65473,
65379,
65485,
65116,
65376,
65247,
46,
115,
65526,
65367,
65397,
65301,
89,
65434,
65442,
65470,
65444,
65196,
65441,
48,
18,
14,
65489,
65256,
65472,
57,
65523,
65462,
129,
32,
65447,
118,
65406,
119,
244,
306,
13,
65379,
65351,
84,
178,
377,
11,
65392,
78,
162,
111,
121,
3,
65418,
223,
65524,
174,
103,
65497,
65353,
65342,
265,
162,
39,
65535,
65468,
65494,
65205,
65372,
65515,
17,
49,
23,
65153,
65169,
65207,
65458,
65518,
65456,
65192,
65318,
65233,
65459,
65476,
65288,
65311,
86,
65527,
65431,
65390,
65457,
65448,
65523,
20,
65513,
65454,
48,
65473,
73,
203,
96,
87,
65510,
65123,
65308,
65419,
145,
65486,
64,
65208,
65359,
65505,
65409,
26,
65419,
65366,
65453,
16,
40,
46,
65230,
65400,
43,
65530,
65492,
65467,
65379,
93,
65438,
92,
164,
59,
65368,
65459,
65442,
66,
33,
116,
65533,
65460,
65500,
65,
2,
66,
65519,
12,
5,
65451,
65448,
5,
11,
65457,
54,
28,
59,
22,
65455,
65480,
65440,
78,
40,
65522,
65519,
65426,
65467,
65432,
39,
65460,
68,
65465,
65479,
7,
8,
66,
65391,
154,
190,
60,
65410,
65338,
65399,
65426,
65372,
65386,
65394,
65340,
65425,
65530,
11,
65359,
71,
65499,
65481,
145,
7,
50,
151,
65442,
65404,
65503,
200,
65530,
48,
65310,
65395,
65406,
49,
65527,
65,
65357,
65516,
65532,
65448,
65498,
65487,
6,
65463,
65471,
65516,
23,
65480,
65478,
65529,
65500,
65498,
65471,
68,
65442,
65499,
49,
65441,
65495,
65460,
74,
65446,
65466,
65450,
53,
65443,
79,
45,
6,
65528,
4,
33,
89,
65478,
65280,
65297,
47,
98,
122,
65395,
65059,
65190,
65462,
65485,
46,
65436,
65192,
65330,
65417,
62,
65482,
65387,
65449,
64,
135,
65477,
65535,
65509,
65535,
51,
23,
65491,
65432,
113,
65529,
145,
119,
28,
42,
1,
65518,
65511,
61,
65444,
65481,
65521,
65462,
65478,
65442,
31,
63,
29,
17,
11,
2,
65437,
65439,
65444,
48,
65464,
65404,
71,
40,
65426,
65460,
25,
61,
65,
65500,
65462,
65441,
65465,
0,
65490,
65471,
65526,
65398,
65408,
65459,
44,
65512,
65401,
65325,
65303,
65281,
65481,
57,
65500,
65014,
65216,
65197,
71,
169,
65494,
65371,
65316,
65490,
19,
173,
65520,
65535,
50,
65462,
65441,
125,
149,
90,
65504,
65298,
21,
113,
65474,
65291,
65405,
65531,
65500,
65496,
65345,
65275,
65345,
65327,
65358,
65519,
65346,
65398,
65430,
65446,
65409,
65380,
65351,
65458,
65448,
65449,
65396,
65408,
65384,
65461,
25,
65377,
65401,
65289,
65332,
65389,
65428,
65467,
65403,
65450,
65382,
65407,
65274,
28,
451,
96,
130,
75,
65497,
38,
110,
492,
184,
85,
332,
150,
286,
352,
65413,
65519,
65528,
65510,
2,
48,
65134,
65398,
65430,
65405,
142,
380,
65334,
65482,
98,
65352,
65450,
65,
181,
149,
65510,
65441,
65518,
65456,
170,
230,
88,
65430,
65532,
73,
187,
99,
90,
65461,
24,
65402,
147,
65509,
65510,
65511,
65411,
65510,
65469,
65512,
65470,
65516,
65443,
65519,
65454,
4,
65457,
65527,
16,
65364,
93,
65511,
25,
65496,
65517,
26,
16,
9,
65218,
65276,
65496,
65506,
22,
65210,
65231,
64959,
65460,
230,
65490,
2,
65234,
65105,
65439,
147,
65500,
65461,
65321,
65360,
65517,
65498,
229,
17,
102,
65504,
215,
87,
93,
151,
165,
109,
65427,
65457,
65520,
186,
157,
65460,
44,
39,
5,
52,
237,
65435,
84,
77,
138,
250,
88,
51,
65464,
79,
65493,
97,
65532,
65495,
65441,
65529,
65400,
65467,
18,
9,
65457,
73,
65523,
196,
65530,
183,
65438,
65273,
90,
53,
177,
368,
65432,
65344,
16,
481,
481,
537,
65520,
65202,
111,
404,
423,
367,
50,
65440,
65386,
65289,
38,
119,
25,
65358,
65438,
65280,
65515,
41,
53,
65300,
38,
65520,
76,
60,
36,
47,
44,
65483,
65460,
81,
65467,
15,
69,
65500,
65517,
65440,
65485,
65449,
50,
65473,
78,
65463,
13,
65452,
65486,
65446,
65492,
65500,
22,
83,
65486,
65461,
65482,
65478,
65470,
65500,
64,
65530,
15,
65497,
65497,
65496,
4,
65440,
65330,
65317,
65444,
65410,
13,
48,
65429,
65469,
58,
65457,
65497,
65511,
65484,
103,
65524,
90,
65462,
65535,
14,
65475,
65514,
65361,
47,
19,
83,
65513,
107,
65481,
65203,
65292,
65373,
78,
65531,
65494,
65311,
65244,
65526,
91,
65501,
26,
65483,
48,
142,
298,
189,
65501,
65407,
68,
43,
139,
94,
35,
65403,
52,
207,
65,
103,
108,
65224,
65521,
65491,
65403,
65388,
65384,
65412,
65207,
115,
65383,
65470,
97,
65279,
65292,
65225,
65300,
65353,
218,
58,
65109,
65097,
65110,
65281,
161,
65522,
65347,
65306,
65408,
65466,
162,
324,
65481,
65519,
65494,
65479,
65455,
498,
197,
76,
149,
65524,
65435,
65317,
65171,
65195,
65309,
139,
116,
65511,
65167,
65364,
65456,
21,
173,
65276,
65335,
65457,
105,
71,
17,
65260,
65457,
89,
185,
92,
66,
65317,
65396,
65504,
93,
65504,
232,
65502,
65480,
65356,
0,
70,
271,
53,
65493,
65442,
65463,
65477,
7,
65443,
65480,
65531,
42,
43,
18,
39,
65453,
65490,
8,
72,
21,
65467,
65525,
65520,
65525,
65,
65510,
65444,
65472,
76,
65528,
65525,
8,
65460,
65435,
65485,
65493,
43,
65460,
22,
42,
0,
65462,
65507,
65448,
48,
51,
148,
65535,
49,
65448,
65444,
65509,
65442,
65522,
48,
17,
65510,
65463,
65212,
70,
30,
65426,
65482,
65376,
65368,
65398,
56,
65483,
147,
65446,
47,
65456,
65372,
30,
43,
65419,
65454,
65420,
65467,
65449,
95,
65525,
65535,
14,
11,
109,
65492,
65509,
65402,
65383,
65426,
65497,
65487,
91,
28,
79,
65315,
65416,
65521,
65433,
65419,
72,
65402,
65412,
132,
65302,
65530,
65342,
27,
65484,
42,
110,
65415,
53,
65533,
61,
65468,
65524,
65422,
164,
139,
112,
65533,
429,
202,
131,
0,
65462,
65528,
101,
117,
73,
65512,
65530,
65468,
65411,
5,
23,
53,
5,
65504,
65445,
56,
115,
60,
65450,
65439,
65471,
65520,
65480,
65434,
65402,
65505,
66,
65535,
65440,
65535,
65440,
65475,
65467,
65512,
6,
65439,
44,
65532,
16,
131,
29,
130,
65448,
32,
65528,
65490,
85,
129,
65456,
65429,
11,
65511,
55,
65477,
60,
65432,
65478,
65439,
65397,
81,
80,
65379,
65325,
65348,
65453,
111,
205,
65465,
65519,
167,
234,
11,
65471,
65498,
41,
244,
195,
113,
29,
65395,
65381,
12,
65486,
1,
147,
72,
65497,
65433,
65463,
65510,
64,
65510,
32,
123,
147,
65481,
65449,
142,
211,
483,
613,
30,
65114,
77,
222,
356,
602,
13,
65202,
118,
286,
272,
393,
117,
65203,
113,
65460,
84,
397,
27,
65381,
65416,
129,
175,
283,
66,
65405,
18,
74,
65516,
65472,
65480,
8,
65487,
65436,
65431,
65429,
26,
6,
99,
7,
65478,
11,
89,
65483,
65463,
65533,
65445,
65492,
52,
65518,
65503,
64,
44,
65475,
65513,
123,
65526,
2,
5,
65486,
18,
65485,
81,
68,
65439,
25,
65508,
65500,
69,
106,
48,
65426,
24,
26,
12,
192,
6,
65441,
0,
65442,
65439,
65513,
65522,
96,
65454,
31,
99,
65531,
65357,
65455,
65380,
65417,
65519,
65445,
65512,
13,
65467,
36,
68,
65429,
65444,
65372,
65524,
131,
234,
65364,
65166,
65309,
41,
65507,
64,
65181,
65140,
65429,
20,
42,
65488,
65437,
65477,
65494,
65525,
63,
272,
46,
65523,
137,
65518,
65439,
114,
71,
35,
218,
78,
131,
331,
136,
62,
65502,
65405,
65352,
356,
465,
487,
218,
16,
65376,
237,
273,
298,
142,
65316,
65344,
65516,
162,
182,
221,
65476,
65369,
65427,
65462,
76,
185,
28,
65339,
65366,
65316,
44,
86,
65463,
2,
92,
75,
87,
127,
65443,
88,
65529,
65328,
65303,
65343,
65377,
65460,
112,
65375,
65224,
65335,
65526,
65513,
65504,
65512,
48,
114,
25,
65517,
65501,
62,
33,
65501,
65336,
65368,
34,
105,
41,
5,
21,
65419,
231,
64,
101,
65467,
65408,
65517,
145,
92,
65477,
12,
67,
65504,
47,
65528,
65387,
65358,
65460,
11,
144,
65522,
65507,
65476,
65477,
124,
159,
65490,
65473,
65441,
15,
247,
169,
95,
65510,
59,
88,
68,
53,
21,
130,
65494,
1,
25,
65518,
65480,
26,
140,
22,
21,
65514,
65401,
34,
315,
65464,
65505,
65453,
65492,
217,
100,
65519,
7,
115,
65420,
65510,
65513,
34,
58,
65465,
65424,
65508,
6,
65529,
65431,
246,
176,
163,
150,
65479,
65428,
4,
49,
77,
109,
114,
65190,
220,
54,
229,
15,
65331,
65361,
206,
31,
98,
128,
40,
65379,
68,
120,
113,
65480,
30,
65429,
74,
317,
84,
102,
65493,
65493,
65407,
65355,
239,
74,
65483,
65373,
65371,
65214,
65221,
65155,
16,
223,
65273,
65101,
65059,
65081,
65412,
309,
8,
65365,
65383,
65221,
40,
338,
238,
65369,
56,
124,
65490,
139,
310,
37,
103,
120,
65452,
65340,
115,
65350,
65446,
65247,
79,
120,
259,
65357,
65484,
65288,
65528,
107,
156,
65318,
65302,
65064,
65531,
344,
22,
65385,
65267,
65213,
16,
0,
65480,
59,
65498,
65384,
102,
127,
210,
71,
69,
65441,
79,
138,
78,
208,
69,
9,
65313,
65310,
155,
376,
440,
274,
65394,
65211,
47,
494,
428,
360,
65350,
65074,
65491,
486,
510,
425,
65502,
65071,
65531,
65455,
151,
244,
119,
65259,
65316,
65403,
65506,
65488,
65443,
65318,
65450,
65463,
65507,
78,
54,
65,
65430,
65409,
30,
65453,
65488,
65481,
62,
65432,
65413,
65516,
65477,
87,
65461,
65393,
65469,
65526,
65479,
65499,
65534,
65477,
65468,
40,
65488,
42,
56,
65514,
65487,
69,
65475,
0,
65391,
179,
245,
66,
12,
14,
65304,
65503,
65395,
65430,
65499,
115,
65462,
65523,
37,
65423,
19,
34,
65519,
108,
65422,
65490,
17,
90,
91,
158,
4,
65315,
65510,
65526,
65488,
200,
69,
65418,
28,
65316,
65170,
65374,
65445,
65484,
217,
236,
65291,
37,
97,
136,
24,
225,
21,
258,
279,
291,
212,
138,
65484,
147,
188,
135,
65524,
136,
65491,
26,
25,
45,
49,
15,
59,
65535,
65527,
27,
65460,
98,
138,
3,
19,
3,
89,
65,
99,
166,
221,
70,
135,
146,
227,
141,
270,
14,
65474,
62,
85,
5,
12,
65419,
13,
103,
46,
65469,
65380,
65374,
65491,
205,
65500,
65457,
65428,
96,
65525,
210,
65420,
65526,
65269,
65393,
183,
21,
65233,
65479,
65515,
128,
65528,
90,
65332,
28,
45,
164,
154,
23,
65478,
14,
65502,
65478,
126,
65498,
171,
234,
76,
65531,
65523,
210,
65397,
65534,
65486,
48,
84,
65531,
65378,
65400,
55,
65439,
1,
65362,
65418,
65379,
65432,
65343,
65504,
138,
21,
65303,
65250,
65404,
71,
193,
69,
13,
65468,
65496,
65475,
65510,
65478,
65400,
65374,
111,
65374,
65480,
85,
65435,
65445,
29,
10,
65489,
90,
127,
51,
0,
65496,
22,
18,
65487,
65393,
65507,
28,
41,
106,
65442,
65307,
65418,
90,
214,
58,
65336,
65482,
65332,
65,
209,
145,
65438,
73,
65419,
184,
109,
164,
23,
65482,
53,
200,
81,
65190,
65323,
65228,
65420,
22,
38,
51,
65396,
65271,
31,
65531,
59,
65342,
65515,
39,
223,
116,
65464,
65369,
118,
271,
155,
28,
267,
65249,
65,
65447,
85,
25,
65517,
93,
54,
65408,
65376,
65513,
46,
29,
65478,
65475,
65481,
57,
65483,
65481,
146,
62,
25,
65512,
39,
33,
163,
13,
216,
65466,
18,
82,
65507,
47,
252,
6,
22,
15,
110,
134,
150,
107,
40,
16,
65435,
24,
29,
65523,
22,
65375,
65280,
65238,
65422,
238,
272,
219,
188,
215,
114,
221,
348,
247,
12,
65528,
52,
178,
150,
8,
65278,
65279,
65368,
197,
45,
65283,
65504,
65331,
65243,
31,
397,
65433,
65522,
65529,
65518,
65421,
175,
232,
65511,
65,
0,
32,
3,
132,
181,
176,
45,
65465,
65348,
291,
3,
43,
65346,
65398,
65501,
256,
65504,
65303,
65403,
27,
65380,
363,
65534,
65471,
104,
65456,
65487,
208,
283,
89,
121,
65432,
119,
65508,
139,
65317,
65474,
9,
48,
105,
251,
156,
65469,
18,
81,
31,
5,
51,
72,
255,
51,
59,
65442,
252,
65535,
152,
63,
65274,
65460,
11,
65452,
33,
65530,
65384,
4,
36,
65343,
65351,
109,
85,
65467,
69,
65483,
65517,
79,
26,
65448,
65436,
65520,
65436,
65522,
2,
59,
65534,
34,
65446,
29,
65503,
65457,
12,
65521,
65492,
65438,
27,
65477,
2,
65475,
18,
40,
65521,
61,
65505,
65445,
66,
58,
65272,
65398,
105,
103,
215,
116,
65381,
65499,
94,
293,
232,
194,
65423,
197,
179,
199,
296,
149,
57,
123,
65346,
59,
48,
116,
20,
195,
128,
0,
7,
135,
65509,
132,
65467,
8,
3,
65515,
65440,
65422,
65415,
65442,
228,
85,
179,
224,
177,
211,
23,
65523,
65500,
575,
449,
317,
64,
65470,
90,
346,
526,
375,
208,
65438,
115,
45,
65500,
92,
65523,
51,
65438,
65412,
65495,
65507,
65419,
120,
10,
5,
375,
173,
65396,
65463,
65361,
65267,
7,
201,
174,
65285,
65499,
65438,
65325,
65504,
65341,
65250,
160,
65401,
40,
65434,
51,
65455,
315,
8,
316,
88,
144,
65469,
97,
329,
141,
300,
246,
65433,
65396,
113,
65520,
53,
59,
144,
114,
404,
398,
220,
353,
41,
65382,
508,
610,
671,
236,
13,
65512,
269,
507,
353,
112,
65378,
65363,
48,
143,
111,
65,
65442,
65413,
65432,
65506,
20,
6,
65522,
65484,
43,
22,
63,
65475,
65481,
65441,
62,
43,
65444,
87,
46,
26,
53,
8,
65508,
65514,
65458,
65489,
45,
74,
73,
22,
63,
75,
65529,
65467,
65468,
65448,
85,
37,
23,
33,
58,
65445,
10,
65505,
101,
83,
178,
78,
18,
25,
65295,
65218,
65277,
65507,
65351,
37,
65331,
65420,
65309,
65507,
83,
65530,
65494,
65476,
91,
78,
44,
16,
19,
73,
65500,
152,
65451,
163,
26,
16,
65512,
78,
65433,
24,
31,
65420,
65506,
33,
177,
151,
15,
65490,
65488,
44,
65480,
108,
65476,
71,
186,
84,
36,
65469,
65479,
13,
120,
150,
155,
96,
72,
179,
93,
163,
151,
63,
82,
65405,
5,
118,
131,
65402,
65493,
41,
65483,
65515,
2,
65532,
65372,
65461,
65528,
65528,
87,
23,
65443,
65359,
65531,
65494,
130,
101,
65462,
65402,
65432,
109,
8,
7,
65522,
70,
65495,
24,
12,
65487,
65508,
65527,
65449,
65477,
65489,
187,
115,
72,
123,
65524,
107,
10,
55,
36,
185,
91,
65375,
318,
166,
44,
123,
44,
65416,
305,
65430,
98,
46,
107,
65352,
243,
146,
147,
65449,
20,
65504,
290,
325,
65525,
61,
92,
26,
317,
329,
65527,
45,
65481,
41,
65480,
303,
65417,
292,
188,
65525,
50,
453,
613,
675,
65476,
65389,
65530,
65311,
65463,
61,
41,
65493,
65507,
65454,
65380,
65508,
65348,
65438,
65378,
65281,
12,
288,
55,
65431,
293,
168,
36,
3,
65506,
33,
235,
65485,
65466,
65518,
65522,
37,
56,
65464,
65394,
65395,
65478,
65,
65493,
27,
65478,
65404,
42,
83,
65530,
0,
7,
65492,
65490,
65532,
355,
198,
65534,
105,
137,
65492,
375,
105,
14,
65497,
65246,
65328,
281,
66,
65526,
65320,
65362,
65262,
148,
65368,
65373,
65284,
65337,
65484,
102,
65495,
65353,
65506,
65370,
65439,
118,
65516,
65486,
60,
65484,
65522,
65493,
8,
171,
65520,
205,
65460,
65315,
65459,
65316,
65444,
133,
65495,
303,
368,
412,
23,
65416,
8,
218,
419,
349,
65509,
65519,
65421,
136,
232,
459,
228,
65514,
65147,
13,
60,
5,
65393,
2,
65401,
65234,
65327,
25,
65467,
65462,
65306,
54,
58,
65534,
87,
43,
65522,
65534,
29,
41,
56,
65471,
25,
24,
65495,
65520,
11,
69,
29,
15,
65440,
65513,
39,
65490,
65463,
65429,
67,
69,
65464,
22,
65504,
65469,
67,
5,
65505,
18,
65443,
30,
65500,
65471,
65510,
41,
43,
65491,
45,
63,
17,
107,
65520,
65482,
65402,
33,
65503,
35,
0,
65534,
65407,
41,
39,
65525,
113,
16,
65439,
65470,
15,
122,
48,
109,
10,
65533,
86,
65499,
80,
65398,
65382,
34,
65530,
2,
70,
65463,
65349,
65373,
65447,
65461,
65442,
65528,
65351,
65461,
65430,
65312,
65366,
53,
65428,
65456,
14,
65411,
65439,
65522,
65523,
65374,
65533,
65500,
65371,
65481,
13,
65490,
65481,
36,
65424,
72,
65434,
295,
153,
65476,
66,
65505,
65138,
65123,
65391,
65492,
65449,
65324,
65199,
65367,
65391,
65311,
65366,
65230,
65407,
65412,
65316,
65484,
65525,
237,
143,
187,
35,
23,
60,
260,
279,
248,
94,
360,
94,
65407,
65412,
65255,
65516,
54,
65313,
65516,
65325,
65303,
65424,
65430,
65473,
65286,
65471,
65435,
44,
24,
65376,
65270,
83,
65534,
203,
126,
65487,
65285,
65390,
24,
22,
137,
65399,
65319,
65368,
65466,
65474,
65525,
65427,
67,
135,
91,
71,
3,
119,
65507,
231,
133,
211,
130,
38,
75,
358,
369,
307,
65528,
65348,
8,
250,
282,
222,
162,
65327,
27,
108,
23,
186,
65482,
65473,
65390,
78,
65484,
67,
65451,
55,
65449,
65418,
65468,
15,
86,
65514,
28,
440,
504,
292,
193,
65460,
65498,
392,
476,
612,
139,
65311,
173,
170,
166,
275,
100,
65325,
65403,
65521,
65469,
65528,
65509,
168,
65268,
65360,
65348,
65401,
65383,
65395,
177,
34,
70,
77,
119,
45,
67,
142,
131,
65510,
65499,
5,
97,
207,
123,
175,
81,
74,
65535,
155,
108,
110,
34,
65510,
65413,
18,
65530,
65458,
58,
65482,
65411,
65471,
38,
65525,
65462,
65483,
81,
9,
129,
65388,
18,
65489,
82,
46,
65433,
65351,
65359,
65510,
91,
30,
65359,
65131,
65456,
65486,
65504,
52,
65286,
65082,
65452,
65388,
119,
63,
65478,
65327,
65457,
65526,
216,
10,
164,
23,
186,
137,
55,
131,
143,
4,
65359,
65331,
65474,
147,
244,
22,
65403,
65468,
242,
99,
15,
18,
65390,
65393,
317,
153,
49,
89,
65371,
65370,
65534,
65507,
65358,
65437,
65324,
65423,
65475,
63,
70,
61,
75,
65453,
65358,
65210,
65395,
18,
65497,
65470,
65298,
65382,
65429,
37,
64,
65458,
65420,
65189,
65419,
65314,
113,
31,
65441,
65312,
65321,
65296,
65479,
65359,
65415,
65502,
65423,
65357,
65464,
198,
65526,
158,
44,
65285,
65485,
148,
199,
33,
65414,
65518,
65519,
103,
298,
13,
65527,
65507,
18,
65529,
115,
65338,
65330,
65199,
65466,
124,
65480,
65344,
65217,
65493,
65423,
65522,
65405,
35,
59,
65526,
65420,
65511,
134,
79,
0,
65416,
65,
172,
57,
17,
22,
137,
65458,
65437,
65407,
65380,
65535,
65409,
65511,
48,
65459,
65287,
65283,
65430,
27,
65513,
65360,
65341,
65350,
65291,
65523,
275,
97,
65487,
65434,
65518,
65354,
72,
172,
61,
41,
123,
65533,
81,
12,
65375,
65368,
183,
165,
232,
65528,
65110,
65258,
65443,
245,
25,
174,
65249,
65526,
155,
58,
105,
65481,
65239,
65376,
91,
65460,
65505,
191,
65522,
182,
99,
26,
65459,
254,
65501,
153,
467,
129,
178,
65420,
65339,
65505,
65463,
55,
45,
65358,
65280,
65455,
65523,
65457,
65411,
65376,
65477,
65406,
47,
65387,
65405,
65308,
65505,
77,
65374,
65348,
65454,
65432,
65481,
65352,
65361,
65435,
65358,
65516,
65462,
65357,
65432,
65473,
65517,
65461,
62,
57,
65524,
111,
106,
65365,
65487,
65446,
40,
65527,
65519,
125,
50,
106,
160,
65524,
65365,
203,
65512,
139,
208,
65,
65440,
194,
149,
35,
65523,
103,
94,
65479,
256,
19,
62,
89,
37,
149,
163,
65383,
51,
128,
65442,
118,
65454,
65383,
65422,
68,
48,
150,
65385,
48,
65480,
65385,
65382,
65522,
65487,
13,
65483,
51,
21,
94,
65465,
65488,
167,
65480,
65496,
65499,
65466,
65465,
66,
65531,
97,
65435,
65521,
57,
65453,
44,
55,
65451,
65491,
65511,
65516,
33,
46,
25,
65434,
69,
30,
56,
65451,
46,
79,
64,
63,
65480,
76,
65524,
59,
65513,
53,
65525,
84,
65445,
65462,
30,
65464,
65443,
67,
65431,
65181,
65292,
65178,
65419,
65414,
65532,
12,
328,
362,
65407,
65440,
62,
133,
195,
323,
65322,
65230,
122,
76,
24,
160,
65449,
65394,
65444,
37,
60,
87,
65436,
65487,
65257,
65365,
61,
107,
65478,
65402,
65385,
65270,
67,
48,
65520,
51,
65120,
65191,
65110,
65387,
65445,
30,
65509,
65096,
65341,
65094,
77,
65435,
65175,
65418,
65199,
65022,
65402,
65442,
85,
52,
11,
65178,
162,
134,
202,
301,
51,
65288,
156,
217,
308,
293,
153,
127,
17,
69,
340,
400,
300,
65494,
104,
104,
135,
65436,
65420,
65252,
65461,
140,
128,
65533,
65416,
1,
65405,
65386,
65285,
65496,
123,
79,
65464,
65402,
227,
39,
84,
65533,
70,
65521,
65500,
65465,
12,
65535,
31,
21,
65349,
65386,
65517,
146,
57,
51,
65360,
39,
198,
200,
65534,
65419,
11,
117,
236,
53,
65437,
65527,
149,
65479,
0,
122,
70,
65460,
69,
16,
88,
147,
69,
65418,
65273,
65385,
65482,
65505,
225,
47,
65321,
65485,
59,
88,
52,
142,
65345,
21,
236,
285,
291,
27,
27,
208,
164,
201,
104,
101,
65347,
76,
6,
68,
41,
27,
23,
44,
65408,
65321,
65530,
126,
65308,
65240,
65535,
65464,
71,
65397,
65369,
65205,
65338,
65435,
65410,
153,
65455,
65407,
65369,
65422,
98,
187,
65427,
48,
65499,
65517,
41,
16,
138,
77,
14,
153,
110,
10,
65527,
91,
65494,
65461,
65492,
65510,
6,
65421,
65495,
65454,
36,
65460,
65457,
65423,
65419,
65502,
21,
65392,
35,
65477,
24,
65502,
65467,
65457,
65382,
65497,
65482,
52,
65453,
65516,
28,
65503,
26,
65454,
59,
30,
8,
31,
70,
9,
58,
65458,
65380,
65281,
65276,
65377,
65411,
49,
65275,
65336,
65498,
65297,
65387,
65413,
65277,
65354,
65457,
65535,
65332,
65354,
65258,
65508,
65444,
65523,
65409,
65366,
65403,
41,
65463,
65370,
65443,
65417,
65191,
65442,
65487,
65382,
65273,
65414,
65318,
65384,
34,
120,
126,
196,
65363,
65302,
65385,
65482,
13,
26,
65395,
65431,
32,
29,
20,
65497,
65496,
22,
36,
65501,
65467,
105,
65512,
65524,
40,
7,
29,
105,
40,
55,
65463,
65464,
65531,
140,
65421,
65394,
9,
103,
65451,
65507,
65389,
65215,
65098,
65254,
65292,
65414,
65271,
65280,
65066,
65129,
78,
282,
65466,
65477,
65396,
65405,
280,
155,
127,
49,
196,
65489,
183,
155,
136,
187,
165,
44,
65523,
64,
65371,
65416,
65505,
111,
89,
65497,
65299,
65363,
232,
119,
9,
57,
52,
65483,
65384,
65339,
65449,
30,
65390,
65512,
65338,
65181,
65358,
65474,
65416,
65478,
65306,
65382,
65398,
65296,
116,
58,
358,
31,
65529,
65465,
65525,
65320,
65518,
65461,
65432,
65418,
65529,
65397,
65429,
65458,
65475,
65432,
65519,
50,
65478,
188,
65435,
74,
65372,
35,
65527,
65499,
65483,
65508,
99,
49,
45,
109,
194,
65489,
51,
65451,
65495,
68,
23,
65402,
65435,
65441,
65293,
125,
15,
65394,
65455,
65456,
65289,
65505,
65386,
65522,
65223,
65483,
65377,
98,
2,
65477,
65290,
172,
229,
284,
45,
65450,
65211,
65419,
47,
63,
129,
65268,
65331,
65365,
101,
65431,
65382,
65307,
