memory_initialization_radix=10;
memory_initialization_vector =
65488,
24,
83,
134,
65507,
65387,
181,
230,
72,
176,
114,
34,
126,
196,
103,
65487,
65438,
82,
190,
152,
162,
247,
256,
63,
149,
248,
118,
250,
166,
101,
29,
172,
130,
111,
184,
65486,
65497,
65463,
65406,
65473,
12,
65521,
65419,
65385,
65307,
65367,
65410,
65491,
41,
65450,
65433,
65522,
65443,
65460,
65508,
65378,
65247,
120,
65464,
65467,
65504,
65431,
65427,
31,
94,
33,
65531,
65464,
65504,
65367,
65486,
65447,
34,
65399,
65348,
65344,
65465,
65516,
65465,
65354,
65528,
65461,
65381,
65457,
65436,
65349,
65349,
65420,
65422,
65446,
65456,
65374,
65383,
65239,
65355,
65479,
71,
58,
65411,
42,
65513,
65477,
63,
65448,
65508,
6,
87,
65527,
65398,
62,
8,
65506,
187,
16,
21,
17,
65433,
65480,
27,
65515,
34,
128,
172,
365,
135,
65404,
156,
244,
283,
330,
238,
65466,
65531,
65486,
23,
154,
42,
23,
65503,
65530,
65365,
65395,
7,
65460,
65450,
65472,
65503,
59,
65514,
65522,
65443,
79,
20,
65437,
65487,
46,
42,
65477,
5,
65467,
10,
65507,
30,
65450,
65463,
3,
65501,
65487,
19,
65484,
25,
65474,
64,
65519,
78,
36,
40,
60,
65494,
65480,
17,
65475,
34,
65411,
65393,
65408,
65396,
65142,
65474,
65238,
65414,
65518,
65395,
65368,
65470,
65473,
65396,
34,
12,
65388,
65410,
65280,
65314,
65397,
65491,
65320,
65367,
65285,
65326,
65410,
132,
16,
65356,
65388,
46,
97,
42,
65496,
111,
27,
65442,
65437,
65453,
65322,
65307,
65355,
1,
65510,
65517,
46,
106,
65476,
65523,
65486,
65442,
96,
65487,
65482,
11,
65466,
29,
10,
52,
10,
62,
12,
65511,
65501,
65524,
26,
65527,
7,
48,
160,
136,
235,
360,
108,
229,
220,
249,
57,
157,
102,
11,
65520,
217,
169,
113,
127,
37,
20,
10,
69,
135,
96,
65489,
65446,
65467,
43,
83,
65476,
65531,
65514,
65487,
43,
65507,
65488,
60,
15,
66,
65382,
143,
156,
65514,
46,
53,
65530,
65381,
69,
99,
181,
81,
65466,
31,
137,
65515,
6,
12,
108,
65481,
11,
70,
65529,
65419,
50,
69,
80,
65390,
22,
73,
65518,
73,
118,
81,
65531,
60,
72,
23,
65480,
31,
38,
65484,
65502,
65431,
20,
65386,
65279,
65448,
65347,
65387,
54,
65505,
65412,
65431,
65364,
65262,
65494,
65425,
65374,
42,
65445,
65416,
65465,
65493,
65430,
65445,
65498,
65462,
66,
65451,
65489,
22,
20,
65445,
72,
65459,
65443,
65530,
41,
65467,
65459,
65534,
65518,
65508,
43,
7,
65467,
16,
65464,
65429,
22,
65531,
61,
65448,
65467,
36,
65478,
42,
65492,
18,
27,
65492,
42,
65516,
65471,
65456,
65447,
219,
210,
191,
65475,
125,
154,
29,
108,
278,
93,
0,
65519,
65522,
65514,
66,
127,
65445,
93,
164,
18,
151,
65500,
65410,
65489,
16,
65522,
53,
65410,
87,
65463,
65520,
65408,
34,
16,
55,
117,
66,
210,
305,
54,
116,
399,
164,
389,
302,
88,
226,
177,
41,
65493,
65527,
65502,
76,
55,
82,
0,
36,
70,
72,
113,
212,
23,
41,
65528,
8,
65489,
65526,
65470,
1,
65411,
65420,
65526,
65462,
65453,
65457,
40,
55,
42,
34,
65514,
0,
39,
90,
261,
271,
333,
119,
65533,
30,
53,
449,
54,
65394,
131,
175,
218,
185,
80,
65363,
191,
115,
68,
117,
152,
144,
68,
69,
10,
107,
78,
170,
182,
138,
144,
95,
18,
65498,
177,
110,
103,
153,
59,
190,
14,
132,
31,
124,
19,
49,
164,
103,
128,
75,
29,
65501,
138,
10,
44,
194,
15,
44,
105,
71,
110,
65463,
11,
40,
11,
156,
93,
74,
72,
145,
65462,
127,
221,
258,
199,
40,
65472,
65475,
207,
37,
128,
144,
98,
79,
112,
82,
11,
25,
65494,
22,
48,
65474,
65483,
65501,
65483,
65455,
65463,
65514,
65507,
65456,
65485,
60,
65468,
65462,
65510,
65414,
65459,
65455,
65387,
18,
24,
65374,
65462,
65408,
65387,
65478,
65512,
65524,
7,
37,
49,
26,
54,
65429,
29,
78,
65507,
0,
28,
65446,
65441,
65531,
65518,
65482,
65389,
65398,
50,
65502,
4,
65506,
65462,
153,
153,
232,
379,
123,
89,
169,
31,
189,
134,
316,
54,
65474,
55,
59,
211,
154,
65462,
65336,
66,
159,
229,
103,
219,
198,
128,
186,
220,
59,
18,
92,
65449,
192,
295,
65501,
65519,
60,
65505,
43,
48,
238,
65441,
65394,
38,
50,
141,
140,
153,
65526,
76,
61,
65526,
61,
254,
96,
36,
65494,
107,
36,
74,
65498,
26,
65535,
86,
5,
61,
83,
65457,
155,
212,
77,
254,
65524,
56,
204,
356,
195,
91,
128,
83,
78,
49,
246,
481,
141,
114,
207,
317,
88,
264,
161,
263,
46,
198,
88,
232,
185,
57,
65410,
32,
58,
92,
40,
65527,
188,
266,
65520,
82,
131,
41,
36,
57,
65427,
65474,
65512,
65512,
89,
175,
22,
65526,
8,
65386,
65360,
65478,
65454,
130,
153,
65507,
35,
65433,
65434,
35,
65441,
65448,
61,
65500,
65513,
65466,
100,
144,
25,
65343,
75,
270,
116,
65506,
65405,
65260,
65250,
65465,
65343,
65413,
71,
65356,
65116,
65110,
65231,
53,
65382,
65255,
65102,
65119,
65043,
65444,
65431,
65456,
65375,
22,
38,
62,
65406,
65393,
65416,
65243,
65326,
23,
65286,
65289,
65426,
65332,
65308,
65354,
65302,
65387,
65438,
65527,
65369,
65441,
65315,
65391,
65313,
65245,
65520,
65314,
65220,
65328,
65494,
65494,
65385,
65321,
129,
65364,
65259,
65155,
65309,
2,
65470,
65489,
0,
102,
92,
88,
65489,
65448,
44,
205,
42,
65496,
65435,
65473,
97,
57,
65469,
65498,
65460,
133,
57,
38,
91,
66,
77,
151,
64,
142,
54,
29,
4,
65479,
65,
90,
65446,
77,
65508,
64,
65489,
24,
65466,
65527,
65405,
65405,
65487,
65302,
65448,
27,
65459,
65283,
65244,
65187,
65507,
65483,
65468,
65304,
65279,
65398,
65378,
65466,
65384,
65383,
65433,
65327,
65394,
65521,
65529,
65527,
20,
65489,
65415,
85,
18,
65424,
26,
65476,
65478,
61,
65461,
65169,
65378,
65321,
65473,
65421,
65323,
65212,
65140,
65331,
65284,
65396,
65377,
65246,
65103,
65011,
65190,
65428,
65470,
65344,
64976,
64956,
65127,
65400,
151,
65415,
65324,
65314,
65414,
34,
18,
176,
65517,
65482,
90,
50,
189,
323,
235,
129,
213,
77,
73,
239,
186,
156,
18,
65462,
232,
112,
27,
124,
58,
34,
76,
206,
216,
182,
243,
132,
65462,
119,
81,
85,
65503,
65505,
46,
229,
65515,
91,
170,
26,
45,
190,
98,
50,
75,
65491,
9,
178,
100,
77,
144,
26,
65496,
5,
60,
152,
187,
13,
65489,
38,
65459,
122,
97,
54,
65492,
65513,
24,
65500,
65529,
65424,
63,
99,
65505,
65492,
19,
65469,
65504,
86,
60,
65436,
73,
53,
33,
16,
65406,
49,
7,
65483,
65436,
76,
65521,
65445,
65500,
73,
65436,
65502,
65469,
74,
19,
65462,
65505,
65521,
22,
54,
65524,
65466,
65421,
31,
186,
31,
65452,
50,
65520,
44,
56,
11,
155,
65455,
65468,
65353,
65413,
80,
65455,
65454,
65436,
97,
3,
39,
65403,
65493,
65397,
65490,
138,
18,
65427,
65430,
65456,
65511,
3,
17,
65430,
65512,
65492,
65475,
23,
65466,
66,
89,
1,
65449,
59,
72,
19,
59,
85,
36,
54,
65469,
65526,
65524,
65467,
53,
65469,
16,
4,
65495,
65466,
6,
65478,
48,
65520,
57,
75,
6,
65463,
65493,
48,
65450,
137,
248,
208,
61,
56,
65433,
133,
209,
297,
64,
137,
82,
181,
322,
115,
196,
143,
65519,
216,
124,
93,
281,
225,
62,
65474,
177,
119,
289,
147,
26,
121,
65525,
65507,
142,
32,
68,
52,
65438,
65534,
3,
65431,
65455,
80,
65505,
65469,
65512,
65496,
65509,
65531,
65446,
65531,
65524,
65502,
63,
65459,
65440,
58,
47,
65471,
33,
65510,
28,
81,
6,
65493,
65503,
65454,
49,
1,
5,
65475,
65487,
65473,
5,
65376,
65357,
65463,
60,
65458,
65401,
65479,
65297,
65399,
59,
65480,
65463,
65356,
65446,
65483,
65511,
65485,
65436,
65342,
65394,
4,
65447,
65479,
30,
65527,
52,
32,
65506,
65445,
65514,
65434,
65496,
65463,
40,
170,
113,
159,
75,
36,
118,
116,
112,
172,
190,
156,
72,
180,
49,
107,
65502,
111,
91,
65414,
176,
36,
65487,
65494,
109,
65484,
31,
65467,
42,
42,
96,
5,
65508,
108,
0,
120,
41,
65411,
43,
142,
65449,
65415,
65453,
65517,
55,
140,
65411,
65380,
65450,
65513,
65442,
65497,
256,
65535,
65400,
79,
65251,
65366,
65490,
65505,
65395,
65483,
65326,
65244,
65231,
123,
65500,
65487,
65295,
65281,
65455,
41,
43,
38,
65454,
35,
65424,
65507,
74,
65488,
65454,
65515,
40,
65454,
69,
31,
65493,
65510,
65404,
51,
65525,
65499,
20,
65423,
65402,
65483,
65468,
95,
47,
65383,
148,
65534,
65482,
65488,
65465,
148,
68,
8,
7,
65454,
65414,
46,
14,
53,
65447,
67,
35,
65472,
20,
65535,
78,
102,
60,
65460,
6,
186,
65394,
65494,
65512,
65377,
173,
162,
65467,
133,
120,
65486,
285,
181,
65489,
65437,
4,
103,
56,
57,
65439,
65412,
65469,
65381,
65452,
65486,
65508,
45,
65414,
65424,
65474,
65489,
65506,
65488,
20,
83,
30,
61,
65534,
30,
65465,
65499,
26,
65415,
65462,
65453,
65435,
65516,
55,
65431,
27,
65505,
24,
65500,
65439,
22,
65461,
65415,
65388,
65451,
65487,
65525,
21,
65380,
65427,
65532,
32,
56,
92,
65500,
13,
65494,
65436,
65319,
52,
65400,
65489,
65381,
65256,
65391,
28,
65405,
65358,
65405,
65396,
65265,
65497,
33,
82,
65507,
2,
65478,
50,
65501,
65494,
33,
68,
68,
65471,
5,
40,
65404,
50,
30,
65480,
65443,
65530,
32,
65461,
65461,
32,
2,
65502,
65449,
43,
65493,
65483,
39,
65479,
61,
69,
64,
17,
36,
55,
60,
65,
65432,
65515,
65510,
69,
216,
160,
234,
65468,
282,
324,
100,
120,
191,
58,
193,
53,
14,
5,
66,
65515,
78,
222,
209,
73,
95,
67,
65400,
94,
134,
125,
100,
77,
57,
10,
65439,
65452,
8,
65370,
150,
116,
65413,
65356,
65290,
79,
65338,
65259,
65391,
65333,
65306,
65461,
65275,
65138,
65312,
65404,
65214,
65459,
65191,
65101,
65022,
65323,
65343,
22,
65494,
65204,
65233,
65290,
65373,
65506,
71,
65413,
65382,
65485,
65533,
65529,
124,
65531,
65416,
42,
65464,
65504,
65397,
65298,
65383,
65441,
58,
67,
65527,
12,
273,
54,
65481,
118,
65283,
98,
134,
273,
226,
121,
6,
375,
156,
312,
335,
65512,
39,
189,
122,
2,
2,
65494,
205,
271,
251,
175,
136,
65463,
65526,
92,
216,
45,
26,
65389,
85,
79,
112,
189,
65318,
65500,
94,
37,
121,
18,
65452,
65449,
6,
11,
13,
65485,
65477,
65491,
65439,
15,
65505,
65530,
65505,
41,
65447,
65515,
65437,
14,
65531,
44,
63,
65505,
65497,
2,
65491,
61,
14,
13,
18,
65479,
11,
76,
65482,
31,
65461,
1,
65531,
52,
37,
65498,
65452,
65497,
77,
74,
78,
65495,
65456,
87,
83,
65503,
65520,
77,
67,
65467,
65452,
65531,
65505,
65533,
65508,
65488,
65532,
83,
65501,
32,
65505,
65527,
65502,
65507,
65518,
65510,
55,
82,
65529,
65425,
9,
65503,
44,
65487,
65515,
26,
65464,
48,
65529,
8,
47,
65515,
65488,
35,
65514,
38,
53,
65438,
102,
69,
26,
176,
101,
109,
86,
376,
159,
220,
137,
25,
65524,
111,
297,
292,
362,
9,
255,
433,
96,
413,
354,
29,
79,
138,
151,
218,
126,
65404,
4,
106,
43,
65474,
65523,
65517,
21,
20,
3,
8,
65523,
13,
65447,
34,
65466,
65461,
65411,
12,
65523,
65519,
65455,
65487,
29,
65500,
65459,
65462,
65511,
65499,
18,
56,
14,
4,
65513,
65493,
65491,
52,
65424,
29,
44,
65430,
65494,
65534,
65436,
65398,
65476,
65462,
41,
65529,
65517,
65522,
65500,
65506,
65455,
72,
2,
65522,
49,
42,
13,
65519,
65491,
26,
65498,
8,
20,
65531,
3,
82,
65446,
57,
47,
65487,
123,
40,
65480,
87,
2,
65493,
43,
331,
238,
148,
65516,
65516,
71,
38,
135,
65472,
65423,
124,
160,
65521,
59,
4,
65429,
65,
166,
65479,
65425,
65367,
65404,
173,
6,
80,
185,
142,
137,
96,
65438,
65454,
65518,
21,
31,
65491,
65429,
65302,
65352,
33,
65486,
65465,
65305,
65206,
65496,
65418,
65341,
65389,
65361,
65346,
65121,
65141,
65261,
65444,
65399,
65253,
65214,
65210,
65158,
65423,
65511,
65344,
65299,
65404,
65342,
9,
65500,
41,
57,
56,
65491,
67,
65458,
71,
65439,
65522,
65437,
65508,
65527,
65427,
65511,
65447,
27,
2,
56,
65464,
65432,
65458,
65425,
75,
20,
65494,
65509,
65520,
65495,
65532,
48,
65443,
30,
65495,
30,
65500,
65445,
65464,
65479,
65480,
65518,
80,
17,
65471,
7,
65498,
53,
17,
65496,
56,
57,
78,
34,
65485,
0,
60,
106,
11,
74,
51,
88,
154,
122,
145,
28,
115,
65444,
133,
15,
133,
154,
32,
65411,
65520,
65438,
168,
345,
44,
65453,
80,
163,
210,
81,
34,
36,
90,
160,
126,
127,
40,
47,
83,
165,
172,
172,
65401,
39,
22,
97,
99,
192,
65522,
65523,
65452,
65424,
65504,
65477,
6,
65461,
57,
112,
65486,
34,
65504,
126,
333,
101,
226,
183,
137,
222,
392,
224,
341,
258,
14,
91,
229,
124,
102,
51,
59,
32,
44,
13,
43,
1,
65524,
65395,
40,
87,
189,
105,
65349,
65535,
65484,
47,
263,
112,
139,
134,
282,
63,
241,
187,
38,
128,
71,
14,
117,
55,
134,
170,
200,
89,
78,
112,
93,
50,
142,
70,
224,
212,
88,
50,
87,
88,
21,
32,
65454,
57,
3,
65460,
65519,
65495,
147,
60,
12,
0,
65494,
65403,
65503,
71,
23,
65445,
109,
97,
5,
54,
65501,
65534,
69,
44,
65471,
81,
65437,
65457,
65501,
65504,
65525,
65503,
65458,
43,
9,
18,
112,
46,
23,
68,
65509,
65451,
65534,
7,
65472,
65475,
65480,
65526,
33,
40,
65518,
65378,
65482,
37,
65482,
21,
65516,
65485,
26,
65529,
46,
65456,
21,
65528,
65524,
19,
65503,
63,
65474,
52,
65485,
65445,
65474,
5,
65524,
22,
13,
65493,
108,
65342,
65299,
65289,
65256,
65110,
65342,
65340,
65502,
65179,
65239,
65367,
65411,
65445,
65347,
64995,
65232,
65299,
65316,
65412,
65349,
65039,
65134,
65237,
65304,
66,
65319,
65167,
65289,
65366,
65501,
119,
65526,
38,
151,
41,
80,
87,
65468,
65500,
150,
78,
48,
102,
157,
266,
206,
190,
223,
65507,
193,
220,
196,
123,
241,
65493,
242,
263,
238,
223,
63,
87,
141,
80,
145,
70,
15,
5,
65456,
65532,
65512,
65465,
65495,
9,
65341,
65264,
65422,
65460,
65530,
69,
20,
65505,
65396,
245,
65429,
55,
65499,
65515,
24,
122,
65512,
65456,
79,
28,
101,
233,
39,
6,
65517,
48,
65531,
65480,
76,
65445,
65326,
65414,
4,
65407,
65499,
65469,
65472,
65430,
4,
65475,
65484,
65504,
65361,
65407,
65372,
65260,
65427,
65395,
65271,
65136,
65291,
65244,
65415,
65474,
65307,
65279,
65087,
65266,
65366,
105,
65410,
65424,
44,
3,
148,
65517,
40,
41,
65535,
30,
8,
65428,
43,
104,
64,
65442,
65473,
65501,
65479,
65436,
65411,
65447,
65535,
205,
63,
83,
88,
143,
30,
26,
41,
80,
65535,
11,
30,
65517,
65498,
65496,
83,
72,
65440,
65454,
65277,
65441,
115,
15,
65522,
65409,
65474,
65491,
65506,
65484,
65432,
65520,
65472,
65416,
65456,
65532,
38,
65436,
147,
39,
65519,
65431,
13,
83,
76,
109,
65498,
65461,
22,
65474,
65495,
65470,
65437,
65510,
65466,
185,
106,
39,
65456,
4,
10,
65520,
65390,
65485,
0,
65437,
17,
65440,
65354,
64,
65382,
65275,
65437,
46,
65331,
31,
65428,
65454,
41,
6,
65244,
0,
65429,
9,
49,
211,
34,
65467,
65430,
65473,
15,
65501,
65487,
65295,
65406,
65451,
1,
15,
65475,
65482,
65398,
65317,
65492,
79,
65398,
65372,
16,
82,
20,
65504,
65459,
65490,
97,
69,
65421,
65461,
65453,
65438,
65520,
50,
65530,
21,
65,
95,
65502,
21,
85,
76,
65516,
65378,
65415,
65377,
57,
65499,
65373,
65485,
65506,
65503,
41,
65447,
65407,
65448,
65503,
65298,
33,
65412,
65162,
65168,
65315,
65324,
67,
67,
65222,
65203,
65292,
65289,
37,
144,
65453,
23,
81,
49,
97,
7,
65479,
65477,
65504,
65502,
65437,
76,
46,
65373,
175,
121,
75,
63,
188,
277,
320,
254,
61,
65512,
149,
141,
65516,
93,
198,
169,
431,
144,
242,
174,
182,
74,
169,
346,
14,
16,
21,
31,
65465,
65470,
5,
126,
226,
65519,
17,
139,
94,
53,
65487,
47,
65483,
65535,
7,
65515,
65464,
65523,
65497,
65494,
157,
65469,
55,
65467,
65454,
65525,
65408,
65400,
65502,
17,
65449,
29,
17,
65530,
74,
102,
157,
140,
170,
74,
65398,
65511,
103,
116,
61,
65513,
47,
44,
65453,
65487,
65406,
65457,
65530,
82,
65492,
85,
65534,
4,
49,
152,
65496,
28,
21,
65430,
65503,
24,
82,
74,
65525,
65485,
65373,
72,
65462,
65507,
9,
65461,
65436,
65521,
65467,
65458,
49,
65447,
65440,
65437,
80,
65441,
65495,
36,
9,
65523,
21,
65462,
65522,
56,
65473,
65523,
6,
65422,
65447,
65453,
65440,
65495,
65471,
58,
65501,
65517,
16,
65476,
26,
65434,
65106,
65362,
65417,
65390,
65366,
86,
65256,
65206,
65504,
65476,
65477,
65471,
12,
65506,
65496,
65522,
65532,
65445,
65418,
67,
65412,
65449,
65220,
65438,
19,
41,
65486,
65534,
21,
65516,
65459,
65451,
65422,
65470,
65393,
65363,
65328,
65289,
65516,
65485,
65280,
65457,
65231,
65273,
6,
47,
100,
150,
219,
143,
28,
65414,
210,
57,
338,
77,
65410,
65479,
69,
88,
156,
56,
65335,
65519,
20,
42,
65533,
65500,
65390,
55,
172,
220,
21,
65528,
47,
65502,
83,
56,
65244,
65416,
26,
65454,
65459,
65319,
65312,
65358,
65459,
9,
65422,
65332,
65259,
65401,
65451,
34,
65353,
65505,
65160,
65399,
59,
36,
65410,
65439,
65465,
65440,
21,
65483,
29,
75,
48,
65499,
65468,
65479,
65496,
65495,
65476,
37,
30,
48,
65,
65532,
60,
61,
1,
65496,
66,
65,
69,
65499,
76,
11,
55,
24,
63,
4,
65444,
65534,
57,
65529,
65526,
22,
1,
65395,
65366,
65278,
65465,
65494,
65508,
65300,
65406,
65379,
65207,
15,
65426,
65186,
65389,
90,
65519,
65333,
65414,
65360,
65393,
65507,
65437,
65475,
65369,
65392,
65412,
65458,
65488,
65381,
65281,
193,
65350,
65363,
65297,
65394,
65520,
65485,
65514,
10,
65437,
23,
65466,
65469,
65474,
65440,
65497,
65507,
65450,
65533,
65477,
65390,
65452,
65454,
65485,
65440,
65461,
65458,
65476,
65351,
65480,
1,
156,
11,
65471,
1,
65507,
65437,
11,
65429,
65404,
117,
65521,
65342,
65412,
65426,
65366,
65418,
65502,
65288,
65472,
75,
14,
65351,
65351,
65398,
259,
200,
195,
32,
65283,
65520,
171,
71,
65508,
65420,
65336,
65437,
98,
111,
65530,
65508,
65312,
65468,
65401,
65463,
65414,
65321,
65440,
141,
13,
65502,
65436,
65496,
53,
65468,
65375,
65469,
65326,
65291,
65413,
65392,
64994,
65014,
65025,
65132,
65420,
65437,
65124,
64844,
65032,
65169,
65534,
65475,
65124,
64971,
64863,
65222,
65453,
96,
65262,
65166,
65325,
65500,
0,
20,
65531,
65452,
66,
65471,
27,
65523,
65483,
65441,
10,
49,
36,
65487,
16,
19,
1,
65445,
47,
65493,
65448,
9,
8,
65467,
65484,
65472,
65518,
65514,
73,
51,
20,
65438,
28,
63,
65438,
65502,
85,
65408,
65474,
166,
91,
64,
65518,
27,
154,
84,
139,
244,
0,
99,
65530,
30,
162,
3,
65445,
36,
83,
65500,
35,
142,
1,
30,
65490,
65447,
65515,
22,
65395,
18,
65515,
65481,
8,
65442,
65528,
77,
65532,
30,
18,
8,
96,
65496,
65448,
193,
11,
25,
42,
65478,
65388,
65219,
65524,
65378,
65443,
27,
65368,
65145,
65449,
65388,
65509,
65398,
65356,
65232,
65203,
65266,
65518,
65520,
65397,
65507,
68,
65511,
102,
21,
40,
65495,
26,
65435,
65520,
20,
65518,
3,
52,
13,
0,
18,
65522,
57,
85,
65515,
31,
65499,
65471,
65469,
65505,
65486,
65485,
65471,
81,
113,
65477,
65446,
65476,
65531,
65534,
153,
35,
16,
65472,
65529,
65433,
65313,
65431,
65447,
65521,
65390,
65263,
65193,
65221,
65182,
65348,
65369,
65448,
65145,
65117,
65156,
65339,
65407,
65326,
64992,
65103,
65097,
65404,
65337,
65289,
65022,
65166,
65326,
65355,
65497,
65359,
65095,
65264,
65422,
76,
28,
155,
43,
65439,
65504,
65468,
65459,
65508,
65456,
65449,
3,
64,
16,
65457,
65105,
65331,
65431,
65357,
65481,
65426,
65275,
65339,
65529,
14,
65459,
65466,
65449,
65469,
65408,
65501,
5,
65431,
65512,
65490,
76,
65458,
55,
65534,
46,
127,
193,
106,
78,
266,
140,
257,
222,
148,
121,
114,
182,
260,
27,
162,
130,
164,
88,
23,
97,
171,
146,
151,
97,
116,
65525,
134,
65441,
90,
104,
49,
19,
65445,
65460,
65363,
65396,
65465,
65437,
83,
65408,
65511,
65452,
86,
23,
7,
65522,
138,
65480,
109,
144,
32,
65268,
144,
71,
65407,
45,
65479,
51,
219,
176,
197,
216,
65501,
65432,
46,
74,
64,
65492,
65411,
65452,
65517,
65442,
65406,
65483,
65433,
65437,
65435,
65497,
65397,
65459,
65396,
65414,
65488,
65437,
65442,
6,
65503,
65469,
65487,
68,
100,
65522,
65349,
65502,
141,
31,
100,
18,
69,
65533,
65402,
65530,
50,
2,
65507,
4,
65530,
65527,
56,
65492,
65490,
65521,
65518,
65489,
30,
65510,
65443,
65508,
87,
4,
65460,
65475,
31,
65527,
65456,
65448,
65483,
65487,
65475,
65473,
65455,
65490,
67,
65484,
65479,
65500,
65479,
65449,
65510,
65441,
71,
65472,
65507,
119,
46,
96,
65522,
65410,
65512,
103,
65479,
11,
63,
21,
3,
65428,
65478,
65496,
65534,
34,
20,
65481,
43,
65430,
14,
65462,
65517,
40,
65530,
48,
65457,
30,
65441,
4,
65435,
52,
33,
65491,
10,
26,
49,
144,
121,
46,
172,
101,
132,
335,
127,
86,
145,
70,
33,
65,
15,
48,
124,
99,
23,
38,
22,
65484,
50,
65500,
65484,
65469,
65501,
9,
36,
65467,
60,
56,
18,
2,
16,
250,
173,
226,
15,
65264,
65475,
148,
193,
180,
65460,
65481,
65517,
65470,
65462,
65450,
65415,
10,
64,
65476,
65530,
65435,
51,
65437,
26,
65467,
110,
65442,
65534,
65446,
65367,
49,
78,
65463,
93,
65506,
65486,
75,
1,
65508,
65350,
36,
112,
65483,
125,
155,
57,
65410,
65375,
65533,
65320,
65516,
34,
65533,
42,
72,
65459,
65483,
65465,
43,
83,
219,
258,
172,
48,
65514,
122,
65500,
65478,
47,
65455,
65496,
65523,
22,
76,
105,
38,
95,
65373,
65439,
65408,
65296,
6,
65455,
65274,
65205,
65200,
65253,
65370,
65513,
65310,
65198,
65243,
65233,
17,
65389,
65502,
65245,
65254,
65367,
23,
65514,
65461,
65261,
65478,
65495,
65499,
157,
65369,
65377,
65367,
65319,
11,
65442,
65453,
65429,
65439,
65381,
65509,
65463,
65385,
65236,
65177,
65320,
65496,
65426,
65227,
65153,
65336,
65288,
65489,
65504,
65355,
65165,
65119,
65364,
4,
65532,
65412,
65361,
65344,
0,
53,
83,
65497,
33,
65440,
65518,
65465,
65517,
65494,
65377,
65441,
65448,
65484,
46,
25,
65486,
12,
83,
41,
59,
65438,
65355,
65383,
65513,
65461,
65482,
65451,
65420,
65410,
65533,
65497,
65490,
65383,
65401,
65412,
75,
65527,
55,
65479,
25,
65513,
96,
81,
65484,
65447,
65502,
65,
96,
0,
65495,
94,
93,
111,
169,
7,
66,
65441,
65486,
329,
356,
57,
47,
26,
65505,
130,
328,
65516,
65515,
65468,
93,
106,
65494,
17,
65446,
65341,
65387,
65504,
65202,
98,
65204,
65336,
65445,
65463,
65412,
65521,
65522,
65525,
56,
1,
255,
33,
65319,
115,
71,
14,
65497,
34,
65522,
157,
54,
109,
116,
39,
65422,
47,
6,
65519,
54,
65463,
65422,
65469,
65456,
65308,
65420,
65534,
65402,
65340,
65486,
65279,
65484,
65446,
65525,
65409,
65346,
65369,
65493,
65452,
104,
65409,
65400,
65266,
65458,
65361,
65420,
65460,
65441,
65520,
65513,
65427,
4,
58,
65533,
33,
2,
65483,
65508,
65509,
0,
5,
12,
2,
48,
65443,
65525,
60,
97,
72,
156,
145,
80,
115,
24,
65516,
65515,
6,
65511,
54,
95,
92,
103,
65506,
65407,
110,
65454,
65528,
65504,
65418,
77,
65530,
58,
65454,
61,
65452,
120,
65527,
103,
35,
65500,
65487,
65522,
65470,
127,
20,
39,
27,
65306,
65420,
32,
132,
65424,
156,
65357,
65349,
105,
156,
65499,
99,
265,
239,
78,
126,
70,
39,
187,
81,
30,
65489,
65526,
233,
34,
36,
65439,
65518,
111,
321,
269,
65473,
65479,
65505,
107,
315,
248,
360,
35,
65459,
157,
107,
106,
134,
31,
65480,
65492,
223,
152,
7,
65470,
65424,
65499,
65526,
65492,
65426,
15,
65444,
144,
105,
188,
65520,
43,
11,
92,
95,
162,
200,
54,
25,
171,
29,
127,
80,
21,
144,
65515,
120,
65520,
65446,
63,
48,
137,
94,
64,
65532,
65530,
57,
81,
30,
117,
42,
25,
97,
65500,
88,
65444,
3,
65531,
65531,
65381,
65351,
65462,
65242,
65341,
65533,
65497,
65322,
65309,
65280,
65332,
65518,
65416,
65369,
65260,
65249,
65254,
65412,
65485,
65339,
65303,
65241,
65409,
65527,
65464,
65494,
65312,
65476,
65500,
65464,
47,
65524,
65467,
84,
157,
14,
42,
65526,
25,
75,
99,
52,
65472,
342,
111,
2,
35,
65517,
20,
151,
71,
165,
22,
65485,
15,
65496,
47,
60,
26,
32,
65506,
65436,
65511,
16,
65485,
21,
20,
75,
65492,
65493,
65502,
65451,
65499,
65445,
65466,
61,
65452,
62,
65482,
65470,
65519,
65472,
53,
13,
9,
65468,
55,
65507,
44,
65448,
64,
91,
65527,
43,
63,
65528,
15,
65455,
65450,
65506,
65479,
37,
37,
11,
65441,
65527,
65418,
99,
65347,
65438,
65470,
72,
65488,
65447,
53,
65522,
132,
277,
215,
92,
65313,
65418,
144,
227,
47,
69,
65479,
222,
242,
218,
96,
65517,
65399,
150,
244,
141,
65510,
30,
22,
48,
65527,
65527,
65527,
65456,
3,
74,
47,
65493,
65489,
65448,
65466,
65211,
65272,
65404,
65290,
65444,
65521,
55,
65390,
65257,
65318,
65463,
20,
65460,
103,
63,
65505,
27,
1,
65482,
24,
160,
65509,
65517,
65367,
65482,
65427,
65355,
65471,
65468,
176,
56,
65530,
27,
65505,
29,
156,
256,
51,
206,
321,
68,
271,
237,
78,
18,
115,
80,
150,
90,
95,
222,
135,
4,
65533,
65447,
1,
55,
162,
2,
41,
12,
65493,
27,
65454,
65469,
65490,
50,
24,
47,
65492,
19,
65524,
65460,
65524,
65464,
65417,
55,
81,
65526,
65532,
65462,
67,
21,
65458,
19,
24,
91,
65468,
65465,
65518,
65476,
110,
89,
41,
65524,
48,
27,
65517,
35,
112,
65510,
65470,
126,
48,
180,
65444,
35,
48,
65513,
23,
41,
65208,
35,
65529,
65369,
65436,
65447,
65364,
170,
44,
65308,
65437,
65509,
65497,
145,
107,
55,
65404,
43,
75,
65534,
65443,
8,
65433,
65455,
65393,
65491,
65464,
65496,
26,
233,
121,
65455,
65404,
65500,
65501,
65450,
65475,
5,
65478,
65421,
16,
65499,
65498,
65466,
69,
56,
43,
65513,
60,
65449,
65491,
65533,
6,
65520,
65470,
65525,
72,
102,
66,
65504,
0,
19,
120,
149,
65,
65504,
72,
0,
65534,
65503,
79,
65432,
65507,
65442,
40,
65484,
65465,
38,
27,
65444,
47,
65477,
65535,
65472,
9,
65514,
65449,
76,
42,
59,
59,
65446,
172,
132,
82,
39,
65434,
205,
36,
65384,
65367,
65418,
65450,
41,
93,
65439,
65360,
65491,
65391,
2,
65411,
65447,
65330,
65337,
65324,
56,
65488,
65395,
65517,
1,
26,
62,
65526,
65526,
65478,
65514,
64,
0,
109,
123,
215,
141,
326,
9,
196,
288,
469,
424,
267,
26,
130,
86,
176,
37,
65481,
3,
290,
154,
217,
57,
65463,
17,
65442,
65470,
65527,
65512,
65478,
48,
65505,
65431,
3,
65527,
65532,
75,
65454,
65471,
65456,
51,
35,
65475,
104,
183,
59,
118,
125,
65447,
46,
65428,
42,
12,
52,
65524,
25,
2,
38,
65372,
31,
65506,
65507,
65463,
81,
69,
65516,
65431,
65523,
65422,
37,
72,
81,
127,
65530,
65460,
65331,
65492,
65434,
63,
65494,
65303,
65195,
65200,
65535,
65450,
65390,
65463,
169,
295,
25,
15,
65418,
59,
146,
157,
132,
10,
65474,
191,
195,
215,
134,
20,
65503,
28,
47,
65508,
65456,
65348,
65455,
57,
91,
119,
86,
10,
109,
129,
145,
203,
115,
65495,
5,
38,
48,
65415,
65512,
65535,
1,
117,
143,
117,
223,
98,
30,
65450,
37,
65443,
65401,
65510,
56,
38,
10,
65440,
1,
65446,
0,
65531,
39,
138,
57,
65449,
68,
154,
65468,
65522,
126,
101,
19,
131,
65414,
19,
65477,
80,
65462,
178,
65507,
65440,
99,
65,
65511,
5,
136,
165,
138,
65497,
55,
65527,
65374,
65500,
65495,
65373,
