memory_initialization_radix=10;
memory_initialization_vector =
188,
63,
65489,
106,
81,
14,
137,
65498,
65474,
65463,
65511,
144,
68,
139,
78,
65517,
65436,
65433,
26,
19,
71,
65398,
65443,
65389,
65531,
112,
58,
175,
0,
65469,
107,
12,
26,
65524,
65441,
65498,
65445,
65386,
49,
65337,
65359,
65418,
88,
65360,
65391,
103,
41,
65507,
227,
58,
65437,
65446,
24,
65470,
150,
65448,
65479,
65470,
65483,
117,
97,
18,
65535,
65505,
65508,
22,
90,
65525,
68,
53,
65472,
65372,
65503,
140,
210,
109,
173,
65441,
65509,
94,
139,
146,
97,
23,
64,
147,
65520,
61,
149,
65514,
78,
34,
10,
21,
65529,
39,
88,
65520,
65533,
87,
8,
65526,
65479,
65484,
24,
65480,
65470,
65525,
58,
65478,
65328,
65298,
65331,
65477,
65489,
65498,
65489,
65396,
122,
65523,
43,
43,
119,
36,
65485,
96,
76,
65429,
48,
51,
74,
39,
71,
65411,
65518,
21,
10,
90,
65478,
65422,
10,
9,
65529,
10,
28,
1,
65510,
55,
7,
65455,
65473,
65451,
19,
65510,
76,
65505,
65496,
52,
33,
65446,
65457,
65485,
65512,
65445,
45,
65456,
67,
65,
28,
26,
17,
2,
66,
65467,
12,
73,
36,
65,
71,
73,
11,
65500,
48,
27,
65532,
65449,
36,
65480,
125,
65523,
23,
65520,
57,
172,
136,
73,
201,
37,
72,
48,
204,
123,
102,
65433,
104,
27,
64,
65422,
65529,
65403,
63,
27,
14,
65409,
65294,
65460,
65507,
33,
49,
205,
215,
65499,
65462,
65465,
65435,
65515,
110,
109,
65525,
104,
65506,
65333,
65514,
29,
118,
107,
65438,
46,
65503,
65491,
6,
65449,
65488,
84,
65477,
102,
65467,
5,
47,
65472,
39,
65474,
65493,
17,
65363,
65347,
65267,
65491,
65506,
65421,
65206,
65272,
65263,
65532,
68,
65472,
65480,
65423,
65535,
65441,
65529,
65423,
58,
111,
6,
65464,
75,
2,
65391,
29,
35,
135,
41,
65410,
65442,
41,
88,
39,
65517,
48,
177,
51,
229,
71,
65456,
65533,
70,
147,
133,
66,
65460,
65485,
73,
7,
65466,
38,
65459,
65460,
65462,
65514,
65490,
5,
65434,
11,
81,
35,
62,
81,
65526,
147,
65521,
65523,
65496,
31,
65426,
104,
46,
65371,
65305,
65378,
65513,
55,
65431,
65529,
65368,
65391,
98,
13,
20,
65395,
65434,
65517,
55,
21,
65491,
65456,
65362,
15,
70,
65362,
130,
165,
65409,
24,
33,
12,
76,
2,
137,
117,
65445,
79,
65451,
43,
40,
90,
65466,
82,
62,
61,
35,
65509,
65442,
65524,
65467,
57,
65460,
80,
55,
65475,
65512,
28,
11,
65518,
65501,
65462,
35,
2,
65476,
65472,
76,
65529,
65514,
83,
65445,
65489,
65471,
65432,
65378,
65510,
65521,
65453,
65518,
17,
65179,
65401,
65165,
65486,
65432,
65374,
65338,
65258,
65344,
65532,
79,
0,
65440,
65520,
65503,
65513,
65454,
65480,
65499,
39,
65535,
65486,
23,
65439,
65488,
31,
65472,
65517,
45,
65481,
65414,
65409,
65230,
65511,
65489,
11,
65411,
65362,
65412,
65432,
36,
3,
65415,
65335,
65492,
65504,
65535,
65445,
65310,
65506,
4,
78,
132,
65420,
65368,
65403,
65511,
49,
65413,
18,
65484,
65511,
30,
65523,
88,
172,
75,
259,
282,
87,
155,
89,
111,
285,
257,
65489,
13,
65,
104,
227,
21,
223,
65338,
52,
65347,
65455,
65518,
140,
65517,
80,
36,
45,
65495,
65515,
65389,
65415,
65259,
65414,
65329,
65308,
72,
144,
186,
37,
186,
65493,
65533,
65503,
65488,
65510,
117,
69,
24,
65507,
65494,
65491,
65448,
65445,
65411,
65475,
0,
65374,
65456,
65490,
65511,
65511,
88,
65440,
65513,
127,
65521,
133,
104,
166,
72,
118,
65481,
21,
65479,
44,
73,
65530,
91,
65412,
15,
65484,
65459,
65473,
65475,
75,
118,
65489,
65530,
47,
65500,
46,
81,
82,
65490,
3,
65461,
65463,
65400,
65476,
13,
20,
53,
65377,
65393,
65401,
65534,
65436,
65483,
65,
63,
5,
132,
7,
30,
65451,
7,
56,
65448,
65508,
22,
65451,
65523,
27,
133,
65413,
81,
94,
65532,
42,
65496,
65483,
65501,
65494,
65489,
35,
65455,
59,
9,
65459,
65400,
28,
39,
65507,
216,
65497,
88,
414,
155,
47,
89,
133,
207,
405,
246,
65465,
65433,
60,
99,
365,
23,
114,
65222,
65485,
54,
217,
135,
68,
65372,
20,
65461,
287,
135,
65423,
65421,
65486,
65399,
68,
65354,
65249,
140,
64,
65188,
65147,
65217,
43,
161,
26,
65346,
65507,
65421,
65508,
22,
40,
65503,
65336,
65525,
65436,
21,
82,
85,
65402,
65514,
65471,
65428,
5,
65530,
65413,
24,
64,
39,
78,
38,
65517,
65521,
101,
83,
38,
65492,
78,
130,
85,
30,
65443,
44,
202,
56,
154,
101,
34,
190,
65511,
65454,
65450,
116,
94,
231,
65481,
65497,
65464,
65510,
137,
44,
65524,
21,
65528,
115,
65460,
65437,
65355,
41,
65467,
65437,
65385,
65338,
65393,
65314,
65449,
65415,
65374,
65265,
65282,
65323,
19,
65504,
65388,
65293,
65407,
65222,
23,
28,
65479,
65464,
65398,
65496,
65510,
65528,
65425,
65459,
23,
96,
31,
65530,
65369,
65417,
65500,
65443,
65474,
44,
65529,
117,
141,
65295,
65451,
96,
169,
65,
65416,
65436,
65513,
65445,
106,
86,
96,
163,
43,
65446,
2,
87,
40,
153,
18,
65425,
65444,
183,
74,
177,
65504,
65512,
226,
231,
148,
65535,
181,
65444,
65525,
208,
99,
65439,
121,
65494,
295,
167,
182,
3,
65508,
65379,
65528,
134,
94,
140,
3,
65392,
65514,
39,
172,
121,
65462,
3,
65344,
65458,
65399,
39,
72,
203,
120,
170,
69,
4,
265,
65514,
87,
14,
65494,
65448,
65499,
65493,
90,
44,
110,
65477,
65396,
65275,
151,
54,
65501,
65414,
65492,
65441,
65434,
65527,
211,
65442,
65449,
56,
65353,
65474,
65431,
65475,
28,
103,
81,
65522,
87,
69,
121,
65398,
65523,
65426,
65389,
65193,
65362,
169,
65520,
65368,
65275,
65111,
65511,
163,
65476,
65363,
65224,
65231,
65306,
77,
65444,
1,
65520,
65320,
65397,
65507,
65435,
111,
38,
65515,
65512,
15,
65510,
214,
200,
215,
138,
65421,
65368,
131,
161,
65517,
103,
65420,
324,
276,
96,
65352,
65381,
65229,
144,
104,
260,
361,
65466,
65269,
96,
226,
97,
276,
65420,
65467,
65508,
65461,
16,
119,
65449,
65396,
26,
93,
65513,
65257,
97,
65,
65363,
65153,
65288,
65238,
65458,
15,
65416,
65186,
65161,
65324,
65443,
65527,
65354,
65519,
65370,
65380,
36,
6,
133,
24,
65500,
65470,
65500,
3,
65435,
65454,
65505,
5,
65472,
109,
14,
65400,
25,
65529,
65487,
65494,
65398,
65111,
65189,
65221,
65478,
65511,
65466,
65287,
65439,
65257,
3,
24,
65452,
65533,
65371,
65427,
65454,
32,
50,
94,
65502,
65452,
65375,
3,
1,
65515,
16,
65522,
55,
76,
65515,
65507,
65438,
65456,
65497,
21,
29,
33,
65522,
65504,
78,
88,
56,
6,
71,
65484,
30,
81,
65497,
41,
65497,
52,
65470,
65455,
65531,
57,
65488,
65484,
20,
65448,
65455,
5,
65451,
65490,
65495,
65449,
65463,
82,
46,
44,
65491,
65443,
65522,
20,
56,
63,
65492,
65425,
65458,
65268,
65379,
65302,
65497,
70,
65470,
65407,
65469,
65382,
1,
65529,
11,
65423,
13,
65534,
65421,
65434,
65525,
65504,
6,
9,
65481,
65429,
65436,
65518,
65530,
19,
65493,
37,
65464,
65484,
65529,
65516,
37,
65490,
65514,
81,
65442,
11,
65498,
86,
61,
65492,
65523,
65452,
14,
65523,
82,
65528,
65455,
65484,
5,
65512,
12,
65532,
83,
65442,
74,
65509,
35,
65495,
65518,
34,
65445,
44,
65344,
65145,
65182,
65329,
65467,
65520,
65338,
65215,
65339,
65288,
2,
18,
65299,
65534,
65343,
65403,
65534,
76,
65529,
88,
65419,
65501,
65525,
65525,
65426,
65381,
65464,
74,
67,
65487,
65496,
65354,
49,
114,
65474,
65479,
3,
67,
12,
65458,
81,
54,
62,
61,
65486,
35,
47,
63,
65452,
77,
65482,
51,
65458,
65437,
46,
65441,
40,
65516,
65452,
65527,
65508,
65513,
50,
65455,
65488,
33,
87,
65535,
59,
52,
65438,
19,
65502,
65383,
65256,
65433,
7,
59,
139,
65367,
65351,
65361,
66,
109,
2,
24,
65411,
65393,
65394,
114,
65367,
65372,
65464,
65438,
65494,
22,
65520,
65394,
65470,
183,
65455,
119,
34,
130,
124,
57,
171,
62,
1,
65501,
65391,
65468,
65477,
42,
65468,
65392,
65332,
65425,
65429,
23,
16,
65361,
65429,
14,
65358,
65490,
65515,
65371,
65478,
65403,
15,
65503,
65443,
65459,
65413,
65455,
65493,
65457,
65494,
65489,
65392,
65476,
12,
5,
65430,
65265,
65090,
65189,
65373,
99,
65325,
65201,
65320,
65417,
65444,
269,
17,
65504,
65449,
6,
199,
247,
15,
65504,
65419,
65447,
65424,
245,
65502,
65500,
80,
65487,
65466,
87,
65513,
207,
162,
96,
65371,
65524,
63,
65424,
65488,
65479,
65341,
65515,
65323,
65346,
336,
114,
65475,
36,
65238,
65367,
65525,
23,
65522,
24,
65293,
65386,
84,
124,
65487,
187,
146,
65371,
65511,
65468,
65499,
65490,
65482,
65534,
89,
121,
65453,
0,
77,
65378,
65328,
126,
2,
65504,
65422,
65357,
65266,
65487,
254,
65528,
65501,
65392,
65284,
65146,
110,
224,
65433,
65406,
65414,
65189,
65518,
65492,
65350,
65445,
65525,
65533,
173,
65535,
182,
206,
182,
226,
38,
29,
65,
23,
196,
137,
26,
43,
65516,
51,
65457,
65507,
3,
95,
83,
65509,
65489,
28,
65479,
65498,
65505,
65447,
6,
65497,
65534,
118,
65485,
150,
131,
65451,
65455,
65468,
65504,
65449,
65401,
65528,
65437,
65517,
14,
355,
173,
156,
65533,
65453,
110,
324,
253,
228,
65520,
65514,
55,
40,
148,
67,
79,
65445,
65450,
65479,
65528,
43,
65515,
65491,
65470,
65529,
10,
15,
65517,
65345,
4,
65394,
23,
65397,
65285,
65490,
65507,
35,
65497,
65529,
65516,
65448,
44,
70,
34,
65441,
65475,
65489,
35,
65458,
65453,
65471,
65447,
13,
65474,
52,
73,
65486,
65502,
65461,
65496,
65446,
58,
27,
70,
62,
65513,
65508,
45,
50,
17,
65440,
65532,
6,
11,
65264,
65448,
65,
10,
65345,
65346,
65269,
65429,
65468,
65523,
65407,
65305,
65222,
65498,
65454,
23,
65442,
65485,
65372,
65514,
65448,
9,
88,
65504,
6,
116,
40,
65414,
65455,
65518,
29,
42,
12,
165,
102,
410,
188,
12,
65433,
236,
291,
151,
274,
65265,
44,
281,
191,
198,
307,
65439,
65515,
117,
289,
55,
76,
65284,
65451,
72,
158,
65402,
65403,
65339,
18,
65519,
0,
65509,
65480,
12,
16,
65459,
65476,
324,
291,
83,
65472,
109,
65510,
65462,
77,
119,
65395,
77,
65484,
65499,
65446,
26,
65461,
65515,
4,
65382,
65428,
65531,
65242,
65326,
65410,
65245,
65506,
65471,
47,
65509,
65493,
26,
65521,
47,
260,
11,
65345,
65258,
65323,
57,
202,
73,
65337,
65355,
65482,
65518,
134,
2,
92,
65506,
65387,
3,
189,
63,
20,
65411,
65417,
65530,
16,
122,
154,
115,
134,
65521,
99,
133,
51,
113,
31,
65,
65519,
65443,
65471,
53,
46,
64,
65504,
65524,
65500,
65532,
66,
76,
65478,
65451,
65502,
65500,
6,
65474,
43,
65524,
65514,
71,
23,
73,
49,
54,
96,
65474,
4,
8,
65517,
27,
65516,
30,
65458,
65479,
65494,
65469,
65457,
65456,
84,
32,
66,
65526,
65474,
65271,
65511,
89,
65474,
27,
149,
65337,
65497,
80,
89,
89,
254,
114,
65328,
8,
65436,
21,
65461,
65532,
43,
85,
47,
65454,
65503,
65441,
8,
65470,
86,
65480,
65454,
121,
213,
121,
65495,
65367,
65374,
153,
114,
309,
35,
26,
99,
65517,
40,
86,
65403,
10,
59,
65523,
65534,
60,
65469,
65531,
48,
65426,
57,
65439,
110,
65522,
65511,
65333,
65453,
65334,
73,
19,
57,
54,
65496,
99,
65479,
65478,
109,
37,
30,
27,
65514,
65506,
154,
7,
65534,
11,
67,
65408,
65511,
65516,
65488,
58,
65525,
65484,
58,
65433,
65526,
72,
67,
37,
65392,
24,
65443,
65478,
35,
0,
66,
121,
33,
65421,
75,
43,
65475,
65494,
65485,
65426,
65479,
65489,
65528,
65452,
28,
65461,
65529,
79,
65478,
24,
65423,
65467,
39,
9,
28,
65438,
65482,
65519,
65495,
51,
65462,
65430,
65502,
65451,
242,
169,
65518,
65437,
65435,
65510,
167,
5,
85,
65461,
65442,
65506,
70,
0,
45,
96,
65364,
65441,
58,
65520,
65531,
65471,
65520,
65503,
65475,
64,
147,
140,
51,
65487,
138,
120,
65486,
31,
162,
148,
65348,
65399,
135,
302,
65362,
65471,
65405,
15,
261,
58,
65427,
65455,
65395,
104,
169,
358,
83,
65531,
65233,
122,
65486,
138,
284,
65472,
65373,
65349,
89,
56,
174,
65515,
65354,
65485,
65500,
78,
65220,
65458,
10,
65513,
50,
65528,
65525,
65504,
73,
59,
65535,
65461,
65520,
15,
46,
78,
56,
65467,
67,
73,
65509,
57,
1,
13,
80,
65475,
36,
65447,
1,
65461,
65485,
65452,
65475,
113,
77,
65453,
65519,
86,
95,
22,
65436,
44,
30,
65527,
65479,
100,
144,
29,
91,
68,
65455,
65465,
33,
65523,
162,
53,
43,
65465,
17,
20,
65520,
18,
65409,
65424,
65427,
65491,
65438,
65499,
20,
1,
65511,
65490,
55,
65499,
65499,
65532,
65323,
65193,
65221,
65469,
65504,
65449,
65126,
65282,
65209,
72,
65486,
65423,
65466,
65268,
65512,
43,
95,
43,
128,
15,
65476,
120,
65496,
139,
108,
5,
135,
16,
30,
65525,
65426,
65517,
65524,
19,
65452,
52,
16,
160,
238,
94,
101,
65534,
65532,
126,
216,
53,
98,
70,
21,
82,
65535,
174,
88,
65373,
65469,
65531,
65380,
235,
45,
106,
18,
117,
30,
65478,
37,
65457,
65479,
65324,
65488,
65322,
65442,
65481,
65511,
65341,
65286,
65507,
65443,
65449,
65286,
65367,
65294,
65372,
107,
65393,
65383,
65453,
65380,
56,
125,
65451,
65434,
65427,
65436,
96,
29,
65440,
65362,
19,
38,
68,
74,
65431,
65303,
65463,
125,
36,
89,
48,
1,
90,
60,
154,
63,
65401,
65513,
18,
73,
180,
65494,
65432,
61,
65460,
65398,
79,
65478,
65503,
65532,
65471,
65462,
104,
65359,
110,
58,
144,
111,
65482,
101,
65518,
13,
111,
65491,
119,
52,
99,
92,
65477,
98,
116,
65470,
10,
86,
58,
186,
58,
65517,
80,
96,
65514,
114,
4,
27,
65514,
65465,
6,
48,
29,
65520,
65433,
65488,
65410,
65350,
65517,
44,
65533,
21,
63,
65507,
65448,
65267,
32,
33,
48,
65413,
65479,
65451,
138,
124,
97,
80,
65436,
65418,
71,
152,
65509,
56,
132,
65503,
22,
65530,
131,
125,
65411,
65442,
65438,
95,
65400,
152,
59,
65503,
109,
65512,
69,
145,
59,
104,
65490,
23,
292,
253,
145,
65422,
57,
9,
147,
144,
103,
59,
3,
65359,
65526,
65,
65422,
141,
96,
65525,
65385,
65458,
65409,
12,
27,
65424,
65438,
32,
79,
105,
28,
109,
4,
175,
187,
65429,
3,
65400,
65448,
65380,
65514,
65510,
65239,
65350,
65342,
65343,
202,
65515,
65518,
65458,
65283,
65285,
42,
72,
125,
254,
65489,
65343,
65345,
65464,
65521,
65426,
65506,
65519,
65497,
171,
228,
178,
132,
143,
202,
65430,
65432,
139,
433,
90,
65474,
65474,
272,
144,
139,
43,
65377,
65410,
243,
197,
431,
81,
66,
65382,
197,
5,
170,
264,
65461,
65372,
66,
12,
129,
139,
65380,
65365,
37,
65419,
65512,
65080,
65286,
30,
17,
65445,
65480,
65504,
65513,
65489,
65433,
65381,
56,
65457,
65462,
73,
65367,
65356,
65412,
65473,
56,
24,
65521,
65386,
87,
65445,
65460,
49,
65415,
65510,
112,
62,
101,
12,
65497,
44,
32,
65505,
33,
23,
77,
341,
187,
153,
65403,
65513,
111,
42,
81,
0,
65414,
3,
122,
27,
101,
14,
65449,
65429,
34,
65340,
65512,
65524,
65467,
65529,
65368,
65504,
65402,
65433,
65453,
65435,
65515,
149,
48,
65489,
57,
204,
65401,
65488,
65289,
65314,
65515,
155,
65534,
155,
76,
65511,
65484,
124,
56,
246,
25,
117,
65534,
123,
65478,
187,
34,
232,
65527,
65501,
65393,
65468,
65484,
65,
65428,
55,
20,
19,
65523,
65523,
19,
65444,
65527,
91,
65503,
65459,
33,
65504,
51,
258,
146,
185,
72,
65374,
33,
44,
65529,
62,
65467,
65465,
26,
65470,
65444,
65520,
65478,
2,
51,
63,
11,
65477,
65488,
27,
30,
65517,
65447,
65444,
65449,
153,
180,
125,
12,
87,
59,
65469,
209,
307,
56,
203,
65413,
65491,
40,
266,
191,
205,
65507,
65497,
125,
158,
127,
252,
65292,
65517,
65521,
101,
73,
23,
65433,
65497,
73,
87,
180,
65509,
65530,
121,
65365,
13,
275,
459,
157,
74,
65520,
126,
124,
114,
212,
13,
65486,
18,
65461,
65516,
10,
69,
65519,
65280,
65431,
35,
9,
65434,
65535,
65388,
65464,
66,
65531,
41,
43,
87,
65373,
65396,
48,
107,
176,
80,
65474,
15,
74,
65497,
65500,
65421,
10,
65417,
65513,
65490,
65390,
65457,
65496,
65519,
65515,
65515,
65474,
65424,
65498,
65454,
65498,
65527,
79,
26,
63,
76,
116,
65517,
197,
139,
204,
148,
43,
155,
65532,
65381,
65287,
65318,
186,
51,
141,
65355,
65341,
65457,
65534,
244,
65418,
65514,
65465,
65406,
65381,
257,
25,
111,
27,
65481,
65446,
41,
105,
117,
134,
39,
71,
6,
67,
65436,
134,
43,
65513,
65467,
65476,
65475,
65500,
32,
109,
44,
65437,
23,
107,
65500,
21,
89,
65514,
65488,
38,
79,
124,
65518,
97,
65509,
72,
66,
67,
65481,
129,
88,
65480,
104,
65516,
65478,
65406,
65471,
65522,
65475,
65423,
65457,
65256,
65337,
65167,
65480,
65430,
254,
65528,
204,
109,
207,
46,
381,
153,
65426,
65460,
65407,
4,
234,
63,
0,
65423,
65425,
65482,
75,
54,
35,
65332,
10,
65455,
170,
65508,
16,
65491,
65450,
65454,
65355,
65482,
65520,
38,
73,
65508,
65472,
65505,
73,
103,
134,
70,
65341,
65527,
65501,
65467,
45,
109,
65440,
65490,
65459,
89,
57,
73,
65469,
65379,
65393,
65450,
54,
30,
65507,
2,
65514,
72,
43,
112,
78,
65446,
65397,
65247,
65315,
65318,
107,
65346,
65268,
65197,
65374,
77,
251,
25,
20,
65365,
65347,
4,
155,
65512,
65514,
65426,
65318,
81,
201,
143,
220,
150,
65498,
65506,
65522,
65490,
75,
65439,
158,
65448,
57,
65517,
65459,
65441,
65468,
65443,
65524,
65488,
87,
65517,
65452,
71,
65474,
16,
33,
65479,
33,
65520,
50,
5,
65441,
65510,
65489,
72,
90,
20,
66,
65460,
57,
65449,
65469,
46,
29,
65485,
65475,
82,
65518,
65381,
65531,
65400,
65447,
65452,
95,
23,
65482,
27,
23,
65517,
26,
198,
3,
3,
42,
9,
148,
115,
79,
151,
65517,
65439,
103,
37,
65529,
52,
12,
65430,
93,
65472,
15,
65446,
65465,
65500,
65431,
65457,
65442,
65501,
65312,
65435,
11,
22,
52,
66,
65488,
65346,
9,
58,
234,
44,
109,
89,
65508,
45,
312,
65510,
161,
166,
259,
38,
13,
21,
129,
32,
65495,
65521,
1,
65466,
65402,
65450,
65517,
65472,
53,
102,
6,
65508,
65403,
119,
209,
65473,
93,
65385,
65208,
45,
153,
298,
43,
65373,
65221,
7,
172,
171,
199,
65503,
65506,
65313,
65490,
65490,
65449,
65516,
65470,
18,
7,
33,
65475,
108,
13,
65420,
73,
65507,
65524,
65382,
21,
65428,
166,
65470,
65534,
65467,
60,
47,
200,
59,
65429,
60,
179,
34,
65486,
65470,
65516,
65514,
36,
204,
24,
2,
81,
14,
28,
28,
65512,
193,
65464,
65371,
2,
65492,
65463,
65524,
65447,
29,
11,
65509,
46,
26,
65487,
68,
76,
65521,
65480,
65528,
89,
85,
83,
65519,
65529,
65455,
65494,
65519,
35,
54,
65526,
70,
65518,
31,
75,
46,
42,
65464,
16,
17,
65462,
65475,
65344,
65432,
65330,
65510,
58,
65462,
65095,
65320,
65342,
65504,
4,
65313,
65460,
65270,
65371,
12,
26,
65525,
65522,
65448,
63,
107,
87,
65386,
65533,
64,
65480,
142,
67,
65441,
44,
139,
64,
38,
64,
135,
83,
65455,
65251,
65468,
146,
133,
65504,
65503,
65494,
65458,
65535,
65495,
100,
65445,
65496,
23,
65471,
104,
65507,
26,
65509,
65462,
108,
154,
153,
105,
54,
58,
92,
197,
154,
367,
131,
122,
65533,
22,
65472,
65507,
14,
62,
72,
65495,
81,
65471,
65518,
69,
43,
65443,
65492,
65459,
65484,
8,
65501,
20,
65480,
46,
65492,
65479,
65460,
65526,
81,
30,
87,
82,
65509,
44,
27,
65489,
16,
65455,
65365,
65459,
226,
48,
65325,
18,
65370,
127,
142,
108,
65519,
65313,
65449,
65522,
113,
109,
27,
65415,
2,
65474,
65424,
65535,
65524,
65474,
65522,
65408,
104,
65457,
174,
3,
65439,
101,
80,
111,
2,
181,
65470,
65530,
214,
65363,
69,
65529,
65455,
71,
65496,
3,
322,
135,
138,
4,
65522,
22,
89,
85,
130,
28,
33,
27,
65419,
65516,
91,
74,
65493,
65373,
65280,
10,
65464,
35,
65415,
65444,
65501,
65319,
53,
112,
103,
55,
116,
5,
54,
82,
65497,
71,
33,
204,
65509,
65416,
65499,
65380,
65472,
99,
9,
65483,
65405,
65430,
65456,
145,
65442,
22,
42,
42,
65460,
166,
65499,
149,
43,
186,
171,
126,
65287,
65447,
25,
123,
131,
179,
65299,
65450,
65510,
147,
98,
182,
65417,
65448,
65463,
65445,
65354,
125,
65469,
65467,
65372,
65354,
13,
73,
21,
65499,
96,
31,
40,
92,
65406,
111,
65491,
49,
24,
56,
65429,
65116,
65346,
65467,
94,
6,
65484,
65484,
35,
65501,
40,
65477,
34,
63,
83,
190,
44,
318,
65489,
65366,
65488,
65441,
21,
259,
308,
125,
65508,
132,
163,
94,
65507,
47,
147,
65526,
65394,
65272,
65477,
46,
65488,
73,
65442,
65518,
29,
65492,
65499,
65465,
65479,
65450,
65492,
58,
61,
65433,
65534,
65447,
65473,
65490,
30,
49,
39,
65494,
65507,
65479,
31,
4,
65439,
75,
65518,
61,
58,
61,
51,
34,
65465,
18,
3,
55,
10,
55,
8,
96,
65532,
65484,
65529,
65503,
50,
70,
49,
65385,
65372,
15,
50,
65507,
20,
65531,
65410,
65455,
40,
65520,
18,
65465,
65525,
65501,
65485,
65504,
16,
16,
65506,
20,
55,
65497,
65528,
65523,
65498,
65431,
59,
61,
65424,
65506,
65491,
65368,
72,
21,
65414,
15,
65507,
65472,
11,
24,
65423,
65498,
65431,
65420,
65483,
65497,
65453,
65509,
65416,
90,
65509,
46,
27,
65512,
52,
65525,
182,
90,
65484,
21,
65478,
65465,
65494,
246,
137,
227,
65489,
65299,
65283,
175,
65425,
65,
58,
65389,
65281,
65458,
93,
210,
190,
65317,
65292,
65407,
21,
68,
65531,
65530,
89,
21,
65463,
103,
65424,
183,
52,
65528,
65352,
65409,
65418,
65492,
65528,
65401,
65440,
65323,
65394,
65414,
56,
43,
65380,
65446,
65383,
65263,
81,
79,
71,
65431,
65452,
65352,
33,
57,
65507,
65421,
0,
65509,
65448,
65519,
65435,
65486,
65523,
65407,
65504,
65528,
96,
65521,
65414,
65396,
6,
59,
88,
42,
65437,
65488,
56,
3,
171,
21,
65518,
95,
47,
65491,
224,
29,
65500,
30,
30,
45,
50,
167,
20,
65531,
17,
35,
65479,
79,
65509,
65524,
65472,
65422,
71,
27,
65493,
65310,
21,
77,
296,
184,
273,
65392,
65502,
232,
275,
221,
269,
65426,
135,
138,
92,
65495,
65535,
21,
43,
316,
112,
65528,
45,
65476,
65444,
65454,
65429,
65485,
65306,
65268,
25,
65481,
65472,
4,
65411,
65408,
65479,
65446,
65483,
65486,
65460,
65458,
104,
65404,
65525,
55,
15,
65492,
35,
21,
69,
34,
65492,
93,
232,
65518,
87,
63,
99,
68,
28,
65456,
65513,
90,
65496,
65443,
33,
63,
65413,
65357,
65403,
186,
16,
65520,
68,
138,
65517,
226,
32,
39,
42,
30,
97,
18,
35,
67,
103,
47,
79,
65517,
65395,
59,
2,
65423,
65432,
65522,
50,
45,
26,
45,
65501,
65523,
65314,
65505,
313,
364,
225,
65492,
65403,
65524,
343,
295,
295,
65502,
65505,
60,
100,
220,
180,
65469,
65475,
56,
65451,
48,
144,
65465,
65496,
65532,
65341,
65427,
65392,
65403,
65448,
70,
65512,
65365,
65334,
65386,
65411,
8,
65394,
65310,
65347,
65377,
87,
193,
65399,
65294,
65351,
65466,
65533,
65503,
65317,
65414,
65453,
65484,
163,
65521,
65421,
65513,
65466,
65446,
65522,
65368,
65414,
65489,
65431,
65484,
91,
104,
43,
188,
248,
130,
65467,
84,
65529,
65529,
185,
65471,
111,
65317,
65211,
65330,
83,
114,
1,
65359,
65278,
65292,
48,
62,
78,
65439,
65368,
65417,
10,
74,
65402,
32,
73,
13,
71,
5,
21,
87,
65525,
65516,
249,
41,
68,
65469,
189,
127,
75,
105,
65474,
15,
91,
124,
36,
89,
65532,
116,
65499,
20,
65534,
65451,
65500,
65495,
65489,
12,
65462,
65534,
65357,
5,
65527,
65346,
65380,
9,
65413,
65489,
65344,
65501,
94,
64,
137,
65496,
65258,
65451,
52,
61,
37,
65520,
65424,
4,
138,
65491,
20,
9,
65468,
5,
22,
65534,
46,
65436,
65513,
65458,
65521,
88,
123,
65534,
65378,
65398,
43,
70,
73,
65478,
65431,
65506,
3,
65439,
43,
65486,
18,
65480,
65534,
65437,
7,
65492,
65521,
65522,
65352,
65456,
65482,
65532,
65387,
65405,
74,
65410,
20,
25,
65403,
65413,
65483,
65506,
65472,
24,
65425,
65365,
65483,
65440,
20,
67,
65504,
65468,
64,
5,
65398,
35,
65502,
65449,
65365,
65456,
65523,
97,
170,
65491,
65455,
65436,
65476,
112,
141,
8,
10,
65510,
65488,
65493,
75,
27,
69,
65405,
57,
52,
77,
29,
85,
65507,
65476,
132,
139,
193,
58,
61,
83,
65455,
22,
65398,
65386,
42,
65463,
65483,
65502,
65323,
2,
65480,
109,
13,
65504,
65310,
65521,
20,
57,
65391,
126,
34,
65427,
46,
69,
65473,
67,
65486,
83,
55,
65500,
65459,
65456,
65483,
65465,
65392,
65491,
39,
11,
65519,
65457,
65532,
65530,
71,
65443,
68,
86,
64,
65478,
65519,
65472,
48,
71,
53,
65499,
86,
65464,
65490,
65480,
12,
65468,
65454,
32,
17,
65524,
65528,
2,
65462,
65511,
65492,
65491,
44,
60,
65468,
65440,
234,
109,
118,
65435,
65454,
49,
251,
237,
19,
65450,
74,
357,
602,
256,
65387,
65401,
91,
276,
204,
268,
65358,
65440,
96,
2,
39,
65437,
65439,
65338,
65378,
69,
65307,
65244,
65390,
4,
164,
33,
65432,
65311,
65400,
65499,
123,
65498,
65430,
65476,
65449,
65310,
44,
65435,
65491,
65420,
65327,
65458,
161,
65490,
125,
65370,
65425,
65365,
65493,
65527,
65534,
12,
65457,
72,
329,
174,
299,
296,
418,
10,
4,
65404,
65530,
72,
58,
208,
65258,
65292,
65146,
65472,
217,
125,
65304,
65413,
65283,
65387,
334,
97,
37,
65482,
65490,
65503,
193,
65518,
66,
121,
275,
199,
99,
95,
65520,
129,
58,
86,
65359,
114,
32,
4,
72,
94,
65528,
65530,
73,
94,
65530,
110,
48,
37,
104,
92,
65462,
85,
11,
4,
55,
65531,
21,
65453,
65533,
44,
90,
65441,
65528,
65461,
65511,
65531,
65533,
65514,
26,
35,
65511,
337,
65520,
3,
65424,
65460,
147,
168,
84,
86,
65459,
65427,
65478,
171,
85,
148,
65508,
65482,
65461,
163,
80,
151,
41,
69,
65430,
65399,
65503,
0,
88,
92,
65527,
3,
20,
47,
3,
19,
22,
65407,
65520,
83,
122,
14,
12,
65412,
192,
114,
52,
65519,
65396,
65276,
18,
73,
80,
161,
65481,
65525,
8,
64,
30,
54,
65504,
65444,
65461,
65525,
65444,
30,
65497,
111,
65521,
99,
109,
65378,
65521,
65481,
65510,
65335,
65484,
78,
65477,
50,
6,
65533,
65497,
65435,
59,
54,
65496,
65526,
65484,
31,
51,
12,
24,
65535,
36,
65494,
82,
65532,
82,
65487,
65518,
65503,
56,
65518,
65526,
65503,
31,
58,
1,
65463,
65513,
65509,
65335,
28,
65385,
3,
65527,
55,
65517,
65501,
65460,
65492,
126,
125,
65506,
121,
65409,
58,
33,
49,
65452,
65379,
65395,
62,
65506,
42,
65368,
65453,
65345,
34,
85,
65476,
65443,
18,
65396,
326,
8,
65382,
65268,
65375,
65520,
210,
65496,
65400,
65354,
65398,
65490,
178,
65429,
65472,
65492,
65471,
48,
79,
7,
65483,
19,
67,
35,
65468,
20,
65515,
102,
65529,
50,
162,
99,
71,
149,
22,
191,
101,
65460,
65456,
65496,
65529,
23,
65483,
130,
65434,
10,
65433,
65463,
3,
6,
65360,
65335,
65360,
65390,
65449,
32,
65467,
65414,
65517,
65385,
72,
65533,
65492,
18,
166,
22,
21,
101,
65482,
162,
205,
110,
32,
65348,
65440,
123,
58,
65522,
9,
65483,
109,
65526,
111,
138,
35,
6,
95,
65509,
109,
65528,
66,
154,
65522,
142,
65477,
65426,
65414,
40,
65486,
65173,
65299,
8,
65433,
65442,
65426,
65487,
65532,
55,
65488,
65511,
65464,
82,
95,
127,
65389,
25,
139,
335,
194,
60,
65310,
160,
65454,
65518,
98,
65475,
65468,
65440,
65374,
65287,
65535,
65440,
65458,
65532,
65484,
113,
65486,
65492,
89,
65521,
65527,
65482,
65531,
65514,
65430,
65525,
65425,
65519,
65392,
65443,
65489,
65477,
65299,
65420,
65407,
65482,
79,
39,
65406,
65524,
65267,
65398,
36,
141,
6,
65475,
65431,
65488,
9,
137,
65454,
65410,
23,
65508,
65509,
65513,
3,
65473,
65459,
65486,
