memory_initialization_radix=10;
memory_initialization_vector =
48,
65464,
65488,
65507,
65463,
100,
65521,
65449,
65463,
65318,
65446,
24,
104,
59,
65513,
28,
17,
65395,
52,
65452,
98,
44,
24,
65417,
65477,
65471,
65416,
31,
65489,
22,
105,
65511,
65500,
42,
79,
154,
182,
140,
30,
142,
100,
65439,
59,
65428,
6,
31,
65516,
65483,
65451,
65381,
165,
32,
65438,
65431,
65479,
65373,
149,
65295,
65462,
65492,
65454,
65479,
65318,
65534,
65534,
65486,
65498,
65418,
65438,
65360,
65347,
65415,
65467,
65527,
65437,
65466,
40,
65408,
65487,
65530,
65348,
65354,
65370,
65462,
65355,
96,
49,
65533,
65523,
65465,
65429,
65497,
65535,
65467,
88,
65478,
65499,
65490,
1,
65322,
65498,
65466,
77,
65445,
15,
65526,
65460,
65448,
0,
65507,
58,
78,
22,
94,
127,
171,
204,
86,
80,
65500,
65301,
65425,
65510,
121,
65485,
65441,
4,
64,
65443,
65436,
65450,
65478,
21,
65512,
65444,
65326,
65433,
33,
65474,
13,
65423,
65440,
65,
65535,
65456,
32,
88,
74,
65535,
65503,
65493,
65446,
65473,
65449,
28,
65499,
65508,
52,
65513,
20,
55,
31,
54,
26,
17,
65533,
31,
65467,
65447,
45,
18,
65490,
65461,
65495,
65485,
3,
74,
41,
83,
28,
65532,
65495,
65455,
65433,
65401,
38,
107,
174,
117,
65528,
67,
65499,
65519,
131,
189,
51,
141,
65502,
42,
144,
65466,
11,
65499,
162,
109,
153,
16,
110,
73,
122,
95,
88,
5,
89,
65399,
65529,
65519,
65499,
65456,
146,
223,
65529,
65460,
65452,
65320,
65256,
65290,
65482,
44,
65325,
65312,
65217,
65225,
65487,
65489,
65145,
65279,
65304,
65181,
65396,
82,
65251,
65188,
65200,
65306,
65529,
26,
60,
65477,
65348,
65443,
65458,
65510,
65430,
65488,
65470,
65508,
65484,
19,
65452,
65266,
65205,
65405,
65419,
65430,
65368,
65418,
65527,
65471,
65336,
43,
22,
43,
212,
65444,
91,
52,
65528,
65396,
0,
65522,
65485,
65482,
48,
65405,
65534,
34,
36,
125,
9,
160,
93,
202,
190,
72,
65465,
65494,
63,
87,
28,
65483,
65337,
65346,
65278,
65366,
74,
65462,
65423,
65427,
65387,
65431,
65401,
143,
65520,
65347,
65444,
65459,
94,
125,
65519,
118,
41,
98,
4,
87,
36,
65493,
65486,
65462,
65513,
65526,
65427,
65463,
65335,
65453,
65429,
69,
195,
65481,
131,
65385,
65403,
128,
97,
232,
259,
183,
132,
65436,
89,
131,
252,
194,
65491,
28,
25,
57,
95,
65407,
76,
88,
56,
21,
65527,
80,
54,
65508,
65519,
26,
65499,
65487,
65480,
18,
65516,
65493,
36,
65471,
65451,
67,
65465,
30,
21,
65486,
65476,
1,
65475,
65473,
3,
65465,
76,
65463,
65511,
19,
41,
65470,
65495,
65445,
65458,
65501,
65338,
65462,
65341,
65446,
65417,
65407,
65352,
65289,
65413,
65526,
65411,
65441,
65452,
35,
2,
18,
65464,
65513,
69,
65462,
80,
65481,
69,
65467,
132,
65509,
65422,
65510,
65477,
74,
20,
65494,
26,
78,
65480,
65386,
65523,
65506,
12,
124,
65387,
65346,
65320,
65370,
65399,
65469,
65526,
65461,
119,
19,
65392,
65454,
96,
132,
125,
7,
32,
14,
35,
233,
206,
10,
65454,
65463,
53,
65477,
65522,
65497,
112,
179,
202,
168,
264,
260,
40,
147,
65508,
110,
228,
137,
65466,
77,
65213,
65526,
65152,
65313,
65504,
65458,
65516,
65262,
65266,
65483,
65451,
65502,
65475,
24,
65401,
108,
65390,
65522,
65483,
257,
109,
117,
154,
142,
39,
56,
85,
25,
111,
69,
65437,
65410,
65433,
18,
112,
65422,
65452,
65397,
65274,
65286,
65493,
65406,
65304,
67,
65515,
65496,
65378,
65471,
65450,
35,
20,
85,
65421,
65535,
47,
27,
196,
43,
101,
27,
65516,
65494,
65448,
65441,
73,
11,
65350,
28,
65483,
65528,
6,
65475,
65395,
65233,
65318,
65292,
65507,
18,
65394,
12,
65519,
65466,
38,
65424,
65376,
65417,
65453,
65398,
5,
46,
11,
50,
16,
65512,
65459,
65432,
36,
32,
65465,
65507,
58,
65441,
12,
84,
50,
9,
65461,
62,
65512,
135,
77,
65511,
59,
65,
10,
65528,
65534,
17,
26,
99,
7,
65463,
65524,
47,
69,
65440,
80,
65452,
16,
65469,
65509,
65480,
247,
95,
350,
225,
65455,
67,
132,
100,
190,
59,
65467,
21,
65130,
65307,
65263,
65356,
75,
65505,
37,
65408,
65500,
138,
65414,
92,
65531,
125,
115,
214,
236,
14,
65484,
284,
122,
239,
78,
65408,
65330,
65383,
65358,
65422,
65533,
65505,
19,
65364,
65273,
65372,
65420,
71,
65385,
108,
122,
41,
24,
48,
216,
300,
56,
145,
6,
89,
65515,
93,
66,
102,
65490,
147,
120,
47,
65519,
66,
170,
37,
65511,
65341,
65493,
77,
139,
141,
25,
65472,
65227,
65481,
113,
65521,
65377,
65343,
65225,
65315,
65345,
65460,
65372,
65362,
65387,
65534,
65352,
65478,
65394,
65415,
65235,
65378,
65331,
34,
38,
55,
125,
65513,
65510,
65434,
65431,
65508,
65428,
65476,
65354,
65521,
65392,
65351,
65203,
65290,
65400,
65484,
65511,
17,
65395,
65505,
6,
65478,
65509,
7,
194,
65401,
65507,
65457,
148,
65521,
65479,
88,
46,
65450,
65499,
18,
65397,
65508,
65440,
65489,
65470,
37,
65489,
65535,
65525,
101,
16,
68,
123,
65519,
65420,
65534,
438,
184,
272,
366,
162,
126,
91,
232,
218,
165,
76,
31,
272,
267,
395,
440,
156,
65427,
131,
143,
77,
77,
101,
6,
65362,
65474,
65359,
65519,
32,
65495,
348,
40,
208,
171,
65527,
65493,
359,
65501,
116,
74,
55,
65329,
289,
241,
189,
179,
74,
65394,
204,
364,
248,
121,
174,
65492,
104,
65526,
89,
206,
3,
65451,
65287,
65330,
65235,
65444,
65339,
65518,
290,
166,
179,
135,
65528,
6,
170,
50,
337,
66,
71,
31,
120,
183,
256,
41,
65442,
4,
19,
225,
135,
90,
65506,
65482,
129,
118,
160,
110,
54,
133,
65500,
65479,
65473,
65402,
65443,
65504,
4,
79,
65488,
65461,
66,
65476,
104,
314,
352,
161,
21,
89,
111,
95,
119,
61,
94,
65431,
65435,
64,
18,
65488,
65427,
18,
35,
65249,
65361,
65396,
65529,
65287,
124,
14,
65505,
65528,
27,
65339,
163,
113,
263,
277,
65532,
65446,
365,
65527,
9,
339,
174,
43,
153,
190,
65533,
230,
85,
168,
102,
220,
250,
197,
255,
65330,
129,
214,
87,
81,
56,
17,
65441,
65327,
65518,
65475,
65466,
0,
65495,
65412,
65296,
65322,
65512,
1,
65288,
65431,
65391,
65346,
65384,
65386,
106,
65497,
18,
65489,
65381,
65517,
65498,
37,
26,
15,
65390,
35,
14,
65528,
65424,
42,
93,
65520,
65463,
65385,
65375,
65513,
65377,
16,
65492,
65525,
65399,
65398,
65502,
139,
59,
96,
206,
65508,
63,
65494,
154,
106,
84,
279,
65460,
65458,
65492,
110,
60,
163,
65430,
65472,
59,
21,
65425,
65521,
65455,
65484,
65522,
10,
37,
30,
58,
65482,
0,
65504,
37,
65445,
65517,
77,
6,
2,
65517,
65509,
65531,
65505,
0,
65509,
65487,
62,
83,
69,
65443,
65428,
65471,
65499,
68,
65497,
11,
16,
64,
64,
65523,
43,
65416,
16,
65518,
65492,
65508,
65508,
79,
65520,
65369,
65457,
65429,
65426,
65518,
69,
65384,
65444,
37,
35,
65493,
59,
85,
0,
74,
65510,
98,
16,
65532,
57,
78,
65489,
65529,
65521,
65397,
65438,
65447,
65460,
65498,
68,
78,
10,
33,
10,
8,
65483,
65528,
65519,
65524,
65525,
65518,
38,
65479,
83,
4,
4,
1,
65495,
65521,
65442,
65528,
47,
65495,
38,
65512,
65477,
54,
65516,
65532,
65451,
45,
65524,
71,
60,
65477,
65366,
65443,
65439,
65470,
31,
65384,
65217,
65293,
65418,
65448,
43,
65305,
65431,
65365,
65414,
65394,
65452,
12,
35,
65501,
65404,
19,
65529,
65527,
65532,
65499,
65362,
65472,
65488,
16,
65373,
65457,
65462,
65530,
65449,
64,
73,
67,
65534,
60,
65457,
91,
65466,
65473,
35,
65517,
65460,
65515,
65469,
65473,
65506,
3,
65508,
85,
60,
65502,
65486,
66,
65439,
25,
65506,
63,
73,
65469,
65475,
28,
32,
65435,
81,
37,
65463,
65461,
65509,
65387,
65389,
65480,
65500,
65526,
65354,
65441,
65416,
65505,
48,
163,
86,
91,
53,
20,
88,
55,
65430,
136,
4,
65491,
65422,
63,
6,
65347,
65501,
65408,
65494,
44,
65467,
65473,
65456,
23,
39,
45,
65520,
65412,
65443,
13,
65476,
65522,
65387,
65358,
65454,
28,
65466,
31,
65459,
65420,
142,
65521,
65531,
61,
79,
65522,
72,
65518,
34,
87,
231,
153,
96,
65481,
65501,
65519,
65481,
65379,
14,
65452,
282,
198,
210,
129,
89,
22,
187,
65480,
170,
98,
65506,
67,
65446,
38,
52,
4,
65353,
65354,
65417,
65300,
187,
46,
65409,
65461,
65452,
65370,
65268,
65484,
65464,
65386,
102,
65438,
65390,
65356,
65481,
4,
169,
92,
9,
138,
43,
65461,
25,
1,
187,
65479,
91,
65448,
65412,
65140,
65526,
65450,
65498,
65464,
65442,
65120,
65330,
65112,
65349,
65440,
65457,
65313,
65282,
65240,
65316,
65463,
65486,
65465,
65382,
65310,
65533,
7,
80,
65494,
22,
65447,
9,
80,
65468,
65393,
65418,
65336,
65524,
65522,
65367,
65138,
65384,
65411,
65245,
65347,
65534,
65152,
65336,
65488,
65446,
65370,
65422,
65331,
65318,
65424,
65170,
65262,
65489,
65414,
65164,
65274,
65228,
65352,
16,
6,
65534,
87,
109,
65492,
14,
65475,
65441,
65388,
65423,
5,
65430,
65333,
65369,
65277,
65378,
65493,
65490,
65443,
45,
65404,
65319,
65508,
65520,
43,
65519,
65472,
65423,
25,
2,
65476,
21,
65502,
65525,
27,
40,
38,
65455,
65518,
65344,
65491,
58,
65527,
146,
272,
172,
78,
65532,
16,
7,
65447,
65423,
65498,
65533,
22,
176,
65423,
48,
65444,
127,
134,
192,
186,
97,
89,
65433,
65535,
37,
25,
91,
145,
6,
65471,
65514,
49,
65515,
65493,
36,
65458,
40,
65518,
65509,
6,
55,
65489,
57,
65522,
65511,
65503,
65486,
65500,
65499,
65500,
48,
65475,
33,
65513,
65455,
49,
65439,
30,
3,
65491,
65434,
65530,
65457,
65481,
63,
65439,
65400,
65398,
65392,
65487,
65473,
65441,
65309,
65285,
65320,
65408,
65393,
65511,
65495,
65409,
65402,
65425,
35,
22,
62,
89,
15,
37,
65486,
85,
71,
65535,
48,
11,
65483,
65472,
65489,
8,
7,
31,
65232,
65384,
65441,
54,
46,
65437,
65317,
65481,
182,
371,
196,
65521,
180,
600,
467,
406,
536,
259,
198,
547,
237,
224,
428,
195,
114,
236,
465,
407,
277,
154,
8,
65480,
31,
126,
68,
38,
65402,
65251,
65515,
65389,
65523,
65510,
65405,
142,
25,
65249,
131,
65386,
61,
134,
65410,
71,
137,
69,
154,
167,
65440,
65533,
65461,
65397,
65507,
102,
65491,
1,
65509,
65362,
88,
128,
65464,
21,
65434,
65461,
111,
65520,
68,
65342,
65396,
6,
172,
34,
65475,
65374,
65511,
65508,
64,
66,
181,
103,
37,
65367,
95,
212,
94,
317,
110,
8,
65533,
33,
145,
248,
65456,
10,
58,
169,
65516,
111,
37,
196,
49,
56,
46,
65437,
17,
65458,
23,
66,
42,
51,
65493,
65526,
11,
65465,
65531,
73,
65,
65491,
61,
24,
65,
65437,
65504,
39,
65466,
23,
65494,
37,
44,
65456,
65465,
65442,
65477,
65455,
92,
65452,
69,
8,
136,
65512,
75,
46,
53,
65531,
65490,
65431,
65304,
65393,
45,
31,
65222,
65342,
65344,
65281,
65532,
65443,
65301,
65445,
65462,
65296,
73,
2,
65320,
65240,
65422,
10,
10,
90,
65489,
65446,
65468,
65507,
15,
45,
65448,
56,
232,
87,
65530,
30,
65479,
65253,
44,
65436,
2,
65275,
65110,
64997,
65214,
65313,
65508,
65356,
65222,
65188,
65195,
65246,
65499,
65346,
65341,
65058,
65305,
65355,
29,
106,
65452,
65469,
1,
40,
78,
65517,
65531,
65433,
51,
65454,
165,
65518,
73,
260,
105,
94,
34,
133,
235,
65399,
44,
65442,
13,
81,
136,
54,
46,
89,
65497,
62,
201,
65502,
92,
17,
65505,
65534,
73,
65500,
43,
65501,
65431,
65,
65459,
65437,
53,
68,
65530,
93,
65465,
65492,
65502,
35,
41,
7,
96,
40,
65522,
65506,
37,
31,
105,
27,
20,
53,
65463,
65495,
54,
65530,
4,
65436,
65471,
49,
61,
65464,
54,
65482,
225,
20,
65460,
65385,
65413,
125,
173,
6,
65502,
46,
65464,
65535,
60,
137,
114,
46,
86,
65381,
24,
96,
263,
244,
88,
65474,
42,
57,
46,
221,
175,
100,
77,
116,
49,
97,
16,
186,
65402,
272,
65484,
17,
65443,
65535,
65400,
174,
65519,
222,
65528,
65507,
35,
183,
18,
101,
324,
43,
65523,
144,
115,
65526,
258,
174,
142,
58,
35,
70,
174,
363,
65503,
77,
241,
94,
252,
66,
8,
36,
29,
14,
65497,
65442,
51,
43,
43,
65424,
65520,
65430,
65501,
101,
37,
147,
75,
65449,
68,
93,
65510,
89,
90,
65467,
21,
3,
38,
63,
65470,
28,
16,
67,
65479,
65453,
65534,
65478,
65462,
6,
65499,
114,
65480,
49,
65464,
77,
71,
115,
71,
36,
31,
53,
65455,
65534,
65529,
65525,
65473,
65389,
65455,
65434,
41,
94,
26,
65440,
65303,
65343,
65419,
31,
55,
65453,
65450,
65427,
52,
114,
55,
65412,
65460,
25,
65442,
65456,
59,
25,
65404,
65416,
65364,
65453,
65429,
15,
65368,
65527,
65228,
65498,
65386,
65482,
65448,
99,
84,
65503,
65494,
65437,
65466,
31,
106,
65475,
79,
65404,
65425,
65402,
28,
65470,
45,
136,
134,
185,
225,
103,
79,
65305,
14,
78,
16,
122,
65514,
65156,
65307,
65179,
65365,
65429,
65483,
65254,
65364,
65358,
65495,
65387,
65511,
65272,
65261,
65401,
65356,
65512,
108,
65440,
81,
65449,
0,
2,
65424,
65458,
65369,
65443,
65530,
65456,
38,
65453,
65354,
65200,
65362,
65336,
65411,
65460,
65446,
65474,
65535,
65484,
65496,
65460,
111,
179,
65466,
123,
65490,
65498,
27,
12,
65474,
32,
65514,
65489,
65495,
65442,
65531,
65449,
103,
65534,
161,
179,
48,
75,
65523,
65416,
65469,
65514,
65504,
147,
21,
65357,
65503,
65437,
65484,
150,
65361,
65328,
65364,
65435,
2,
65506,
65510,
65430,
65369,
60,
42,
40,
65526,
65468,
59,
131,
53,
149,
65455,
54,
8,
10,
65515,
13,
65458,
36,
279,
179,
20,
65527,
65458,
65529,
140,
247,
65470,
197,
65500,
66,
65526,
129,
33,
29,
65453,
3,
65499,
65499,
65526,
65521,
65478,
65471,
65529,
65486,
54,
2,
65444,
65520,
65470,
65507,
58,
12,
65362,
65460,
250,
220,
80,
65480,
65392,
270,
119,
293,
177,
65516,
96,
218,
240,
124,
230,
53,
52,
116,
280,
308,
270,
29,
65393,
65487,
65523,
65471,
79,
65461,
65456,
65425,
65487,
65528,
65490,
71,
65429,
215,
65519,
65395,
289,
65525,
65524,
123,
65374,
65405,
65508,
23,
58,
193,
65399,
65517,
65517,
142,
65489,
8,
65462,
120,
104,
65517,
83,
67,
65464,
65491,
178,
52,
54,
65360,
14,
65366,
156,
65534,
44,
65269,
65257,
65108,
65348,
65471,
65431,
65175,
65296,
65362,
65250,
65394,
65377,
65253,
65240,
65449,
66,
65419,
65453,
65373,
65254,
65199,
65365,
65390,
122,
76,
65376,
65234,
65240,
65400,
65431,
117,
65468,
73,
65406,
39,
110,
56,
65535,
117,
65472,
65407,
65509,
103,
17,
65285,
199,
65423,
65426,
65402,
162,
65383,
50,
112,
103,
104,
66,
92,
77,
19,
50,
114,
180,
29,
107,
65471,
65499,
65444,
65505,
44,
79,
50,
65494,
65421,
65484,
65457,
65472,
65439,
65520,
65499,
65476,
65410,
65485,
65482,
65484,
94,
65430,
65523,
30,
65494,
65524,
65452,
65515,
69,
19,
65529,
65459,
17,
13,
65487,
26,
65530,
65469,
65491,
65354,
65503,
65500,
65464,
40,
26,
11,
127,
185,
21,
65508,
187,
52,
138,
397,
212,
65485,
65477,
65510,
65311,
62,
52,
65435,
65475,
65379,
65413,
65307,
19,
65485,
25,
66,
89,
65498,
29,
40,
47,
7,
38,
65403,
65462,
64,
52,
65507,
59,
65457,
52,
130,
212,
65531,
169,
134,
65319,
179,
190,
177,
65491,
18,
148,
154,
134,
165,
48,
65510,
181,
103,
58,
169,
201,
85,
93,
44,
110,
11,
220,
153,
142,
65508,
194,
127,
345,
179,
59,
42,
8,
65454,
65409,
65522,
105,
65411,
65366,
65427,
65512,
65412,
37,
70,
65464,
65452,
65481,
70,
65459,
65532,
65508,
65420,
51,
65529,
65519,
65514,
42,
22,
1,
65532,
65,
24,
293,
165,
288,
72,
125,
230,
441,
336,
353,
268,
175,
134,
214,
298,
279,
279,
61,
197,
164,
335,
375,
180,
95,
197,
32,
65492,
245,
119,
214,
65487,
65334,
65477,
45,
122,
49,
65512,
65446,
36,
65433,
43,
48,
1,
23,
65144,
65177,
65443,
18,
106,
65464,
65300,
65284,
65264,
65433,
43,
65274,
65224,
65214,
65309,
65494,
65447,
65484,
65535,
108,
65454,
65491,
102,
65496,
92,
88,
98,
75,
22,
65523,
65514,
28,
13,
0,
65516,
59,
47,
251,
43,
130,
65510,
65400,
37,
34,
65530,
59,
0,
65469,
65487,
120,
93,
44,
65473,
61,
6,
184,
92,
144,
14,
65480,
65436,
65373,
65405,
65448,
135,
65488,
65409,
65411,
65382,
72,
58,
33,
317,
171,
39,
65198,
36,
156,
198,
257,
54,
65523,
65533,
65,
93,
221,
183,
89,
65523,
65475,
65514,
28,
65494,
21,
65521,
8,
37,
47,
50,
101,
65474,
12,
128,
178,
115,
65486,
28,
65515,
85,
65489,
108,
65532,
65477,
23,
74,
84,
68,
73,
63,
30,
117,
145,
17,
65510,
92,
36,
1,
0,
65456,
43,
182,
167,
72,
149,
175,
93,
65529,
65491,
208,
65480,
123,
57,
4,
65459,
18,
65484,
65279,
65422,
65446,
65106,
65386,
65459,
65429,
65482,
65529,
65160,
65068,
65208,
65376,
1,
111,
65459,
65527,
65459,
65260,
65398,
65472,
21,
65511,
89,
252,
49,
65329,
65511,
94,
215,
118,
26,
65472,
65428,
65347,
65447,
65452,
65497,
65382,
65474,
65339,
65395,
65508,
56,
45,
65400,
65462,
65445,
65487,
65459,
65490,
65405,
65490,
65471,
95,
65506,
136,
3,
209,
81,
65478,
119,
95,
65392,
115,
65510,
3,
80,
65411,
65394,
178,
226,
65533,
65358,
65470,
65275,
65497,
73,
17,
65499,
0,
65440,
65117,
77,
65499,
65347,
65523,
65492,
122,
65284,
65367,
65533,
59,
78,
65526,
65,
9,
27,
65518,
68,
65523,
53,
7,
46,
4,
65443,
65500,
49,
16,
65511,
65475,
65447,
65488,
65532,
51,
12,
37,
65476,
73,
65498,
65532,
65511,
25,
23,
70,
65534,
65510,
65500,
65466,
65496,
65496,
17,
65505,
34,
65529,
86,
181,
107,
65454,
74,
129,
159,
129,
125,
65500,
65534,
118,
176,
139,
125,
65437,
154,
164,
80,
17,
6,
104,
38,
65496,
65434,
30,
65488,
65526,
65417,
3,
96,
87,
208,
65530,
98,
95,
130,
262,
346,
65519,
83,
65507,
65435,
93,
55,
200,
65481,
65526,
15,
115,
98,
224,
8,
84,
65481,
65365,
65468,
65436,
65359,
65520,
65508,
65457,
65490,
65505,
65476,
65454,
65455,
65411,
65399,
65509,
40,
65338,
18,
59,
155,
74,
65474,
49,
290,
122,
181,
383,
195,
145,
114,
249,
257,
364,
65463,
123,
173,
307,
295,
268,
220,
65390,
103,
296,
183,
105,
5,
123,
134,
65482,
65480,
65375,
65458,
97,
65502,
265,
391,
16,
92,
19,
65517,
313,
188,
103,
54,
54,
65383,
246,
142,
87,
48,
132,
118,
65423,
89,
67,
65508,
33,
79,
194,
8,
76,
65525,
75,
77,
25,
65527,
20,
57,
65487,
65498,
65438,
27,
65464,
58,
65452,
65526,
65529,
65513,
47,
24,
50,
2,
65525,
31,
91,
1,
46,
23,
92,
31,
65503,
65520,
82,
65504,
65457,
13,
65533,
65526,
65485,
65418,
65506,
65452,
65461,
65534,
65463,
65383,
65218,
65193,
65447,
16,
65409,
65481,
21,
65402,
65400,
65526,
54,
65403,
114,
56,
65448,
89,
9,
75,
65434,
8,
65507,
130,
65418,
65453,
65513,
65388,
65486,
29,
65514,
85,
65532,
32,
69,
65477,
51,
64,
168,
49,
33,
24,
102,
120,
345,
463,
228,
67,
65485,
185,
165,
330,
244,
143,
59,
65528,
187,
329,
230,
65515,
90,
65500,
65528,
17,
62,
39,
65463,
65520,
65486,
65499,
81,
65493,
65517,
18,
65510,
125,
64,
31,
27,
65510,
65381,
24,
84,
65430,
65519,
99,
65415,
65463,
15,
65521,
29,
19,
65374,
65525,
65451,
36,
0,
32,
65493,
65486,
65519,
95,
65480,
7,
65506,
9,
65453,
65365,
65429,
73,
270,
348,
30,
10,
65440,
260,
259,
395,
306,
82,
65512,
56,
263,
238,
130,
225,
45,
167,
265,
330,
152,
65484,
65416,
40,
79,
15,
211,
65388,
61,
65343,
65417,
71,
65423,
65420,
33,
65381,
187,
214,
134,
123,
112,
31,
334,
164,
58,
65502,
65526,
65530,
149,
69,
137,
6,
65437,
65495,
20,
253,
168,
71,
40,
65485,
65461,
65460,
4,
3,
109,
65533,
18,
78,
190,
9,
10,
65375,
65436,
65373,
93,
9,
65449,
65421,
65372,
65382,
65466,
65527,
65524,
65498,
65405,
65516,
65451,
65406,
65403,
65499,
65358,
65502,
65448,
63,
44,
13,
81,
164,
25,
82,
65422,
53,
65445,
99,
212,
65486,
65359,
65376,
65527,
65369,
102,
46,
65351,
65253,
65288,
65276,
65389,
14,
24,
65266,
65254,
65378,
65378,
65451,
65377,
65248,
65433,
65374,
65432,
65377,
39,
65348,
101,
65505,
65478,
65433,
65469,
375,
184,
101,
245,
293,
151,
148,
357,
325,
33,
214,
65524,
65534,
65519,
65227,
65504,
21,
65525,
65294,
65360,
65156,
65436,
65312,
33,
65403,
65213,
65112,
65134,
65304,
39,
65375,
37,
65428,
65380,
55,
65506,
58,
65473,
69,
45,
65506,
65525,
65499,
49,
41,
3,
65530,
65534,
3,
65499,
56,
65518,
65465,
65521,
65449,
41,
65456,
65519,
35,
65492,
111,
65528,
65493,
51,
65438,
44,
65511,
65519,
2,
76,
65441,
65499,
53,
65489,
65465,
65468,
65463,
73,
17,
65491,
65475,
65428,
85,
65508,
79,
23,
17,
65438,
65450,
142,
33,
90,
54,
176,
65445,
65476,
65524,
156,
32,
65510,
65505,
65516,
65490,
27,
65510,
65489,
65474,
65417,
62,
65494,
65491,
65454,
65482,
65464,
65484,
65413,
65405,
65529,
65476,
65522,
7,
65489,
65444,
65498,
65425,
0,
59,
87,
62,
125,
65531,
42,
21,
24,
65509,
101,
15,
65489,
65494,
65461,
65492,
17,
65499,
65322,
65360,
65454,
65337,
65430,
65386,
65500,
65455,
65385,
65265,
26,
65327,
80,
410,
253,
275,
176,
65530,
141,
351,
318,
228,
344,
66,
74,
278,
478,
370,
398,
65530,
65496,
16,
80,
193,
130,
65461,
65500,
65407,
65369,
65401,
65353,
65285,
16,
65466,
79,
65238,
65472,
65469,
46,
167,
230,
210,
65465,
65421,
62,
25,
59,
136,
70,
65402,
39,
1,
65492,
130,
65522,
65313,
65509,
56,
65506,
65489,
65436,
65523,
65521,
92,
24,
42,
71,
49,
43,
65460,
138,
259,
50,
36,
59,
52,
85,
206,
161,
39,
65438,
31,
250,
136,
52,
101,
63,
54,
103,
323,
150,
40,
65479,
52,
171,
65496,
68,
65502,
65447,
65505,
136,
161,
15,
88,
86,
143,
459,
479,
90,
16,
65467,
80,
290,
159,
255,
122,
57,
160,
170,
108,
70,
4,
87,
65432,
59,
16,
155,
65500,
23,
70,
60,
65447,
70,
45,
65487,
65511,
29,
17,
24,
128,
65513,
65520,
235,
4,
71,
39,
65395,
65454,
207,
65384,
134,
56,
28,
65394,
17,
13,
205,
65454,
65427,
32,
65289,
21,
65478,
65388,
99,
65443,
65448,
65389,
65387,
65469,
2,
65485,
65432,
69,
65498,
65477,
65514,
5,
65356,
65360,
126,
65397,
28,
65535,
9,
65305,
65250,
65436,
15,
65495,
112,
65408,
43,
65445,
17,
65515,
289,
65367,
65499,
65280,
65513,
30,
65396,
105,
42,
46,
65366,
65520,
65427,
202,
81,
32,
65458,
154,
83,
166,
65535,
18,
65499,
65461,
65326,
65486,
65422,
65521,
14,
65369,
65205,
65182,
65339,
65432,
65512,
65407,
65450,
65246,
65328,
27,
8,
65425,
65488,
130,
65507,
65504,
65535,
65276,
65342,
70,
3,
65367,
65500,
65483,
27,
65355,
65471,
8,
65501,
281,
129,
266,
65522,
6,
154,
147,
115,
48,
48,
65446,
65495,
39,
122,
136,
65468,
65384,
65473,
80,
65373,
65446,
65415,
65451,
123,
65517,
65416,
65338,
91,
65520,
65477,
65461,
24,
65401,
4,
58,
65402,
65288,
65201,
65157,
65316,
65390,
37,
65156,
65325,
65193,
65334,
65509,
65473,
65240,
65413,
65305,
65280,
65473,
102,
9,
65453,
65253,
65359,
65477,
12,
65370,
65379,
65,
126,
65427,
20,
36,
65392,
65528,
65507,
18,
65498,
65421,
65413,
218,
111,
145,
96,
9,
65385,
65428,
4,
12,
93,
197,
18,
65424,
65413,
57,
0,
16,
65489,
65409,
11,
27,
18,
65470,
65495,
65447,
42,
65488,
46,
65487,
78,
73,
121,
65529,
42,
65418,
240,
20,
26,
117,
65396,
65476,
65471,
250,
143,
59,
65505,
65520,
135,
43,
65485,
65468,
65422,
65453,
65487,
54,
65494,
22,
15,
65519,
65497,
65524,
43,
65469,
65508,
65526,
65450,
65512,
65455,
65510,
65494,
45,
65535,
36,
68,
56,
65436,
1,
155,
10,
65457,
97,
65481,
80,
190,
185,
67,
65469,
46,
75,
65472,
50,
65503,
47,
65416,
65494,
65530,
65486,
65408,
65410,
5,
164,
108,
116,
1,
65522,
65524,
286,
567,
570,
170,
61,
13,
323,
406,
515,
224,
221,
72,
325,
406,
476,
206,
116,
65455,
65512,
13,
65483,
12,
65397,
2,
65513,
65449,
65534,
31,
65510,
28,
65492,
223,
165,
111,
12,
65443,
65386,
65466,
65523,
65400,
65452,
30,
65457,
65437,
174,
52,
65465,
65508,
65422,
43,
65476,
197,
65434,
49,
65452,
65374,
65486,
65516,
65498,
65478,
76,
65498,
84,
65455,
67,
69,
65490,
65524,
65469,
17,
3,
88,
44,
65482,
65455,
76,
54,
65471,
65444,
65466,
52,
49,
65499,
59,
65480,
69,
65461,
65495,
53,
65495,
55,
52,
65,
65483,
65478,
65345,
65471,
65441,
65441,
79,
65485,
65403,
74,
65387,
147,
258,
65478,
59,
25,
65527,
65499,
9,
53,
65490,
80,
35,
65439,
41,
65474,
162,
65468,
98,
5,
59,
246,
21,
65469,
132,
97,
111,
65511,
65511,
65252,
65372,
65449,
65406,
65368,
65441,
65483,
65185,
65201,
65391,
65471,
11,
65483,
174,
18,
49,
65498,
44,
477,
112,
207,
105,
90,
65426,
7,
308,
132,
174,
118,
65524,
192,
65411,
50,
24,
65535,
129,
6,
167,
163,
56,
178,
102,
65234,
65366,
65305,
65424,
65488,
4,
65111,
64934,
64907,
65113,
65276,
65340,
64984,
65103,
65128,
65339,
65362,
65515,
65341,
65107,
65096,
64952,
65367,
135,
22,
65478,
65236,
65302,
65457,
65478,
65431,
65488,
65465,
36,
65435,
65516,
227,
252,
175,
243,
77,
65505,
80,
90,
49,
145,
238,
65518,
7,
195,
65,
65534,
29,
65530,
39,
30,
59,
13,
65430,
65429,
65462,
56,
171,
55,
65527,
130,
65522,
65531,
65411,
65387,
71,
175,
97,
93,
47,
31,
65458,
19,
261,
162,
178,
155,
65357,
148,
268,
212,
111,
98,
139,
65522,
175,
245,
179,
121,
78,
130,
100,
30,
75,
65477,
17,
65405,
65456,
65428,
65310,
65488,
65394,
45,
408,
158,
159,
130,
65448,
206,
303,
79,
207,
11,
62,
65478,
155,
115,
252,
42,
65533,
18,
80,
204,
65462,
53,
65454,
64,
65480,
65532,
172,
44,
11,
15,
65476,
54,
65487,
65511,
65531,
9,
65518,
65390,
65513,
65515,
65528,
65436,
65445,
52,
29,
65458,
2,
65476,
65524,
65522,
65487,
40,
82,
65472,
65485,
65441,
65438,
2,
50,
65528,
13,
69,
84,
48,
65484,
65372,
65407,
65444,
65361,
65395,
65449,
65514,
65428,
7,
93,
65490,
65448,
200,
127,
302,
412,
151,
14,
87,
121,
158,
146,
199,
65523,
68,
79,
240,
110,
67,
65473,
61,
29,
65520,
65431,
14,
65534,
176,
30,
20,
65470,
65410,
23,
41,
65458,
65377,
65357,
65504,
65504,
65535,
121,
28,
65468,
65459,
65476,
71,
35,
284,
65526,
21,
197,
144,
69,
65530,
209,
108,
91,
88,
139,
26,
113,
108,
78,
36,
65446,
65452,
65395,
65362,
6,
65423,
65377,
65343,
65431,
15,
76,
65532,
165,
216,
192,
166,
65506,
28,
374,
204,
290,
65529,
65494,
65514,
65478,
47,
190,
107,
52,
65435,
10,
43,
193,
65530,
58,
65357,
65200,
65323,
65526,
65482,
65464,
65445,
65527,
65440,
65326,
140,
65466,
188,
38,
65311,
119,
65531,
65473,
65500,
186,
65496,
65398,
65441,
65498,
65534,
169,
151,
65472,
65530,
65503,
21,
116,
65418,
24,
74,
65402,
65467,
65457,
65317,
65334,
65464,
65506,
65504,
136,
64,
226,
90,
102,
137,
114,
65516,
135,
108,
56,
65433,
65499,
78,
65486,
65491,
65421,
11,
123,
134,
167,
255,
65519,
65508,
65432,
65484,
86,
131,
35,
65513,
65389,
65353,
65427,
65413,
65363,
65441,
7,
65427,
65384,
65378,
65435,
71,
130,
188,
255,
65523,
20,
81,
147,
88,
91,
65533,
65482,
7,
62,
164,
93,
65531,
65309,
65477,
65460,
71,
65522,
65491,
65368,
