memory_initialization_radix=10;
memory_initialization_vector =
65434,
65380,
65236,
65323,
65364,
65490,
65483,
65496,
72,
65497,
65479,
65517,
25,
13,
57,
65409,
209,
65503,
65467,
117,
37,
154,
65502,
65376,
46,
20,
74,
134,
142,
65494,
85,
65522,
114,
35,
85,
90,
65444,
10,
65436,
65408,
35,
6,
65462,
65492,
61,
59,
83,
65432,
8,
65399,
20,
65380,
109,
65505,
65534,
65469,
22,
39,
65491,
65527,
65416,
65361,
65444,
75,
65497,
65499,
65498,
65352,
65393,
19,
65468,
9,
65509,
65534,
65442,
65491,
72,
66,
65521,
121,
84,
282,
92,
19,
83,
65505,
4,
69,
65497,
65511,
65533,
65459,
65397,
65432,
65417,
65363,
65473,
6,
65504,
65390,
65502,
65490,
65515,
91,
65478,
96,
75,
65440,
65483,
65417,
65431,
65394,
65395,
78,
65509,
65487,
65513,
65415,
65387,
65441,
10,
65520,
10,
121,
118,
65522,
65518,
65504,
53,
65411,
65486,
61,
65509,
65491,
65447,
65436,
4,
65475,
65418,
65415,
65456,
65409,
20,
65527,
65510,
30,
15,
65441,
65477,
10,
20,
65480,
65467,
47,
65531,
54,
65499,
65474,
65473,
65529,
70,
65444,
24,
65516,
57,
65512,
8,
43,
52,
48,
65534,
87,
65489,
65518,
73,
51,
65522,
65506,
65491,
39,
37,
65502,
65496,
39,
110,
63,
6,
190,
198,
176,
30,
65504,
129,
241,
55,
225,
40,
2,
65523,
57,
71,
147,
79,
65518,
48,
19,
65430,
65429,
65440,
65525,
2,
87,
65527,
65452,
65409,
65464,
20,
65523,
65489,
65436,
41,
65494,
65414,
107,
126,
198,
68,
82,
65475,
100,
65516,
32,
65422,
65396,
22,
65344,
65365,
65307,
65045,
65305,
65507,
65309,
65257,
65247,
65301,
65435,
3,
28,
65316,
65395,
65531,
65453,
65444,
65294,
65236,
65208,
65357,
65410,
56,
65441,
65189,
65235,
65371,
65452,
65465,
65432,
65517,
24,
65523,
65507,
65510,
36,
79,
65424,
19,
156,
14,
10,
127,
199,
72,
182,
65462,
65498,
65513,
65498,
65507,
65507,
76,
151,
98,
259,
41,
124,
0,
0,
65374,
65476,
84,
116,
65447,
65427,
65346,
65483,
65419,
28,
65495,
65470,
126,
65402,
65432,
65483,
39,
65399,
108,
65377,
65517,
65491,
65496,
65513,
65478,
65335,
65399,
19,
65472,
20,
65528,
65509,
65518,
65443,
65420,
125,
140,
187,
52,
65474,
64,
45,
105,
65508,
114,
4,
134,
180,
188,
146,
69,
98,
118,
65524,
47,
2,
53,
45,
134,
196,
104,
92,
104,
65492,
65472,
82,
65461,
65488,
65488,
65484,
65534,
81,
65500,
77,
65489,
41,
25,
65443,
65491,
83,
87,
65467,
65502,
65520,
65480,
65471,
4,
14,
92,
36,
6,
65468,
62,
33,
70,
62,
65520,
65518,
65496,
81,
51,
65370,
65344,
65400,
65471,
2,
26,
65424,
65264,
65357,
65443,
12,
65528,
65510,
65373,
65456,
65486,
21,
18,
65516,
65456,
65368,
3,
80,
65489,
30,
65464,
6,
22,
65,
7,
5,
65535,
65473,
80,
53,
33,
65431,
65412,
65425,
28,
65414,
65475,
65533,
65389,
48,
65505,
15,
65452,
65388,
65489,
6,
8,
67,
64,
120,
129,
80,
57,
65507,
65468,
185,
131,
91,
95,
216,
65479,
179,
125,
68,
52,
62,
94,
7,
65486,
24,
65526,
65520,
65507,
65409,
65526,
58,
30,
196,
27,
14,
65251,
65282,
65410,
65481,
65524,
65380,
65082,
65259,
65394,
65512,
65363,
65409,
123,
1,
65347,
65519,
10,
65431,
65458,
65422,
65500,
65505,
28,
11,
65505,
52,
65484,
16,
65433,
65456,
65426,
29,
9,
65505,
65431,
65290,
65416,
65392,
65451,
21,
65429,
65483,
164,
65496,
65,
30,
9,
30,
115,
227,
62,
65500,
70,
65467,
121,
65534,
65413,
33,
65456,
65442,
65488,
65478,
65442,
20,
13,
65486,
65505,
65529,
21,
65466,
35,
3,
65516,
70,
114,
65525,
65443,
4,
65505,
65462,
38,
47,
89,
7,
160,
111,
36,
65488,
65527,
65510,
59,
65480,
65456,
67,
65437,
116,
14,
65508,
88,
73,
28,
113,
21,
38,
84,
65465,
65519,
65513,
143,
65517,
65481,
65463,
65531,
65491,
42,
8,
65524,
65492,
65466,
65492,
65515,
19,
65527,
65452,
65457,
65463,
65495,
65470,
65521,
65530,
210,
20,
65338,
65476,
65450,
65495,
119,
80,
65517,
73,
210,
84,
33,
65430,
65376,
65273,
65492,
65,
65438,
65368,
65389,
65261,
31,
65509,
65460,
65407,
238,
65503,
65427,
65452,
65521,
65415,
65346,
65464,
65527,
7,
65300,
65416,
65223,
65423,
65342,
65427,
65326,
64,
28,
52,
65370,
65482,
65454,
101,
14,
88,
65496,
65527,
83,
378,
270,
214,
137,
209,
65487,
258,
188,
224,
151,
72,
122,
331,
398,
341,
84,
70,
65256,
65440,
65055,
65423,
65331,
65433,
65451,
65397,
61,
69,
65355,
65412,
21,
65371,
65515,
173,
41,
48,
65408,
108,
132,
83,
10,
65499,
65485,
6,
290,
312,
163,
65449,
65505,
65444,
45,
65,
65509,
67,
65525,
65422,
65386,
65332,
65461,
10,
11,
65283,
65123,
65124,
65375,
65401,
35,
65507,
65411,
65405,
99,
65456,
65463,
65458,
65494,
65419,
26,
72,
45,
65529,
65414,
21,
65517,
80,
65457,
24,
37,
65522,
65527,
65492,
119,
82,
164,
225,
153,
65502,
148,
65448,
65433,
65522,
112,
44,
95,
65478,
65507,
65387,
65440,
65505,
106,
13,
65454,
65489,
171,
131,
165,
128,
17,
18,
160,
65529,
84,
151,
104,
106,
35,
65533,
65535,
65370,
176,
161,
53,
8,
54,
65438,
65455,
65527,
65503,
55,
11,
97,
191,
111,
65458,
62,
52,
75,
65495,
65417,
27,
65408,
81,
65516,
65419,
65,
217,
174,
65455,
124,
165,
161,
134,
76,
65506,
65337,
65415,
65423,
65394,
56,
65417,
65080,
65234,
65300,
65285,
60,
65510,
65445,
65522,
65274,
65503,
108,
65467,
65451,
65406,
65304,
0,
33,
77,
65519,
65478,
9,
110,
83,
65484,
92,
138,
65516,
65421,
73,
51,
35,
109,
26,
3,
65520,
65531,
65528,
68,
84,
71,
65504,
65474,
23,
98,
196,
177,
65532,
23,
65472,
31,
22,
65431,
74,
65504,
65414,
65417,
20,
65520,
2,
65465,
65461,
65422,
65517,
108,
65488,
144,
203,
261,
7,
183,
170,
142,
75,
85,
49,
93,
78,
63,
61,
271,
59,
65391,
65470,
65414,
65466,
39,
65493,
189,
65455,
16,
117,
172,
65510,
107,
73,
39,
79,
128,
25,
149,
2,
65386,
65122,
65198,
65266,
65399,
65404,
65504,
65204,
65179,
65174,
65129,
65370,
65507,
65278,
65379,
65427,
65455,
65521,
42,
92,
65532,
16,
37,
36,
65514,
83,
7,
94,
75,
75,
45,
6,
20,
65503,
23,
51,
10,
65413,
65218,
65461,
65528,
65499,
65411,
65439,
51,
65360,
65307,
65402,
65534,
65514,
95,
81,
84,
9,
47,
162,
12,
113,
93,
24,
65449,
129,
187,
122,
160,
65486,
1,
69,
168,
17,
17,
43,
65494,
65533,
65485,
32,
15,
68,
41,
65488,
45,
19,
65441,
8,
65518,
65510,
65517,
65500,
65458,
89,
65517,
60,
59,
65516,
65468,
24,
73,
69,
65455,
65441,
25,
65512,
49,
65457,
51,
65440,
46,
71,
84,
27,
65531,
65487,
32,
65523,
65438,
65466,
65403,
65341,
65505,
65514,
65530,
20,
117,
29,
65499,
41,
25,
65449,
65405,
65476,
65513,
65517,
65497,
65454,
65480,
65468,
65443,
62,
71,
46,
65494,
65474,
65516,
65532,
38,
65485,
65508,
65450,
65503,
82,
43,
2,
82,
74,
77,
6,
65458,
65520,
65451,
65502,
65489,
65499,
65441,
65489,
65508,
65515,
65477,
74,
34,
21,
65,
19,
65459,
65498,
0,
65449,
65531,
65535,
22,
65532,
65412,
65069,
65167,
65198,
65381,
65414,
65374,
65224,
65171,
65258,
65169,
65512,
65487,
65332,
65472,
65525,
65422,
64,
65511,
65504,
65475,
65444,
46,
65528,
48,
188,
72,
54,
145,
26,
65502,
65498,
65489,
65440,
65455,
77,
65500,
65482,
83,
40,
65500,
80,
65449,
65489,
65516,
65504,
75,
65504,
65520,
65439,
65483,
65522,
65507,
65442,
65504,
19,
17,
65438,
65514,
65451,
65526,
31,
65452,
65512,
18,
65458,
64,
65503,
61,
62,
65489,
27,
65502,
65505,
91,
126,
4,
65461,
60,
77,
65527,
65491,
65525,
7,
53,
140,
204,
92,
225,
65497,
99,
35,
84,
65495,
32,
65479,
65466,
65479,
65451,
32,
0,
65505,
12,
58,
65478,
1,
73,
101,
25,
65397,
65440,
52,
65534,
65464,
65498,
58,
65,
65474,
13,
65503,
97,
65504,
65366,
65423,
65356,
135,
98,
101,
101,
38,
81,
39,
65518,
72,
184,
227,
187,
183,
65502,
235,
126,
248,
174,
90,
65347,
65420,
65317,
65198,
65243,
94,
91,
61,
216,
65478,
65450,
65423,
47,
136,
342,
62,
96,
6,
65509,
182,
88,
315,
65491,
95,
65217,
65308,
65440,
71,
65471,
65344,
10,
65298,
65313,
65349,
65314,
32,
65448,
83,
17,
65489,
65411,
14,
65433,
65428,
65410,
65412,
65522,
65460,
65435,
65518,
65433,
65394,
5,
10,
13,
65432,
65503,
65517,
65480,
65482,
65412,
65457,
65487,
65458,
18,
58,
65418,
65281,
65135,
65444,
65523,
65500,
65429,
65526,
65476,
65459,
65515,
65486,
30,
24,
65453,
65501,
65435,
65464,
65507,
31,
45,
65532,
206,
94,
43,
65445,
65464,
42,
19,
123,
65467,
65474,
11,
12,
152,
65483,
65397,
65459,
65368,
35,
65493,
65441,
65455,
65448,
65522,
65498,
65531,
28,
65498,
65509,
41,
65492,
65499,
65442,
52,
73,
65532,
65503,
60,
65479,
47,
65402,
65374,
65466,
7,
65487,
65511,
65427,
65430,
65486,
65405,
43,
65503,
65458,
65392,
65481,
40,
65467,
117,
271,
65485,
65396,
65423,
65488,
4,
49,
65458,
65442,
28,
76,
34,
65428,
65368,
65208,
65452,
65405,
63,
65283,
65354,
65294,
65483,
65431,
31,
54,
34,
65454,
65494,
65518,
141,
58,
57,
43,
65518,
65452,
65470,
65469,
65487,
43,
43,
45,
65445,
65480,
63,
65501,
11,
65486,
65527,
78,
14,
65511,
70,
65,
75,
10,
65518,
65509,
65500,
65533,
65494,
65463,
52,
65519,
20,
85,
92,
65509,
52,
65440,
3,
65514,
48,
65487,
65444,
65417,
65414,
0,
0,
65390,
65162,
65355,
65382,
65487,
65471,
65413,
69,
65411,
65484,
65493,
50,
65423,
65454,
65361,
11,
32,
17,
65508,
65510,
65517,
65484,
111,
65414,
65450,
26,
135,
76,
133,
92,
297,
396,
77,
4,
65475,
144,
478,
305,
366,
240,
65512,
185,
212,
253,
284,
131,
66,
106,
165,
90,
184,
208,
106,
152,
85,
135,
175,
249,
63,
35,
309,
235,
207,
222,
140,
65404,
65402,
108,
161,
65507,
65436,
65261,
65324,
65264,
65515,
65523,
65455,
36,
96,
195,
208,
59,
202,
37,
65532,
234,
173,
256,
74,
21,
79,
65501,
0,
282,
129,
65520,
113,
106,
70,
107,
82,
65333,
65259,
65290,
65383,
65481,
65480,
65426,
45,
65504,
65505,
65313,
16,
65510,
60,
59,
65506,
46,
65437,
65420,
340,
35,
261,
248,
65435,
65497,
8,
193,
295,
160,
49,
126,
178,
143,
190,
83,
31,
65497,
34,
33,
65523,
65482,
65509,
85,
21,
30,
45,
65452,
89,
25,
31,
72,
65483,
65526,
65456,
22,
65485,
65464,
65498,
65521,
65453,
65475,
75,
48,
75,
63,
84,
38,
17,
91,
65532,
83,
40,
14,
65456,
65438,
149,
30,
65465,
65481,
65480,
11,
82,
65510,
35,
73,
18,
65446,
66,
65463,
65534,
85,
65527,
65419,
65470,
65399,
65484,
41,
65500,
65472,
29,
65485,
65487,
80,
65501,
65482,
65469,
13,
65496,
65323,
65336,
65084,
65326,
65416,
65400,
65322,
65445,
65509,
26,
65362,
65484,
54,
65346,
65500,
65349,
66,
48,
65494,
67,
3,
32,
26,
65460,
37,
58,
278,
145,
40,
65467,
51,
65444,
164,
65456,
65520,
29,
8,
8,
91,
124,
65479,
20,
98,
65406,
65531,
65505,
65473,
65455,
65461,
65499,
65401,
65413,
65325,
65447,
65528,
65435,
65482,
10,
65471,
65469,
36,
94,
65484,
3,
15,
46,
21,
65438,
65470,
28,
32,
66,
65526,
130,
27,
3,
65463,
47,
65484,
83,
81,
65481,
65509,
65462,
65432,
5,
84,
104,
65499,
51,
39,
96,
83,
69,
65504,
52,
80,
36,
65488,
65477,
65510,
41,
65497,
72,
62,
65521,
46,
65479,
65461,
65387,
65360,
65383,
65499,
48,
17,
65515,
65488,
169,
148,
52,
84,
72,
62,
55,
84,
14,
68,
132,
160,
189,
77,
65409,
65492,
14,
49,
137,
125,
127,
78,
63,
176,
137,
59,
133,
299,
231,
139,
115,
193,
18,
127,
4,
86,
65530,
229,
156,
72,
65440,
82,
66,
65535,
73,
22,
65382,
65515,
48,
62,
19,
38,
104,
1,
65457,
65417,
230,
65515,
64,
84,
65478,
73,
20,
65469,
65484,
65465,
65474,
96,
65460,
65523,
47,
46,
24,
65471,
65524,
65472,
65438,
65478,
65505,
65443,
58,
39,
86,
84,
65457,
65519,
5,
65532,
65,
65430,
9,
63,
65468,
65506,
65485,
66,
65449,
41,
65497,
39,
65532,
65475,
65499,
46,
65481,
65494,
65531,
65465,
112,
45,
65462,
65534,
65515,
77,
35,
34,
65492,
0,
52,
23,
65459,
5,
65473,
15,
40,
21,
61,
65471,
2,
65475,
82,
60,
65460,
50,
88,
65455,
65165,
65247,
65294,
65320,
65446,
65517,
65069,
65198,
65187,
65251,
65362,
65360,
65256,
6,
65387,
65473,
65468,
35,
65507,
65477,
42,
65511,
153,
65453,
60,
52,
63,
86,
65485,
65475,
65517,
65416,
65518,
71,
65503,
65498,
95,
65512,
22,
65507,
65484,
65528,
65398,
65502,
65414,
65526,
75,
65532,
65284,
65154,
65236,
65430,
65458,
65344,
65333,
65153,
65278,
65223,
65323,
65382,
65442,
65530,
65423,
65295,
65435,
12,
65388,
65386,
65205,
65421,
65363,
65477,
65382,
65335,
65441,
65428,
65471,
65466,
65195,
64980,
65138,
65285,
65427,
65516,
65,
27,
65283,
65482,
62,
65485,
33,
65532,
65470,
51,
134,
70,
65458,
65522,
175,
186,
219,
5,
65476,
42,
65496,
52,
65533,
84,
168,
199,
160,
90,
141,
111,
65354,
65430,
65526,
65466,
65527,
65438,
65387,
65473,
65469,
65428,
62,
65434,
65341,
65535,
65443,
65470,
10,
5,
65421,
26,
65499,
65387,
65320,
65464,
65393,
65410,
65482,
65484,
65415,
68,
14,
65533,
65508,
65483,
65463,
65468,
3,
65509,
65531,
65450,
65449,
11,
65518,
65413,
65410,
65524,
25,
65474,
65441,
65414,
65311,
65468,
65442,
65528,
65529,
66,
108,
95,
6,
65484,
65444,
65502,
135,
65,
65488,
70,
234,
312,
294,
229,
12,
65480,
65531,
65444,
65408,
129,
65515,
27,
65443,
65515,
48,
65493,
29,
76,
65313,
65385,
65383,
65243,
17,
2,
79,
65384,
65532,
54,
113,
65314,
65526,
52,
90,
65451,
65450,
65370,
65490,
188,
65462,
65462,
87,
65434,
65535,
65239,
65476,
115,
65417,
83,
30,
135,
87,
17,
37,
22,
138,
326,
133,
70,
196,
147,
129,
223,
103,
165,
84,
8,
76,
255,
185,
225,
186,
65461,
65447,
65353,
65349,
82,
114,
65510,
65311,
65485,
65481,
65487,
65445,
65418,
49,
73,
250,
280,
86,
65386,
65419,
65435,
65521,
45,
102,
65362,
65473,
65460,
81,
121,
65506,
65435,
65327,
65478,
65499,
65438,
65492,
212,
115,
5,
85,
71,
65524,
139,
65459,
65401,
65479,
65494,
102,
111,
65478,
65398,
6,
230,
65434,
65432,
65301,
65462,
65494,
48,
65393,
65518,
10,
9,
65396,
65389,
65522,
65449,
24,
74,
65343,
65424,
65476,
65441,
65373,
65434,
75,
114,
49,
65476,
65404,
65412,
65400,
21,
18,
50,
65455,
65424,
65350,
65489,
65445,
65468,
65531,
65494,
65505,
65460,
28,
65458,
104,
34,
104,
101,
75,
65501,
65532,
17,
37,
13,
24,
65519,
68,
126,
66,
129,
21,
65491,
65503,
65387,
65509,
79,
103,
65,
167,
65513,
65478,
65519,
65518,
46,
65421,
98,
65477,
65535,
52,
14,
65488,
65318,
65368,
65460,
65456,
65530,
65445,
65478,
65529,
65529,
117,
65525,
29,
5,
65432,
65420,
65474,
103,
179,
130,
153,
65496,
65519,
144,
246,
264,
369,
127,
57,
65535,
202,
155,
242,
96,
47,
65504,
136,
65533,
169,
99,
197,
105,
57,
114,
11,
41,
65528,
105,
166,
312,
211,
66,
3,
224,
75,
120,
135,
137,
30,
29,
30,
7,
114,
70,
40,
10,
65522,
39,
65461,
132,
76,
65405,
65390,
50,
65435,
65467,
65429,
25,
35,
65411,
65489,
65498,
65445,
78,
207,
399,
173,
126,
146,
47,
238,
335,
274,
330,
162,
78,
222,
227,
102,
65500,
94,
51,
220,
199,
193,
162,
65460,
65518,
138,
180,
100,
145,
65408,
146,
51,
91,
65502,
104,
114,
65427,
65407,
65432,
65484,
16,
65528,
65367,
65522,
65263,
65443,
65524,
65432,
103,
7,
65524,
25,
65384,
69,
65506,
62,
65518,
32,
192,
65535,
65513,
48,
65522,
126,
119,
81,
26,
65473,
32,
29,
87,
83,
39,
139,
242,
67,
104,
68,
65497,
65495,
65503,
65498,
98,
5,
65521,
65388,
51,
65429,
65426,
65455,
27,
65529,
111,
43,
65475,
65488,
42,
65437,
18,
65473,
65437,
65352,
65504,
65477,
65482,
28,
65504,
65511,
65370,
65381,
65253,
65302,
65429,
65493,
65378,
65531,
65526,
65495,
65423,
65511,
109,
15,
119,
65435,
118,
94,
124,
180,
67,
192,
39,
65416,
0,
144,
122,
216,
167,
11,
77,
55,
90,
311,
94,
65533,
65506,
15,
65526,
21,
114,
65534,
76,
17,
27,
65514,
65503,
65509,
65481,
86,
65486,
65522,
65417,
65462,
30,
65496,
65524,
65398,
25,
65443,
57,
70,
23,
65475,
65393,
65494,
56,
65471,
63,
65420,
65415,
65478,
65,
120,
15,
65485,
65381,
11,
28,
274,
529,
451,
167,
66,
65525,
17,
97,
65434,
20,
65525,
65367,
33,
65525,
46,
65351,
65396,
65481,
65462,
65463,
65440,
65361,
65380,
44,
65385,
65364,
65264,
65318,
65367,
82,
65529,
231,
148,
65499,
65524,
65524,
8,
88,
1,
212,
65500,
70,
65480,
65508,
49,
63,
81,
65412,
65387,
65319,
65368,
65337,
65515,
8,
65497,
65422,
65466,
65417,
43,
65498,
65383,
65512,
65330,
65431,
65517,
65500,
7,
65528,
28,
14,
65522,
65522,
65445,
216,
147,
119,
65420,
10,
65325,
10,
279,
207,
65509,
73,
32,
65354,
65489,
65190,
65466,
65508,
65395,
65390,
65475,
65298,
65475,
65502,
65266,
65291,
65423,
65511,
65421,
65507,
65472,
65465,
37,
65494,
72,
46,
29,
51,
65454,
65475,
51,
65527,
65500,
65490,
31,
65517,
65486,
65504,
65523,
25,
56,
65452,
65527,
65479,
56,
65516,
64,
13,
65533,
15,
65445,
65532,
44,
65532,
75,
75,
65450,
1,
48,
34,
16,
65511,
85,
116,
202,
37,
84,
27,
151,
320,
206,
65429,
81,
5,
65531,
55,
65526,
65532,
65518,
79,
65516,
65438,
65356,
65479,
22,
12,
11,
65479,
31,
65415,
65473,
65489,
65426,
65493,
65426,
14,
65518,
152,
167,
271,
165,
170,
65516,
65496,
113,
53,
213,
99,
87,
40,
65380,
65478,
65520,
65448,
1,
65493,
65395,
65528,
65403,
65354,
65505,
65508,
65419,
65279,
65302,
65384,
65461,
117,
65520,
165,
232,
253,
95,
51,
65481,
65292,
65325,
5,
30,
22,
65402,
65162,
65343,
65372,
4,
19,
65400,
65252,
65227,
65494,
65425,
15,
65516,
65474,
12,
197,
66,
65489,
147,
144,
68,
65450,
50,
121,
204,
179,
129,
138,
126,
130,
133,
124,
48,
195,
31,
65477,
65528,
34,
19,
65509,
7,
65411,
65320,
65508,
65486,
23,
65440,
56,
65489,
65462,
11,
65330,
65488,
78,
65518,
65409,
65274,
65446,
65408,
65490,
62,
17,
65531,
39,
3,
43,
3,
12,
65489,
79,
65488,
65507,
65467,
18,
7,
65454,
65441,
65489,
65483,
65496,
65475,
65467,
68,
65517,
65445,
65525,
32,
46,
65479,
65466,
54,
0,
5,
65494,
65525,
65425,
65404,
65325,
65365,
65509,
69,
65511,
65152,
65212,
65270,
65319,
4,
42,
65516,
14,
65374,
19,
65420,
65416,
65433,
65462,
65509,
65502,
76,
65470,
65419,
65449,
65448,
37,
147,
65436,
65423,
65436,
65379,
65457,
65492,
11,
80,
158,
65,
206,
37,
69,
65484,
65357,
65478,
67,
93,
65514,
65365,
33,
65498,
61,
65462,
65430,
65358,
65368,
65340,
65395,
65529,
23,
65473,
65429,
65428,
65451,
65522,
65,
65486,
65389,
65442,
65428,
65531,
65496,
94,
65477,
65529,
65520,
65458,
90,
65511,
41,
65505,
65459,
57,
28,
13,
48,
65518,
65451,
65462,
65477,
37,
64,
127,
65489,
64,
25,
58,
65494,
4,
65509,
65473,
31,
65505,
65,
77,
60,
34,
162,
196,
233,
149,
116,
70,
78,
107,
33,
42,
44,
65427,
75,
65474,
65508,
55,
65535,
3,
50,
65441,
65454,
65482,
65489,
51,
65442,
65490,
65371,
65492,
65485,
115,
65505,
47,
3,
65502,
80,
56,
85,
14,
26,
59,
65529,
18,
65436,
65464,
65526,
65468,
65524,
65488,
65454,
65413,
65182,
65184,
65430,
65347,
65383,
65276,
65080,
65289,
65372,
65377,
65475,
9,
65521,
65383,
65520,
43,
27,
47,
65485,
65515,
100,
65472,
52,
16,
5,
90,
65496,
65518,
40,
65287,
65425,
65509,
55,
10,
27,
65393,
65351,
65407,
65473,
122,
65466,
3,
141,
36,
65,
44,
39,
65522,
71,
126,
148,
13,
65508,
86,
62,
7,
30,
65,
194,
46,
222,
161,
56,
51,
65501,
65430,
55,
18,
16,
36,
65442,
65279,
65273,
65387,
65426,
7,
65450,
65341,
65226,
65396,
65221,
65511,
65462,
65500,
65351,
65347,
65331,
65404,
65502,
65392,
65399,
65298,
65494,
65400,
54,
399,
99,
65511,
65427,
65468,
65488,
65503,
124,
61,
25,
71,
36,
65429,
65419,
65454,
65455,
65442,
65487,
65433,
65257,
65387,
65397,
48,
65446,
65229,
65229,
65317,
65092,
65488,
65483,
65221,
65222,
65023,
65325,
65447,
65505,
7,
74,
10,
82,
45,
36,
50,
65486,
65478,
65506,
61,
65485,
8,
57,
65472,
65523,
65509,
8,
16,
65500,
15,
78,
65459,
78,
89,
82,
65523,
65481,
59,
97,
46,
24,
84,
43,
65473,
65461,
65468,
50,
15,
65508,
13,
25,
65526,
29,
65473,
47,
65435,
17,
6,
110,
65513,
18,
65487,
65478,
65430,
84,
65457,
8,
65492,
49,
78,
45,
65478,
96,
65450,
5,
104,
7,
33,
0,
65503,
38,
65368,
65405,
47,
60,
65430,
65522,
70,
65452,
65481,
44,
2,
80,
102,
104,
31,
34,
150,
88,
65494,
118,
91,
177,
46,
1,
9,
185,
137,
18,
13,
65470,
1,
65478,
65499,
65517,
65506,
129,
65461,
283,
156,
104,
65484,
73,
119,
65253,
65368,
65357,
65491,
65468,
65460,
65376,
65333,
53,
252,
30,
65526,
34,
65404,
96,
65516,
82,
138,
65517,
65506,
165,
65510,
65495,
176,
203,
161,
246,
65507,
65408,
65510,
65385,
65505,
65415,
65517,
65422,
13,
65492,
151,
65310,
65497,
65469,
33,
0,
65478,
28,
39,
84,
137,
65397,
65414,
110,
65389,
77,
119,
197,
103,
52,
3,
141,
212,
209,
158,
153,
23,
90,
128,
219,
144,
162,
53,
71,
63,
3,
59,
250,
135,
105,
65458,
65456,
33,
76,
65529,
65496,
65285,
65520,
65433,
65501,
65434,
65464,
23,
65387,
65502,
65480,
65519,
65445,
65456,
65469,
65414,
65469,
65482,
177,
268,
325,
278,
165,
62,
37,
331,
512,
413,
320,
58,
65463,
76,
76,
269,
56,
65464,
65531,
113,
65429,
9,
65433,
65535,
65465,
180,
125,
14,
65503,
14,
16,
65484,
65341,
65337,
125,
65510,
65403,
65484,
65527,
43,
65506,
65505,
65526,
1,
21,
65517,
78,
65499,
65470,
65471,
49,
92,
17,
65534,
22,
11,
65420,
65515,
65509,
65509,
65437,
65412,
65397,
65463,
65463,
65431,
65458,
65332,
65472,
65399,
65530,
0,
76,
65418,
65345,
65514,
65446,
41,
25,
65402,
65441,
65398,
65358,
43,
1,
65327,
65445,
22,
111,
137,
65467,
6,
83,
170,
220,
205,
65520,
65402,
28,
115,
224,
12,
65442,
65430,
65464,
6,
18,
86,
153,
173,
338,
245,
23,
65505,
122,
162,
142,
172,
157,
65506,
65503,
210,
65463,
14,
65514,
65531,
65530,
6,
65492,
44,
65394,
65448,
51,
65351,
65452,
65440,
65389,
65468,
65431,
65455,
4,
65394,
9,
39,
52,
15,
65481,
14,
65437,
0,
65445,
154,
295,
173,
65518,
65453,
43,
208,
219,
247,
206,
72,
26,
63,
196,
198,
120,
117,
65503,
23,
65422,
79,
195,
65507,
51,
22,
112,
156,
50,
37,
65520,
65440,
65442,
65263,
65500,
24,
15,
65408,
65416,
65160,
65413,
65508,
65496,
46,
65457,
65417,
163,
65500,
66,
65460,
65328,
65477,
65437,
65509,
25,
65406,
65385,
65512,
65487,
65389,
65484,
65396,
65373,
65337,
65486,
65468,
108,
65528,
32,
197,
101,
85,
65420,
44,
65443,
110,
7,
53,
155,
28,
27,
65370,
65450,
104,
75,
65484,
0,
65434,
18,
49,
108,
9,
21,
65533,
68,
76,
57,
109,
65479,
65507,
132,
27,
65405,
65094,
65448,
33,
65487,
17,
65503,
65100,
65250,
65198,
65442,
39,
65420,
65342,
65286,
65406,
65417,
65509,
65521,
63,
65494,
65302,
65373,
65462,
65466,
65525,
10,
65409,
17,
7,
65459,
65487,
65457,
65446,
65450,
65479,
21,
65429,
65512,
94,
65479,
40,
65437,
96,
69,
65511,
65448,
65386,
121,
92,
65453,
65494,
65451,
65525,
79,
78,
65533,
5,
49,
100,
85,
68,
156,
74,
151,
81,
103,
70,
104,
124,
149,
139,
65516,
113,
156,
82,
75,
8,
111,
62,
112,
81,
75,
65460,
65522,
170,
65530,
163,
65495,
73,
119,
65523,
65402,
65461,
65467,
37,
36,
65523,
42,
123,
127,
115,
65499,
193,
55,
67,
55,
100,
65450,
65503,
65339,
65275,
65365,
65521,
65533,
65178,
65344,
65228,
65200,
65375,
65458,
65321,
65437,
65346,
65407,
65519,
21,
65446,
65295,
195,
65438,
30,
4,
47,
65500,
65458,
2,
18,
40,
65477,
65513,
65469,
45,
38,
0,
65509,
65528,
41,
90,
16,
55,
65446,
65492,
65503,
65452,
16,
56,
55,
73,
65469,
65456,
51,
65486,
65446,
65486,
65464,
65511,
65530,
55,
72,
46,
65493,
65481,
19,
65442,
4,
21,
30,
36,
65530,
134,
349,
116,
106,
50,
65535,
143,
248,
290,
309,
330,
123,
120,
125,
168,
297,
60,
65535,
38,
62,
254,
180,
77,
148,
39,
71,
314,
170,
219,
106,
43,
65474,
86,
144,
109,
65521,
65468,
65329,
8,
65386,
65428,
65478,
65512,
65455,
65247,
65480,
35,
65423,
65489,
15,
70,
133,
164,
92,
140,
40,
417,
64,
262,
196,
110,
29,
65501,
31,
307,
150,
66,
246,
230,
434,
245,
162,
65399,
65402,
65301,
65292,
65516,
55,
30,
65248,
65284,
65194,
65292,
65435,
88,
65364,
65533,
18,
65363,
29,
65498,
65461,
65162,
65477,
65243,
65334,
75,
65404,
65494,
27,
65431,
65492,
65533,
65307,
65288,
65166,
65511,
21,
58,
65386,
65527,
65516,
37,
55,
65509,
65474,
65476,
65453,
49,
82,
65457,
65527,
65511,
65358,
65499,
29,
65519,
65405,
12,
6,
127,
32,
107,
65480,
65514,
29,
41,
69,
29,
18,
99,
110,
108,
58,
65433,
65478,
65428,
65442,
65351,
48,
51,
135,
127,
203,
136,
65532,
65505,
157,
249,
68,
206,
59,
141,
295,
78,
179,
146,
65329,
143,
159,
49,
104,
1,
185,
84,
162,
221,
104,
65501,
151,
65451,
65528,
65456,
65458,
65498,
54,
65450,
65509,
118,
163,
55,
30,
65505,
76,
205,
165,
83,
145,
82,
119,
71,
41,
65510,
28,
65464,
139,
140,
17,
39,
65494,
63,
4,
65,
194,
48,
37,
89,
65534,
29,
65463,
43,
65,
65495,
37,
65475,
43,
65501,
75,
65531,
44,
92,
55,
65511,
65497,
65482,
2,
49,
31,
65515,
62,
58,
65473,
65460,
19,
47,
65469,
38,
65472,
65528,
65449,
60,
65447,
104,
46,
110,
65533,
65485,
31,
13,
249,
217,
124,
75,
65447,
65521,
97,
73,
65474,
144,
65495,
137,
169,
112,
218,
32,
115,
138,
274,
267,
106,
117,
141,
97,
28,
170,
198,
165,
59,
65460,
65450,
65368,
65353,
65406,
65450,
84,
65391,
65461,
65531,
32,
67,
9,
65472,
71,
46,
151,
66,
38,
114,
187,
16,
150,
67,
184,
57,
239,
127,
177,
25,
194,
80,
143,
57,
65483,
65509,
48,
65355,
65489,
65467,
65495,
87,
65435,
65290,
65255,
65352,
65424,
65470,
65530,
65466,
90,
65463,
65517,
65535,
112,
160,
86,
65523,
65514,
66,
117,
56,
65440,
26,
65487,
121,
78,
65473,
65428,
35,
65505,
65506,
65526,
64,
65498,
65506,
67,
90,
65308,
216,
65478,
65407,
65387,
17,
65512,
243,
86,
128,
12,
75,
66,
156,
162,
98,
302,
169,
41,
111,
65534,
181,
162,
133,
50,
230,
198,
326,
88,
95,
65482,
65407,
65356,
65492,
71,
88,
65480,
65400,
65510,
65456,
65419,
20,
44,
65499,
121,
65481,
65331,
81,
65482,
121,
33,
65461,
23,
32,
85,
146,
122,
104,
123,
46,
33,
140,
61,
16,
58,
20,
65530,
65389,
65260,
65339,
65373,
65367,
65529,
50,
15,
65401,
65440,
28,
65524,
34,
36,
65411,
168,
65447,
65531,
156,
65406,
59,
113,
65497,
116,
63,
124,
98,
65424,
139,
78,
183,
131,
199,
67,
131,
