memory_initialization_radix=10;
memory_initialization_vector =
65456,
65460,
105,
65494,
123,
69,
65406,
65487,
65474,
65524,
16,
65473,
65401,
65409,
65515,
43,
65368,
65351,
65526,
70,
123,
10,
65424,
65413,
65386,
6,
65529,
63,
121,
65484,
65420,
64,
65,
65496,
65425,
36,
65474,
90,
8,
65500,
65472,
119,
65533,
15,
80,
162,
132,
194,
152,
128,
65390,
39,
292,
109,
87,
136,
9,
65532,
133,
65450,
54,
65509,
24,
60,
64,
65430,
128,
174,
65466,
65521,
65526,
65405,
65299,
65303,
15,
19,
65363,
65399,
65418,
65422,
28,
105,
65444,
65472,
65401,
65515,
206,
43,
65450,
65442,
65478,
65512,
0,
65528,
98,
65298,
65390,
35,
65518,
65440,
2,
65517,
65496,
74,
6,
65409,
65390,
65349,
178,
230,
78,
254,
108,
183,
76,
111,
69,
115,
73,
60,
118,
65494,
62,
101,
142,
104,
238,
116,
65510,
64,
114,
315,
191,
122,
106,
72,
65439,
79,
119,
67,
117,
65487,
237,
65,
68,
65489,
49,
65461,
65456,
65491,
65499,
65494,
27,
65533,
54,
0,
65474,
65519,
65441,
65528,
65535,
65443,
65489,
71,
65455,
3,
65512,
85,
84,
65504,
65485,
77,
65461,
81,
24,
65512,
65489,
65450,
26,
1,
65450,
0,
59,
5,
158,
129,
6,
109,
65481,
141,
230,
65487,
70,
79,
48,
99,
2,
65480,
65466,
234,
83,
65476,
65533,
65530,
65498,
36,
26,
7,
85,
72,
183,
19,
129,
48,
65475,
12,
65335,
65503,
98,
65397,
81,
99,
65471,
65516,
138,
72,
13,
65480,
96,
233,
54,
65439,
60,
99,
65373,
205,
123,
65446,
43,
4,
30,
76,
65510,
143,
82,
65342,
116,
21,
65478,
65481,
65314,
65428,
102,
65425,
65461,
65433,
25,
65522,
89,
65462,
21,
65489,
65470,
24,
140,
115,
19,
65502,
65506,
65427,
52,
65518,
65401,
67,
61,
13,
98,
65467,
65413,
65467,
65486,
86,
65444,
65494,
65405,
29,
65479,
65422,
47,
179,
61,
65465,
65420,
60,
129,
179,
76,
65434,
65510,
120,
188,
65521,
7,
65501,
74,
55,
42,
6,
30,
65502,
65468,
163,
35,
13,
65420,
65502,
65408,
89,
137,
60,
38,
115,
22,
103,
28,
65503,
52,
65506,
88,
144,
65381,
94,
50,
15,
18,
91,
65445,
65465,
65530,
55,
81,
65504,
40,
65449,
65497,
65499,
65525,
65419,
2,
163,
132,
65481,
155,
4,
50,
53,
160,
119,
65531,
105,
65519,
70,
65526,
65481,
4,
54,
45,
65446,
65461,
65462,
65441,
70,
65513,
65526,
65487,
65447,
6,
49,
44,
52,
65524,
41,
76,
65493,
65510,
65519,
65471,
32,
52,
18,
65502,
1,
22,
16,
65508,
65457,
65384,
65494,
65259,
11,
65461,
65420,
65358,
65379,
65446,
66,
107,
65402,
65410,
21,
107,
54,
203,
7,
65486,
65480,
65519,
175,
199,
65407,
87,
142,
79,
47,
51,
65499,
65364,
11,
65478,
65482,
65470,
65220,
65451,
65451,
65424,
65496,
65501,
65410,
65464,
65397,
65332,
65477,
65496,
36,
65290,
65415,
65310,
65470,
65507,
65355,
65381,
65303,
65306,
38,
65505,
27,
92,
65409,
65512,
15,
65514,
4,
65439,
65512,
65397,
65502,
65458,
102,
349,
155,
161,
65530,
122,
65412,
67,
71,
97,
65494,
65532,
65359,
65373,
65482,
65468,
184,
86,
66,
54,
65487,
53,
33,
96,
38,
65527,
65215,
65431,
65515,
65371,
65191,
65296,
65347,
65388,
13,
50,
65468,
91,
13,
65385,
65468,
65392,
62,
65462,
65469,
65426,
65336,
65455,
33,
65363,
22,
65523,
65522,
65532,
5,
65486,
65452,
65475,
65364,
65534,
65398,
65473,
47,
65457,
65513,
118,
13,
65489,
65531,
8,
65396,
37,
48,
65475,
65453,
65453,
65460,
65433,
65342,
65375,
65445,
45,
65519,
20,
65506,
65519,
65515,
3,
65441,
65333,
65382,
65532,
94,
56,
65446,
65443,
78,
65404,
65335,
65514,
65500,
65395,
65370,
65515,
65506,
65447,
65519,
28,
58,
65484,
12,
35,
65472,
39,
65437,
65461,
13,
37,
33,
65439,
65494,
65422,
45,
127,
65485,
56,
59,
65529,
20,
116,
38,
81,
65428,
65492,
65523,
65535,
65519,
65478,
59,
37,
65491,
56,
53,
65505,
65428,
75,
25,
136,
108,
65495,
65272,
233,
197,
65513,
65456,
65487,
65457,
65339,
65283,
65211,
20,
65510,
32,
65270,
65396,
65502,
104,
65523,
177,
65476,
65241,
65309,
48,
65447,
65345,
65197,
65314,
65268,
65506,
152,
65394,
99,
2,
73,
21,
47,
86,
65401,
65505,
32,
94,
65436,
65493,
65286,
18,
65460,
46,
65429,
65420,
65289,
65386,
65390,
65455,
65310,
65384,
65327,
65436,
65473,
137,
34,
35,
65373,
74,
119,
146,
202,
73,
222,
65511,
104,
0,
65509,
65442,
65394,
146,
170,
65471,
65485,
5,
65319,
182,
135,
65412,
65324,
65472,
65379,
65370,
65413,
65335,
65339,
65465,
65353,
65303,
28,
65368,
8,
14,
65446,
65426,
63,
44,
107,
65,
65413,
65388,
65458,
25,
46,
15,
65506,
65456,
65489,
120,
44,
0,
89,
65463,
59,
123,
170,
65522,
29,
114,
125,
190,
85,
65415,
65500,
148,
187,
187,
78,
65410,
65394,
65524,
8,
65463,
41,
65337,
65514,
65488,
65300,
65466,
65473,
65339,
65473,
65360,
65329,
65491,
72,
65493,
65467,
45,
59,
324,
232,
54,
65409,
86,
186,
247,
115,
65422,
65453,
131,
173,
342,
67,
62,
9,
65500,
65459,
65450,
65528,
65498,
92,
98,
65464,
65522,
65438,
65472,
50,
38,
65326,
0,
11,
65443,
167,
65465,
65408,
166,
50,
65415,
151,
27,
63,
65498,
65531,
80,
64,
111,
15,
86,
65483,
65533,
61,
55,
17,
21,
58,
103,
131,
65429,
65412,
65418,
65476,
65309,
37,
35,
103,
22,
203,
30,
87,
65517,
221,
187,
196,
65486,
127,
212,
218,
26,
35,
157,
9,
39,
52,
78,
65432,
179,
65470,
23,
65450,
44,
119,
94,
65510,
65496,
136,
54,
7,
75,
23,
65533,
65519,
58,
0,
51,
78,
169,
30,
65522,
82,
124,
57,
48,
88,
65,
88,
27,
34,
114,
65508,
141,
79,
0,
111,
281,
64,
68,
65496,
66,
65492,
20,
65467,
65395,
65357,
65293,
10,
65521,
65418,
78,
33,
65365,
65481,
65420,
23,
127,
65470,
65329,
65420,
65314,
65416,
65529,
49,
65479,
75,
65503,
65495,
65513,
65508,
150,
65527,
65403,
65403,
65522,
65468,
65348,
122,
65,
89,
220,
190,
160,
19,
65532,
147,
57,
65449,
106,
104,
65482,
65276,
65392,
20,
72,
25,
65291,
65414,
12,
65408,
113,
65424,
65374,
65513,
65499,
65407,
77,
65479,
17,
65416,
65533,
155,
235,
121,
65505,
8,
133,
135,
4,
1,
42,
49,
159,
4,
15,
72,
102,
65398,
7,
65495,
11,
103,
65359,
65397,
65440,
65338,
65471,
65434,
65353,
65375,
65515,
65490,
65499,
0,
65486,
65463,
59,
65521,
19,
8,
42,
65451,
9,
65446,
25,
65532,
76,
1,
65468,
86,
62,
65498,
84,
35,
5,
14,
65493,
86,
44,
65462,
65512,
65523,
65468,
18,
40,
65501,
67,
95,
65495,
65456,
65464,
35,
65457,
65,
65504,
65364,
65495,
65354,
65379,
65498,
65442,
65341,
65484,
65447,
65494,
31,
65420,
65512,
65505,
124,
108,
36,
28,
7,
70,
131,
198,
91,
65300,
38,
141,
206,
217,
16,
65370,
65418,
31,
23,
65514,
65452,
65256,
2,
65523,
71,
79,
65516,
65486,
65506,
84,
80,
77,
6,
65471,
65486,
56,
65535,
54,
19,
42,
31,
65470,
65499,
65526,
65535,
23,
46,
65509,
67,
15,
3,
52,
14,
65520,
32,
65481,
5,
65477,
64,
65438,
65436,
109,
65,
40,
91,
65373,
160,
19,
65528,
137,
38,
65486,
65287,
65470,
3,
37,
137,
65335,
65416,
65509,
65423,
167,
65532,
65332,
65461,
67,
65512,
90,
58,
10,
65383,
65462,
65529,
90,
65505,
15,
65518,
31,
3,
65485,
65445,
65447,
65504,
65499,
73,
65434,
76,
60,
66,
8,
64,
72,
65518,
65447,
47,
65489,
65520,
36,
65468,
68,
49,
65532,
65515,
65525,
58,
65535,
65480,
60,
65518,
65442,
65506,
30,
61,
198,
65501,
14,
52,
34,
65507,
58,
65470,
23,
81,
62,
65452,
65535,
65488,
65515,
60,
65363,
6,
37,
122,
65474,
65520,
95,
120,
26,
198,
65476,
72,
97,
152,
65496,
65462,
109,
65295,
65361,
65495,
65452,
65439,
65402,
65373,
65389,
65384,
65432,
65393,
5,
65355,
65402,
65452,
65495,
65382,
65442,
65424,
27,
65501,
65512,
65476,
65534,
65423,
65481,
1,
65465,
65531,
65496,
65437,
65442,
65510,
65361,
65504,
15,
65501,
65507,
17,
81,
209,
255,
11,
65462,
76,
163,
189,
208,
94,
109,
108,
55,
346,
199,
202,
360,
56,
65474,
87,
124,
52,
154,
35,
65467,
11,
12,
113,
102,
162,
272,
65506,
13,
155,
65527,
65378,
78,
65463,
12,
65510,
65381,
65432,
65494,
65494,
65469,
99,
34,
65503,
65514,
251,
56,
137,
28,
65347,
65524,
63,
65429,
65477,
65527,
65448,
65408,
65533,
65504,
51,
137,
65452,
67,
65444,
65406,
118,
26,
65490,
79,
65436,
40,
65447,
43,
58,
65493,
65284,
65417,
158,
175,
69,
65499,
65304,
65516,
68,
65517,
65464,
120,
100,
76,
65451,
186,
160,
65535,
105,
65426,
163,
416,
264,
65420,
65453,
152,
65464,
72,
74,
36,
24,
107,
41,
65488,
116,
16,
126,
128,
59,
93,
153,
5,
5,
111,
10,
126,
102,
56,
128,
18,
21,
65528,
103,
18,
110,
65498,
65511,
52,
65457,
65517,
23,
65455,
65448,
65365,
65177,
65360,
65227,
65090,
65393,
65531,
65454,
65438,
6,
65459,
65399,
65359,
65447,
230,
109,
65370,
65469,
65433,
101,
162,
382,
65494,
113,
65334,
65484,
65427,
65378,
65352,
65413,
65284,
65370,
65477,
69,
65465,
65535,
30,
59,
65437,
57,
73,
68,
65528,
71,
69,
18,
52,
65530,
41,
65457,
37,
75,
29,
53,
65468,
62,
84,
65508,
65526,
25,
10,
50,
65433,
65487,
36,
65480,
65527,
65478,
65531,
49,
65446,
29,
65459,
65510,
65505,
65497,
65476,
65493,
65437,
65433,
65486,
65517,
61,
65513,
65535,
65431,
65507,
11,
65433,
65448,
65464,
65485,
80,
47,
65389,
65428,
151,
65508,
65478,
65523,
65383,
65400,
65438,
65447,
14,
32,
65412,
65372,
65272,
32,
39,
65474,
65323,
65518,
65510,
65388,
65388,
65252,
2,
65402,
65365,
65487,
65440,
65265,
65413,
65172,
65249,
65339,
65327,
65501,
65291,
65440,
64,
65339,
65516,
65521,
52,
65497,
65488,
65516,
65447,
107,
87,
222,
65291,
65485,
65498,
86,
65490,
65375,
17,
39,
65377,
65296,
65264,
33,
65525,
0,
65439,
65350,
65357,
65499,
65168,
65224,
65441,
65508,
11,
65477,
24,
65477,
65489,
64,
123,
65471,
188,
65500,
65501,
57,
70,
105,
65464,
115,
53,
140,
150,
65472,
65422,
44,
65465,
216,
285,
65277,
63,
14,
65513,
65326,
65509,
65391,
65449,
65469,
65449,
65362,
51,
65311,
65433,
59,
65501,
65424,
49,
65390,
9,
82,
51,
65515,
202,
64,
65492,
65476,
31,
33,
65456,
22,
65525,
65520,
12,
65528,
53,
65511,
55,
65452,
65530,
52,
65514,
15,
65516,
65448,
64,
65530,
49,
80,
65518,
65441,
33,
65499,
79,
9,
65477,
65460,
65440,
53,
65509,
65394,
44,
226,
112,
65488,
124,
65403,
7,
85,
183,
65455,
65,
39,
23,
99,
65449,
65447,
35,
65487,
18,
210,
65490,
65469,
65509,
7,
65422,
111,
123,
6,
3,
12,
44,
52,
157,
65489,
65427,
48,
65402,
43,
65449,
61,
65370,
65467,
117,
81,
65443,
65379,
65310,
7,
7,
35,
65440,
65354,
65417,
65421,
65455,
65369,
65384,
65416,
65382,
65341,
65320,
65494,
65334,
124,
65497,
65363,
67,
65528,
65501,
45,
65437,
158,
65525,
65514,
10,
65508,
34,
24,
65470,
8,
106,
140,
61,
11,
171,
3,
65519,
9,
43,
75,
127,
73,
13,
47,
6,
221,
11,
65404,
65506,
65450,
65525,
65514,
65512,
65446,
65453,
65438,
65433,
26,
65529,
65501,
55,
5,
31,
15,
65532,
65512,
14,
65437,
65455,
65500,
65534,
62,
65495,
45,
65496,
65466,
65526,
65443,
65487,
47,
65411,
65450,
65473,
82,
65487,
65499,
56,
31,
28,
65474,
30,
65458,
65456,
65358,
65442,
65463,
50,
65496,
184,
65448,
8,
65445,
29,
91,
83,
65392,
39,
45,
185,
32,
59,
65345,
65493,
200,
212,
16,
65431,
65362,
65512,
43,
77,
34,
38,
65431,
4,
108,
92,
65466,
118,
65488,
17,
11,
65482,
34,
65213,
40,
65530,
116,
67,
35,
65317,
65443,
65430,
32,
180,
58,
65444,
65526,
65449,
65502,
267,
42,
65488,
65533,
65460,
39,
198,
65500,
38,
65346,
65357,
65365,
65384,
47,
65344,
65475,
52,
65462,
65505,
65498,
27,
65512,
65442,
6,
12,
80,
65512,
139,
95,
75,
40,
65476,
65493,
65489,
61,
41,
69,
65502,
48,
22,
65486,
49,
34,
1,
65479,
61,
65490,
127,
68,
9,
46,
114,
62,
65480,
14,
65467,
54,
44,
65530,
39,
65434,
39,
65508,
10,
65529,
65518,
65526,
65423,
65405,
65494,
65467,
65517,
65477,
65431,
65524,
55,
56,
65408,
65440,
65528,
59,
65513,
65444,
65448,
65459,
10,
91,
333,
65535,
65495,
89,
170,
65518,
168,
88,
129,
13,
60,
118,
205,
38,
65274,
65522,
27,
65528,
112,
65382,
65394,
66,
65340,
110,
56,
65370,
65477,
65513,
65483,
12,
64,
65,
21,
51,
32,
127,
65362,
89,
78,
65475,
65422,
65376,
65513,
12,
86,
65347,
111,
65,
100,
149,
11,
65532,
71,
212,
118,
336,
199,
153,
138,
65534,
13,
65440,
33,
53,
65505,
65224,
65523,
65499,
65459,
65455,
50,
65488,
65504,
65516,
65534,
65417,
65479,
65487,
65492,
65475,
65523,
50,
65436,
104,
75,
3,
65493,
62,
198,
99,
65516,
33,
65523,
114,
52,
65454,
83,
69,
65422,
154,
42,
65516,
65507,
40,
65520,
28,
65423,
65405,
155,
89,
79,
65479,
65515,
40,
120,
97,
65414,
65480,
5,
195,
125,
16,
65477,
65497,
65,
176,
105,
65376,
65387,
65483,
54,
65521,
31,
65454,
65417,
6,
57,
150,
52,
145,
65491,
50,
65523,
92,
23,
65449,
65528,
65466,
65480,
65453,
62,
65452,
44,
31,
115,
7,
67,
65482,
65506,
11,
65488,
126,
68,
71,
65458,
52,
65491,
64,
43,
65499,
34,
65440,
65411,
17,
65441,
65525,
65410,
65531,
65508,
65444,
114,
58,
65470,
91,
65412,
65282,
213,
65469,
65473,
22,
29,
9,
206,
37,
65534,
175,
174,
65496,
101,
124,
291,
117,
89,
105,
65491,
163,
87,
140,
65462,
133,
40,
128,
65417,
65439,
65373,
204,
65461,
65204,
65409,
65412,
0,
123,
65376,
65364,
65270,
65264,
65355,
65431,
65488,
65454,
65449,
65336,
65344,
65360,
65420,
65171,
65228,
65282,
65445,
65391,
29,
65531,
65463,
65430,
91,
98,
65455,
78,
76,
113,
24,
128,
193,
109,
56,
104,
15,
206,
2,
92,
275,
163,
65434,
46,
181,
134,
65534,
65431,
65423,
65,
174,
65396,
65466,
65488,
17,
63,
5,
65494,
65465,
65524,
65500,
98,
386,
363,
271,
65454,
65351,
106,
65520,
65413,
65385,
65421,
65436,
65161,
65521,
105,
132,
65507,
65493,
65299,
65376,
65410,
47,
262,
22,
65376,
65491,
65466,
98,
208,
0,
65328,
65504,
65215,
65515,
295,
94,
65389,
65257,
65329,
65173,
65503,
17,
65174,
65534,
121,
65470,
17,
104,
69,
6,
65529,
30,
98,
65424,
47,
65434,
65420,
65435,
12,
65470,
65501,
78,
65433,
8,
65462,
24,
65457,
65473,
33,
65511,
19,
65527,
65470,
37,
38,
69,
39,
79,
26,
65298,
65449,
65382,
65322,
65438,
65370,
65417,
65408,
65405,
65532,
65456,
65529,
65401,
65453,
65477,
10,
65423,
142,
65532,
44,
65413,
65479,
107,
65493,
65505,
33,
65489,
65498,
60,
65506,
65395,
65340,
44,
65455,
65455,
65299,
65427,
12,
135,
181,
52,
127,
65486,
4,
61,
167,
17,
65489,
90,
36,
125,
154,
65446,
65487,
65422,
68,
17,
179,
94,
21,
91,
29,
51,
34,
65517,
88,
184,
62,
181,
126,
60,
57,
151,
141,
188,
65529,
124,
60,
199,
192,
65511,
65504,
65500,
91,
153,
40,
65474,
65491,
65499,
79,
91,
210,
19,
65490,
65452,
93,
88,
65499,
65388,
65482,
65412,
69,
213,
3,
68,
39,
58,
210,
65529,
65484,
89,
25,
6,
65473,
65381,
65512,
65498,
65507,
65518,
65474,
65371,
65475,
65429,
57,
65373,
65521,
65408,
65233,
65450,
65510,
65416,
65448,
65445,
65463,
65467,
65445,
65485,
98,
22,
65482,
115,
18,
202,
119,
82,
65321,
65331,
65353,
67,
65392,
65427,
65494,
65457,
65318,
65429,
65517,
84,
5,
46,
1,
65498,
65368,
57,
65280,
65296,
65518,
65530,
51,
65381,
65456,
65434,
65497,
16,
65458,
65532,
65517,
60,
65462,
9,
65516,
91,
139,
7,
65526,
1,
109,
93,
65495,
65418,
65397,
65507,
93,
65424,
22,
1,
65477,
94,
33,
113,
65317,
65,
65524,
13,
65512,
92,
65529,
25,
58,
65498,
156,
51,
88,
59,
57,
26,
134,
65509,
65438,
12,
142,
126,
9,
65409,
65369,
65445,
51,
12,
25,
65267,
65523,
32,
107,
65292,
65385,
65366,
65503,
65445,
26,
65421,
65386,
65301,
65496,
109,
65509,
162,
93,
65280,
65503,
102,
65526,
65487,
143,
32,
61,
65472,
110,
117,
32,
34,
226,
112,
65518,
102,
61,
65533,
43,
65398,
77,
83,
79,
19,
65487,
65387,
65423,
65500,
88,
65524,
65500,
65445,
41,
65324,
65445,
65500,
65376,
65527,
65529,
65454,
65519,
179,
244,
357,
52,
211,
254,
60,
384,
334,
266,
208,
226,
86,
47,
65461,
65289,
13,
132,
97,
231,
65499,
65181,
65381,
65471,
130,
83,
135,
65442,
65460,
65434,
146,
65508,
45,
116,
65532,
27,
42,
149,
149,
12,
65467,
65519,
248,
64,
90,
6,
64,
49,
212,
55,
65495,
65476,
121,
65530,
268,
123,
65503,
65446,
65498,
308,
255,
49,
65511,
30,
65527,
176,
324,
42,
65528,
93,
65454,
105,
65281,
59,
77,
13,
65519,
221,
65365,
65522,
144,
210,
138,
297,
65480,
12,
65480,
65415,
187,
167,
24,
202,
190,
145,
5,
141,
38,
139,
173,
135,
98,
65425,
65531,
78,
165,
110,
65532,
65448,
63,
65495,
71,
65454,
89,
80,
9,
65500,
5,
65450,
65518,
65468,
38,
65533,
60,
65456,
65444,
78,
65474,
0,
65465,
76,
65466,
65476,
0,
65470,
65534,
4,
65499,
65482,
65464,
30,
42,
65504,
39,
4,
65495,
94,
203,
106,
91,
112,
20,
77,
205,
193,
26,
26,
23,
144,
64,
41,
7,
65531,
30,
84,
104,
65466,
65457,
3,
122,
131,
65516,
116,
40,
29,
28,
33,
65479,
103,
6,
65380,
65498,
16,
65507,
65525,
82,
65515,
91,
59,
39,
150,
163,
65459,
166,
192,
94,
115,
172,
83,
134,
65480,
3,
246,
65522,
59,
27,
65498,
8,
37,
65461,
65500,
29,
32,
65487,
42,
84,
4,
116,
64,
65494,
65505,
65527,
65377,
231,
179,
65395,
0,
65519,
24,
65500,
65331,
5,
262,
68,
65395,
4,
65436,
65524,
31,
65338,
14,
313,
33,
65419,
52,
65419,
12,
65517,
65413,
65376,
65257,
18,
65453,
65267,
65522,
65447,
65513,
65513,
65471,
65521,
90,
64,
300,
151,
68,
65422,
98,
153,
156,
380,
224,
65477,
181,
296,
195,
54,
65440,
73,
65446,
52,
41,
21,
65382,
65426,
65466,
65379,
39,
65395,
65306,
1,
79,
65507,
65440,
13,
8,
65473,
65493,
5,
65523,
18,
49,
65491,
0,
65499,
65500,
43,
65505,
66,
65451,
65513,
65519,
65519,
62,
23,
65474,
65459,
39,
65506,
54,
6,
49,
65505,
65524,
65,
65529,
69,
65478,
65441,
65487,
57,
65525,
65494,
65394,
65486,
65477,
65495,
11,
65515,
65517,
65519,
76,
154,
65473,
78,
8,
74,
165,
11,
65526,
13,
200,
157,
214,
82,
65507,
65511,
65491,
67,
60,
65469,
65369,
65466,
78,
65457,
86,
65421,
65405,
93,
65506,
65443,
65392,
65473,
86,
26,
65514,
65493,
74,
49,
90,
52,
65448,
60,
120,
11,
2,
61,
65473,
4,
113,
66,
65448,
65473,
76,
13,
65465,
65328,
65529,
65519,
2,
65440,
35,
94,
74,
65413,
65459,
65446,
16,
65488,
42,
65452,
65388,
65514,
65510,
10,
63,
52,
65517,
19,
25,
1,
65513,
65476,
36,
65487,
25,
2,
65490,
21,
65480,
134,
65504,
41,
112,
82,
92,
11,
73,
65407,
65399,
233,
46,
41,
47,
103,
28,
75,
74,
65439,
73,
109,
55,
276,
271,
95,
65520,
26,
152,
244,
7,
66,
154,
65512,
131,
129,
192,
65475,
65465,
65449,
47,
65407,
65474,
65442,
65387,
65476,
50,
160,
65524,
49,
65483,
86,
164,
130,
68,
133,
24,
16,
65432,
65519,
120,
19,
65319,
80,
28,
65522,
65436,
65420,
29,
65287,
65460,
21,
65438,
65342,
65469,
65525,
33,
155,
9,
65532,
49,
65528,
65493,
65525,
65439,
65461,
65394,
65460,
22,
76,
65501,
93,
65534,
65503,
128,
50,
65435,
65492,
65525,
104,
63,
65453,
65528,
65517,
65500,
77,
65527,
27,
61,
62,
65472,
65487,
77,
243,
65514,
65529,
65435,
65432,
65483,
95,
150,
28,
65453,
65452,
65463,
228,
71,
65470,
65420,
2,
65484,
99,
61,
6,
65479,
51,
14,
65535,
65517,
65429,
65367,
65455,
90,
116,
44,
65482,
65449,
55,
65466,
65507,
175,
60,
65334,
65522,
65461,
65411,
191,
123,
65406,
50,
65504,
136,
143,
65418,
100,
326,
196,
158,
227,
222,
113,
83,
3,
95,
65457,
18,
65479,
65409,
65298,
65480,
65447,
65509,
63,
149,
65489,
1,
82,
27,
65476,
64,
24,
26,
59,
68,
65506,
65453,
65502,
65502,
68,
65449,
38,
65515,
65532,
10,
65483,
48,
15,
65444,
65532,
65506,
36,
21,
65512,
42,
60,
10,
65448,
65533,
65535,
27,
85,
65504,
17,
31,
65513,
23,
65445,
65458,
65468,
65447,
43,
60,
24,
65477,
65492,
47,
44,
65395,
65468,
65510,
65432,
65512,
65472,
65521,
65483,
65438,
65495,
65527,
65454,
44,
76,
65467,
65492,
90,
16,
13,
65484,
65449,
65394,
32,
65478,
65391,
65396,
19,
65391,
65417,
65508,
65432,
65451,
65486,
65533,
65444,
41,
65367,
65420,
65498,
65470,
65405,
31,
65433,
4,
65484,
65533,
33,
65531,
65508,
65374,
65386,
65513,
65488,
65440,
65431,
65535,
102,
65496,
65441,
34,
65471,
65445,
23,
117,
65350,
65385,
65473,
125,
65434,
65464,
65463,
65513,
65372,
65333,
55,
65299,
65209,
65365,
65436,
65435,
114,
65499,
65494,
65485,
27,
273,
65486,
124,
65420,
65412,
65469,
169,
65435,
65297,
65458,
74,
65514,
65276,
65286,
65453,
67,
50,
65470,
65486,
65302,
71,
126,
125,
65450,
65314,
65467,
65471,
65518,
65479,
65467,
65176,
65424,
23,
65523,
65506,
112,
65506,
65443,
65366,
68,
65416,
65379,
65321,
65462,
135,
65514,
65411,
65514,
65440,
65473,
65468,
92,
59,
115,
191,
34,
1,
145,
116,
214,
277,
115,
219,
233,
355,
51,
65493,
116,
65531,
83,
195,
65424,
44,
39,
65481,
65454,
65460,
65458,
65502,
34,
65529,
90,
21,
65424,
65469,
136,
126,
32,
204,
141,
65535,
89,
166,
65466,
275,
39,
83,
65529,
186,
127,
10,
65420,
89,
65531,
65382,
65433,
65328,
65342,
65369,
65531,
65273,
65494,
35,
66,
61,
3,
65275,
65503,
60,
65516,
99,
1,
23,
91,
11,
51,
37,
65535,
65522,
4,
87,
46,
139,
65499,
134,
65508,
101,
4,
172,
65456,
65534,
66,
39,
65476,
65380,
170,
70,
65522,
65529,
88,
33,
56,
50,
42,
33,
65411,
201,
128,
69,
65506,
65509,
65499,
65419,
159,
128,
18,
65465,
65368,
65365,
83,
65426,
65350,
65424,
65474,
65422,
65519,
65380,
65383,
65391,
46,
121,
104,
45,
43,
65484,
93,
48,
65392,
65512,
7,
65500,
65247,
65325,
117,
84,
65506,
65470,
65429,
65400,
15,
65454,
65490,
65511,
65364,
43,
55,
137,
29,
65321,
87,
84,
59,
65499,
65343,
65342,
65420,
16,
65531,
65466,
65422,
65355,
65455,
65469,
13,
65388,
75,
253,
125,
122,
65512,
65504,
145,
142,
65521,
65434,
89,
163,
44,
78,
65521,
65360,
168,
0,
74,
70,
10,
188,
99,
90,
90,
43,
147,
147,
241,
248,
118,
76,
65524,
107,
25,
65483,
65499,
65401,
65491,
27,
65470,
65528,
59,
95,
65423,
179,
140,
150,
65520,
65486,
60,
273,
67,
86,
65505,
69,
172,
83,
65499,
60,
65459,
65459,
46,
65434,
193,
100,
118,
65524,
65398,
0,
65296,
65443,
65355,
60,
24,
65517,
65463,
65493,
26,
65410,
65511,
9,
83,
65382,
65521,
65470,
18,
23,
65371,
43,
65480,
65294,
29,
25,
85,
65472,
65395,
65453,
65482,
59,
8,
71,
65493,
65361,
65509,
65474,
97,
223,
183,
100,
198,
197,
209,
18,
68,
195,
196,
273,
314,
107,
65482,
43,
155,
147,
143,
65515,
65399,
65518,
65439,
282,
351,
65498,
65447,
65444,
65319,
88,
73,
65463,
65439,
72,
104,
48,
65291,
65312,
31,
65508,
65358,
65504,
65324,
65457,
65462,
65421,
65469,
65479,
65389,
65285,
65319,
65354,
65420,
65478,
65432,
65428,
65450,
81,
54,
32,
23,
65431,
65454,
46,
65511,
65492,
65419,
65461,
65399,
65369,
15,
56,
73,
32,
65527,
28,
10,
65460,
148,
65523,
65445,
209,
65517,
138,
40,
65455,
2,
120,
4,
8,
14,
3,
108,
38,
65506,
65523,
100,
65522,
93,
65469,
65522,
174,
81,
135,
65502,
117,
65534,
129,
221,
80,
108,
45,
258,
58,
353,
65529,
164,
9,
207,
231,
103,
211,
65359,
65480,
62,
42,
54,
65526,
65358,
65309,
65232,
65508,
65517,
65391,
65301,
65393,
65256,
105,
65498,
64,
65415,
65499,
20,
187,
1,
65463,
18,
65499,
65499,
65530,
65440,
65436,
65438,
44,
43,
65497,
4,
42,
65442,
42,
44,
81,
3,
65430,
65532,
24,
65482,
61,
0,
65464,
16,
13,
69,
65441,
9,
82,
65487,
65528,
65497,
65464,
27,
65425,
102,
65365,
65526,
65366,
65525,
99,
65521,
65417,
65311,
65237,
65379,
65327,
65508,
65433,
65164,
65170,
65288,
65193,
65266,
65211,
65490,
47,
65468,
65346,
65276,
65243,
65330,
65495,
65434,
65318,
65501,
65459,
48,
65455,
46,
65514,
65440,
236,
65389,
185,
65417,
65475,
65470,
65532,
65404,
9,
167,
65422,
67,
65493,
65281,
65338,
65458,
65245,
65401,
74,
65424,
65465,
55,
71,
65504,
97,
254,
109,
163,
262,
176,
119,
102,
325,
65446,
51,
100,
65500,
65408,
190,
121,
8,
122,
47,
65470,
91,
92,
198,
3,
65285,
65420,
194,
59,
166,
189,
70,
82,
169,
65533,
29,
8,
65436,
39,
65440,
75,
174,
102,
65496,
65422,
65303,
65485,
65526,
65422,
65486,
36,
65488,
65494,
65494,
151,
65519,
190,
12,
65486,
4,
65438,
167,
72,
65524,
64,
7,
1,
88,
55,
19,
65480,
15,
54,
3,
65417,
51,
24,
0,
65530,
53,
159,
36,
65433,
2,
158,
65534,
186,
226,
65434,
65452,
65475,
47,
143,
65517,
65356,
46,
65531,
31,
65497,
45,
65436,
47,
136,
145,
196,
65470,
65306,
137,
53,
94,
157,
77,
91,
65488,
142,
87,
65450,
102,
34,
65379,
68,
65461,
65402,
65373,
65528,
116,
76,
65510,
65524,
65344,
65497,
65505,
65511,
139,
65430,
65506,
186,
65486,
108,
65494,
65474,
65528,
65390,
107,
55,
65472,
65454,
8,
97,
18,
187,
69,
64,
247,
82,
65533,
10,
13,
75,
65477,
65462,
61,
13,
65442,
75,
27,
65525,
65524,
65513,
65514,
65522,
65517,
69,
65478,
65482,
65500,
16,
85,
65489,
65445,
65505,
65513,
46,
99,
65532,
65434,
41,
60,
28,
65487,
65359,
65393,
65437,
10,
65493,
65434,
65418,
65352,
86,
29,
65472,
65421,
65330,
65410,
65458,
65346,
65444,
65437,
65255,
65398,
65491,
65415,
25,
65512,
65435,
65458,
65361,
65519,
65523,
13,
65418,
65389,
65481,
65344,
78,
65428,
65466,
65504,
65453,
116,
52,
228,
65370,
65352,
65419,
13,
65482,
22,
65458,
65487,
65457,
65454,
65516,
65492,
65446,
65429,
25,
32,
112,
65502,
65322,
65529,
65533,
149,
196,
164,
65502,
65464,
12,
47,
89,
107,
65487,
65389,
65235,
65289,
65427,
84,
65506,
65512,
65439,
65398,
65427,
65464,
65534,
3,
65455,
65454,
20,
65481,
72,
65531,
65472,
96,
2,
65367,
65310,
51,
91,
63,
110,
5,
65414,
90,
166,
107,
65445,
37,
65311,
65507,
77,
69,
65425,
38,
37,
26,
58,
65482,
65480,
65296,
55,
65489,
241,
43,
65464,
65255,
65344,
65381,
65390,
65245,
65469,
65424,
65487,
77,
65496,
65501,
0,
50,
108,
89,
65529,
65528,
29,
118,
206,
65439,
65338,
65399,
74,
65391,
68,
65429,
65480,
65383,
149,
65444,
65403,
84,
140,
63,
38,
73,
28,
65445,
65370,
65496,
65480,
110,
65488,
65460,
65382,
65323,
65461,
70,
94,
65355,
65373,
9,
132,
52,
65366,
65285,
65391,
61,
80,
65347,
65300,
65504,
7,
44,
65450,
65361,
65326,
72,
64,
166,
65476,
65356,
65517,
65518,
63,
61,
65531,
65269,
65471,
65503,
65472,
65450,
0,
65334,
65336,
65503,
10,
65421,
65482,
65345,
