memory_initialization_radix=10;
memory_initialization_vector =
65392,
65334,
65461,
3,
65379,
65316,
65482,
14,
144,
130,
249,
65527,
28,
25,
65529,
65515,
8,
28,
65526,
15,
170,
88,
65496,
167,
313,
242,
187,
140,
251,
64,
133,
103,
98,
127,
141,
209,
65522,
65502,
80,
65523,
19,
65419,
29,
65333,
65412,
65409,
65477,
65383,
157,
65534,
24,
65305,
65409,
65406,
74,
159,
85,
86,
65512,
65515,
65533,
19,
68,
65513,
65486,
65399,
65362,
130,
65511,
65497,
91,
65295,
2,
65445,
65461,
66,
65472,
65338,
29,
95,
37,
65453,
21,
65373,
65387,
61,
65520,
2,
65462,
65429,
65361,
65493,
65494,
65496,
65521,
65534,
65462,
65449,
83,
65518,
65471,
81,
65412,
65411,
6,
65530,
89,
65514,
133,
65481,
65458,
65356,
28,
35,
61,
65470,
65411,
65517,
50,
109,
132,
65528,
256,
65512,
213,
81,
118,
65518,
65413,
65453,
65498,
65488,
65486,
65,
65497,
65425,
65471,
65414,
79,
71,
65465,
65506,
65420,
65354,
65535,
5,
55,
65534,
65492,
65480,
65497,
65465,
67,
64,
64,
65476,
65486,
88,
15,
9,
50,
65441,
51,
5,
65444,
23,
65533,
65508,
73,
1,
65479,
65464,
86,
62,
65449,
36,
65447,
43,
5,
65494,
163,
65473,
65385,
65445,
65436,
65526,
65533,
65482,
65270,
65436,
98,
65451,
33,
11,
65424,
65507,
65525,
65514,
55,
65389,
65380,
65355,
65355,
23,
65535,
65320,
65460,
65317,
82,
65522,
98,
65497,
4,
78,
40,
99,
65506,
65430,
65480,
65503,
65452,
65288,
1,
65473,
65425,
65399,
65490,
65365,
65467,
9,
100,
65462,
65490,
65510,
65358,
65437,
140,
106,
65499,
22,
65454,
65485,
105,
277,
65523,
65508,
65396,
65337,
6,
65473,
65463,
65417,
65490,
65388,
65454,
65459,
65465,
65517,
65366,
65427,
110,
97,
152,
57,
38,
65532,
43,
31,
45,
65534,
85,
65500,
81,
138,
78,
10,
39,
65503,
60,
65503,
65481,
65439,
65530,
65453,
65415,
45,
65432,
65504,
65489,
62,
71,
93,
82,
330,
0,
42,
47,
177,
103,
78,
65514,
93,
187,
137,
38,
62,
45,
92,
16,
114,
45,
142,
65503,
30,
116,
139,
31,
82,
65462,
53,
65489,
150,
53,
55,
100,
109,
25,
73,
182,
65512,
65466,
123,
33,
41,
9,
65422,
130,
92,
23,
65475,
24,
65533,
90,
65492,
65490,
27,
89,
103,
65510,
65528,
10,
65438,
65409,
149,
65531,
5,
65508,
14,
119,
131,
65442,
3,
65467,
32,
65462,
65448,
45,
65523,
54,
65524,
25,
2,
57,
65487,
41,
27,
3,
54,
65459,
42,
65461,
65463,
65428,
75,
80,
65445,
45,
32,
65518,
65531,
65514,
65533,
65485,
52,
65510,
46,
65520,
65520,
65429,
65524,
65492,
65272,
65494,
37,
65485,
72,
5,
65380,
65371,
65429,
65240,
65499,
18,
65338,
65494,
65434,
65528,
16,
65400,
65374,
65365,
27,
65451,
65418,
61,
65349,
65497,
89,
65343,
65384,
65493,
65479,
65533,
71,
33,
65492,
65376,
65525,
65445,
65499,
17,
162,
44,
3,
36,
20,
190,
201,
25,
65489,
73,
57,
69,
169,
35,
136,
65464,
110,
100,
137,
57,
29,
65478,
59,
65504,
27,
65531,
65411,
65469,
65409,
65462,
65401,
65434,
16,
112,
96,
48,
65,
65418,
65481,
70,
129,
38,
153,
299,
209,
311,
201,
201,
3,
65292,
141,
236,
262,
135,
65493,
14,
132,
263,
383,
215,
170,
78,
131,
60,
155,
77,
65485,
96,
135,
57,
147,
112,
26,
65437,
21,
130,
41,
189,
214,
77,
15,
22,
129,
198,
126,
22,
187,
66,
68,
112,
165,
65531,
153,
30,
37,
65486,
21,
5,
142,
65448,
45,
45,
65492,
72,
104,
65485,
65502,
70,
65524,
56,
44,
23,
100,
87,
70,
59,
65448,
65454,
107,
56,
205,
65468,
65432,
65505,
37,
209,
208,
93,
65485,
4,
73,
26,
42,
65437,
65393,
65456,
65462,
65467,
65501,
65520,
65393,
65471,
65510,
65485,
65457,
65443,
65500,
65530,
33,
65356,
65475,
65499,
65449,
35,
65515,
65432,
65444,
65420,
65480,
12,
65405,
65417,
3,
65516,
38,
65455,
65476,
65406,
65527,
65461,
65469,
65329,
65472,
65462,
65458,
65477,
140,
2,
306,
28,
65526,
42,
164,
308,
311,
156,
60,
67,
338,
402,
342,
9,
65387,
65464,
203,
359,
190,
65469,
65463,
65440,
134,
289,
276,
186,
242,
65517,
65524,
33,
45,
71,
33,
194,
431,
274,
81,
79,
65381,
133,
111,
48,
65427,
179,
41,
132,
202,
105,
194,
193,
134,
271,
298,
244,
133,
47,
58,
82,
252,
31,
83,
94,
86,
65481,
63,
65371,
65397,
65535,
65478,
3,
65398,
13,
165,
53,
242,
147,
84,
127,
65517,
214,
269,
68,
82,
65469,
114,
132,
127,
109,
77,
208,
321,
267,
340,
150,
47,
163,
46,
148,
175,
65498,
65522,
65428,
65440,
65361,
65513,
65333,
65290,
65394,
65501,
25,
150,
65521,
65388,
65430,
65485,
65229,
65432,
33,
65364,
65482,
12,
65458,
17,
65427,
65394,
65503,
65447,
65471,
29,
59,
65486,
65436,
65479,
65424,
20,
65531,
65421,
94,
268,
67,
39,
132,
197,
24,
86,
147,
167,
130,
75,
57,
61,
133,
65393,
65309,
65426,
77,
65492,
65293,
65194,
65433,
49,
10,
65278,
65246,
65398,
65347,
0,
15,
10,
65527,
93,
65531,
148,
127,
215,
65528,
65415,
163,
65535,
65480,
65378,
4,
65490,
3,
29,
65228,
65215,
65452,
135,
65397,
65419,
65431,
65119,
65347,
65322,
65297,
65365,
65403,
65296,
65247,
65331,
65480,
65386,
65531,
65257,
65199,
65256,
65442,
65318,
65466,
71,
209,
65441,
65521,
57,
21,
65420,
140,
65,
65513,
20,
65467,
65387,
65351,
13,
65386,
65314,
65461,
65335,
65515,
65415,
65329,
65464,
65395,
65321,
65352,
65351,
39,
65476,
65424,
65316,
65390,
65279,
65384,
65460,
65518,
55,
65510,
4,
65501,
65326,
65475,
65324,
65364,
65312,
65413,
65383,
65353,
65531,
65487,
65266,
65341,
65398,
65325,
65446,
65439,
65446,
57,
33,
65362,
65299,
65492,
65472,
65497,
65436,
65345,
65337,
65486,
9,
130,
69,
171,
153,
65470,
1,
65429,
98,
30,
72,
65407,
65421,
65219,
234,
65484,
65440,
113,
65511,
65279,
65531,
2,
65437,
65150,
65160,
65175,
12,
65495,
65432,
65163,
65302,
65352,
22,
207,
65364,
65329,
65303,
65444,
65496,
65461,
65416,
65372,
65464,
65480,
65466,
65391,
65481,
65473,
17,
50,
23,
71,
72,
131,
32,
65521,
35,
34,
157,
199,
61,
57,
63,
55,
129,
171,
47,
81,
21,
65509,
114,
65497,
62,
65494,
65464,
65406,
65431,
80,
102,
65525,
65374,
78,
65528,
65484,
49,
65522,
65446,
69,
153,
75,
65532,
97,
119,
82,
123,
183,
22,
155,
53,
65513,
119,
144,
159,
65483,
65424,
38,
108,
105,
99,
65429,
65430,
65494,
65493,
41,
84,
87,
65441,
13,
6,
65515,
65484,
65485,
39,
76,
65440,
65474,
59,
65486,
65448,
7,
82,
84,
67,
65526,
65476,
5,
65459,
65527,
68,
65510,
92,
65525,
83,
65470,
65492,
58,
65,
65394,
65435,
13,
65507,
65376,
65265,
65412,
22,
65465,
62,
65391,
65448,
65448,
25,
65341,
0,
65501,
65389,
65400,
65349,
65481,
71,
65345,
65492,
65445,
65417,
65437,
65476,
65452,
65481,
65496,
65470,
65472,
65406,
65532,
65402,
65532,
65489,
52,
65511,
65457,
65469,
65447,
65506,
65535,
27,
65484,
65495,
65499,
65474,
65527,
65495,
66,
65487,
65499,
56,
17,
65439,
65507,
65457,
76,
64,
52,
65441,
37,
65493,
65491,
8,
56,
78,
65490,
65513,
65531,
65395,
65445,
65407,
65437,
39,
65505,
15,
30,
41,
65407,
27,
115,
59,
94,
65390,
88,
82,
65479,
222,
183,
194,
54,
65518,
65451,
304,
103,
227,
18,
65497,
65466,
151,
113,
128,
65460,
65431,
49,
65521,
2,
65524,
65529,
65497,
65465,
65521,
26,
4,
65443,
21,
65523,
65527,
63,
19,
65486,
65463,
23,
65514,
65491,
65473,
65494,
65472,
56,
65508,
65456,
5,
1,
62,
65530,
65512,
63,
55,
65464,
65511,
65508,
3,
65458,
101,
65470,
65511,
65380,
65494,
65437,
65415,
65393,
65386,
65228,
65376,
65361,
65380,
65355,
65341,
65251,
65361,
51,
65533,
80,
65471,
65301,
65478,
30,
65480,
65528,
11,
65432,
65473,
65368,
65446,
65485,
133,
158,
136,
161,
59,
32,
166,
65475,
65531,
43,
65516,
45,
30,
35,
142,
38,
34,
65482,
7,
65488,
79,
37,
76,
24,
115,
65507,
16,
46,
135,
127,
65489,
65515,
29,
65475,
11,
65415,
65490,
62,
65323,
120,
119,
65482,
65408,
0,
65300,
65381,
65174,
65497,
102,
235,
15,
23,
8,
11,
101,
193,
301,
65471,
37,
113,
12,
53,
95,
136,
65427,
30,
65499,
65450,
193,
89,
73,
19,
0,
65505,
65285,
65452,
16,
40,
8,
77,
65525,
65399,
65420,
65453,
65401,
65532,
65514,
16,
65460,
65425,
65471,
65447,
58,
210,
118,
65414,
65358,
2,
52,
90,
65528,
65442,
65473,
71,
65499,
72,
65421,
19,
65409,
65473,
13,
44,
169,
25,
14,
65351,
65308,
65529,
65215,
65530,
65410,
65234,
65460,
65495,
50,
65341,
65435,
65345,
65513,
311,
178,
150,
65500,
65347,
65429,
363,
201,
42,
65364,
65244,
65211,
65369,
65482,
2,
36,
5,
8,
17,
65395,
65481,
65455,
75,
65511,
65418,
65482,
50,
65469,
44,
139,
65479,
75,
65526,
65509,
65484,
9,
29,
20,
65498,
65523,
65512,
65451,
7,
64,
50,
65437,
15,
3,
65441,
39,
67,
6,
19,
65487,
65310,
65406,
65469,
65350,
65534,
55,
65521,
129,
104,
61,
21,
84,
65305,
28,
65394,
119,
125,
59,
65305,
65254,
65359,
65423,
65531,
65344,
65347,
65505,
65464,
65416,
65528,
112,
65494,
123,
40,
65477,
65503,
65446,
65530,
65512,
65462,
65494,
65486,
65436,
51,
70,
65463,
65500,
66,
65463,
65498,
65472,
65450,
70,
65508,
73,
64,
65485,
65527,
54,
65459,
65478,
65452,
80,
65457,
65448,
65476,
37,
47,
65467,
65470,
59,
65472,
87,
65460,
79,
65359,
65338,
65481,
65506,
65530,
58,
5,
65389,
6,
65401,
65437,
65420,
3,
0,
65526,
65465,
65504,
65507,
65480,
65502,
65482,
60,
65472,
65451,
9,
65421,
11,
65523,
65370,
65532,
65488,
65514,
280,
82,
56,
138,
65495,
143,
75,
65445,
65286,
65424,
65421,
65520,
65373,
65278,
65302,
65400,
65432,
65457,
65531,
65389,
65418,
65385,
65417,
65511,
44,
65402,
65427,
65353,
65447,
42,
95,
25,
65353,
65491,
65479,
58,
174,
229,
187,
108,
91,
289,
65451,
65441,
16,
65457,
81,
40,
65176,
65190,
65445,
120,
65298,
65412,
65126,
65280,
383,
193,
65518,
65503,
65351,
65459,
251,
71,
55,
28,
65528,
65203,
65442,
65222,
65391,
32,
65419,
65479,
24,
63,
65535,
65478,
73,
271,
256,
152,
179,
36,
65517,
65524,
121,
148,
163,
65,
226,
148,
140,
65510,
77,
211,
244,
188,
225,
161,
164,
253,
218,
188,
130,
247,
171,
133,
65459,
92,
65493,
42,
36,
11,
5,
65445,
46,
80,
32,
45,
65527,
49,
21,
10,
70,
48,
44,
65490,
65505,
65437,
65473,
10,
66,
65530,
21,
65482,
65500,
65529,
65458,
65510,
77,
65452,
65501,
95,
6,
28,
65433,
65464,
65479,
65473,
65426,
65422,
65486,
65429,
65381,
65490,
45,
65517,
157,
7,
65520,
109,
65513,
65443,
65524,
144,
65493,
65518,
65468,
21,
22,
78,
57,
65458,
24,
38,
65501,
65402,
36,
66,
65305,
65458,
65440,
32,
38,
65400,
13,
72,
124,
48,
75,
65503,
65520,
65517,
157,
160,
49,
86,
65509,
65480,
281,
168,
149,
1,
121,
196,
309,
303,
192,
48,
96,
34,
65520,
65523,
112,
7,
63,
65463,
32,
65534,
22,
65424,
123,
15,
50,
248,
233,
79,
43,
58,
65435,
65489,
65535,
191,
59,
153,
65457,
65493,
65527,
65473,
98,
65533,
65477,
65458,
56,
65464,
136,
88,
65459,
1,
26,
65431,
65425,
65466,
65496,
91,
65481,
65457,
65452,
65527,
65525,
65434,
65461,
65519,
65449,
42,
65416,
12,
65533,
65449,
23,
65473,
65501,
65528,
62,
28,
65502,
12,
60,
65503,
62,
65459,
65493,
65447,
19,
35,
71,
65472,
65456,
65447,
65448,
111,
60,
63,
121,
140,
189,
372,
202,
27,
122,
91,
112,
132,
86,
80,
101,
52,
65512,
64,
152,
356,
280,
44,
151,
183,
159,
296,
317,
158,
171,
159,
120,
232,
17,
187,
65520,
65519,
65513,
65470,
81,
148,
65400,
65497,
65292,
70,
58,
77,
65529,
65407,
65274,
53,
233,
65467,
65012,
65104,
65171,
18,
29,
65466,
65230,
65361,
65384,
65503,
188,
201,
65377,
5,
65324,
65498,
65515,
48,
65522,
58,
65496,
65524,
65479,
12,
30,
65394,
65520,
65521,
41,
65495,
65440,
1,
65470,
36,
65436,
23,
65469,
65533,
65468,
65454,
65509,
65491,
65438,
65475,
31,
65520,
65489,
65412,
65488,
65452,
6,
65492,
65534,
65503,
50,
80,
65396,
63,
103,
81,
65480,
23,
65469,
83,
15,
65494,
65509,
8,
65523,
59,
65530,
99,
65529,
127,
19,
65495,
2,
101,
113,
154,
106,
100,
65450,
65482,
65516,
66,
89,
86,
65424,
65320,
65453,
65467,
86,
65522,
65333,
65433,
104,
161,
138,
51,
65335,
49,
65455,
65473,
71,
13,
65499,
65532,
149,
100,
150,
65484,
102,
216,
104,
8,
65382,
65434,
65526,
68,
69,
65517,
65396,
65392,
65259,
65327,
65377,
65422,
29,
65441,
65483,
88,
106,
239,
74,
49,
99,
316,
221,
92,
117,
133,
134,
357,
79,
12,
65496,
65523,
156,
196,
126,
138,
88,
65474,
98,
129,
126,
263,
109,
65466,
65476,
65468,
65414,
65481,
65334,
65415,
65405,
65338,
65458,
143,
42,
65472,
65491,
19,
65472,
134,
65529,
65456,
65517,
28,
70,
78,
65532,
65424,
65451,
57,
17,
84,
23,
65406,
65420,
65508,
65484,
65406,
65502,
65421,
65455,
142,
65500,
65513,
199,
45,
15,
124,
47,
15,
154,
4,
93,
65533,
157,
107,
90,
76,
149,
60,
65479,
149,
44,
65491,
29,
89,
76,
65510,
65508,
147,
65500,
76,
83,
132,
57,
144,
65479,
0,
65451,
65513,
65516,
65393,
65495,
2,
86,
31,
65533,
65497,
65510,
65523,
65532,
65499,
65496,
6,
65522,
65534,
65496,
65360,
65512,
65496,
140,
65513,
65439,
65458,
65479,
65439,
65396,
65498,
65524,
49,
65491,
65510,
50,
281,
1,
35,
65516,
65438,
65397,
65444,
65444,
65376,
65424,
65504,
65530,
65504,
65491,
65354,
65260,
65302,
65525,
15,
65357,
65299,
65304,
65296,
65357,
65287,
65184,
65380,
65277,
65322,
65432,
65391,
65232,
65429,
65431,
65376,
367,
247,
166,
90,
59,
221,
65489,
26,
98,
213,
68,
65527,
65245,
65263,
65477,
81,
39,
65505,
65195,
65360,
326,
247,
266,
65486,
65404,
65452,
345,
260,
244,
49,
65519,
65474,
65481,
65423,
65508,
162,
65408,
65514,
109,
27,
13,
65377,
65373,
65496,
65290,
65225,
65486,
65366,
65451,
65526,
148,
38,
117,
65457,
65427,
20,
270,
356,
285,
65344,
65502,
56,
363,
217,
65494,
13,
65364,
65312,
65484,
65490,
49,
65452,
65384,
41,
19,
65479,
35,
65461,
58,
25,
65330,
65450,
65319,
87,
169,
206,
65483,
86,
65460,
125,
339,
135,
65137,
65223,
65204,
76,
130,
65476,
65109,
65356,
65517,
65406,
203,
209,
138,
186,
154,
65448,
21,
138,
65484,
63,
65448,
65518,
65477,
65466,
30,
65469,
58,
65515,
65404,
65527,
47,
65460,
7,
65509,
65511,
65455,
40,
65514,
42,
64,
65493,
99,
137,
65529,
65461,
65484,
8,
35,
34,
91,
65448,
65501,
37,
64,
65478,
65456,
65403,
65458,
65532,
65444,
65409,
65483,
65266,
65486,
65457,
65418,
65200,
65447,
65336,
65431,
65417,
65437,
65437,
65531,
48,
65422,
65435,
65385,
36,
65464,
34,
65491,
65489,
65407,
9,
5,
83,
65489,
134,
65470,
65504,
43,
94,
70,
98,
65489,
65423,
65504,
92,
207,
24,
47,
51,
44,
73,
109,
139,
65437,
65388,
65450,
17,
256,
115,
28,
65516,
65438,
147,
154,
127,
83,
65478,
65405,
19,
65519,
61,
103,
65497,
84,
140,
75,
23,
65378,
65484,
59,
65402,
65463,
65506,
33,
215,
69,
65535,
23,
93,
18,
65524,
31,
65519,
65506,
61,
65459,
44,
65530,
65488,
65483,
65498,
65509,
65487,
18,
65494,
65438,
112,
66,
9,
6,
5,
193,
236,
8,
120,
2,
35,
27,
89,
65468,
63,
24,
35,
53,
215,
65434,
65512,
65292,
1,
250,
171,
44,
87,
65431,
65533,
303,
147,
90,
129,
116,
186,
203,
164,
21,
91,
160,
4,
33,
159,
89,
78,
43,
73,
65476,
4,
80,
15,
145,
91,
65451,
65355,
65455,
142,
147,
64,
65498,
130,
73,
258,
291,
137,
7,
65469,
65474,
65516,
65442,
65426,
120,
93,
68,
56,
120,
143,
253,
87,
126,
59,
122,
78,
161,
136,
19,
166,
105,
65528,
12,
116,
65518,
18,
0,
91,
43,
77,
33,
74,
102,
31,
11,
70,
15,
70,
139,
65533,
50,
65383,
65447,
65523,
36,
65500,
65349,
65436,
170,
65534,
79,
89,
65531,
61,
56,
65519,
112,
3,
65523,
65534,
65508,
65502,
36,
17,
240,
139,
97,
181,
278,
239,
177,
286,
155,
203,
118,
146,
159,
65514,
65425,
132,
65423,
19,
65422,
65449,
65461,
65433,
19,
87,
65419,
107,
65497,
34,
2,
74,
65527,
55,
64,
34,
19,
65429,
51,
0,
65474,
65476,
65495,
65476,
8,
65469,
65449,
17,
59,
65499,
65,
65316,
65515,
126,
149,
74,
65329,
106,
65469,
65343,
65176,
65380,
65429,
123,
107,
109,
65523,
88,
107,
65527,
186,
65518,
71,
98,
65526,
65493,
117,
48,
65428,
12,
65518,
65481,
65341,
65434,
65400,
65338,
65416,
65492,
86,
65531,
17,
20,
54,
65495,
65426,
145,
65462,
65454,
3,
65532,
106,
140,
65531,
69,
19,
65412,
42,
85,
174,
65473,
65282,
65280,
65388,
65483,
65511,
65416,
65373,
65299,
65374,
65368,
65456,
65419,
65308,
65505,
65356,
96,
51,
10,
65398,
65458,
65317,
65496,
65435,
19,
65465,
189,
194,
187,
65447,
23,
42,
119,
31,
65461,
65,
65381,
30,
65517,
288,
238,
73,
65509,
106,
65466,
45,
30,
146,
167,
241,
80,
65441,
65446,
65530,
65438,
65511,
28,
65499,
65464,
9,
26,
65524,
49,
65472,
65526,
58,
65507,
69,
44,
65468,
75,
65498,
65480,
65486,
65505,
85,
24,
65516,
65482,
86,
65504,
65481,
35,
65478,
1,
90,
44,
65337,
65503,
58,
65466,
65449,
65435,
65367,
65321,
65492,
53,
4,
65413,
65426,
65332,
65510,
65391,
65489,
65528,
65429,
65412,
65408,
65507,
65377,
44,
65464,
65375,
65391,
29,
65380,
116,
65484,
65469,
65383,
65419,
65418,
91,
65388,
78,
65474,
65439,
65218,
40,
65308,
65414,
65430,
65297,
65404,
47,
65525,
11,
2,
65503,
65513,
75,
186,
65491,
57,
65488,
65505,
101,
65469,
137,
104,
99,
65504,
128,
73,
150,
181,
81,
59,
65484,
95,
120,
44,
65394,
31,
65495,
167,
79,
175,
65355,
96,
65393,
65436,
75,
34,
65377,
29,
65465,
65270,
65282,
65274,
65424,
65406,
65411,
65370,
65049,
65353,
65417,
65433,
65517,
65389,
65143,
65372,
65483,
65333,
29,
65513,
97,
4,
65488,
65465,
164,
65395,
65519,
84,
65361,
65475,
266,
101,
65514,
65325,
65300,
164,
316,
164,
65321,
65166,
65414,
211,
95,
108,
65405,
65357,
65510,
86,
65535,
219,
65524,
234,
183,
35,
24,
14,
65500,
65517,
65527,
67,
65456,
72,
71,
65462,
65472,
79,
81,
5,
65477,
10,
77,
65534,
65487,
41,
65448,
61,
65486,
65530,
65478,
65461,
65495,
65519,
8,
65476,
65484,
65513,
65453,
65534,
23,
65531,
65240,
65390,
65421,
65410,
65317,
65299,
65330,
65496,
52,
65508,
74,
65482,
65308,
65403,
65444,
65416,
65413,
65361,
65528,
65485,
65474,
58,
65440,
65340,
65510,
65520,
65359,
65451,
65490,
65407,
65382,
65490,
65448,
65480,
45,
65372,
51,
43,
128,
40,
103,
12,
65435,
65513,
22,
68,
133,
81,
235,
65533,
68,
65452,
65517,
41,
65,
14,
65362,
65471,
153,
118,
24,
80,
65477,
65456,
4,
3,
52,
117,
115,
129,
105,
60,
65488,
38,
65430,
65408,
65477,
78,
88,
65462,
0,
65431,
65509,
34,
65485,
31,
85,
112,
65518,
65463,
65477,
65444,
78,
55,
65519,
125,
65440,
65479,
10,
65474,
66,
129,
65473,
107,
113,
91,
144,
66,
150,
217,
65465,
65490,
65498,
21,
65492,
65348,
65467,
65436,
65383,
15,
65432,
65328,
107,
65326,
65245,
65334,
65509,
65521,
65242,
65249,
65354,
65428,
65474,
65462,
65184,
65212,
65367,
65296,
65369,
65349,
65377,
65357,
3,
65351,
65423,
65437,
65442,
65385,
65296,
65322,
14,
42,
102,
235,
99,
131,
302,
140,
6,
65314,
65460,
223,
177,
238,
65407,
65182,
65399,
65450,
34,
27,
65441,
65424,
65343,
17,
65458,
131,
25,
20,
65396,
65294,
65498,
135,
62,
115,
74,
75,
13,
167,
121,
162,
65502,
22,
63,
57,
192,
121,
33,
61,
65508,
75,
267,
178,
66,
145,
65520,
93,
188,
179,
110,
65486,
65492,
65473,
173,
8,
65516,
65516,
65379,
31,
154,
121,
65526,
65424,
65375,
154,
130,
65425,
65527,
65440,
65503,
122,
186,
27,
65532,
65417,
65397,
66,
210,
94,
65528,
65325,
65430,
65506,
127,
48,
65432,
65222,
65280,
65399,
65440,
65469,
65453,
65288,
65468,
65381,
65463,
65461,
25,
65257,
65464,
65377,
65296,
65257,
65291,
65510,
47,
82,
43,
65479,
65512,
146,
98,
239,
27,
56,
65507,
65420,
115,
82,
102,
125,
65529,
65437,
123,
169,
32,
204,
13,
43,
65491,
65530,
65494,
65463,
94,
51,
0,
65532,
65463,
65490,
65529,
65452,
65483,
20,
65500,
65495,
65445,
56,
55,
65483,
22,
65483,
36,
17,
65521,
65534,
12,
39,
65508,
61,
94,
65475,
65521,
67,
65486,
55,
65440,
65522,
91,
99,
14,
1,
12,
33,
23,
83,
65509,
65474,
1,
41,
4,
19,
30,
21,
65431,
65423,
73,
65533,
12,
65478,
65521,
17,
65512,
77,
38,
81,
65487,
65460,
17,
79,
6,
65516,
130,
118,
65436,
65474,
65482,
65471,
65382,
35,
75,
65496,
65456,
97,
69,
65530,
134,
9,
65432,
7,
65535,
6,
26,
65512,
38,
32,
65518,
65507,
38,
26,
30,
23,
65464,
84,
29,
15,
65493,
65524,
17,
55,
60,
164,
54,
155,
65470,
39,
181,
184,
100,
120,
65211,
65316,
65319,
65497,
1,
65345,
65293,
65250,
65341,
65478,
65496,
65525,
14,
65283,
65317,
65209,
25,
65521,
136,
65427,
65289,
65396,
65434,
65410,
65300,
65495,
21,
125,
65306,
65185,
65408,
10,
65500,
65521,
120,
65288,
65398,
65440,
65346,
65522,
65352,
11,
65443,
65517,
34,
67,
5,
65495,
5,
167,
100,
122,
218,
23,
65473,
116,
137,
65482,
8,
65409,
65490,
81,
9,
65468,
65531,
65526,
45,
65488,
65471,
3,
65394,
15,
228,
160,
100,
65370,
65328,
189,
130,
168,
65386,
65366,
65464,
66,
81,
56,
65458,
65431,
65499,
65433,
65495,
65515,
65485,
42,
49,
65431,
65491,
65511,
65488,
65427,
20,
65447,
47,
65272,
65502,
65269,
65311,
65363,
112,
29,
107,
65496,
65388,
57,
130,
84,
65478,
65482,
65426,
65464,
65479,
65507,
65465,
65518,
65527,
11,
65439,
34,
42,
193,
40,
65460,
51,
65495,
25,
64,
40,
65412,
65495,
65457,
65333,
65523,
11,
65418,
156,
85,
65434,
65351,
65386,
32,
65528,
104,
65523,
20,
65443,
65466,
136,
65496,
14,
65505,
65511,
22,
65515,
2,
65523,
143,
47,
167,
112,
65481,
65424,
65507,
58,
280,
37,
21,
103,
65442,
65521,
100,
65507,
65486,
65470,
157,
136,
65387,
52,
65490,
65517,
228,
301,
65413,
65486,
65437,
65393,
56,
78,
65514,
26,
65514,
65352,
65416,
65275,
65400,
121,
149,
65431,
31,
65492,
160,
65534,
65517,
65437,
65365,
65362,
65303,
65310,
65460,
65505,
65510,
65342,
65472,
65284,
65495,
145,
193,
65533,
65498,
65469,
65356,
65471,
87,
65533,
65419,
65463,
65363,
65288,
65374,
65466,
65436,
31,
76,
122,
204,
10,
65463,
65380,
65415,
8,
65404,
65331,
65446,
65423,
65452,
65443,
65466,
2,
65376,
65388,
65467,
65513,
69,
119,
65455,
65323,
65417,
52,
65488,
65361,
65479,
65483,
65436,
65480,
65496,
43,
65527,
8,
65479,
65442,
65489,
72,
29,
65511,
65389,
65360,
65319,
65489,
65380,
65344,
65464,
33,
65523,
65428,
65370,
65287,
65531,
182,
187,
95,
65462,
65421,
132,
162,
115,
61,
65458,
65509,
65389,
8,
65477,
65383,
65412,
155,
301,
197,
29,
64,
114,
65531,
65468,
65510,
142,
68,
59,
65473,
65398,
65515,
65427,
65383,
65421,
65288,
65509,
94,
65504,
50,
65419,
65302,
65390,
78,
7,
93,
105,
65339,
65351,
65492,
65429,
5,
55,
65335,
65412,
13,
65496,
65368,
65487,
65373,
65441,
188,
168,
47,
65385,
65461,
65471,
77,
65359,
65496,
130,
65344,
41,
180,
65467,
65404,
49,
65491,
32,
65495,
65466,
65390,
65371,
65439,
65484,
65475,
65513,
65470,
65464,
92,
12,
65495,
65426,
65510,
35,
74,
65508,
41,
65515,
119,
122,
65483,
54,
67,
65480,
42,
127,
65427,
32,
41,
71,
65513,
38,
65499,
65522,
3,
45,
133,
97,
0,
61,
22,
20,
59,
25,
14,
85,
26,
65528,
65504,
15,
65461,
65439,
69,
65511,
65522,
84,
67,
65522,
65514,
65394,
65461,
14,
65461,
9,
65448,
65432,
65530,
38,
65497,
65415,
65382,
65357,
65470,
65442,
45,
65433,
65415,
65414,
65463,
65488,
65489,
65334,
65463,
65507,
30,
65396,
65449,
65535,
70,
206,
227,
207,
65449,
65428,
65518,
65462,
65469,
25,
196,
23,
57,
65521,
107,
65401,
65530,
123,
14,
65481,
38,
65376,
69,
65516,
65503,
137,
65444,
32,
65504,
77,
40,
65519,
52,
65527,
65525,
65455,
65515,
65482,
28,
38,
11,
47,
65487,
65429,
65531,
65495,
15,
22,
65453,
65529,
47,
62,
6,
65468,
2,
36,
62,
50,
65488,
85,
65442,
65513,
50,
85,
142,
65516,
79,
65510,
38,
65508,
252,
232,
65415,
65307,
65480,
65514,
83,
135,
107,
17,
65480,
138,
29,
157,
74,
152,
112,
65497,
69,
135,
4,
65486,
39,
27,
90,
155,
42,
65510,
65380,
65518,
264,
134,
65498,
188,
202,
306,
79,
11,
65523,
226,
103,
82,
23,
65516,
84,
129,
26,
65400,
65447,
65454,
25,
80,
251,
126,
65350,
65328,
65307,
65407,
65494,
159,
69,
65331,
65348,
65260,
65438,
65411,
65317,
65200,
65374,
65446,
27,
65325,
65364,
37,
47,
8,
73,
65446,
71,
180,
69,
194,
183,
175,
65521,
97,
237,
119,
65484,
77,
65528,
323,
393,
267,
85,
178,
65522,
65453,
80,
147,
140,
19,
47,
65525,
65426,
44,
65487,
41,
65513,
75,
159,
184,
100,
8,
70,
65527,
65362,
65452,
65445,
65516,
7,
10,
65363,
65407,
65488,
23,
102,
65425,
65435,
65529,
65472,
88,
65452,
123,
65495,
65507,
70,
132,
8,
65363,
65249,
84,
10,
65455,
65499,
13,
65503,
77,
63,
20,
65412,
65390,
65502,
53,
45,
195,
90,
65439,
65472,
65533,
3,
133,
119,
122,
40,
65517,
148,
315,
240,
62,
167,
163,
41,
246,
3,
65449,
35,
15,
65511,
65511,
65510,
65447,
65511,
65410,
47,
65501,
65320,
65218,
65254,
44,
65459,
65534,
65414,
65387,
66,
65504,
113,
65436,
72,
65472,
28,
34,
7,
91,
169,
65533,
7,
3,
65535,
29,
65484,
65489,
65481,
51,
72,
43,
62,
157,
146,
13,
65483,
31,
65475,
65501,
38,
34,
65512,
65483,
65526,
7,
65467,
42,
65527,
9,
65518,
29,
65489,
43,
65510,
80,
48,
65469,
65531,
65459,
0,
20,
76,
203,
38,
128,
66,
64,
28,
17,
65496,
65374,
23,
65488,
65505,
65501,
65498,
65438,
65534,
14,
65357,
22,
99,
65495,
40,
14,
18,
65450,
60,
82,
100,
129,
65525,
38,
108,
27,
65525,
18,
65461,
65468,
65447,
116,
55,
43,
98,
30,
154,
317,
131,
159,
110,
41,
68,
252,
164,
225,
216,
16,
65460,
87,
11,
193,
199,
96,
65527,
131,
165,
232,
341,
104,
310,
191,
69,
262,
65457,
104,
65461,
65532,
28,
65500,
65279,
65384,
65414,
65450,
65434,
65488,
65251,
65311,
65516,
145,
65479,
65496,
65305,
65311,
65430,
65512,
110,
28,
65436,
9,
65499,
13,
47,
136,
2,
65405,
65472,
65520,
111,
172,
197,
224,
35,
1,
55,
268,
36,
65518,
65410,
65425,
65479,
46,
65403,
65509,
65445,
65529,
65435,
65436,
65387,
65395,
31,
274,
98,
2,
18,
65479,
126,
65512,
134,
160,
65527,
65409,
65318,
65463,
65354,
65299,
65521,
65519,
70,
33,
65449,
26,
65528,
65497,
246,
226,
33,
65521,
65515,
65457,
65433,
65408,
65524,
34,
14,
89,
5,
3,
65499,
65509,
57,
65446,
50,
76,
74,
65430,
65472,
57,
65448,
65521,
65335,
65428,
65443,
65435,
65428,
139,
65326,
65202,
65514,
47,
65507,
65456,
59,
65400,
65525,
73,
65316,
86,
65337,
65360,
65412,
65477,
119,
5,
155,
65452,
142,
65505,
60,
154,
133,
44,
65493,
66,
48,
44,
65419,
65453,
