memory_initialization_radix=10;
memory_initialization_vector =
65461,
65431,
65408,
65465,
65403,
65357,
65505,
65429,
65371,
65421,
65393,
65420,
65483,
65500,
65,
56,
69,
65341,
65516,
117,
107,
237,
65437,
65368,
9,
65530,
121,
102,
65478,
72,
65395,
33,
30,
65,
58,
65485,
65503,
13,
131,
29,
234,
156,
65346,
65500,
148,
247,
95,
65485,
65464,
65368,
13,
66,
65507,
68,
3,
182,
90,
58,
144,
4,
65,
154,
10,
58,
65527,
168,
65520,
109,
161,
108,
3,
164,
65396,
65392,
65437,
65423,
65316,
65215,
65460,
65347,
4,
50,
65506,
65486,
65509,
65418,
65498,
65477,
65512,
65433,
65465,
0,
65470,
102,
65495,
65380,
52,
11,
65512,
65461,
13,
65528,
65526,
90,
65435,
65500,
11,
65442,
199,
108,
11,
15,
3,
56,
3,
183,
150,
145,
202,
103,
142,
10,
138,
153,
65512,
51,
74,
114,
131,
100,
47,
182,
65463,
65444,
65505,
27,
69,
101,
65489,
100,
65516,
65525,
65505,
170,
33,
65468,
3,
5,
13,
65461,
66,
6,
65485,
65462,
1,
65517,
9,
3,
65442,
65517,
58,
65486,
30,
65497,
44,
65463,
65532,
67,
65446,
39,
65441,
69,
42,
65453,
44,
80,
65486,
6,
64,
19,
65520,
65507,
65522,
17,
65505,
20,
13,
15,
253,
140,
89,
65456,
93,
226,
232,
210,
59,
65491,
99,
171,
182,
191,
94,
112,
138,
127,
41,
153,
10,
131,
65493,
60,
4,
65436,
65518,
55,
65299,
65286,
65391,
65398,
120,
6,
65375,
65319,
65447,
65419,
65434,
65352,
65494,
110,
70,
65411,
122,
44,
65411,
65513,
124,
214,
109,
65508,
18,
65532,
65424,
65525,
65512,
194,
0,
65418,
65509,
65483,
65477,
1,
108,
65360,
65376,
65443,
65344,
19,
65508,
106,
106,
65436,
65375,
65478,
65492,
65440,
8,
77,
65444,
78,
51,
65473,
32,
65511,
47,
65501,
60,
100,
65505,
65469,
53,
55,
98,
38,
32,
21,
65469,
5,
14,
138,
93,
99,
176,
225,
81,
108,
65506,
42,
54,
178,
65,
65411,
65442,
8,
65524,
80,
65523,
65366,
65527,
21,
76,
22,
26,
9,
76,
21,
65516,
13,
65520,
55,
65518,
124,
8,
42,
121,
112,
158,
109,
97,
65525,
34,
81,
65529,
134,
65517,
65426,
65441,
65469,
65529,
54,
65414,
65479,
19,
65530,
65528,
65505,
65437,
65338,
65513,
65508,
46,
65502,
122,
35,
65525,
65505,
51,
65491,
115,
65527,
35,
9,
65508,
65532,
33,
71,
58,
28,
65531,
71,
25,
65499,
33,
65436,
57,
65443,
65497,
65473,
40,
65532,
71,
65456,
65432,
65498,
39,
58,
3,
43,
65,
4,
65437,
65447,
65524,
33,
65434,
65517,
5,
65463,
65535,
65371,
65505,
65503,
65449,
51,
65455,
65507,
65421,
65372,
65450,
65435,
65535,
130,
65524,
39,
65525,
65405,
65359,
50,
65520,
65447,
47,
148,
162,
65500,
65463,
8,
65466,
65460,
65525,
43,
65482,
65329,
65471,
65427,
65482,
60,
65509,
65423,
34,
65473,
65521,
65444,
65434,
65350,
26,
65300,
65517,
65355,
65320,
65471,
65510,
65472,
65502,
83,
65427,
65411,
65469,
159,
73,
71,
47,
65480,
22,
65452,
7,
65488,
54,
65466,
65219,
65439,
65288,
65416,
65399,
65473,
65518,
65315,
65244,
65213,
65426,
65386,
65312,
65461,
65347,
65284,
65498,
112,
65411,
69,
20,
321,
177,
195,
65453,
137,
137,
201,
65370,
65521,
65495,
65445,
130,
119,
62,
223,
65493,
65496,
65507,
88,
27,
57,
38,
65511,
65396,
65438,
65523,
13,
19,
65373,
65438,
65398,
76,
65533,
65458,
65484,
20,
65520,
65445,
65493,
84,
65455,
65493,
65456,
69,
65430,
22,
65468,
132,
30,
65457,
17,
65377,
65453,
65517,
49,
65485,
69,
65518,
65513,
87,
65531,
65493,
143,
15,
16,
84,
65523,
73,
0,
65509,
71,
161,
5,
37,
65382,
65515,
65527,
91,
5,
65457,
9,
65497,
60,
23,
65473,
65467,
65438,
60,
25,
65531,
65525,
18,
65518,
53,
65490,
11,
71,
73,
65467,
64,
132,
23,
65533,
49,
57,
105,
88,
22,
85,
83,
40,
65486,
65514,
65503,
65529,
20,
65493,
85,
37,
110,
65498,
8,
28,
65360,
65383,
65364,
65205,
65419,
65397,
54,
49,
65322,
65252,
65443,
65335,
3,
65331,
65387,
65343,
65490,
65526,
65461,
206,
26,
62,
72,
212,
65476,
258,
183,
96,
65471,
65462,
65460,
65493,
74,
55,
60,
216,
65517,
42,
137,
40,
65489,
41,
65524,
159,
55,
104,
23,
65518,
65507,
23,
44,
65501,
9,
65382,
65472,
77,
201,
65368,
65481,
65387,
70,
65523,
86,
89,
41,
63,
65489,
65503,
69,
62,
48,
65398,
65358,
65322,
65416,
65494,
65523,
65508,
65460,
65471,
102,
69,
65507,
80,
65389,
34,
132,
65,
149,
65,
65523,
65479,
145,
139,
37,
7,
124,
65478,
61,
69,
65532,
8,
65506,
65487,
37,
65473,
65404,
65502,
58,
65456,
58,
65342,
65358,
78,
65389,
65522,
65364,
65526,
65409,
65352,
65404,
65404,
65532,
55,
65461,
9,
2,
65378,
65361,
65525,
65496,
24,
65472,
80,
193,
25,
65486,
115,
4,
65484,
65522,
167,
65456,
65410,
218,
3,
69,
65463,
65499,
165,
65507,
65522,
65514,
65379,
65409,
185,
32,
95,
65402,
65487,
65472,
176,
65531,
65471,
11,
65440,
4,
204,
65490,
65440,
65516,
65484,
65459,
44,
127,
65513,
65534,
65514,
65511,
65514,
71,
227,
169,
122,
29,
70,
153,
211,
93,
65397,
98,
91,
110,
29,
131,
65526,
65500,
107,
65498,
65330,
65172,
65088,
65414,
65493,
65473,
65344,
65388,
65290,
65417,
65499,
65429,
65346,
65270,
65431,
31,
65485,
272,
111,
136,
65520,
65476,
193,
57,
158,
74,
65495,
119,
145,
108,
65408,
65456,
65470,
47,
65499,
18,
65420,
65309,
65183,
65262,
2,
95,
65375,
59,
65527,
65368,
65434,
92,
65374,
65394,
28,
55,
65420,
227,
132,
373,
106,
152,
49,
65512,
65507,
141,
152,
187,
218,
220,
91,
37,
66,
65500,
19,
55,
10,
65324,
65385,
38,
65486,
65476,
65417,
65467,
95,
175,
99,
244,
65488,
65447,
6,
32,
118,
65503,
65449,
2,
65367,
65514,
65492,
137,
13,
65476,
10,
65445,
87,
87,
23,
65450,
65518,
45,
52,
65413,
65372,
65389,
65497,
65440,
67,
72,
65405,
65472,
65426,
65317,
65420,
46,
65526,
65344,
65428,
65416,
65416,
238,
67,
72,
96,
40,
65509,
65469,
97,
133,
181,
65501,
65442,
65504,
65457,
65507,
23,
65397,
65486,
74,
65501,
84,
65534,
49,
147,
16,
40,
45,
108,
87,
65439,
65500,
35,
47,
156,
10,
92,
149,
119,
49,
93,
151,
211,
65500,
189,
323,
247,
65535,
146,
65467,
136,
127,
30,
65518,
65507,
58,
101,
55,
57,
65499,
65524,
46,
65528,
65490,
98,
87,
65467,
6,
55,
53,
112,
71,
65499,
73,
65457,
73,
65460,
65437,
43,
65454,
65494,
65501,
50,
33,
18,
33,
65425,
21,
65444,
65526,
13,
10,
65521,
13,
65438,
34,
85,
65493,
27,
65467,
48,
65460,
65441,
52,
65480,
65473,
65439,
60,
48,
79,
65423,
65456,
65522,
65424,
89,
65449,
65368,
65506,
65431,
65440,
65360,
65458,
65399,
23,
30,
65412,
65509,
65455,
70,
65410,
65511,
65450,
65475,
65465,
65531,
88,
100,
0,
42,
65438,
64,
57,
99,
65516,
65503,
65490,
65472,
65490,
72,
62,
59,
10,
65472,
65526,
65470,
51,
65497,
65457,
10,
65498,
65525,
65466,
65476,
65457,
3,
65524,
65449,
65500,
24,
43,
65519,
65439,
52,
65449,
35,
65469,
77,
57,
65525,
65452,
65520,
174,
30,
37,
128,
65497,
45,
65477,
65,
48,
12,
149,
22,
75,
65481,
65520,
65520,
65456,
2,
62,
48,
65491,
65428,
65480,
56,
65491,
65496,
84,
107,
59,
65484,
65473,
65510,
152,
14,
29,
2,
49,
43,
69,
65500,
6,
65527,
65522,
38,
0,
65462,
41,
40,
65513,
65529,
69,
65500,
65535,
65475,
58,
65529,
39,
23,
65443,
65515,
65505,
65464,
65510,
65498,
67,
69,
68,
84,
65447,
65470,
65442,
65444,
114,
1,
311,
183,
38,
81,
146,
132,
129,
84,
65475,
65399,
170,
65497,
65519,
29,
115,
65455,
65532,
65343,
65449,
65429,
65529,
65474,
65520,
65456,
65535,
20,
65530,
66,
65521,
65523,
65484,
65382,
56,
28,
65496,
65533,
65487,
65495,
65434,
65524,
65405,
65474,
65486,
65476,
65511,
57,
65479,
65433,
65359,
65463,
65370,
65371,
65489,
77,
4,
65532,
47,
65493,
65452,
65524,
79,
114,
132,
65477,
10,
65481,
69,
105,
65450,
65504,
150,
74,
126,
66,
189,
35,
65449,
34,
319,
301,
79,
65268,
65457,
65507,
83,
291,
35,
7,
65,
257,
362,
321,
97,
65493,
65523,
55,
135,
118,
197,
206,
158,
159,
74,
76,
134,
311,
65334,
30,
65519,
65,
143,
79,
65363,
65369,
65499,
65525,
65436,
178,
65460,
65360,
65357,
103,
74,
65466,
65373,
65464,
65519,
109,
65435,
65466,
65326,
4,
65437,
65414,
65525,
39,
65533,
80,
29,
65402,
65475,
20,
65,
29,
153,
163,
280,
261,
29,
65411,
81,
153,
271,
169,
65525,
65494,
65383,
55,
61,
112,
65429,
65355,
65443,
65515,
65467,
65511,
65533,
65360,
65428,
65461,
155,
67,
65527,
65456,
65402,
65301,
73,
2,
6,
65445,
29,
90,
98,
25,
65530,
28,
65501,
0,
154,
65517,
65517,
81,
82,
97,
160,
65531,
18,
144,
69,
70,
63,
69,
65524,
90,
65433,
65460,
65516,
14,
65484,
65459,
65451,
65450,
65533,
0,
65372,
65448,
65184,
65218,
65217,
65197,
47,
65410,
65275,
65336,
65357,
65442,
55,
65519,
30,
71,
29,
65463,
65450,
23,
65470,
220,
65525,
65462,
65503,
146,
65508,
65452,
65417,
65510,
65461,
65431,
65526,
10,
65528,
65493,
65517,
76,
81,
67,
65444,
86,
65433,
28,
65460,
65491,
65510,
65455,
65448,
65466,
68,
10,
77,
65487,
14,
65452,
65466,
65507,
65504,
49,
65461,
65483,
20,
65520,
31,
66,
36,
1,
65465,
66,
65498,
65439,
65506,
65471,
65461,
65486,
65449,
65522,
65501,
65467,
65475,
65477,
65464,
65502,
65458,
65332,
65423,
65519,
65354,
65469,
65394,
6,
65440,
1,
65470,
65488,
65454,
13,
95,
33,
42,
54,
65431,
65459,
31,
78,
40,
65390,
65500,
197,
60,
65514,
65450,
65436,
38,
255,
200,
79,
65533,
23,
29,
42,
65505,
65523,
65461,
65473,
65447,
65506,
65432,
65359,
57,
65427,
15,
65485,
65513,
65512,
115,
65404,
83,
49,
17,
65409,
111,
65425,
137,
28,
83,
100,
65486,
79,
65520,
65535,
24,
65534,
91,
204,
114,
38,
65408,
65468,
62,
57,
65363,
65191,
65272,
65164,
65419,
65374,
65490,
65236,
65447,
65505,
65514,
65515,
65414,
65513,
65507,
65286,
65370,
65434,
77,
60,
71,
65477,
65514,
71,
154,
80,
60,
28,
65490,
65518,
2,
182,
215,
59,
45,
65348,
65506,
289,
249,
92,
65464,
65350,
129,
30,
30,
41,
124,
65432,
50,
38,
51,
121,
97,
41,
8,
35,
32,
65529,
65463,
75,
65450,
76,
71,
73,
88,
65493,
65481,
83,
65431,
65468,
65507,
65462,
24,
65472,
68,
65495,
19,
65495,
65529,
65465,
65469,
65524,
65481,
65436,
65,
65514,
65451,
57,
65454,
2,
27,
65484,
65409,
65508,
138,
45,
65531,
65427,
65512,
65452,
35,
101,
65453,
42,
12,
52,
65526,
19,
65432,
1,
201,
264,
86,
154,
65386,
65405,
65501,
65525,
65523,
46,
65422,
65499,
72,
136,
9,
24,
65251,
65253,
65274,
65388,
65450,
65434,
65455,
65499,
65479,
146,
65515,
62,
65364,
114,
35,
65470,
211,
77,
65500,
65462,
170,
154,
65472,
65532,
106,
65485,
62,
128,
65504,
156,
65419,
36,
160,
65361,
65330,
65477,
26,
44,
65487,
65464,
65372,
65428,
65519,
65485,
11,
65464,
35,
65511,
65424,
84,
78,
171,
125,
65502,
8,
152,
23,
95,
65420,
115,
65505,
107,
65535,
65529,
65484,
65374,
65507,
45,
65525,
20,
65410,
65499,
65439,
44,
65496,
57,
65480,
65476,
65469,
65521,
68,
69,
65484,
65476,
65491,
65496,
65436,
8,
65513,
64,
65523,
3,
65528,
65526,
65503,
6,
65473,
58,
65479,
65472,
15,
65494,
65509,
97,
39,
65481,
65509,
65375,
65505,
65464,
65494,
65348,
65401,
65369,
65491,
89,
65466,
24,
12,
65330,
65457,
74,
65,
65512,
1,
65496,
65516,
71,
19,
121,
65470,
65402,
21,
50,
139,
52,
127,
43,
65497,
63,
23,
4,
65504,
34,
65388,
65492,
65454,
65327,
65436,
65504,
163,
177,
65409,
12,
65428,
30,
55,
40,
138,
65496,
18,
135,
65491,
65458,
46,
26,
83,
140,
65519,
53,
65482,
65482,
65323,
65466,
65401,
65460,
19,
47,
65468,
46,
15,
58,
15,
56,
104,
65532,
65498,
64,
26,
34,
93,
67,
34,
65480,
43,
65529,
65488,
19,
18,
83,
16,
43,
37,
118,
68,
49,
65469,
65476,
142,
65506,
98,
65479,
55,
119,
17,
129,
19,
65388,
65507,
65462,
26,
65406,
65466,
65353,
65444,
65487,
65516,
26,
77,
65508,
65492,
65446,
152,
127,
65475,
40,
65491,
60,
0,
65524,
65530,
69,
6,
49,
65474,
26,
29,
65489,
83,
65421,
65439,
97,
151,
170,
28,
65511,
65493,
77,
65492,
61,
140,
28,
65486,
178,
56,
101,
1,
65475,
80,
182,
63,
65371,
26,
65507,
75,
65534,
105,
38,
65527,
4,
65533,
74,
65437,
89,
165,
55,
46,
81,
65351,
65438,
65391,
65440,
163,
115,
65386,
65314,
65403,
65285,
65528,
181,
65278,
65495,
65394,
65391,
55,
136,
65427,
49,
313,
248,
55,
65489,
65380,
143,
102,
18,
39,
37,
65423,
65527,
155,
140,
11,
110,
52,
7,
65511,
65463,
65476,
65484,
29,
65491,
65400,
65389,
65330,
65512,
65505,
65434,
65352,
19,
65354,
55,
65364,
65449,
65482,
65432,
65467,
65496,
65424,
88,
83,
96,
65533,
65477,
65345,
65493,
22,
132,
65453,
65483,
164,
32,
65462,
86,
128,
108,
6,
65478,
65511,
65451,
168,
203,
65484,
65435,
65397,
65408,
19,
1,
65529,
65448,
65483,
65431,
7,
12,
10,
65528,
17,
65396,
65487,
72,
65490,
65505,
65525,
65501,
65480,
65519,
65498,
93,
65458,
3,
65353,
65445,
163,
65518,
65432,
65526,
10,
82,
65495,
85,
120,
65528,
49,
65451,
65500,
65503,
85,
65443,
83,
65,
65534,
57,
65510,
65406,
65476,
65531,
48,
65460,
65461,
103,
49,
65484,
231,
231,
65517,
95,
51,
92,
98,
156,
17,
65474,
65524,
297,
122,
110,
105,
103,
154,
7,
108,
65471,
65447,
65206,
65450,
244,
4,
65379,
65420,
65290,
65361,
119,
65459,
65248,
65337,
31,
101,
95,
70,
45,
65370,
65509,
65342,
65483,
39,
65504,
65237,
65424,
65504,
24,
65525,
65434,
65324,
65251,
65511,
65338,
65439,
65208,
65262,
65324,
65338,
65433,
65467,
65437,
65481,
65436,
25,
65513,
65311,
40,
65503,
65220,
12,
65456,
99,
139,
118,
91,
336,
199,
65458,
65438,
65,
207,
237,
70,
65511,
65533,
40,
264,
185,
236,
65457,
65345,
55,
65,
89,
101,
65489,
65248,
65217,
65522,
171,
75,
17,
118,
120,
65450,
65375,
76,
65413,
36,
65344,
65369,
65230,
65442,
151,
147,
65228,
65294,
65382,
65517,
65515,
80,
21,
65364,
65403,
65403,
65480,
42,
10,
42,
65503,
65528,
65370,
169,
28,
86,
65406,
65493,
65396,
65422,
179,
75,
65507,
65509,
65531,
65509,
1,
81,
38,
0,
95,
97,
65524,
26,
65525,
44,
65468,
65521,
90,
12,
65469,
65502,
65497,
65432,
3,
2,
27,
65513,
30,
79,
65472,
65481,
93,
108,
65531,
54,
47,
54,
57,
85,
65448,
65473,
65415,
65387,
65360,
65279,
65420,
65349,
65386,
65339,
65344,
65187,
65535,
65428,
65448,
65472,
65416,
65307,
56,
32,
65383,
65384,
65452,
65251,
14,
40,
44,
65383,
65491,
65427,
90,
65482,
65513,
65293,
65395,
65291,
65453,
65474,
65506,
65456,
65369,
65373,
56,
156,
56,
65484,
65438,
65317,
65527,
274,
309,
191,
171,
65518,
78,
178,
133,
335,
141,
65479,
65532,
167,
75,
247,
9,
65513,
65531,
127,
65496,
65513,
65510,
20,
9,
116,
25,
80,
181,
133,
17,
153,
17,
76,
210,
46,
183,
112,
190,
177,
149,
159,
33,
65486,
138,
65459,
38,
29,
129,
14,
65481,
65418,
65526,
122,
99,
65479,
65442,
65415,
98,
33,
51,
142,
55,
5,
41,
65427,
194,
87,
4,
65468,
65508,
65438,
38,
62,
65535,
82,
50,
65374,
70,
39,
65483,
65385,
73,
65492,
125,
65508,
40,
87,
21,
65492,
12,
65498,
65487,
11,
18,
117,
65420,
65478,
65355,
65525,
65520,
15,
65494,
65425,
65296,
65374,
78,
83,
65473,
65468,
65308,
65499,
164,
135,
65488,
65364,
65275,
62,
65460,
89,
65515,
65335,
19,
65535,
65511,
65382,
65270,
65486,
65467,
65449,
65466,
65454,
150,
75,
156,
18,
29,
121,
91,
43,
65485,
3,
65499,
33,
27,
65511,
65502,
65454,
49,
65526,
65429,
65347,
65482,
65417,
65525,
65442,
23,
65446,
7,
21,
65499,
65469,
65497,
65401,
79,
65518,
58,
77,
21,
65422,
69,
65450,
65460,
65498,
65451,
26,
53,
51,
65418,
65369,
65464,
65527,
207,
56,
65484,
65390,
77,
121,
33,
133,
29,
65352,
114,
128,
147,
94,
76,
6,
65421,
18,
105,
111,
91,
65484,
65457,
127,
65472,
20,
65462,
2,
21,
103,
52,
65501,
40,
107,
65493,
65526,
65511,
67,
146,
28,
92,
51,
61,
44,
80,
91,
135,
86,
62,
65529,
51,
12,
89,
68,
140,
88,
43,
144,
24,
93,
264,
343,
241,
23,
65462,
65468,
192,
398,
157,
65514,
109,
201,
99,
65534,
28,
65499,
35,
93,
280,
303,
50,
160,
49,
123,
59,
65487,
65498,
202,
65471,
84,
65404,
99,
65515,
110,
78,
112,
91,
119,
165,
237,
48,
194,
37,
44,
243,
309,
45,
27,
65474,
34,
127,
311,
32,
65407,
17,
65376,
65518,
235,
65432,
65409,
65477,
65387,
65434,
75,
65506,
65419,
65527,
2,
14,
76,
65480,
65311,
82,
131,
147,
94,
65403,
65364,
65523,
219,
47,
65498,
65523,
65402,
65510,
152,
65506,
65534,
20,
10,
266,
430,
54,
65364,
65400,
21,
5,
162,
267,
262,
175,
154,
152,
65503,
199,
250,
45,
65483,
65524,
65467,
83,
65468,
77,
65515,
2,
32,
65473,
49,
65447,
65496,
48,
65468,
65470,
65465,
86,
65494,
65440,
65504,
65486,
60,
65471,
65480,
65447,
65458,
65472,
65465,
65526,
9,
65468,
37,
65469,
11,
65458,
150,
70,
2,
65529,
62,
65520,
100,
157,
252,
65481,
65452,
76,
203,
121,
137,
103,
37,
95,
139,
75,
161,
63,
136,
21,
65514,
65479,
65519,
32,
43,
64,
54,
65508,
65387,
34,
65531,
65470,
65532,
65430,
65421,
41,
65535,
14,
68,
186,
217,
154,
65496,
65521,
65522,
97,
75,
19,
65479,
151,
37,
27,
95,
88,
55,
65498,
217,
68,
32,
65532,
65490,
120,
65522,
116,
143,
112,
127,
13,
103,
65444,
4,
65365,
62,
197,
256,
124,
65309,
33,
166,
123,
5,
65321,
65530,
56,
65522,
173,
65361,
65225,
65127,
65369,
98,
44,
65346,
65408,
65313,
65360,
65460,
44,
65279,
65267,
65413,
65446,
7,
65375,
65416,
65471,
65480,
126,
65480,
65457,
65521,
65481,
28,
65508,
65491,
135,
65533,
308,
235,
41,
65497,
65522,
236,
283,
209,
172,
65499,
39,
193,
11,
126,
28,
76,
24,
167,
34,
57,
187,
17,
65507,
44,
65527,
19,
80,
65508,
66,
67,
65526,
55,
67,
61,
55,
70,
67,
65477,
65473,
65437,
65506,
65519,
65490,
40,
65520,
65480,
33,
54,
65454,
65522,
1,
65505,
65482,
65517,
65486,
46,
23,
64,
56,
57,
65487,
65513,
65507,
73,
65459,
65478,
65442,
65480,
65471,
65479,
8,
65404,
25,
131,
6,
34,
65511,
65503,
65381,
33,
65494,
42,
65483,
15,
110,
120,
52,
135,
65461,
75,
116,
103,
30,
65454,
283,
138,
87,
86,
65530,
102,
79,
65466,
65516,
65514,
16,
150,
15,
65461,
65496,
65426,
65473,
118,
31,
40,
65533,
65424,
26,
39,
65490,
65471,
65485,
51,
92,
65438,
153,
65366,
65471,
23,
100,
79,
65510,
65533,
45,
7,
36,
49,
65,
31,
5,
65495,
48,
65477,
65432,
65429,
65409,
65458,
65430,
19,
20,
65433,
65475,
45,
65489,
32,
101,
65475,
65469,
65489,
65503,
65481,
65474,
49,
65432,
65533,
18,
65495,
409,
117,
139,
204,
76,
4,
149,
214,
134,
88,
110,
204,
206,
65533,
59,
9,
32,
15,
128,
65426,
65424,
65221,
78,
173,
65495,
65487,
65483,
65407,
65373,
5,
46,
65320,
65419,
65474,
10,
3,
65412,
65424,
65195,
25,
65406,
65329,
118,
65420,
65273,
65501,
65470,
65472,
70,
110,
188,
14,
104,
65490,
49,
176,
301,
199,
22,
65442,
65422,
155,
65517,
65383,
122,
132,
94,
3,
17,
65514,
65408,
166,
108,
65524,
65452,
100,
112,
113,
10,
65396,
65338,
65466,
55,
85,
43,
65386,
65373,
65427,
65491,
65534,
65515,
65442,
65431,
65404,
65450,
65497,
65475,
65479,
20,
65458,
65523,
65472,
51,
62,
53,
65448,
34,
89,
112,
153,
65506,
212,
234,
159,
35,
25,
65437,
72,
130,
261,
96,
65507,
65347,
0,
87,
55,
65501,
65456,
65471,
65327,
65459,
83,
65406,
65461,
65503,
65347,
65374,
131,
6,
65382,
65500,
65499,
65508,
53,
142,
84,
120,
44,
85,
137,
65431,
65303,
65414,
102,
30,
56,
65339,
65322,
65215,
12,
65377,
17,
65405,
65445,
138,
172,
3,
65533,
65364,
217,
18,
42,
65526,
65467,
70,
41,
189,
193,
32,
143,
65491,
84,
65501,
65473,
65452,
62,
65525,
68,
16,
65524,
50,
65439,
27,
65460,
27,
69,
37,
65456,
62,
22,
65516,
90,
33,
65479,
65449,
78,
84,
65471,
65433,
20,
65485,
1,
77,
83,
3,
65525,
60,
52,
48,
80,
65515,
65450,
37,
16,
65525,
65502,
107,
82,
65481,
65525,
5,
3,
65505,
65497,
42,
65467,
65527,
65370,
52,
1,
65424,
65365,
65492,
65450,
65496,
24,
65524,
40,
65516,
65471,
27,
3,
65393,
65532,
65401,
6,
65360,
65482,
65486,
65438,
65516,
65416,
65382,
65420,
65473,
65533,
65529,
65510,
65373,
65470,
9,
68,
0,
52,
0,
65469,
65502,
65490,
15,
65508,
8,
65405,
65524,
24,
6,
2,
4,
65486,
135,
84,
47,
25,
65342,
84,
177,
186,
53,
65374,
65521,
146,
205,
48,
47,
16,
170,
45,
112,
65287,
65317,
65042,
65385,
65388,
65467,
65382,
65383,
65386,
65361,
65435,
81,
54,
65316,
65439,
65465,
65454,
65457,
65398,
65523,
48,
65512,
65461,
65407,
65499,
172,
8,
65515,
65315,
65529,
24,
182,
65488,
65449,
65362,
65531,
103,
65489,
9,
65486,
65429,
65528,
86,
65512,
91,
65522,
5,
65482,
3,
65507,
35,
65484,
65465,
13,
65506,
9,
0,
111,
87,
20,
31,
65516,
65475,
85,
65520,
158,
42,
241,
86,
67,
125,
69,
105,
192,
148,
127,
58,
86,
90,
81,
23,
65473,
37,
74,
65482,
65525,
121,
65515,
85,
65355,
23,
191,
106,
89,
59,
65442,
30,
207,
315,
66,
69,
143,
3,
376,
174,
22,
65479,
47,
92,
218,
89,
64,
96,
62,
80,
65470,
65516,
65448,
56,
65487,
65483,
65523,
65521,
65486,
73,
19,
26,
7,
16,
42,
90,
65520,
65495,
281,
212,
195,
129,
65491,
65445,
90,
150,
39,
65460,
42,
38,
41,
34,
65484,
65511,
65469,
94,
65504,
59,
81,
52,
102,
103,
39,
76,
131,
152,
68,
20,
99,
78,
65511,
65531,
44,
88,
62,
65489,
65430,
61,
76,
135,
2,
65511,
65397,
117,
66,
65509,
65413,
65412,
65369,
65475,
65477,
65387,
65388,
65425,
65367,
65463,
65389,
65402,
65507,
65388,
65500,
65410,
65339,
65534,
3,
65479,
50,
65332,
65526,
65445,
65466,
65460,
98,
15,
65407,
46,
65463,
65412,
41,
65439,
65514,
65439,
65399,
49,
65454,
145,
41,
65419,
12,
65472,
65492,
65353,
41,
65509,
65420,
65501,
65428,
65499,
350,
229,
198,
36,
129,
3,
150,
206,
265,
196,
255,
65509,
141,
116,
124,
94,
3,
60,
144,
33,
4,
65426,
60,
147,
4,
65484,
65403,
69,
221,
157,
73,
35,
5,
65523,
105,
84,
47,
65499,
65476,
65518,
108,
90,
65335,
65332,
25,
128,
65503,
64,
65430,
65518,
65473,
128,
68,
180,
65409,
65365,
19,
65535,
36,
65395,
65484,
65488,
52,
61,
49,
65,
65459,
65521,
69,
65424,
65388,
65446,
65368,
65414,
61,
1,
11,
65360,
59,
42,
65326,
65193,
65411,
65485,
65498,
43,
65363,
65339,
65519,
52,
65507,
65455,
65448,
65315,
65507,
65479,
65455,
65365,
65392,
65524,
157,
19,
65323,
28,
65477,
65312,
65344,
65187,
74,
28,
6,
108,
65467,
252,
101,
295,
65508,
61,
280,
209,
74,
143,
22,
65534,
43,
163,
189,
9,
45,
65414,
50,
174,
82,
141,
68,
65468,
65535,
65405,
24,
104,
65454,
65501,
37,
65516,
65503,
65418,
65463,
65480,
65515,
65402,
65494,
65469,
65421,
65431,
65355,
65423,
65458,
65410,
65449,
65405,
65441,
65399,
18,
65475,
65467,
132,
62,
65465,
65427,
65491,
32,
90,
137,
65407,
65434,
65441,
22,
65513,
65418,
65392,
162,
131,
190,
72,
40,
19,
117,
190,
151,
26,
65482,
164,
111,
116,
153,
65522,
49,
63,
123,
65511,
65444,
65442,
62,
187,
97,
65511,
65433,
65516,
65477,
1,
9,
65452,
65515,
65529,
42,
42,
128,
208,
136,
65535,
65535,
218,
146,
181,
91,
120,
112,
252,
90,
185,
31,
65,
72,
104,
128,
30,
67,
65513,
65415,
65510,
131,
59,
129,
102,
10,
65524,
73,
65403,
94,
42,
65470,
65487,
65487,
65459,
40,
65448,
15,
65472,
37,
37,
65470,
65532,
54,
13,
65522,
65476,
65489,
30,
65471,
79,
65511,
65460,
65533,
65510,
65501,
65484,
9,
65524,
0,
73,
65476,
47,
47,
65515,
47,
65450,
40,
34,
65292,
65508,
52,
65383,
65466,
65360,
65511,
65480,
65524,
41,
64,
65479,
65487,
25,
65465,
7,
51,
65,
28,
37,
65523,
65465,
65,
56,
98,
61,
70,
25,
65388,
65431,
61,
42,
102,
65446,
65468,
65498,
173,
206,
258,
110,
92,
78,
113,
292,
0,
136,
59,
65470,
265,
112,
65462,
65506,
65409,
65481,
65530,
65424,
65358,
65126,
65444,
65453,
74,
65233,
65465,
65455,
193,
55,
51,
65516,
65439,
65393,
116,
65415,
65433,
65314,
65344,
92,
226,
121,
65266,
65121,
65449,
30,
65367,
33,
65312,
65529,
65480,
15,
28,
123,
65520,
65531,
157,
180,
65489,
65535,
65372,
65499,
65527,
66,
65438,
8,
65419,
12,
163,
144,
65426,
2,
156,
21,
29,
65479,
65369,
65465,
65505,
97,
65457,
65469,
65532,
65502,
49,
65483,
65518,
65466,
65523,
65502,
24,
65456,
65445,
10,
65446,
65440,
20,
65431,
58,
65456,
65477,
65534,
45,
65523,
65418,
65495,
94,
64,
65424,
65369,
18,
65390,
65391,
65516,
65530,
65522,
65489,
10,
65374,
65429,
23,
189,
179,
35,
95,
65367,
65469,
176,
49,
252,
44,
65380,
65526,
140,
118,
145,
248,
65522,
65462,
174,
65497,
65474,
86,
65519,
195,
145,
70,
65516,
65468,
65483,
65457,
65489,
201,
98,
19,
45,
65502,
65429,
65477,
65474,
65487,
65472,
65432,
65377,
65351,
65421,
65435,
65486,
182,
65419,
65491,
136,
65433,
65432,
36,
57,
65521,
85,
59,
152,
65490,
65476,
65456,
77,
65518,
65521,
34,
65466,
23,
59,
26,
65506,
17,
20,
65453,
65467,
59,
6,
65514,
88,
42,
40,
46,
65508,
26,
65498,
65508,
65515,
65524,
47,
65449,
65510,
65451,
55,
58,
3,
65463,
15,
149,
65511,
58,
65493,
65430,
65524,
129,
64,
52,
92,
65456,
65465,
53,
0,
65445,
65327,
8,
65497,
122,
46,
61,
65530,
45,
120,
18,
40,
155,
56,
142,
55,
65516,
123,
0,
65497,
34,
65480,
65436,
65349,
65460,
65387,
65464,
54,
65348,
65417,
65327,
65301,
65433,
28,
49,
11,
65507,
65455,
65515,
94,
150,
67,
65398,
65430,
65454,
56,
65,
118,
100,
15,
57,
65450,
65484,
65435,
65510,
65522,
220,
103,
45,
65375,
65516,
27,
5,
65408,
65481,
65287,
65327,
65381,
65450,
65298,
65402,
65305,
65295,
65395,
65430,
65331,
65249,
65406,
65400,
65441,
65516,
65370,
64,
122,
65523,
65516,
51,
65524,
84,
65313,
65446,
47,
65456,
69,
65502,
3,
45,
87,
65490,
71,
79,
118,
65518,
103,
90,
274,
173,
47,
169,
278,
5,
65425,
65381,
65531,
65365,
65449,
26,
65397,
65523,
65471,
65500,
65361,
65406,
156,
65459,
65361,
65464,
65516,
110,
116,
65464,
65450,
65409,
65492,
104,
30,
58,
65496,
209,
153,
65518,
2,
65473,
65455,
65528,
65478,
34,
2,
65487,
65436,
65505,
65474,
174,
65501,
10,
65490,
65454,
65509,
11,
65532,
9,
65496,
48,
20,
65356,
65468,
65425,
18,
65422,
65476,
65440,
65493,
65493,
20,
65358,
65336,
65488,
72,
118,
65520,
65481,
65269,
41,
156,
65520,
148,
29,
65503,
41,
46,
45,
22,
13,
27,
55,
2,
96,
65501,
65516,
65415,
