memory_initialization_radix=10;
memory_initialization_vector =
65401,
65469,
18,
0,
65401,
65476,
65449,
16,
65487,
65,
37,
65455,
65383,
117,
65524,
100,
65453,
65480,
65409,
211,
65517,
38,
101,
65511,
65410,
65525,
65522,
65518,
65511,
65422,
65325,
65515,
65438,
65451,
65481,
65461,
69,
65509,
65501,
64,
54,
292,
55,
65434,
65527,
51,
126,
50,
65512,
65505,
65454,
65442,
65518,
16,
46,
58,
65494,
65528,
101,
38,
298,
347,
236,
16,
95,
106,
297,
284,
91,
211,
60,
176,
62,
65480,
65439,
65428,
65480,
65493,
4,
9,
13,
65527,
65510,
26,
153,
202,
211,
118,
176,
78,
147,
146,
78,
91,
145,
132,
65438,
138,
161,
114,
99,
67,
65513,
65527,
65524,
65454,
65503,
65414,
131,
122,
167,
297,
99,
195,
31,
94,
65526,
41,
104,
141,
83,
65367,
65442,
65522,
52,
36,
34,
65345,
65342,
65311,
65375,
90,
161,
35,
65392,
65418,
65295,
27,
202,
8,
200,
274,
44,
137,
22,
22,
65451,
45,
76,
32,
23,
16,
46,
65452,
65445,
61,
81,
34,
65447,
1,
88,
65482,
65533,
3,
86,
69,
34,
65461,
65439,
65451,
65511,
28,
65,
65449,
56,
5,
89,
65450,
65471,
21,
32,
65531,
94,
200,
155,
97,
163,
75,
66,
141,
112,
178,
124,
65519,
54,
6,
106,
177,
125,
118,
65455,
65520,
161,
141,
67,
240,
65483,
40,
79,
195,
106,
153,
68,
60,
140,
242,
65493,
65315,
65365,
65505,
65480,
85,
103,
39,
65455,
128,
124,
39,
65371,
131,
98,
65485,
13,
125,
102,
279,
62,
104,
307,
20,
95,
328,
224,
244,
261,
14,
51,
65502,
65494,
76,
83,
65398,
65468,
67,
125,
63,
65506,
34,
29,
99,
217,
57,
85,
65534,
58,
65464,
75,
92,
65495,
65527,
65507,
65443,
65490,
1,
65503,
65493,
45,
65480,
3,
22,
42,
72,
110,
96,
124,
105,
68,
71,
100,
65528,
65422,
67,
65528,
53,
39,
65476,
65462,
46,
98,
65427,
84,
65473,
65455,
6,
65520,
65506,
65527,
65469,
53,
65504,
65474,
9,
65507,
3,
20,
65490,
21,
67,
65525,
145,
65521,
2,
17,
48,
143,
113,
43,
119,
8,
155,
65535,
59,
40,
32,
40,
23,
65515,
78,
2,
49,
65526,
65492,
65443,
146,
65481,
65449,
65504,
65408,
65497,
40,
46,
65490,
65465,
30,
65344,
5,
65407,
65315,
65508,
65491,
50,
65524,
24,
65503,
18,
81,
65465,
65470,
45,
49,
49,
65455,
45,
65505,
52,
71,
86,
51,
65515,
65448,
2,
65520,
65471,
65520,
65506,
65457,
65446,
93,
65521,
16,
71,
65471,
15,
57,
65515,
49,
65507,
57,
267,
192,
82,
108,
27,
13,
106,
93,
66,
77,
24,
32,
65492,
19,
72,
65490,
18,
28,
23,
65442,
13,
65512,
48,
65502,
65483,
15,
65505,
9,
146,
65492,
103,
102,
197,
65529,
65492,
65507,
34,
50,
65421,
65508,
65517,
65485,
65470,
65497,
65367,
65504,
56,
90,
65520,
65531,
65486,
65528,
65521,
10,
65467,
65448,
65498,
65461,
65506,
65480,
65531,
65444,
69,
65490,
65382,
65339,
65518,
65512,
65446,
65512,
65176,
65016,
65049,
65290,
65246,
65304,
65307,
65363,
65413,
65469,
65396,
65487,
65302,
65532,
100,
93,
202,
110,
65364,
48,
78,
108,
229,
90,
65471,
71,
110,
66,
106,
86,
65390,
65403,
58,
82,
134,
209,
65448,
65529,
65436,
65413,
65441,
65380,
65467,
65462,
65366,
65392,
65529,
11,
65444,
65501,
66,
82,
65442,
65413,
65410,
65501,
15,
60,
65529,
35,
65396,
65463,
70,
126,
52,
65515,
65497,
65384,
65439,
65493,
65434,
65462,
65388,
65355,
31,
65,
63,
65521,
65384,
65488,
65515,
58,
27,
38,
65337,
23,
56,
11,
44,
125,
65425,
65503,
49,
25,
136,
139,
65367,
55,
65481,
9,
95,
121,
11,
131,
65429,
65443,
65445,
17,
128,
150,
129,
65533,
127,
54,
207,
49,
140,
136,
47,
39,
144,
126,
90,
11,
65506,
103,
137,
121,
65502,
53,
96,
178,
116,
73,
23,
65495,
52,
3,
119,
178,
49,
16,
105,
58,
65393,
65171,
65177,
65250,
65324,
65353,
65189,
65298,
65347,
65398,
65347,
65503,
65380,
18,
14,
105,
42,
65512,
65277,
7,
155,
62,
140,
136,
4,
27,
88,
223,
235,
29,
65436,
65325,
48,
49,
0,
132,
65458,
2,
156,
65531,
65521,
65484,
65470,
65469,
24,
46,
0,
65484,
12,
172,
26,
97,
65525,
65531,
65440,
62,
65482,
65455,
5,
65507,
65501,
38,
51,
168,
104,
65425,
65355,
3,
65371,
65469,
65395,
65388,
65271,
65387,
21,
65502,
65488,
65460,
65503,
65475,
65501,
65359,
33,
87,
65448,
19,
55,
51,
101,
9,
65511,
231,
65528,
65457,
185,
71,
65500,
89,
65528,
45,
214,
57,
65388,
65499,
65382,
65345,
65523,
65480,
150,
57,
163,
223,
108,
183,
62,
148,
100,
193,
131,
67,
29,
65504,
65505,
65515,
121,
65481,
3,
65526,
29,
65431,
91,
107,
64,
65507,
65428,
94,
65400,
65485,
124,
65500,
180,
203,
140,
64,
26,
56,
65411,
65430,
7,
81,
10,
65511,
65433,
39,
4,
115,
65524,
65382,
65437,
65506,
65475,
149,
65499,
65526,
131,
65493,
65439,
65505,
65526,
65449,
65340,
65380,
53,
165,
44,
19,
65411,
65502,
65506,
65454,
326,
106,
89,
94,
65502,
13,
167,
140,
40,
65519,
65520,
73,
221,
16,
65379,
65459,
65495,
65529,
78,
65232,
65519,
65421,
65205,
65431,
213,
65380,
65323,
65130,
65236,
65408,
236,
65497,
65450,
65471,
65490,
14,
234,
238,
190,
108,
65516,
110,
65519,
13,
153,
48,
65488,
60,
54,
65401,
4,
65352,
65473,
129,
65512,
65339,
65438,
65441,
65203,
65452,
65465,
65229,
65315,
65357,
65379,
17,
79,
65531,
117,
77,
243,
34,
180,
92,
172,
167,
59,
257,
76,
113,
65515,
65489,
65473,
135,
161,
104,
35,
65528,
6,
40,
65479,
65482,
65400,
65490,
15,
12,
82,
88,
101,
98,
65510,
26,
146,
268,
65436,
65446,
65518,
65500,
167,
24,
65369,
65451,
65496,
65376,
65520,
157,
65506,
65423,
158,
89,
142,
12,
88,
65495,
65456,
49,
45,
65472,
65490,
65428,
65458,
103,
58,
65518,
65247,
65343,
65317,
20,
206,
65479,
65457,
65397,
65433,
42,
186,
121,
132,
131,
126,
59,
65485,
51,
92,
81,
64,
59,
3,
65465,
65483,
65485,
65475,
164,
92,
65458,
65399,
65494,
65519,
101,
41,
47,
65533,
64,
65450,
65,
65485,
65530,
141,
209,
65523,
98,
65495,
38,
193,
194,
257,
211,
65429,
3,
64,
64,
31,
75,
65401,
65523,
65482,
1,
51,
126,
65462,
29,
28,
65428,
65532,
166,
69,
13,
115,
39,
156,
108,
5,
57,
65531,
126,
63,
100,
38,
65510,
63,
65512,
65465,
32,
5,
58,
71,
79,
65516,
65507,
65450,
53,
65442,
49,
72,
65530,
86,
64,
65485,
65515,
65500,
8,
65442,
62,
65477,
85,
36,
65507,
90,
75,
82,
1,
15,
0,
79,
35,
118,
163,
165,
61,
56,
95,
96,
47,
65495,
59,
78,
65513,
25,
28,
65515,
32,
65484,
86,
43,
40,
65499,
30,
65535,
27,
65460,
65479,
25,
65449,
86,
65513,
109,
80,
75,
65510,
65455,
65506,
65459,
61,
19,
59,
62,
82,
65483,
65506,
65441,
65498,
14,
65458,
13,
27,
91,
65469,
39,
65464,
65535,
47,
33,
65493,
65485,
65535,
65494,
65506,
31,
65500,
5,
65509,
3,
90,
65443,
65494,
65529,
164,
254,
205,
61,
124,
65448,
37,
51,
139,
65487,
50,
65528,
13,
65466,
63,
65409,
122,
65500,
65488,
65453,
65469,
65331,
137,
134,
65406,
65509,
65479,
2,
65516,
69,
65382,
32,
34,
65526,
123,
65477,
65494,
2,
23,
65482,
65522,
88,
71,
78,
65459,
65454,
87,
65455,
49,
65443,
7,
29,
79,
65485,
65452,
65463,
65499,
53,
65465,
65462,
0,
65466,
65487,
65508,
65505,
91,
18,
30,
73,
65503,
65526,
84,
102,
122,
178,
65529,
149,
264,
171,
150,
164,
82,
65515,
171,
141,
65426,
33,
3,
65429,
48,
65514,
65492,
65452,
65467,
5,
65535,
65443,
6,
65502,
65476,
30,
89,
57,
65360,
65431,
65470,
54,
65398,
65417,
65475,
65409,
65433,
65421,
65477,
65438,
65418,
33,
65489,
65452,
65484,
65473,
8,
57,
46,
65521,
65392,
65480,
39,
118,
37,
65524,
65495,
65526,
5,
56,
74,
65502,
65469,
65457,
65480,
20,
65361,
65364,
44,
65514,
155,
477,
278,
389,
65342,
55,
81,
131,
42,
65509,
65424,
65447,
65464,
65448,
65443,
65496,
65510,
122,
65467,
56,
116,
97,
256,
208,
176,
173,
65526,
115,
125,
206,
234,
65533,
190,
139,
65302,
65391,
65479,
63,
86,
157,
65447,
65317,
65465,
68,
39,
65510,
65379,
65530,
65506,
52,
65524,
65359,
65492,
34,
4,
10,
65505,
65434,
65471,
323,
147,
181,
10,
45,
203,
105,
23,
5,
65523,
62,
65476,
128,
65405,
51,
65494,
145,
43,
134,
65524,
45,
32,
65523,
95,
65531,
65485,
65403,
19,
65411,
65491,
65500,
65489,
5,
65449,
65490,
149,
54,
10,
65512,
6,
44,
69,
118,
65469,
65395,
149,
45,
52,
151,
36,
134,
230,
57,
124,
101,
65494,
127,
107,
65,
65521,
40,
89,
98,
79,
138,
101,
93,
65474,
22,
86,
178,
134,
172,
9,
65522,
145,
34,
225,
44,
163,
14,
82,
214,
65447,
65294,
65220,
65388,
65409,
65454,
7,
65357,
65437,
65517,
25,
65453,
18,
134,
173,
190,
59,
65503,
65512,
92,
258,
102,
161,
8,
11,
19,
65519,
65,
93,
65483,
65377,
65338,
65522,
65525,
128,
65520,
65480,
65517,
65449,
83,
65450,
10,
23,
21,
65482,
58,
65484,
77,
65524,
14,
65442,
65509,
27,
65515,
65470,
65447,
20,
65450,
65506,
65463,
65469,
45,
36,
70,
1,
65459,
20,
14,
65517,
15,
42,
19,
51,
40,
76,
85,
75,
113,
65442,
41,
59,
140,
65530,
23,
65517,
65462,
65460,
65474,
65532,
65445,
42,
65470,
65493,
65435,
74,
29,
52,
13,
65371,
65464,
65489,
65523,
7,
65506,
108,
169,
153,
65458,
191,
65490,
65501,
65257,
65461,
65351,
173,
34,
65439,
65476,
108,
65513,
166,
16,
65451,
64,
42,
123,
83,
97,
10,
65475,
30,
65407,
65461,
65425,
25,
65417,
65535,
65347,
65417,
65452,
65449,
65309,
65331,
35,
130,
105,
72,
65497,
65382,
65463,
259,
95,
65530,
65450,
38,
65487,
147,
65434,
65417,
65413,
65409,
141,
56,
65308,
65382,
65379,
65398,
144,
65427,
65259,
65496,
65390,
65511,
165,
53,
65464,
65472,
65460,
65494,
65446,
65456,
118,
241,
101,
11,
18,
65310,
65438,
65438,
5,
65522,
65452,
65490,
133,
65532,
70,
65415,
65485,
65454,
204,
65505,
65503,
114,
65446,
65456,
92,
84,
109,
105,
5,
65261,
30,
65476,
65520,
65530,
74,
35,
71,
65494,
80,
24,
65529,
0,
65467,
68,
65523,
65469,
91,
65466,
65459,
26,
65501,
65506,
65519,
38,
65439,
9,
65461,
65491,
65453,
65437,
65482,
78,
57,
65509,
77,
57,
65,
0,
66,
65502,
17,
31,
65407,
9,
65450,
3,
65530,
65418,
65482,
65531,
65456,
42,
118,
65315,
65473,
72,
25,
65476,
98,
65365,
72,
19,
60,
227,
211,
52,
124,
70,
111,
245,
83,
65378,
65420,
65452,
31,
90,
68,
65254,
65372,
65441,
65436,
65421,
65491,
55,
65517,
50,
65483,
53,
36,
65512,
66,
67,
21,
144,
147,
65522,
108,
65520,
65423,
139,
74,
65483,
6,
65526,
65511,
157,
108,
65349,
65352,
65338,
65350,
65453,
30,
65427,
65450,
65504,
65448,
55,
65471,
65453,
60,
65481,
65501,
8,
65473,
40,
65502,
73,
60,
69,
65521,
65512,
65452,
33,
65509,
14,
65429,
48,
65487,
13,
50,
51,
65462,
65530,
65499,
101,
93,
65509,
31,
55,
72,
14,
65473,
21,
38,
65510,
38,
40,
57,
15,
41,
65532,
65511,
88,
65496,
70,
65517,
100,
146,
65513,
101,
65478,
65455,
65499,
121,
74,
65522,
75,
0,
65532,
28,
53,
65492,
84,
65386,
16,
28,
108,
95,
65444,
65378,
65466,
65465,
20,
65400,
65450,
65471,
65315,
71,
65505,
65464,
65370,
65323,
65335,
211,
21,
65516,
65464,
65279,
65390,
15,
65511,
126,
65490,
65314,
65296,
65423,
65507,
65454,
65487,
65474,
19,
65443,
65326,
65409,
65390,
65429,
65511,
96,
65493,
65495,
65517,
74,
65380,
65482,
130,
109,
8,
92,
102,
65377,
65529,
40,
155,
4,
16,
65425,
65353,
65449,
65420,
65494,
80,
65422,
32,
65437,
65411,
167,
65520,
129,
87,
65527,
75,
37,
77,
90,
99,
41,
109,
65493,
65500,
41,
62,
27,
65508,
117,
65517,
83,
29,
65523,
70,
31,
86,
113,
55,
65470,
68,
65,
37,
66,
142,
66,
65515,
58,
23,
65404,
65383,
65462,
65482,
65472,
3,
65463,
65452,
65503,
30,
94,
65500,
65503,
30,
71,
65515,
33,
56,
65516,
65492,
11,
75,
2,
65443,
29,
54,
65510,
65492,
25,
65449,
65520,
55,
65484,
65445,
65450,
141,
241,
359,
269,
192,
149,
20,
101,
47,
93,
65467,
280,
49,
25,
65387,
65422,
65534,
93,
140,
65427,
65441,
65417,
65473,
134,
234,
70,
88,
65427,
65425,
139,
87,
65532,
65509,
86,
73,
111,
65267,
65278,
65273,
65359,
65348,
65449,
65291,
65308,
65440,
65532,
29,
65454,
65182,
65459,
155,
131,
103,
65460,
65437,
124,
48,
178,
214,
157,
65508,
216,
291,
332,
308,
57,
65356,
65510,
192,
45,
96,
5,
154,
65524,
260,
116,
65506,
48,
65522,
19,
104,
14,
20,
130,
65371,
65492,
47,
41,
65413,
38,
65519,
65386,
65490,
26,
65479,
65446,
65515,
65484,
65458,
77,
65438,
65430,
78,
71,
31,
63,
29,
65440,
65533,
51,
65464,
65378,
65402,
65477,
65450,
65469,
65481,
65393,
65461,
65521,
65476,
65354,
65421,
29,
65535,
65394,
56,
42,
65488,
65515,
65411,
28,
4,
42,
133,
5,
29,
65519,
65515,
14,
24,
65440,
43,
65430,
30,
65527,
65487,
65526,
65522,
65512,
73,
65510,
65439,
65450,
65535,
25,
65501,
65518,
65508,
91,
88,
164,
65463,
65494,
59,
65493,
65494,
17,
65498,
25,
65504,
65514,
65495,
19,
20,
71,
92,
68,
65487,
40,
185,
97,
65448,
65473,
65459,
59,
111,
196,
50,
66,
84,
210,
186,
65507,
65526,
14,
65527,
3,
217,
65357,
54,
65394,
65354,
145,
111,
35,
65405,
65386,
65331,
231,
210,
165,
9,
65524,
65483,
91,
15,
65401,
65408,
65318,
65262,
65295,
48,
36,
65407,
65421,
65456,
65343,
65392,
65454,
45,
65378,
65425,
65414,
65448,
65277,
65473,
65443,
65459,
65271,
65340,
65305,
65419,
65447,
65472,
65385,
65482,
65364,
65379,
65383,
65463,
65409,
14,
138,
129,
304,
153,
394,
267,
176,
55,
50,
98,
94,
130,
126,
5,
65453,
65450,
218,
144,
65474,
65366,
65389,
65269,
99,
215,
51,
137,
65329,
65488,
117,
249,
318,
2,
4,
65525,
59,
65321,
65260,
65250,
65396,
65332,
65371,
65414,
65474,
62,
65525,
65474,
65459,
65491,
65478,
134,
130,
16,
65483,
65430,
109,
52,
194,
121,
51,
85,
14,
65468,
30,
79,
107,
65435,
65405,
65435,
148,
65502,
53,
14,
32,
22,
120,
65512,
114,
69,
65500,
65489,
86,
34,
72,
65508,
56,
65422,
65483,
65527,
57,
96,
8,
65513,
65462,
65461,
82,
39,
95,
63,
65534,
65527,
56,
65520,
77,
71,
30,
65492,
87,
126,
7,
65433,
65372,
65322,
65392,
205,
12,
22,
42,
65423,
65283,
87,
28,
65515,
52,
65512,
65330,
211,
65519,
65522,
65480,
29,
65344,
83,
134,
46,
101,
65460,
65393,
91,
61,
65501,
65467,
65481,
65321,
81,
2,
134,
86,
83,
65497,
16,
130,
127,
125,
140,
65530,
78,
65517,
30,
21,
163,
44,
65443,
29,
65470,
65515,
30,
65477,
65514,
110,
65432,
65444,
65385,
65514,
65500,
65443,
65508,
65493,
65422,
101,
104,
9,
65398,
65397,
24,
33,
39,
103,
65389,
65378,
108,
65501,
109,
54,
24,
65498,
42,
120,
158,
65470,
48,
17,
65504,
60,
206,
64,
124,
65527,
63,
79,
81,
9,
40,
65515,
55,
248,
126,
6,
65383,
55,
65501,
65389,
65512,
65534,
65401,
65456,
58,
65433,
45,
65,
65450,
65406,
41,
65479,
104,
44,
49,
84,
65490,
65456,
37,
7,
65530,
150,
104,
36,
65492,
65392,
65473,
65424,
65495,
65535,
65401,
65392,
65404,
65432,
65474,
65284,
65496,
65443,
65479,
65502,
4,
65471,
65525,
65438,
65470,
65485,
65488,
10,
34,
65339,
65495,
65511,
65522,
72,
65411,
65465,
65479,
65439,
65525,
65462,
65460,
65437,
65447,
65386,
19,
65441,
67,
65460,
65528,
65382,
65532,
25,
65399,
29,
65449,
65445,
65444,
65469,
37,
65512,
65502,
65388,
65396,
65477,
23,
65435,
65455,
3,
65419,
65395,
65482,
65470,
88,
60,
4,
65425,
24,
65467,
65412,
37,
60,
65513,
65416,
65511,
153,
104,
70,
32,
65420,
65435,
80,
135,
65452,
65394,
65342,
65500,
21,
150,
65529,
65482,
65437,
65,
13,
65484,
189,
6,
65309,
26,
65497,
14,
87,
65522,
65242,
65391,
65501,
65415,
43,
65399,
65473,
97,
104,
103,
54,
7,
65491,
65477,
65528,
65496,
94,
86,
32,
12,
65499,
40,
132,
95,
127,
88,
8,
104,
31,
66,
160,
74,
113,
65514,
72,
172,
160,
102,
186,
187,
9,
146,
65528,
65497,
19,
334,
201,
143,
65479,
65502,
65532,
28,
114,
65517,
72,
136,
65413,
65487,
118,
130,
49,
30,
57,
65431,
0,
191,
190,
367,
295,
148,
60,
151,
69,
151,
38,
65529,
107,
90,
64,
23,
65528,
80,
65476,
21,
59,
18,
49,
65487,
45,
105,
66,
8,
1,
65418,
65508,
65483,
166,
65320,
65412,
65420,
65315,
26,
143,
65383,
65405,
65493,
65527,
104,
247,
211,
76,
102,
147,
285,
65355,
65529,
73,
48,
107,
245,
65389,
65413,
65499,
106,
48,
65466,
65314,
37,
111,
65457,
65340,
65349,
65393,
183,
15,
237,
154,
65444,
61,
271,
265,
297,
256,
65483,
65469,
149,
211,
99,
137,
65519,
70,
65,
59,
65512,
48,
65501,
6,
65464,
65446,
5,
81,
59,
65469,
65501,
65494,
66,
61,
76,
48,
23,
65442,
65519,
35,
34,
65445,
65512,
65511,
65480,
68,
16,
65492,
34,
53,
18,
55,
45,
83,
67,
220,
156,
107,
20,
56,
88,
91,
24,
86,
16,
184,
37,
65502,
61,
120,
203,
137,
105,
65425,
65433,
65466,
25,
78,
202,
65487,
65454,
65442,
53,
139,
247,
98,
147,
113,
279,
65256,
65528,
65311,
68,
142,
65487,
65343,
65447,
3,
65497,
65535,
65423,
65458,
65525,
57,
64,
65345,
65365,
47,
65402,
65470,
8,
129,
84,
67,
50,
119,
75,
91,
119,
213,
104,
305,
167,
13,
14,
195,
189,
65502,
65481,
65434,
65358,
157,
98,
105,
8,
1,
83,
199,
65448,
65510,
65361,
65532,
65521,
38,
65222,
65503,
65433,
65384,
0,
65508,
65286,
65271,
65196,
65365,
29,
177,
65508,
65506,
65474,
65477,
65503,
65375,
65448,
65393,
55,
49,
65476,
65418,
65523,
65454,
36,
65531,
42,
65373,
0,
208,
101,
65476,
65483,
2,
135,
107,
158,
269,
65487,
65484,
120,
84,
96,
114,
156,
65432,
86,
255,
65479,
36,
65520,
52,
65517,
76,
65459,
65490,
85,
65444,
65478,
65472,
81,
31,
66,
65460,
65474,
29,
65445,
65531,
65505,
65461,
29,
65485,
65515,
14,
65448,
65445,
6,
75,
24,
32,
77,
42,
31,
27,
65481,
48,
65494,
48,
129,
328,
127,
113,
157,
65504,
73,
91,
128,
104,
95,
29,
98,
65,
8,
65507,
4,
65489,
103,
65487,
5,
65399,
100,
18,
47,
65486,
65450,
65414,
65504,
70,
94,
142,
161,
126,
65494,
24,
0,
65479,
65462,
48,
103,
12,
65502,
65489,
65528,
65526,
13,
49,
65451,
20,
65448,
65399,
65383,
90,
4,
114,
116,
65485,
65498,
37,
65516,
33,
71,
91,
65473,
95,
65495,
65513,
12,
65432,
10,
54,
65531,
65485,
34,
37,
65431,
18,
65447,
16,
65522,
65477,
65452,
65457,
65424,
48,
65415,
65478,
21,
65504,
8,
61,
20,
65462,
65499,
2,
65483,
65497,
65507,
56,
60,
65445,
11,
65383,
65492,
67,
65492,
323,
213,
133,
67,
65439,
166,
81,
124,
25,
65460,
38,
45,
302,
35,
65475,
65398,
65483,
41,
195,
65377,
13,
65507,
65449,
115,
269,
65434,
65459,
65369,
65322,
72,
369,
76,
27,
20,
59,
118,
24,
65451,
65331,
65483,
2,
65408,
65472,
65446,
65494,
77,
65456,
26,
40,
85,
141,
149,
175,
338,
65441,
118,
269,
313,
343,
59,
67,
113,
52,
44,
149,
161,
65405,
158,
65465,
50,
65524,
211,
65490,
65502,
65413,
65438,
65317,
65487,
65426,
65449,
65486,
65365,
65490,
65400,
65508,
65411,
26,
65419,
65357,
65248,
20,
65392,
30,
16,
65394,
65433,
65486,
65487,
65528,
65493,
52,
7,
65428,
65517,
8,
6,
65471,
65255,
65437,
35,
65465,
65274,
23,
120,
46,
60,
4,
65467,
65450,
36,
65495,
5,
56,
65416,
65387,
45,
136,
5,
74,
3,
65510,
65520,
135,
12,
20,
74,
136,
71,
143,
65496,
33,
65520,
137,
98,
65318,
65324,
65292,
65478,
65429,
90,
65331,
65214,
65407,
65445,
65381,
45,
65254,
65327,
15,
65484,
65466,
65331,
65294,
65526,
24,
110,
179,
83,
65459,
139,
99,
326,
425,
62,
65509,
49,
368,
137,
101,
102,
91,
39,
70,
55,
65516,
65473,
18,
65469,
65496,
37,
86,
45,
65507,
8,
65506,
65493,
65444,
65501,
64,
65493,
65489,
65508,
84,
40,
65475,
65465,
59,
65474,
29,
12,
65523,
65498,
29,
75,
28,
63,
28,
0,
65484,
44,
65463,
65523,
65531,
82,
65464,
65476,
65500,
23,
64,
8,
65535,
74,
65524,
62,
98,
65491,
59,
65455,
65445,
33,
0,
65466,
65483,
20,
136,
65519,
65511,
65492,
65505,
65468,
25,
73,
65482,
65389,
65515,
65438,
65476,
65388,
17,
65505,
70,
65474,
65439,
65386,
65517,
65534,
69,
70,
65452,
65391,
65410,
27,
72,
73,
65487,
65430,
65509,
65383,
65510,
51,
24,
65395,
65490,
65445,
65512,
16,
65494,
65489,
253,
159,
2,
19,
65492,
65509,
161,
77,
76,
65516,
49,
65526,
256,
65529,
65458,
1,
32,
85,
182,
65506,
65531,
65484,
65175,
65431,
90,
65354,
65412,
65297,
65315,
65436,
149,
65516,
92,
65377,
65450,
43,
65454,
115,
211,
74,
6,
65500,
65460,
65527,
94,
42,
65480,
65535,
65533,
30,
173,
72,
83,
228,
83,
200,
13,
7,
199,
32,
65488,
149,
7,
32,
140,
65493,
65341,
65436,
65463,
65527,
71,
65430,
65467,
65513,
65443,
45,
92,
65513,
65420,
65473,
65478,
65508,
65513,
27,
65459,
18,
113,
65433,
65427,
65474,
2,
0,
8,
83,
68,
65471,
68,
69,
16,
5,
67,
65518,
57,
196,
150,
54,
10,
51,
65448,
65494,
65362,
65489,
5,
114,
61,
65528,
65500,
65482,
21,
43,
98,
65496,
65525,
14,
65530,
164,
125,
112,
120,
172,
191,
61,
5,
194,
136,
135,
65519,
76,
65398,
65522,
97,
65532,
65414,
54,
65533,
189,
62,
72,
82,
56,
65489,
57,
65469,
100,
42,
65532,
65470,
65469,
43,
9,
65442,
65453,
138,
123,
43,
128,
64,
65509,
185,
164,
215,
159,
138,
74,
57,
192,
249,
115,
218,
196,
209,
35,
51,
104,
0,
65486,
127,
196,
141,
65505,
96,
65530,
65496,
19,
65520,
65406,
65309,
65519,
59,
65429,
19,
65411,
65278,
65352,
111,
25,
65519,
65368,
65298,
65418,
161,
40,
61,
65477,
76,
5,
18,
65447,
65316,
65311,
65397,
65520,
169,
65532,
65430,
65490,
67,
67,
81,
86,
154,
65488,
183,
76,
279,
65521,
43,
83,
129,
65504,
177,
171,
7,
117,
111,
3,
126,
68,
65480,
65461,
44,
24,
396,
329,
298,
266,
202,
252,
334,
310,
145,
87,
82,
157,
374,
147,
65524,
11,
65453,
247,
289,
26,
65494,
65316,
65425,
34,
138,
130,
34,
65355,
65477,
132,
209,
274,
65460,
65462,
61,
190,
65408,
65415,
48,
64,
65442,
232,
31,
104,
58,
65521,
130,
53,
65520,
24,
65436,
65514,
65463,
65516,
65492,
31,
65489,
49,
86,
65461,
49,
187,
75,
124,
81,
13,
37,
88,
56,
65472,
56,
65480,
118,
65526,
65398,
65302,
65479,
65377,
142,
127,
65468,
65481,
65507,
65418,
65523,
32,
37,
65516,
65509,
65532,
35,
65496,
65526,
81,
65436,
65290,
65363,
65470,
65481,
65401,
65342,
65242,
34,
65359,
65408,
65355,
65251,
65266,
180,
193,
310,
219,
111,
204,
103,
236,
36,
130,
82,
170,
85,
65514,
65397,
27,
48,
127,
152,
65329,
19,
65373,
65433,
151,
139,
65368,
65437,
65465,
65396,
130,
133,
65535,
121,
192,
31,
171,
65444,
65415,
65414,
8,
65475,
65428,
65483,
65416,
65411,
65459,
8,
1,
65397,
65450,
65524,
65463,
10,
65490,
65471,
65530,
65459,
8,
24,
65446,
65489,
65421,
65518,
79,
119,
65422,
65459,
65402,
65453,
65474,
65331,
65286,
197,
224,
76,
88,
71,
65477,
91,
31,
75,
65504,
65501,
106,
259,
65473,
65535,
21,
38,
63,
168,
3,
65507,
65441,
65492,
57,
191,
16,
65426,
65368,
65524,
65469,
197,
0,
65398,
65459,
65479,
47,
129,
97,
123,
230,
134,
209,
7,
42,
78,
172,
39,
105,
63,
65471,
65523,
117,
7,
137,
153,
29,
65474,
65362,
65367,
83,
122,
33,
71,
65475,
65340,
85,
91,
111,
87,
179,
46,
192,
65524,
51,
65440,
69,
46,
65489,
54,
13,
65530,
16,
65534,
65444,
65439,
65474,
65482,
65521,
65473,
70,
65437,
65468,
65469,
65450,
65518,
65467,
65469,
65492,
65487,
66,
7,
17,
32,
65532,
65473,
70,
65486,
63,
65477,
65316,
65249,
65255,
65239,
65265,
65458,
65416,
65397,
65443,
38,
11,
123,
110,
65466,
65496,
65480,
106,
138,
58,
7,
65524,
161,
48,
65434,
9,
122,
47,
190,
65400,
65431,
65319,
65371,
5,
65495,
65495,
343,
383,
316,
13,
75,
70,
199,
233,
186,
65451,
108,
65498,
155,
106,
65381,
65492,
65446,
65374,
72,
65472,
65353,
65376,
65183,
65408,
65514,
65219,
65477,
65271,
65222,
65393,
88,
65491,
65358,
65355,
65421,
65331,
65301,
65287,
65445,
82,
3,
94,
65455,
14,
65498,
56,
69,
65448,
65314,
70,
104,
65421,
65491,
65461,
65505,
162,
33,
56,
80,
83,
1,
200,
151,
128,
125,
27,
65372,
151,
196,
63,
65480,
65508,
65535,
32,
94,
86,
94,
65439,
65500,
64,
65486,
13,
53,
65514,
65528,
65410,
65475,
106,
93,
65524,
41,
65501,
68,
65479,
55,
65471,
22,
65477,
65393,
65505,
65513,
65477,
65485,
65528,
17,
65507,
65486,
65493,
65457,
80,
81,
146,
15,
65531,
65481,
34,
78,
129,
82,
65514,
65522,
9,
106,
100,
167,
65516,
65420,
134,
65522,
65479,
148,
65495,
65405,
80,
71,
75,
62,
65520,
65322,
65521,
65503,
56,
65515,
65514,
41,
119,
71,
65483,
88,
65528,
3,
65483,
39,
65523,
65525,
65485,
81,
83,
65442,
65419,
65418,
65498,
220,
13,
65434,
65399,
65385,
65495,
65478,
65512,
65533,
1,
17,
161,
12,
56,
29,
46,
144,
5,
65435,
65497,
65498,
89,
42,
67,
41,
65512,
18,
65532,
65487,
2,
93,
43,
30,
65446,
65451,
65519,
49,
65454,
21,
65458,
53,
65488,
65480,
65400,
65503,
11,
34,
65456,
49,
65506,
49,
88,
16,
65487,
65344,
65472,
65533,
65502,
65485,
65518,
65368,
65395,
65393,
78,
65439,
65500,
65419,
19,
7,
65509,
114,
138,
65519,
179,
104,
144,
253,
93,
65482,
31,
84,
160,
189,
65422,
65400,
41,
44,
65531,
65462,
65463,
65506,
105,
65501,
45,
23,
65441,
65484,
61,
36,
65490,
65355,
65483,
65382,
65434,
65508,
48,
65361,
65337,
65393,
64,
31,
65440,
65458,
65456,
65284,
65382,
65449,
65526,
65493,
65360,
65397,
65424,
65352,
65513,
65422,
65487,
143,
207,
119,
78,
65531,
22,
160,
138,
78,
36,
12,
65386,
65525,
65520,
79,
65367,
65424,
65309,
65499,
65339,
65383,
65355,
65427,
65482,
65292,
65373,
65502,
65375,
65349,
65497,
173,
103,
65475,
45,
37,
65502,
126,
154,
141,
24,
124,
65511,
279,
248,
59,
43,
135,
137,
353,
150,
65489,
88,
65478,
250,
222,
95,
65483,
65359,
65479,
65462,
65511,
65493,
65325,
65296,
65494,
65334,
101,
65469,
65491,
65446,
65393,
65523,
71,
113,
117,
83,
65502,
25,
65528,
45,
82,
34,
67,
81,
65454,
65414,
7,
18,
65469,
65517,
96,
65455,
65480,
65403,
65449,
110,
65,
65473,
65493,
40,
13,
120,
25,
65392,
122,
156,
157,
96,
65398,
65431,
185,
50,
65455,
57,
65482,
5,
40,
115,
84,
1,
65510,
140,
69,
33,
86,
158,
65519,
133,
65,
145,
141,
42,
65401,
201,
23,
103,
101,
38,
65449,
65479,
65472,
82,
83,
65464,
