memory_initialization_radix=10;
memory_initialization_vector =
65391,
12,
65462,
65443,
65486,
65518,
6,
35,
65470,
105,
65464,
9,
65495,
95,
48,
65511,
65496,
29,
65508,
59,
65523,
180,
47,
76,
13,
72,
192,
145,
75,
18,
65492,
36,
46,
65517,
10,
65474,
43,
65491,
59,
65441,
65457,
81,
65432,
30,
65534,
3,
65439,
38,
59,
23,
229,
115,
12,
65476,
65445,
65501,
118,
40,
34,
36,
65401,
65460,
65498,
50,
53,
65483,
28,
31,
65501,
65526,
65417,
65519,
21,
65436,
65501,
65527,
65522,
65463,
65488,
65506,
80,
9,
56,
65428,
65438,
65445,
65384,
65532,
65533,
65508,
65393,
65427,
65452,
28,
65533,
65470,
11,
65472,
65420,
65426,
65452,
65490,
69,
34,
3,
65471,
65443,
70,
2,
5,
25,
105,
40,
38,
65496,
65529,
111,
47,
65511,
65494,
65446,
41,
77,
23,
65456,
84,
65481,
43,
65512,
65426,
65401,
65441,
65429,
65508,
15,
68,
65485,
65524,
12,
65413,
65405,
65486,
39,
81,
65455,
30,
45,
3,
23,
65512,
51,
56,
15,
65484,
65461,
65532,
10,
71,
83,
65512,
65495,
52,
65458,
31,
65482,
65482,
19,
65483,
43,
59,
65477,
65497,
70,
65472,
65521,
86,
87,
35,
60,
65488,
78,
65442,
65482,
65494,
65435,
65470,
65449,
5,
65525,
11,
65520,
65496,
65530,
65492,
65435,
65444,
12,
10,
65464,
65526,
65531,
65453,
65520,
65535,
26,
65473,
65522,
65406,
65528,
66,
65496,
13,
65492,
27,
57,
65448,
69,
65478,
65449,
65462,
50,
4,
65509,
18,
65464,
81,
65531,
65392,
65446,
65479,
65497,
34,
65493,
65505,
24,
65427,
65389,
65430,
65489,
1,
65473,
65441,
65455,
65404,
65490,
3,
18,
8,
65475,
65455,
6,
65453,
64,
65432,
65411,
22,
65440,
65466,
65495,
65518,
65296,
65472,
65496,
65450,
65449,
65487,
65505,
65453,
84,
65524,
77,
112,
36,
29,
116,
65489,
74,
67,
65480,
110,
76,
60,
65512,
65449,
65517,
60,
65490,
65528,
87,
27,
29,
40,
40,
26,
44,
65503,
88,
51,
96,
65486,
36,
65463,
65493,
65387,
65483,
39,
65514,
65484,
65423,
65515,
65521,
65492,
65500,
65430,
65440,
65400,
65411,
24,
29,
80,
65516,
88,
65506,
65484,
27,
51,
65526,
65453,
65435,
67,
29,
77,
73,
34,
65450,
65465,
145,
141,
46,
70,
123,
37,
31,
158,
115,
212,
132,
143,
9,
18,
131,
27,
80,
65441,
12,
65456,
53,
65462,
8,
93,
80,
65520,
82,
83,
65523,
65473,
81,
29,
65497,
2,
69,
65514,
90,
65474,
76,
65531,
36,
65487,
79,
65474,
3,
65490,
65531,
58,
65521,
82,
62,
20,
65513,
65500,
51,
89,
65491,
84,
65516,
11,
65459,
65508,
65506,
65526,
65475,
11,
65450,
65524,
65386,
65414,
65530,
65498,
65506,
46,
65480,
92,
65529,
2,
15,
65477,
9,
69,
110,
65493,
65474,
9,
65514,
65495,
32,
65459,
2,
68,
65453,
65460,
65479,
65450,
89,
65481,
65530,
48,
42,
33,
65462,
14,
50,
65499,
27,
14,
65518,
65492,
68,
103,
38,
65459,
65486,
52,
188,
99,
23,
126,
106,
43,
162,
58,
64,
65510,
40,
65517,
50,
65508,
65511,
65518,
85,
42,
9,
121,
65453,
65440,
65525,
65433,
65423,
65517,
58,
36,
40,
65444,
65316,
65430,
65456,
59,
65390,
65516,
65358,
3,
65481,
65507,
65503,
11,
65389,
65517,
36,
22,
131,
17,
77,
56,
112,
97,
84,
65529,
65443,
65509,
50,
65518,
22,
65459,
65514,
65466,
65509,
65469,
82,
2,
65500,
65474,
65510,
65462,
65522,
65514,
99,
65534,
65528,
65446,
37,
65535,
65512,
65499,
65529,
65488,
65521,
35,
70,
65489,
65526,
59,
65470,
65499,
65444,
22,
65508,
65473,
65517,
65462,
65421,
22,
41,
71,
65502,
65442,
65533,
36,
48,
48,
65488,
65515,
14,
138,
42,
65478,
69,
52,
2,
65524,
51,
55,
0,
74,
55,
16,
65488,
65451,
65501,
71,
65516,
65447,
65464,
65486,
65511,
4,
47,
65525,
65458,
79,
1,
91,
64,
23,
46,
65498,
65439,
65460,
6,
19,
62,
65491,
77,
65448,
65510,
73,
65458,
29,
65471,
65467,
65520,
17,
65458,
65472,
62,
21,
2,
107,
65516,
65456,
44,
40,
65448,
65479,
123,
35,
43,
65477,
65499,
65352,
65500,
65430,
65453,
65435,
65314,
65442,
65519,
12,
65526,
65490,
65333,
65364,
106,
65522,
64,
124,
26,
65,
40,
73,
40,
91,
80,
65474,
65403,
65462,
65484,
65453,
65508,
65455,
65489,
122,
65505,
12,
177,
181,
63,
41,
65485,
4,
216,
65526,
71,
37,
95,
54,
102,
81,
65524,
40,
115,
64,
65502,
65491,
65500,
65502,
33,
65495,
65326,
65494,
21,
19,
36,
65468,
65400,
47,
29,
48,
65476,
65464,
65505,
65450,
65460,
28,
37,
144,
46,
93,
83,
67,
20,
90,
134,
41,
65490,
76,
102,
34,
130,
98,
11,
65513,
65467,
65456,
65439,
65468,
65435,
65451,
17,
65373,
65335,
4,
65374,
35,
65454,
8,
26,
76,
76,
32,
121,
2,
65478,
27,
70,
108,
65509,
155,
8,
129,
65515,
65481,
3,
1,
11,
65475,
65431,
50,
11,
23,
51,
9,
65526,
78,
65467,
65475,
26,
119,
72,
65520,
54,
43,
17,
65509,
65517,
65528,
65486,
65486,
65447,
65481,
28,
65502,
119,
137,
60,
65445,
65449,
65533,
65473,
65517,
65511,
112,
65488,
65511,
65453,
91,
27,
79,
44,
39,
18,
65457,
184,
86,
166,
125,
124,
65458,
65405,
65383,
50,
65481,
75,
65445,
65328,
65436,
65442,
12,
65483,
65527,
65428,
65475,
65468,
101,
65451,
4,
65481,
20,
65506,
65456,
41,
65515,
65509,
65499,
56,
65450,
23,
13,
65452,
17,
65501,
65497,
74,
113,
65402,
65442,
52,
54,
65510,
65473,
65383,
65481,
65470,
65514,
23,
43,
65461,
65462,
2,
71,
65502,
41,
5,
62,
27,
65482,
65443,
21,
17,
65507,
65479,
90,
65411,
143,
195,
76,
62,
65456,
65496,
137,
227,
202,
51,
65487,
29,
65422,
26,
105,
78,
8,
63,
64,
84,
148,
95,
41,
65432,
7,
65512,
65510,
58,
65516,
95,
86,
181,
52,
67,
65489,
33,
43,
147,
175,
103,
139,
65520,
65510,
65470,
65450,
65517,
65476,
71,
65409,
65467,
65427,
65485,
65479,
65512,
65397,
65385,
65527,
65470,
119,
65440,
88,
65525,
65514,
6,
115,
65526,
14,
65449,
65535,
0,
65464,
31,
65492,
65399,
55,
65500,
26,
73,
65421,
65423,
65521,
65493,
53,
65512,
119,
23,
65439,
65508,
65491,
65441,
77,
56,
65532,
65515,
15,
65458,
83,
28,
65520,
65423,
65524,
65446,
65499,
65522,
13,
67,
68,
65517,
61,
65427,
65490,
119,
65514,
65491,
48,
48,
178,
121,
0,
94,
39,
91,
133,
93,
74,
92,
65518,
38,
140,
35,
65511,
44,
65482,
65465,
65491,
28,
63,
81,
36,
77,
86,
65509,
27,
65488,
26,
65441,
54,
86,
65460,
33,
65497,
40,
65483,
65475,
21,
14,
31,
54,
44,
60,
59,
3,
74,
65481,
65456,
65489,
33,
65495,
78,
65470,
65458,
65445,
65497,
64,
65438,
65466,
14,
68,
5,
3,
65439,
65424,
65491,
65489,
65453,
86,
65482,
65457,
70,
65507,
73,
4,
65501,
65528,
103,
65505,
86,
11,
22,
65427,
65419,
65528,
30,
65509,
65532,
65482,
65528,
65485,
61,
2,
50,
66,
65530,
65458,
14,
54,
65516,
76,
63,
37,
1,
65504,
65472,
53,
65460,
71,
84,
13,
65496,
65516,
8,
89,
65446,
10,
57,
65498,
65486,
80,
65473,
65483,
77,
65505,
65463,
0,
28,
65509,
65511,
65446,
45,
65464,
34,
6,
65448,
65390,
65397,
65449,
65515,
68,
8,
25,
65462,
6,
65469,
92,
64,
132,
65472,
81,
65508,
91,
128,
1,
44,
57,
65465,
65530,
65504,
65533,
56,
65,
99,
38,
65457,
38,
52,
2,
57,
65452,
65510,
65491,
65504,
6,
65465,
65449,
65494,
65463,
65485,
65473,
65518,
65456,
65493,
65486,
23,
57,
46,
65475,
65492,
34,
65521,
75,
53,
54,
83,
4,
71,
64,
65449,
65473,
65516,
65421,
65442,
65457,
65473,
65528,
97,
116,
65484,
75,
65526,
113,
208,
102,
65,
198,
65502,
65504,
65484,
110,
39,
65506,
135,
102,
65468,
65535,
65462,
65533,
99,
63,
65442,
65471,
65520,
38,
61,
65458,
1,
112,
32,
65479,
65480,
74,
81,
65461,
65523,
69,
65489,
112,
62,
103,
85,
53,
60,
106,
41,
23,
30,
17,
20,
128,
204,
44,
199,
43,
77,
100,
85,
1,
43,
85,
65489,
87,
65498,
65509,
65505,
24,
65457,
65,
65460,
8,
65485,
65499,
65459,
46,
17,
67,
36,
22,
1,
65501,
65473,
139,
61,
65415,
65430,
65500,
19,
102,
65506,
82,
65521,
65508,
65383,
1,
20,
65462,
65489,
65492,
65454,
65443,
65429,
65448,
65501,
65515,
65450,
65394,
65365,
65516,
67,
65479,
65530,
65464,
13,
65502,
70,
65451,
65483,
94,
20,
65517,
65467,
29,
46,
38,
65419,
65507,
65512,
65485,
65486,
77,
65464,
77,
65533,
36,
65479,
65463,
65518,
53,
65479,
65530,
65508,
54,
65458,
65445,
65460,
114,
35,
146,
17,
100,
65493,
65497,
6,
21,
85,
149,
55,
38,
86,
214,
147,
65499,
65466,
65517,
32,
65383,
6,
6,
65427,
65515,
46,
64,
33,
65531,
65455,
31,
65430,
17,
65528,
65422,
48,
79,
35,
65488,
11,
65448,
65516,
65443,
12,
11,
65533,
20,
59,
65487,
65521,
65483,
19,
49,
65493,
65462,
65493,
65494,
65457,
47,
39,
90,
17,
65474,
65512,
65526,
65525,
65499,
74,
65465,
65492,
123,
65472,
65456,
65434,
65313,
65260,
65342,
65390,
65525,
65421,
65276,
65372,
88,
65498,
52,
65455,
65390,
65451,
89,
16,
65526,
15,
65534,
80,
66,
65481,
65529,
65463,
65474,
65525,
62,
8,
9,
65449,
90,
65507,
10,
65447,
16,
26,
65490,
47,
65487,
13,
65461,
51,
65522,
65491,
65454,
28,
65518,
65458,
58,
36,
73,
65473,
65521,
65519,
65517,
65527,
65464,
65535,
72,
65502,
65394,
41,
65462,
65443,
74,
65494,
65382,
65451,
65415,
65530,
37,
73,
11,
65449,
65453,
65474,
69,
65493,
25,
2,
54,
65467,
36,
45,
67,
106,
65488,
15,
65425,
60,
10,
31,
65453,
89,
81,
23,
217,
65511,
149,
3,
65531,
109,
261,
182,
77,
122,
4,
177,
228,
7,
49,
90,
148,
65456,
0,
65420,
44,
35,
65500,
9,
10,
45,
65501,
117,
65535,
65517,
65490,
51,
80,
65519,
65428,
81,
66,
65434,
65460,
65481,
65477,
65508,
128,
65490,
65500,
107,
62,
213,
79,
73,
58,
97,
193,
166,
134,
1,
65534,
34,
65511,
122,
137,
107,
41,
65458,
65457,
65,
82,
39,
38,
44,
65465,
8,
65501,
65515,
65524,
30,
18,
65477,
65443,
20,
23,
1,
65457,
104,
86,
168,
20,
88,
92,
180,
115,
37,
138,
36,
63,
24,
65503,
34,
53,
77,
116,
21,
95,
18,
19,
65465,
65498,
26,
23,
17,
65457,
27,
3,
6,
4,
6,
65491,
75,
91,
72,
65480,
17,
76,
65511,
50,
65520,
65453,
65482,
65507,
44,
97,
104,
65487,
65,
65467,
65533,
65490,
65448,
65443,
65496,
23,
84,
81,
65495,
65466,
65475,
60,
46,
65513,
65431,
0,
93,
65480,
65517,
65480,
65488,
65517,
176,
65496,
65458,
82,
65409,
65432,
30,
65532,
65495,
65533,
65403,
3,
65521,
65520,
53,
3,
9,
65500,
65487,
65450,
65512,
65480,
65447,
65434,
65481,
65534,
65527,
3,
65516,
35,
65532,
65475,
96,
65527,
2,
65375,
65394,
65487,
65475,
65476,
65514,
79,
65511,
19,
65442,
66,
12,
130,
67,
21,
65503,
41,
111,
116,
66,
46,
66,
65509,
132,
65483,
17,
33,
65506,
65483,
65518,
65438,
65483,
19,
87,
4,
65490,
65455,
65465,
23,
65434,
48,
14,
5,
76,
65521,
65516,
29,
44,
65505,
65462,
65494,
31,
65452,
22,
65496,
70,
3,
65447,
22,
54,
65493,
57,
65454,
65466,
65520,
3,
65510,
24,
17,
65509,
49,
108,
65504,
65498,
69,
65533,
66,
67,
21,
65528,
24,
30,
28,
65472,
28,
84,
42,
65463,
65494,
65504,
65535,
65533,
48,
65535,
63,
36,
94,
65490,
65489,
65488,
73,
15,
65484,
65533,
55,
65495,
65520,
52,
44,
65510,
54,
65462,
77,
139,
90,
32,
135,
65490,
108,
73,
46,
65507,
55,
65534,
92,
65483,
65467,
65511,
42,
65512,
65494,
111,
175,
37,
8,
65455,
65503,
142,
95,
65380,
44,
35,
65497,
65463,
65498,
65496,
44,
35,
4,
65310,
65296,
65408,
65379,
12,
65447,
65384,
65409,
65494,
108,
65470,
65454,
29,
65520,
44,
45,
65530,
26,
14,
70,
29,
14,
65462,
0,
65491,
65512,
65,
53,
0,
65471,
65457,
65523,
65501,
38,
69,
0,
11,
82,
65443,
19,
2,
65527,
65482,
79,
65469,
65468,
62,
43,
65512,
53,
16,
65455,
65484,
94,
3,
55,
65464,
65524,
9,
50,
19,
65513,
65523,
70,
57,
68,
47,
65497,
65508,
26,
65454,
23,
113,
28,
39,
19,
89,
80,
65502,
65505,
83,
65530,
7,
20,
65508,
110,
34,
57,
65504,
65454,
9,
65472,
65395,
65514,
54,
65489,
65526,
65375,
65513,
65491,
20,
65506,
25,
2,
21,
65479,
168,
51,
8,
18,
65526,
65443,
47,
8,
65457,
65447,
65522,
65525,
65491,
65483,
65475,
65460,
65514,
13,
55,
65517,
98,
65410,
159,
40,
65496,
65395,
65424,
65436,
65408,
83,
65520,
65504,
65481,
65387,
65363,
65406,
65425,
65438,
65531,
65472,
22,
15,
65371,
76,
65529,
65421,
65435,
12,
65458,
65510,
83,
8,
20,
25,
65519,
65522,
65445,
65409,
65447,
65522,
65535,
65492,
65451,
65377,
65451,
65511,
15,
70,
15,
65526,
65510,
22,
65533,
14,
65521,
65520,
77,
5,
65514,
65531,
89,
92,
144,
51,
65505,
75,
78,
15,
101,
34,
86,
65526,
65470,
47,
65482,
68,
65471,
65471,
21,
65447,
27,
55,
68,
65429,
28,
65435,
68,
65466,
65509,
65482,
11,
65439,
65431,
7,
65521,
65512,
65404,
65512,
65405,
13,
65491,
65457,
65519,
4,
68,
65457,
8,
17,
67,
65489,
66,
67,
65517,
65480,
49,
65534,
65513,
65495,
28,
65475,
65458,
21,
65478,
65462,
65514,
65501,
24,
65482,
65482,
22,
44,
16,
51,
19,
65522,
102,
77,
38,
65513,
64,
42,
65532,
66,
76,
83,
57,
145,
79,
2,
84,
25,
20,
122,
65480,
3,
65358,
0,
65490,
10,
65461,
65438,
43,
65409,
65384,
65415,
65493,
3,
78,
7,
65534,
65527,
65534,
65505,
9,
65494,
65522,
5,
65474,
65512,
65531,
61,
67,
23,
65524,
92,
124,
118,
61,
16,
65518,
44,
106,
168,
101,
1,
92,
47,
139,
163,
281,
54,
2,
55,
65534,
98,
173,
77,
98,
89,
77,
65526,
4,
65475,
48,
120,
65476,
65419,
65357,
65488,
65477,
65517,
65484,
56,
91,
95,
65439,
65533,
50,
65533,
32,
65460,
63,
65519,
0,
65502,
34,
65499,
65528,
65481,
3,
65449,
28,
65520,
67,
30,
65431,
65401,
65454,
65430,
65402,
65454,
127,
49,
139,
65478,
38,
65462,
47,
65463,
65432,
22,
35,
65489,
65464,
65387,
65438,
65468,
65398,
65499,
65448,
65418,
65489,
65354,
23,
65478,
65460,
65449,
65444,
65386,
65472,
65511,
90,
62,
65483,
87,
65516,
65463,
89,
77,
61,
65461,
65457,
65477,
62,
25,
65528,
65497,
65490,
74,
65532,
87,
30,
65471,
46,
65510,
15,
81,
110,
104,
65490,
10,
3,
65513,
65521,
80,
28,
65488,
53,
16,
4,
65480,
32,
57,
5,
74,
6,
65515,
44,
65533,
52,
79,
58,
60,
65525,
48,
85,
98,
84,
101,
100,
65,
82,
65492,
43,
32,
65444,
35,
65472,
65423,
65481,
65441,
65459,
30,
24,
65480,
65533,
86,
65490,
65498,
120,
65516,
65494,
65529,
33,
41,
86,
93,
65511,
82,
82,
2,
94,
62,
127,
102,
3,
65522,
65455,
104,
28,
66,
65526,
144,
63,
68,
125,
99,
29,
27,
73,
65433,
47,
65510,
91,
65508,
3,
83,
65500,
62,
129,
65499,
65,
48,
153,
91,
65507,
26,
65,
65427,
65430,
42,
65520,
33,
65482,
65458,
23,
65467,
65454,
88,
65502,
65440,
65518,
5,
17,
58,
6,
65491,
28,
12,
65486,
32,
32,
9,
180,
65511,
65513,
65530,
74,
85,
187,
65507,
126,
17,
65528,
28,
26,
65534,
43,
29,
73,
69,
65455,
65446,
65508,
65452,
9,
65460,
22,
65487,
65473,
109,
65,
65521,
65492,
65523,
136,
96,
46,
65470,
65467,
65435,
35,
65503,
65502,
65472,
65512,
16,
65394,
76,
34,
54,
65449,
65444,
37,
129,
170,
120,
234,
7,
72,
65498,
65530,
41,
4,
65534,
65482,
49,
125,
65524,
65521,
97,
65526,
65508,
77,
43,
74,
65487,
65527,
70,
65462,
65508,
65443,
65517,
65527,
65534,
65433,
52,
40,
65485,
36,
65520,
66,
65517,
65532,
65454,
65486,
65434,
65499,
65505,
65512,
65445,
65479,
65466,
65519,
10,
65446,
65523,
65449,
65457,
63,
65465,
65500,
65527,
65470,
65477,
65522,
32,
8,
67,
80,
95,
11,
87,
132,
71,
78,
65497,
68,
58,
31,
90,
157,
27,
65521,
65524,
199,
190,
11,
11,
65518,
40,
116,
78,
93,
65453,
65458,
65478,
111,
82,
126,
65483,
65470,
65526,
4,
65447,
43,
17,
65469,
65463,
65507,
25,
1,
5,
33,
65434,
65513,
65504,
65530,
18,
65452,
65439,
65433,
65498,
25,
33,
72,
60,
52,
8,
42,
97,
70,
7,
27,
87,
28,
65465,
44,
49,
153,
45,
139,
65495,
65501,
54,
180,
27,
65389,
9,
65361,
14,
133,
77,
65430,
65404,
65433,
65398,
65470,
90,
65431,
65433,
18,
65490,
65471,
40,
65394,
65410,
42,
65497,
112,
65488,
65528,
65521,
9,
27,
50,
65506,
37,
35,
65531,
65422,
65429,
0,
29,
45,
19,
65492,
65455,
65348,
65505,
65484,
65524,
65425,
65414,
65416,
65444,
65428,
65457,
65503,
0,
84,
65488,
65457,
65437,
65416,
65533,
48,
29,
65508,
65501,
65410,
65529,
58,
30,
65399,
28,
40,
175,
173,
82,
65463,
65446,
65430,
162,
67,
45,
88,
7,
65474,
65461,
51,
6,
65452,
65470,
65405,
21,
65495,
65516,
65432,
65458,
37,
3,
65527,
57,
65469,
65462,
65521,
65471,
0,
65493,
14,
65530,
65519,
35,
65496,
65490,
94,
78,
65519,
47,
71,
39,
65510,
65450,
79,
67,
25,
93,
69,
65485,
65459,
65525,
9,
46,
39,
58,
65427,
47,
65500,
67,
63,
65505,
65507,
92,
62,
65442,
65520,
4,
86,
65533,
65520,
65494,
65527,
65534,
70,
65380,
0,
65486,
65518,
24,
38,
65510,
65512,
65469,
65493,
12,
9,
65486,
65524,
65535,
65510,
102,
48,
65494,
162,
65478,
10,
132,
65508,
65456,
65443,
65430,
31,
65516,
65491,
65419,
14,
69,
65523,
65483,
65412,
65446,
12,
61,
9,
65378,
65422,
65432,
65404,
6,
83,
65475,
20,
65478,
65518,
65487,
86,
96,
57,
13,
65533,
50,
79,
13,
65535,
11,
120,
83,
16,
65504,
65436,
65347,
65284,
65527,
65488,
126,
65471,
65346,
65266,
65359,
65512,
86,
48,
65294,
65313,
65435,
65473,
65459,
178,
58,
65452,
65530,
46,
65515,
143,
22,
18,
65451,
65474,
27,
65475,
65465,
73,
151,
65477,
65465,
65529,
65532,
65522,
7,
38,
65393,
65454,
65496,
55,
65528,
62,
19,
65499,
31,
65420,
90,
65496,
65438,
65534,
39,
65503,
103,
65516,
65465,
65470,
65448,
51,
41,
65463,
65467,
65460,
75,
65477,
65481,
77,
24,
65512,
85,
65532,
65447,
4,
25,
65522,
65461,
65459,
65463,
5,
32,
69,
59,
65450,
11,
65468,
2,
65461,
65458,
65511,
8,
65503,
65472,
65435,
65534,
65473,
65528,
65427,
49,
65382,
65401,
65410,
65373,
65476,
65467,
117,
1,
18,
50,
65521,
65531,
86,
93,
11,
65511,
72,
65456,
86,
84,
0,
65490,
101,
65466,
65485,
35,
77,
39,
65518,
133,
65,
65510,
65534,
65497,
79,
49,
87,
65508,
61,
19,
89,
65469,
65471,
65492,
24,
9,
116,
65509,
65461,
65485,
10,
65488,
65481,
65474,
65455,
65440,
65484,
65524,
41,
65473,
4,
65487,
65521,
65523,
93,
65517,
5,
13,
14,
65500,
65470,
65529,
20,
65481,
56,
65506,
27,
70,
121,
85,
20,
11,
80,
93,
109,
101,
65495,
62,
65500,
65476,
65468,
65477,
65496,
65460,
62,
65456,
65467,
92,
65455,
54,
65470,
86,
158,
65521,
76,
96,
74,
43,
66,
71,
19,
136,
54,
43,
65429,
65449,
65457,
65,
65443,
65493,
65488,
65323,
65375,
65512,
65501,
65465,
65467,
65415,
25,
6,
64,
65414,
65501,
65419,
65503,
65515,
78,
38,
65463,
65526,
52,
65509,
38,
30,
14,
65433,
97,
85,
82,
65379,
65398,
65438,
3,
65455,
65452,
25,
65381,
65395,
65514,
27,
65426,
52,
56,
65523,
65525,
65491,
45,
85,
65527,
65513,
42,
65524,
65492,
65,
13,
42,
65463,
97,
47,
65506,
65438,
65495,
65491,
65506,
65451,
75,
78,
65485,
57,
65502,
42,
100,
44,
4,
11,
46,
69,
65526,
65462,
157,
95,
65511,
45,
65481,
0,
65516,
82,
95,
65462,
65490,
65481,
65424,
43,
107,
65510,
65461,
65516,
29,
2,
17,
65417,
65484,
65527,
65500,
65521,
23,
65444,
5,
65469,
65440,
65417,
65436,
40,
24,
65385,
65444,
36,
65476,
65407,
65509,
65458,
86,
65478,
65443,
29,
41,
34,
175,
46,
8,
65430,
65510,
65449,
65500,
65320,
65509,
65480,
37,
65514,
65452,
65407,
65425,
65513,
14,
65480,
65436,
65462,
62,
65447,
65381,
65512,
65405,
51,
65436,
65527,
56,
65449,
21,
64,
16,
65532,
7,
78,
88,
65453,
13,
73,
65477,
65486,
65510,
74,
65479,
12,
65519,
86,
65509,
13,
65446,
65474,
66,
46,
40,
65513,
4,
30,
84,
65535,
99,
65532,
65448,
65510,
27,
68,
86,
55,
25,
11,
53,
29,
60,
18,
20,
65503,
2,
67,
65475,
65470,
56,
7,
65461,
49,
43,
65453,
65527,
65474,
42,
59,
9,
65490,
65489,
65535,
65508,
45,
65484,
65521,
62,
38,
29,
65509,
70,
65445,
65529,
31,
65442,
65494,
65496,
34,
65522,
62,
9,
65480,
55,
65474,
74,
0,
65483,
65512,
65507,
19,
163,
51,
65458,
36,
178,
13,
88,
90,
66,
71,
65527,
42,
82,
57,
65505,
65513,
106,
16,
65461,
36,
65518,
93,
46,
65463,
107,
65483,
118,
62,
65472,
55,
58,
35,
63,
65476,
65448,
65444,
65369,
65457,
76,
42,
65366,
65467,
65467,
65408,
96,
54,
65339,
65404,
65495,
65499,
65419,
0,
112,
129,
36,
65516,
65410,
65499,
1,
65488,
65532,
12,
65482,
65519,
65502,
112,
42,
34,
65524,
56,
171,
92,
14,
66,
104,
122,
16,
189,
137,
43,
33,
15,
65516,
157,
65482,
65447,
65471,
65491,
65492,
65489,
45,
61,
11,
65477,
137,
63,
65529,
65519,
65505,
10,
65446,
65464,
58,
34,
14,
22,
14,
220,
86,
65508,
65516,
65505,
65381,
65479,
65535,
65521,
65514,
10,
65395,
65420,
56,
60,
57,
65524,
37,
20,
65487,
18,
109,
106,
89,
73,
111,
65506,
65494,
2,
95,
65463,
124,
115,
65459,
65516,
64,
67,
65428,
17,
65533,
67,
65451,
65477,
29,
65496,
13,
65412,
65331,
15,
65483,
65478,
46,
65491,
65431,
65525,
65486,
0,
2,
65404,
30,
65,
65459,
65473,
48,
3,
65516,
65486,
65474,
65464,
65425,
65433,
60,
37,
114,
65495,
65494,
65532,
51,
88,
20,
65505,
65530,
2,
65473,
65453,
65526,
65444,
65484,
65505,
65498,
65534,
65457,
65513,
45,
65425,
65468,
65526,
65459,
17,
65467,
12,
65481,
13,
65477,
75,
65512,
16,
36,
65427,
6,
0,
65526,
75,
13,
72,
65514,
65485,
65471,
58,
108,
53,
65515,
44,
71,
65487,
65530,
65502,
65503,
65458,
65500,
36,
0,
22,
65520,
15,
65491,
113,
151,
65483,
65459,
65515,
109,
65458,
65467,
65421,
65519,
65535,
65525,
65434,
65490,
65380,
65509,
65499,
27,
6,
65478,
65412,
65366,
65519,
65467,
47,
19,
80,
65452,
65432,
27,
14,
78,
65535,
65,
65488,
65525,
79,
79,
91,
65487,
65518,
65491,
167,
214,
145,
115,
118,
65531,
66,
39,
65499,
65530,
3,
76,
94,
48,
47,
65519,
65466,
65489,
65516,
65490,
65460,
65477,
26,
65488,
65370,
65376,
65412,
65447,
60,
65471,
34,
65489,
65449,
65528,
65467,
65502,
65527,
49,
65495,
65523,
28,
117,
77,
133,
102,
65455,
65482,
65492,
65518,
50,
65458,
9,
65406,
65521,
65439,
65487,
65428,
65399,
65420,
80,
118,
3,
53,
145,
78,
65520,
17,
33,
3,
65442,
9,
41,
89,
3,
85,
111,
73,
227,
59,
1,
140,
16,
129,
14,
121,
111,
65468,
49,
65477,
65534,
65483,
65532,
112,
65531,
61,
37,
65505,
65417,
65457,
94,
65476,
42,
65401,
65442,
65527,
65458,
65489,
65526,
65418,
65476,
65464,
65412,
65484,
50,
65477,
65325,
65392,
65371,
65523,
65450,
65517,
65534,
23,
65498,
65480,
65420,
65518,
65445,
65483,
65532,
65474,
65489,
46,
60,
68,
65524,
7,
32,
28,
126,
124,
30,
65499,
95,
114,
65534,
65512,
80,
10,
54,
65534,
102,
55,
58,
65501,
100,
65529,
84,
172,
114,
65463,
65475,
112,
64,
26,
65474,
65520,
109,
94,
29,
121,
15,
110,
24,
38,
89,
38,
55,
65500,
41,
80,
58,
40,
42,
55,
13,
65464,
2,
65389,
8,
56,
67,
67,
65392,
52,
65491,
8,
65446,
79,
65488,
20,
65451,
65465,
9,
65472,
65436,
65470,
74,
65518,
65510,
65405,
65420,
49,
65426,
20,
65453,
65527,
65497,
65534,
65442,
20,
91,
94,
65423,
65535,
65460,
65487,
26,
65527,
65474,
65489,
65515,
23,
11,
29,
65490,
65518,
36,
65445,
29,
38,
94,
65446,
65507,
7,
65480,
65465,
65533,
65505,
44,
65534,
52,
65513,
65495,
65490,
75,
74,
65515,
63,
65480,
65519,
65476,
89,
49,
19,
65481,
65494,
2,
60,
65497,
5,
65457,
65475,
77,
65474,
65450,
121,
160,
38,
117,
65530,
142,
91,
97,
49,
128,
119,
65483,
88,
36,
2,
65460,
65524,
87,
65502,
65504,
65477,
65509,
65456,
91,
65419,
65350,
65533,
65438,
98,
36,
127,
24,
28,
26,
65477,
70,
161,
112,
65521,
104,
30,
65515,
65471,
34,
113,
140,
65467,
19,
235,
100,
127,
133,
86,
16,
65459,
65489,
65528,
65528,
125,
104,
62,
33,
64,
65535,
58,
65501,
42,
65494,
3,
65466,
65447,
65440,
65506,
65370,
76,
22,
65477,
65433,
65402,
65506,
65484,
6,
65448,
65519,
65454,
65426,
46,
14,
65453,
65501,
11,
65483,
165,
19,
65481,
65494,
65509,
57,
65490,
65452,
19,
101,
65497,
65530,
65411,
7,
65447,
65504,
65470,
65494,
65428,
34,
59,
81,
53,
4,
57,
147,
134,
65518,
65434,
65510,
65535,
65489,
65522,
39,
10,
65422,
5,
14,
65488,
65496,
65521,
65448,
65499,
52,
65462,
19,
65489,
97,
4,
65476,
65529,
65519,
35,
65462,
46,
65525,
65529,
65483,
89,
65430,
5,
101,
32,
36,
152,
105,
86,
13,
65516,
18,
147,
85,
80,
126,
65484,
64,
80,
4,
85,
95,
56,
100,
65450,
42,
114,
65527,
67,
26,
40,
65464,
35,
65492,
65494,
12,
99,
127,
24,
141,
100,
140,
69,
3,
65432,
65490,
27,
19,
11,
65479,
20,
65451,
14,
65477,
26,
65474,
65480,
65462,
65488,
65441,
65454,
65453,
28,
65470,
65468,
65526,
65516,
65534,
22,
65526,
65514,
84,
65489,
65443,
65509,
76,
65480,
65443,
61,
65463,
65521,
84,
65527,
65518,
82,
65451,
22,
65484,
82,
16,
40,
65474,
65439,
65534,
51,
38,
56,
7,
39,
61,
65509,
65441,
112,
113,
65512,
32,
37,
65513,
126,
51,
6,
54,
65474,
80,
118,
140,
79,
41,
77,
65524,
127,
169,
130,
78,
63,
10,
132,
39,
50,
65525,
113,
65488,
65447,
65534,
65,
65481,
1,
23,
65504,
65480,
2,
65436,
65444,
65495,
65502,
65531,
65461,
19,
80,
65441,
39,
91,
65510,
135,
65531,
45,
12,
136,
43,
63,
65498,
115,
22,
109,
21,
33,
65516,
94,
50,
65495,
73,
31,
65498,
65517,
65518,
65519,
65402,
65504,
55,
65426,
4,
65478,
65501,
51,
65516,
44,
96,
140,
13,
31,
25,
101,
80,
150,
65454,
65513,
65435,
65468,
141,
45,
65500,
65428,
65452,
65438,
37,
65432,
30,
65453,
79,
5,
23,
65528,
65519,
48,
65497,
2,
50,
100,
65510,
65463,
93,
71,
133,
61,
46,
42,
65470,
28,
64,
97,
104,
65505,
105,
55,
26,
170,
16,
14,
65534,
65512,
65511,
48,
36,
65482,
65477,
66,
23,
36,
20,
53,
65490,
69,
86,
65432,
65465,
6,
85,
77,
31,
65263,
65367,
65401,
74,
16,
65484,
65522,
24,
65489,
6,
11,
74,
65447,
65533,
38,
106,
65527,
64,
29,
91,
4,
65468,
65497,
65522,
31,
65493,
28,
65424,
65499,
65486,
65460,
65520,
65535,
65534,
133,
34,
55,
91,
65529,
81,
73,
130,
7,
141,
23,
61,
65520,
60,
97,
17,
3,
89,
71,
65497,
99,
61,
91,
0,
