memory_initialization_radix=10;
memory_initialization_vector =
65343,
65419,
65373,
65465,
65480,
106,
65281,
65360,
84,
65535,
70,
65445,
65449,
8,
115,
143,
160,
65467,
84,
20,
65264,
155,
140,
65505,
65428,
76,
99,
65382,
65489,
65482,
80,
71,
65435,
10,
79,
103,
65450,
65333,
65370,
65348,
65531,
65505,
65398,
17,
53,
184,
65479,
1,
65460,
28,
273,
141,
47,
65512,
30,
3,
148,
125,
65535,
49,
12,
31,
24,
65394,
65483,
3,
65512,
65526,
40,
21,
37,
63,
65496,
75,
80,
143,
65510,
76,
65508,
65470,
135,
65500,
13,
65445,
65530,
65416,
20,
126,
98,
65464,
65467,
86,
65518,
89,
46,
65509,
65444,
1,
212,
94,
59,
65454,
65451,
65499,
65494,
65504,
91,
65516,
26,
65456,
65373,
65392,
34,
9,
176,
65521,
41,
80,
65495,
52,
182,
98,
184,
65493,
65477,
57,
30,
72,
117,
162,
143,
65431,
65495,
65443,
65326,
65421,
54,
65466,
65507,
65508,
65482,
67,
65530,
47,
65528,
6,
73,
65441,
5,
65466,
4,
18,
65517,
25,
12,
6,
19,
47,
65496,
61,
65463,
85,
65449,
74,
65486,
29,
2,
65456,
65443,
65474,
59,
65503,
59,
65524,
65462,
65529,
36,
86,
24,
53,
65527,
0,
65525,
1,
13,
65506,
65486,
204,
264,
403,
193,
65533,
130,
222,
67,
194,
59,
35,
34,
32,
65515,
41,
237,
65478,
65534,
65349,
65533,
65495,
70,
65533,
65517,
65443,
48,
65453,
7,
82,
65236,
65482,
91,
37,
65442,
68,
65470,
65402,
65493,
216,
100,
51,
18,
109,
97,
256,
40,
65469,
65521,
65446,
65466,
65491,
65451,
65475,
65425,
65435,
20,
65512,
62,
65436,
53,
6,
65505,
65473,
49,
65484,
65304,
65226,
65192,
65333,
65534,
66,
65406,
65232,
65143,
65171,
65402,
27,
65479,
65399,
65435,
65450,
65457,
49,
13,
65393,
2,
65492,
65459,
65525,
44,
65524,
43,
65487,
65493,
65494,
65521,
129,
65485,
58,
29,
65481,
65515,
20,
15,
65433,
65470,
65463,
65526,
65518,
65452,
65488,
65489,
65491,
5,
29,
65349,
65447,
65518,
108,
110,
12,
27,
65509,
0,
63,
65504,
60,
136,
65525,
172,
65484,
65477,
65529,
14,
65525,
89,
21,
65455,
65397,
65347,
65397,
65479,
65488,
55,
65366,
65377,
65533,
60,
37,
11,
65535,
65418,
65501,
91,
65535,
65402,
65471,
65484,
65436,
65514,
65531,
65527,
65457,
43,
62,
46,
86,
65453,
17,
63,
75,
6,
65473,
65479,
61,
86,
65453,
65511,
0,
65516,
41,
65440,
37,
91,
73,
65455,
65439,
65516,
65500,
24,
65494,
65472,
46,
65520,
65521,
65448,
13,
15,
65468,
65453,
65531,
65473,
91,
65503,
15,
65532,
65530,
65513,
82,
65432,
65478,
65257,
48,
65444,
16,
65311,
65183,
65264,
65326,
13,
65501,
65349,
65440,
65489,
65436,
65479,
97,
65290,
65441,
49,
65389,
65414,
65497,
65507,
31,
141,
65517,
13,
58,
65473,
65524,
40,
60,
82,
82,
65455,
65424,
65408,
65462,
93,
65492,
65470,
65380,
65210,
65335,
14,
80,
65419,
22,
65415,
65389,
65477,
65503,
65420,
86,
41,
65520,
65513,
65,
60,
86,
65420,
65492,
65464,
73,
65472,
70,
151,
108,
9,
65519,
65517,
65507,
135,
83,
76,
50,
144,
40,
59,
65350,
65473,
87,
26,
84,
65497,
63,
65513,
10,
45,
232,
65520,
285,
90,
80,
175,
254,
189,
25,
86,
65405,
65482,
26,
5,
65447,
17,
57,
65524,
87,
47,
71,
7,
43,
65424,
65346,
65444,
65476,
65448,
8,
31,
13,
8,
65469,
20,
90,
65485,
65480,
65494,
65443,
65460,
72,
52,
60,
199,
29,
14,
65519,
65522,
65519,
17,
8,
65482,
65534,
65525,
17,
54,
46,
51,
65503,
65532,
65513,
177,
65501,
65522,
65499,
65469,
65494,
59,
67,
65444,
65486,
65519,
65485,
78,
65483,
65462,
65415,
95,
95,
38,
65470,
65423,
25,
65512,
65529,
22,
72,
45,
65431,
58,
65494,
65518,
65510,
65490,
65519,
24,
65520,
67,
22,
62,
19,
68,
28,
44,
65471,
65496,
74,
65535,
7,
9,
65487,
65509,
30,
30,
65437,
65452,
65500,
19,
65512,
31,
65496,
65446,
76,
24,
65497,
176,
150,
157,
178,
40,
53,
91,
169,
174,
34,
65366,
9,
148,
121,
29,
65368,
65303,
65481,
228,
22,
65334,
133,
57,
80,
75,
199,
1,
19,
65524,
24,
69,
65505,
36,
65478,
28,
32,
65400,
65406,
65500,
65507,
65500,
65494,
65407,
65511,
84,
314,
143,
60,
11,
148,
174,
44,
50,
65404,
65325,
105,
50,
40,
65515,
66,
47,
65475,
65490,
105,
19,
65474,
65496,
65506,
65527,
13,
18,
32,
65455,
19,
39,
65535,
65524,
69,
65362,
40,
157,
167,
84,
42,
29,
65524,
301,
121,
107,
65497,
24,
96,
189,
258,
176,
8,
65461,
65514,
99,
28,
65460,
65477,
65517,
65493,
65504,
15,
65502,
65526,
65417,
65318,
65222,
65417,
65491,
65517,
65306,
65283,
65156,
65229,
65478,
43,
65270,
65384,
65484,
65358,
65420,
65457,
65317,
65377,
90,
65422,
65468,
65519,
65519,
44,
69,
65483,
65444,
65452,
27,
4,
41,
51,
65476,
20,
32,
118,
3,
50,
52,
65471,
65527,
32,
65494,
65390,
65481,
45,
65481,
65513,
65452,
65486,
65460,
76,
65508,
65492,
65513,
80,
65484,
27,
65526,
65526,
65516,
46,
123,
65,
75,
84,
65479,
21,
65500,
23,
190,
266,
125,
153,
65495,
65422,
58,
69,
65416,
65512,
65453,
5,
65477,
65499,
65457,
65398,
65451,
65475,
65337,
65405,
65524,
65485,
65477,
65416,
128,
65449,
65394,
65358,
14,
65435,
65494,
25,
65508,
105,
65457,
63,
105,
100,
217,
254,
45,
65527,
150,
65455,
97,
65327,
65461,
65466,
77,
65415,
65515,
65279,
65490,
35,
65353,
65251,
65373,
65441,
65358,
65468,
65447,
88,
113,
9,
80,
53,
26,
89,
65529,
65484,
32,
4,
65465,
65333,
65245,
65405,
111,
8,
65511,
65290,
65369,
65404,
57,
65531,
74,
65426,
65277,
65384,
147,
65517,
65396,
88,
65497,
65492,
40,
88,
12,
62,
65385,
6,
37,
53,
65496,
40,
9,
65529,
26,
37,
202,
310,
271,
88,
3,
65418,
181,
134,
47,
160,
127,
65535,
84,
65501,
34,
65531,
11,
9,
71,
49,
10,
10,
36,
65453,
101,
188,
38,
0,
44,
3,
65455,
32,
65527,
101,
65497,
65491,
65303,
65370,
65345,
65278,
65526,
65515,
65335,
65305,
65264,
65511,
37,
56,
65382,
43,
65512,
65414,
65472,
65471,
65355,
80,
65535,
65442,
70,
65452,
65512,
65436,
65344,
65428,
65466,
65522,
110,
20,
65454,
80,
65514,
65429,
65401,
65367,
65489,
65512,
101,
65473,
119,
106,
42,
326,
19,
65475,
65429,
83,
188,
73,
65456,
28,
65439,
53,
65519,
38,
133,
15,
65535,
65503,
65394,
65461,
65438,
78,
83,
30,
65490,
44,
33,
86,
65514,
65521,
36,
60,
16,
7,
65445,
65503,
65478,
45,
65501,
80,
44,
65447,
35,
55,
8,
11,
65513,
77,
65443,
65507,
38,
84,
65533,
52,
58,
65,
65514,
65483,
74,
65478,
58,
66,
65475,
65500,
65488,
65499,
65388,
65359,
65521,
29,
65341,
65285,
65263,
65266,
65535,
81,
65419,
65362,
65489,
65402,
65520,
65462,
65447,
65422,
15,
65461,
65454,
36,
65472,
2,
96,
51,
65515,
23,
71,
65516,
65490,
65442,
65464,
78,
65446,
65512,
65490,
10,
65479,
65485,
65458,
65463,
65487,
66,
65529,
65534,
53,
65450,
74,
29,
65525,
70,
65447,
16,
73,
65476,
65522,
65525,
65464,
90,
92,
43,
65528,
10,
65455,
80,
30,
65487,
32,
65446,
65369,
65417,
65413,
65494,
65452,
121,
65342,
65340,
65216,
44,
1,
65489,
65400,
65499,
65495,
65492,
4,
11,
65354,
65513,
65524,
65415,
65455,
65405,
65459,
65436,
65375,
65503,
65492,
47,
65521,
64,
65535,
65477,
65483,
65481,
16,
27,
5,
64,
65470,
65491,
44,
65485,
65451,
53,
82,
50,
44,
65469,
65500,
65499,
65477,
65478,
29,
65520,
94,
48,
65516,
22,
17,
65527,
65519,
65449,
12,
81,
82,
64,
65509,
14,
65519,
65518,
65344,
65351,
65264,
65534,
47,
31,
101,
65496,
65433,
65475,
70,
65,
57,
103,
65384,
62,
94,
78,
65427,
109,
65501,
65424,
100,
65478,
65474,
65445,
65272,
65449,
8,
76,
65440,
82,
65467,
80,
77,
30,
65399,
65311,
65496,
65480,
9,
88,
65504,
65384,
65381,
65524,
63,
65529,
65394,
86,
90,
118,
65518,
65478,
65429,
65493,
4,
65499,
65530,
65468,
65469,
91,
65488,
65481,
49,
71,
72,
25,
65516,
73,
65506,
10,
65391,
65021,
65306,
65174,
18,
23,
68,
65403,
52,
438,
65501,
65502,
65377,
102,
158,
389,
95,
23,
74,
65500,
77,
184,
314,
7,
65451,
65410,
14,
65389,
65525,
67,
50,
65466,
4,
65455,
65535,
65446,
65534,
16,
89,
65520,
65442,
65446,
65436,
65273,
155,
33,
65451,
40,
65119,
65274,
127,
68,
12,
65456,
65495,
65471,
191,
65533,
9,
28,
23,
55,
61,
47,
54,
65527,
66,
65458,
65494,
65427,
35,
65467,
65384,
65266,
65292,
65487,
8,
72,
65533,
65357,
65293,
65466,
71,
20,
65523,
65442,
100,
65528,
252,
65449,
65495,
21,
65495,
107,
65468,
65502,
65310,
65317,
65352,
15,
65514,
65513,
65480,
86,
101,
65483,
65460,
65428,
65523,
33,
65510,
65513,
65402,
7,
19,
65417,
122,
17,
46,
65528,
65458,
65458,
13,
65496,
65429,
65509,
19,
65520,
65484,
36,
65465,
66,
65510,
65512,
47,
66,
65518,
26,
47,
65432,
65473,
65479,
81,
65497,
114,
396,
380,
174,
18,
65516,
127,
108,
128,
65533,
65330,
37,
18,
65405,
149,
258,
65392,
65525,
65485,
66,
120,
333,
110,
22,
84,
65472,
148,
25,
98,
52,
65476,
65517,
65407,
10,
65527,
65506,
65451,
48,
30,
65503,
30,
65505,
65527,
65519,
63,
42,
65534,
65493,
65493,
45,
83,
65462,
65532,
85,
65534,
65503,
65443,
0,
4,
65505,
89,
65440,
53,
65478,
65447,
16,
65488,
65484,
65464,
39,
61,
65521,
65484,
65291,
65384,
65306,
65416,
96,
65402,
65290,
65199,
65334,
65471,
88,
65364,
65411,
65464,
65326,
65519,
65509,
65448,
65438,
65492,
65523,
65313,
65484,
65473,
65486,
38,
65434,
5,
65477,
65478,
121,
95,
65499,
15,
98,
77,
56,
269,
295,
65,
40,
249,
504,
445,
430,
54,
117,
325,
229,
385,
216,
89,
90,
79,
168,
18,
148,
135,
65454,
8,
65428,
65456,
110,
65420,
65517,
28,
65392,
65490,
65508,
65504,
1,
65469,
65514,
17,
47,
65489,
0,
244,
61,
115,
65378,
65485,
4,
65503,
91,
162,
15,
6,
65404,
65352,
65354,
65454,
65476,
10,
21,
65490,
64,
65467,
65425,
36,
55,
65448,
65499,
10,
45,
30,
50,
65320,
65377,
65325,
4,
81,
65524,
65410,
44,
158,
24,
65524,
40,
65520,
65493,
73,
212,
102,
65532,
65410,
222,
65427,
94,
65480,
65519,
71,
8,
65347,
65463,
13,
65498,
107,
65452,
65410,
65416,
65451,
104,
81,
65489,
65493,
65452,
64,
20,
65487,
65,
65446,
65483,
63,
65508,
65508,
65460,
65519,
65460,
8,
37,
34,
68,
49,
65450,
65520,
32,
65490,
65434,
72,
65475,
74,
93,
65471,
21,
65453,
70,
65458,
65478,
65416,
65466,
65284,
65416,
44,
65488,
30,
65435,
65218,
95,
145,
35,
65428,
65438,
65389,
94,
77,
65475,
56,
0,
65349,
9,
72,
65488,
65504,
65424,
37,
65454,
47,
4,
34,
62,
65505,
65438,
85,
65478,
65509,
19,
128,
65531,
74,
65502,
65429,
65526,
145,
62,
28,
65466,
65535,
65464,
438,
63,
146,
65497,
143,
22,
34,
310,
61,
31,
33,
96,
65483,
56,
65528,
65525,
62,
31,
65448,
65426,
65456,
65481,
25,
65,
65439,
65530,
11,
20,
61,
195,
35,
65480,
2,
35,
65458,
65459,
65437,
65451,
31,
65525,
65523,
51,
96,
92,
65,
65460,
3,
65521,
65500,
65437,
65518,
46,
20,
65525,
38,
65490,
65446,
65455,
39,
40,
65501,
19,
67,
65458,
65453,
46,
4,
9,
7,
65502,
62,
65526,
65463,
65532,
65463,
92,
65496,
6,
65469,
65483,
65499,
65444,
65,
25,
65489,
65455,
65519,
30,
65511,
73,
78,
65501,
49,
23,
65431,
65455,
65398,
65436,
65444,
114,
65387,
65464,
65483,
9,
65480,
65517,
33,
80,
188,
167,
129,
60,
1,
65488,
91,
97,
86,
24,
158,
65516,
65480,
65388,
48,
65488,
126,
5,
65473,
38,
46,
63,
281,
251,
283,
83,
65440,
65436,
106,
124,
65504,
65497,
101,
65486,
148,
65490,
101,
94,
65355,
65500,
70,
40,
65533,
195,
97,
38,
27,
209,
88,
83,
65518,
45,
65516,
65534,
89,
96,
65489,
1,
65453,
65495,
41,
11,
106,
21,
65509,
65473,
23,
65530,
65435,
65483,
19,
65504,
65519,
90,
65447,
65,
65468,
52,
46,
65512,
14,
65445,
55,
65528,
49,
83,
33,
58,
65442,
66,
65507,
81,
72,
19,
101,
65533,
65519,
80,
65500,
67,
49,
60,
65496,
65443,
65535,
50,
83,
28,
124,
80,
2,
65502,
36,
65506,
65471,
65453,
65437,
65534,
65448,
65471,
65535,
65496,
65507,
52,
11,
65512,
65497,
65504,
65486,
65511,
65473,
65336,
65229,
65391,
30,
65534,
65430,
65246,
65403,
65391,
65319,
3,
65405,
65431,
65524,
65357,
65360,
65452,
65523,
65364,
65409,
65500,
65415,
20,
64,
65404,
65350,
65462,
65442,
65506,
65489,
65460,
65466,
65502,
16,
65514,
74,
65380,
65511,
21,
52,
64,
65373,
65507,
65419,
65498,
26,
65496,
65360,
65401,
65459,
65474,
63,
65474,
133,
232,
72,
139,
65511,
65472,
95,
103,
218,
18,
21,
46,
15,
18,
65453,
65508,
65448,
65449,
65458,
65346,
65352,
65433,
65528,
85,
65359,
65155,
65208,
65228,
7,
65529,
65235,
65278,
18,
65418,
65343,
32,
65309,
65372,
65492,
65416,
65336,
65455,
62,
42,
12,
13,
65516,
34,
81,
133,
65510,
141,
65514,
43,
96,
65499,
65504,
21,
65470,
8,
65530,
65458,
65435,
65512,
65488,
100,
35,
65485,
65406,
65403,
65513,
32,
65492,
65522,
0,
7,
65519,
106,
25,
120,
65502,
131,
12,
65513,
18,
40,
65518,
65511,
65465,
65495,
11,
112,
141,
22,
92,
65467,
56,
65464,
155,
78,
65449,
54,
54,
14,
65518,
48,
65490,
65508,
65526,
3,
65483,
87,
65501,
65462,
68,
65488,
6,
65472,
32,
30,
65502,
65485,
65456,
65517,
0,
65526,
154,
18,
105,
70,
71,
65506,
55,
65513,
12,
50,
103,
48,
246,
65484,
65441,
65464,
65521,
65482,
65508,
14,
133,
32,
65485,
52,
39,
65525,
65531,
186,
117,
65470,
11,
56,
102,
113,
65533,
35,
83,
158,
65,
65446,
65413,
58,
19,
15,
65510,
65276,
50,
65476,
62,
65532,
132,
65504,
65343,
65486,
65491,
65438,
65422,
65453,
65456,
42,
65504,
99,
0,
65529,
65481,
65487,
105,
106,
46,
65496,
74,
65518,
65342,
65209,
65135,
65321,
65497,
65430,
55,
65330,
65300,
106,
65525,
65451,
48,
155,
149,
65513,
182,
21,
65398,
65488,
65530,
65501,
106,
65481,
65501,
65356,
65159,
65474,
65507,
65535,
21,
65502,
65519,
65479,
65484,
65468,
315,
240,
165,
5,
65521,
65420,
65516,
140,
121,
65476,
65415,
3,
180,
26,
174,
74,
65385,
65447,
165,
65447,
65469,
239,
102,
65441,
249,
233,
103,
71,
86,
58,
65461,
65450,
65516,
65462,
22,
53,
65434,
15,
33,
16,
20,
20,
6,
41,
65474,
65446,
65474,
45,
65384,
38,
103,
65535,
65474,
75,
65505,
65533,
32,
65534,
28,
94,
27,
65434,
65436,
65454,
18,
0,
65535,
65527,
42,
40,
90,
65521,
104,
91,
237,
171,
65428,
84,
65455,
67,
57,
65403,
35,
4,
65506,
65365,
3,
65529,
65496,
103,
65474,
65267,
65444,
65412,
13,
65455,
84,
121,
100,
65495,
43,
65510,
67,
68,
22,
65521,
65522,
10,
65373,
65417,
65390,
65273,
65459,
65510,
65494,
161,
200,
178,
98,
65479,
20,
312,
126,
98,
58,
65534,
65514,
65532,
37,
127,
77,
65520,
65507,
65462,
65339,
65392,
65418,
8,
90,
20,
65533,
41,
58,
23,
295,
75,
156,
65461,
65516,
81,
289,
210,
158,
57,
155,
65519,
243,
114,
65509,
79,
86,
65487,
212,
156,
163,
78,
65519,
65503,
6,
55,
44,
65530,
65513,
53,
65461,
17,
65491,
73,
5,
65496,
65530,
475,
270,
172,
41,
65510,
187,
558,
349,
187,
65530,
65493,
199,
134,
86,
210,
156,
67,
66,
64,
65494,
65528,
65510,
86,
65480,
65515,
65410,
65502,
63,
99,
65517,
32,
3,
28,
54,
52,
43,
115,
89,
65513,
65376,
63,
65452,
65397,
65508,
65453,
65497,
45,
65452,
65436,
155,
65524,
10,
20,
65516,
65288,
15,
74,
65403,
65400,
65489,
65490,
153,
65475,
19,
65482,
45,
65519,
100,
0,
65465,
93,
70,
24,
65399,
88,
62,
65434,
65514,
16,
65447,
65487,
80,
100,
32,
65515,
65450,
65363,
65488,
35,
65477,
65469,
65519,
65500,
5,
144,
21,
74,
65452,
84,
88,
65470,
113,
65530,
65489,
82,
65522,
86,
65328,
65389,
65326,
98,
63,
25,
65457,
65478,
74,
117,
51,
65470,
65449,
65499,
65527,
164,
73,
65504,
65499,
65486,
65390,
9,
65490,
56,
25,
65461,
15,
65490,
65408,
13,
119,
65431,
65415,
65407,
30,
66,
65450,
65452,
49,
65512,
65474,
65525,
7,
131,
101,
89,
65535,
65531,
68,
65525,
111,
38,
65480,
65503,
65525,
142,
177,
56,
138,
54,
45,
51,
27,
42,
21,
65514,
65534,
65474,
7,
65505,
65449,
65443,
22,
65342,
65477,
65514,
156,
34,
120,
283,
387,
661,
170,
65441,
63,
65,
65453,
192,
74,
46,
65375,
65316,
65306,
65303,
65436,
65438,
9,
65395,
65262,
1,
65471,
66,
65438,
65458,
65535,
65470,
17,
65445,
274,
123,
65,
65466,
99,
65505,
130,
65468,
31,
65459,
65514,
65464,
287,
65529,
32,
65430,
65435,
65433,
107,
101,
113,
116,
65476,
65491,
3,
18,
65507,
46,
118,
27,
65483,
65516,
43,
65467,
65419,
65453,
65272,
65195,
65251,
65315,
15,
90,
65368,
65273,
65303,
234,
237,
65446,
65458,
43,
44,
156,
254,
10,
23,
65513,
46,
125,
264,
49,
65390,
65422,
130,
154,
49,
70,
81,
61,
65461,
65498,
2,
65480,
65452,
65534,
65479,
65513,
20,
51,
65502,
58,
43,
65489,
65466,
65530,
65505,
65450,
65483,
65520,
81,
65485,
65450,
73,
65447,
65,
65476,
41,
65524,
43,
17,
65468,
65463,
92,
23,
45,
65508,
65513,
65458,
65477,
65462,
65517,
65459,
65483,
65451,
21,
65521,
198,
274,
288,
247,
65517,
29,
60,
117,
190,
35,
9,
35,
65462,
90,
115,
186,
73,
10,
65502,
65438,
65393,
65467,
76,
62,
65484,
65460,
65476,
32,
43,
65501,
1,
55,
65529,
65490,
65516,
65506,
111,
65534,
10,
133,
24,
133,
65510,
179,
463,
208,
65441,
316,
209,
156,
183,
285,
65474,
65476,
47,
102,
60,
65531,
42,
29,
21,
65520,
65524,
45,
65508,
146,
296,
298,
245,
88,
65403,
200,
170,
59,
94,
65523,
34,
97,
6,
76,
65391,
65305,
65467,
65476,
65389,
65514,
65515,
23,
39,
65524,
183,
65339,
65506,
14,
65435,
65482,
65513,
23,
65470,
10,
62,
65517,
65407,
198,
65401,
65472,
65495,
65509,
156,
246,
136,
65504,
48,
65510,
84,
163,
420,
81,
56,
141,
173,
249,
162,
212,
65,
76,
65526,
100,
65534,
1,
65489,
81,
65488,
33,
65525,
87,
101,
65468,
11,
75,
27,
19,
87,
65438,
65535,
85,
52,
75,
66,
65507,
18,
65483,
65484,
8,
32,
65441,
65464,
35,
65534,
8,
39,
65491,
39,
65441,
65488,
65486,
65493,
61,
65526,
65,
60,
65475,
76,
65382,
65320,
65340,
65378,
65450,
65527,
65301,
65220,
65251,
65170,
65525,
65438,
65323,
65405,
65488,
65386,
65336,
65488,
65313,
65376,
65471,
65340,
65411,
65448,
29,
65493,
65489,
18,
65493,
65448,
41,
65482,
65428,
14,
66,
21,
65469,
89,
65387,
86,
92,
65516,
65492,
65472,
65390,
65337,
65447,
75,
21,
65331,
65351,
65388,
65431,
65531,
62,
65486,
31,
39,
56,
65512,
131,
97,
60,
76,
65496,
85,
48,
97,
87,
65487,
65498,
65483,
51,
65523,
111,
65444,
65487,
56,
65502,
65484,
65429,
65472,
65518,
76,
44,
65470,
90,
65508,
65497,
65499,
65510,
65415,
65511,
65530,
65434,
24,
23,
65461,
55,
13,
65446,
81,
27,
12,
65466,
65519,
65505,
65446,
287,
287,
91,
120,
133,
65445,
149,
123,
24,
159,
16,
65534,
320,
113,
65438,
78,
65533,
65517,
70,
77,
132,
69,
2,
65452,
130,
65507,
65516,
74,
72,
65,
65450,
65524,
65486,
95,
65518,
65455,
65482,
213,
159,
50,
139,
44,
87,
137,
327,
120,
65514,
79,
2,
17,
65517,
232,
102,
65465,
65533,
65493,
65417,
53,
111,
96,
26,
65475,
65441,
123,
65510,
65494,
35,
65481,
65519,
65455,
72,
65466,
65524,
65495,
8,
65493,
65515,
90,
65444,
65407,
65423,
65490,
65489,
58,
65518,
65471,
15,
65514,
76,
65486,
65424,
22,
62,
65501,
65469,
46,
35,
48,
29,
65464,
65495,
65461,
75,
65499,
44,
103,
65528,
85,
214,
65489,
65427,
65499,
65524,
18,
63,
65448,
65387,
65424,
65465,
65485,
199,
65418,
65410,
65502,
65501,
12,
92,
65502,
110,
65524,
63,
65484,
65503,
92,
74,
124,
63,
65516,
65531,
65508,
23,
72,
65460,
65519,
25,
65466,
33,
65414,
65446,
65533,
65525,
65446,
65389,
65437,
65500,
65448,
65368,
65298,
65172,
65518,
15,
49,
24,
5,
87,
293,
65533,
92,
113,
232,
288,
155,
62,
65429,
65493,
65520,
65431,
9,
65494,
65505,
1,
65478,
65468,
76,
65460,
65503,
12,
65471,
65457,
65473,
65502,
65450,
44,
20,
48,
12,
65475,
85,
14,
65468,
1,
18,
65465,
80,
65513,
65454,
83,
65522,
1,
65505,
65464,
65494,
65506,
65474,
73,
27,
44,
65519,
60,
65479,
65440,
68,
113,
65492,
135,
18,
32,
65480,
59,
59,
15,
65479,
65476,
86,
65470,
45,
5,
8,
65464,
65499,
66,
5,
65472,
65440,
57,
65475,
65511,
65525,
65509,
88,
24,
65518,
4,
65364,
65498,
65518,
149,
21,
65410,
65477,
65367,
65355,
65454,
65525,
11,
65462,
137,
67,
65485,
65466,
1,
14,
165,
19,
65493,
65443,
24,
40,
45,
99,
65512,
62,
14,
104,
65509,
92,
89,
13,
65416,
96,
112,
310,
113,
65524,
134,
170,
139,
65516,
65353,
65452,
45,
83,
103,
65443,
65421,
12,
65326,
65366,
65396,
65328,
65435,
14,
89,
1,
65483,
65387,
65487,
65487,
65487,
65533,
85,
65510,
65502,
90,
65446,
65498,
65361,
94,
65522,
85,
18,
65478,
155,
25,
65463,
47,
65367,
65521,
154,
158,
11,
65485,
65424,
65339,
65505,
65508,
104,
65457,
34,
65493,
18,
65509,
65456,
50,
2,
64,
65527,
65450,
24,
65534,
26,
65474,
35,
65471,
65472,
65489,
65471,
52,
66,
135,
10,
8,
65532,
48,
65495,
63,
65481,
65495,
157,
144,
58,
113,
129,
65520,
45,
118,
95,
68,
73,
59,
8,
65463,
65490,
65526,
65471,
65513,
135,
324,
279,
56,
32,
65509,
104,
466,
557,
436,
46,
79,
223,
288,
104,
332,
220,
65469,
92,
252,
253,
191,
128,
65490,
27,
43,
76,
154,
76,
69,
65517,
65439,
34,
65438,
47,
65497,
65463,
65490,
65523,
65487,
65483,
65529,
65397,
65504,
65482,
65449,
29,
50,
65410,
65428,
65530,
267,
186,
13,
69,
256,
147,
204,
166,
17,
51,
65474,
108,
154,
26,
65461,
88,
65463,
51,
65449,
40,
41,
65490,
65528,
14,
18,
65477,
65449,
58,
37,
65462,
65488,
65521,
66,
65438,
65490,
33,
65433,
65363,
65455,
65487,
65455,
65434,
65534,
65461,
65524,
65434,
65458,
65460,
65462,
65453,
91,
65473,
30,
43,
32,
65442,
15,
129,
239,
314,
273,
65436,
65434,
330,
96,
182,
261,
65419,
37,
179,
65456,
65492,
195,
65485,
65406,
169,
46,
113,
65521,
65498,
65488,
32,
107,
226,
137,
65493,
65495,
65425,
65525,
136,
53,
65479,
65470,
65359,
65432,
65383,
65452,
143,
5,
105,
139,
65418,
80,
65487,
48,
144,
58,
65526,
22,
114,
65453,
65468,
5,
25,
65522,
65499,
65451,
54,
65449,
65327,
65477,
65434,
65484,
65461,
65425,
50,
8,
65516,
60,
20,
65285,
65535,
65439,
65446,
65487,
65353,
65293,
65511,
65503,
65432,
20,
65415,
65411,
162,
176,
32,
27,
65534,
65453,
20,
65453,
65396,
35,
65432,
6,
65524,
65383,
65475,
80,
65526,
18,
23,
61,
84,
68,
65530,
65485,
65436,
63,
65443,
65476,
13,
65411,
8,
65458,
23,
65519,
65492,
65445,
65481,
65488,
59,
93,
65516,
65349,
40,
65496,
65427,
41,
65500,
65482,
80,
65503,
65517,
65477,
65486,
65491,
25,
104,
65477,
65466,
65331,
65430,
82,
114,
111,
46,
65413,
65418,
63,
97,
65483,
15,
65459,
65531,
65454,
65484,
65356,
27,
65387,
65476,
65431,
65451,
65514,
65524,
3,
65365,
65414,
65530,
65505,
67,
95,
65496,
40,
20,
65519,
65520,
65446,
65403,
65431,
65473,
65473,
65,
65533,
65448,
65526,
65507,
26,
39,
65460,
37,
19,
45,
22,
3,
65491,
65432,
172,
65493,
65490,
5,
14,
71,
65473,
89,
65477,
38,
61,
65517,
144,
58,
37,
70,
45,
30,
65528,
65510,
65494,
53,
7,
183,
85,
62,
65424,
65490,
65511,
70,
88,
41,
65363,
20,
65505,
11,
1,
65530,
65511,
65528,
117,
65499,
65356,
65443,
65,
65524,
74,
85,
65506,
1,
1,
65515,
65395,
54,
65408,
65519,
33,
65488,
65510,
6,
65521,
13,
65471,
29,
65451,
9,
11,
65491,
6,
65421,
65450,
30,
66,
110,
83,
62,
11,
65477,
65414,
103,
65499,
65495,
28,
4,
65479,
65472,
29,
53,
65509,
65508,
70,
25,
65508,
65525,
52,
65492,
65519,
83,
65473,
76,
31,
19,
8,
27,
2,
65450,
65468,
1,
58,
53,
34,
55,
32,
67,
46,
86,
53,
39,
7,
65472,
65454,
65479,
67,
65453,
170,
190,
405,
246,
78,
93,
424,
517,
570,
214,
61,
60,
456,
217,
238,
156,
65437,
36,
319,
21,
2,
213,
61,
65496,
65420,
110,
64,
65519,
65514,
35,
65513,
65479,
46,
114,
65479,
15,
65426,
65163,
65277,
100,
98,
53,
10,
65278,
65483,
65471,
65419,
3,
65442,
72,
65507,
65489,
83,
103,
65433,
65501,
65503,
65187,
65454,
41,
65444,
65410,
65417,
65484,
34,
65509,
65527,
11,
65534,
93,
92,
96,
65422,
65264,
65437,
65428,
65514,
101,
65338,
65061,
65267,
60,
205,
82,
65355,
65387,
83,
8,
218,
65507,
65443,
164,
308,
195,
32,
31,
59,
65443,
65530,
91,
65508,
65485,
21,
65501,
26,
65454,
2,
65,
81,
65534,
209,
82,
65517,
65508,
26,
110,
192,
55,
65460,
91,
65535,
40,
45,
65435,
65433,
65515,
43,
65514,
9,
65491,
45,
65513,
65514,
65490,
44,
65511,
65527,
65483,
65514,
65513,
39,
71,
16,
65475,
65306,
65463,
65414,
65489,
65500,
98,
65420,
65493,
65475,
65489,
65525,
65479,
65448,
30,
165,
127,
98,
65526,
65533,
65515,
65406,
41,
10,
84,
65495,
65520,
65472,
65506,
65405,
29,
65506,
65499,
65534,
65516,
65483,
65495,
113,
259,
220,
260,
155,
65521,
340,
212,
167,
13,
65501,
65464,
75,
65503,
65437,
65501,
65479,
23,
65438,
65399,
65436,
74,
98,
69,
65495,
63,
65474,
65471,
65475,
65517,
17,
63,
33,
28,
60,
39,
65517,
28,
65480,
65516,
65433,
65479,
55,
65421,
65499,
65494,
65454,
65484,
65529,
65471,
65527,
65478,
65447,
65494,
50,
35,
46,
65495,
68,
65513,
94,
65493,
65472,
65479,
80,
65532,
24,
49,
91,
81,
92,
71,
65534,
65450,
50,
20,
65523,
82,
107,
129,
205,
251,
65468,
65465,
65478,
101,
127,
95,
80,
65445,
65511,
32,
34,
31,
111,
65494,
65527,
65464,
65486,
65493,
65475,
74,
65530,
65528,
93,
65503,
39,
46,
65417,
65294,
65362,
65421,
65425,
46,
65383,
65262,
65287,
65442,
65525,
65449,
65506,
65308,
71,
65433,
65522,
40,
94,
14,
65380,
65,
65508,
75,
108,
2,
65407,
65424,
65493,
16,
65492,
65535,
65475,
69,
65489,
79,
10,
65451,
65490,
50,
43,
65528,
65351,
33,
65301,
65302,
65422,
65450,
65329,
65514,
65490,
65427,
29,
127,
65300,
65345,
65428,
65522,
65319,
147,
65492,
142,
65471,
97,
65496,
32,
102,
47,
18,
65505,
29,
88,
65370,
65517,
65514,
65419,
65429,
65470,
39,
65451,
117,
149,
95,
26,
140,
41,
107,
65444,
73,
65497,
65492,
65478,
65434,
66,
38,
65488,
65508,
65367,
65368,
65448,
65333,
65449,
17,
75,
65533,
65491,
65472,
30,
16,
187,
176,
158,
65494,
43,
208,
209,
107,
65466,
65484,
59,
32,
27,
65506,
65499,
65433,
26,
65459,
65421,
65510,
65439,
65419,
65451,
65501,
10,
65462,
65431,
19,
65483,
65515,
42,
79,
65453,
65520,
11,
65472,
65526,
65414,
123,
54,
12,
65420,
65507,
13,
43,
65534,
65511,
65459,
33,
65524,
195,
185,
64,
65488,
65463,
28,
65363,
17,
65432,
65472,
65423,
13,
23,
65385,
15,
58,
65518,
65516,
65428,
53,
65527,
