memory_initialization_radix=10;
memory_initialization_vector =
65509,
65390,
47,
125,
6,
65460,
65326,
65,
64,
60,
91,
65496,
0,
138,
65484,
60,
65301,
18,
323,
174,
259,
272,
231,
72,
253,
162,
32,
287,
225,
76,
144,
58,
23,
107,
65443,
143,
171,
125,
65534,
100,
64,
65465,
0,
50,
116,
65438,
65387,
65327,
123,
65305,
65413,
65528,
155,
65493,
49,
65256,
65196,
65449,
65524,
65482,
96,
65390,
65423,
54,
65472,
65412,
65526,
65472,
28,
35,
65407,
65478,
65476,
94,
120,
110,
17,
65474,
65394,
65509,
65499,
46,
37,
65505,
65488,
65463,
65524,
65462,
22,
65504,
65524,
65375,
42,
72,
61,
65462,
60,
65410,
65474,
7,
46,
65493,
65408,
65433,
43,
65369,
65516,
132,
39,
65510,
7,
65433,
65360,
65454,
149,
64,
65493,
114,
65453,
65408,
128,
65445,
162,
191,
54,
58,
65472,
65529,
70,
65398,
65361,
65421,
91,
65521,
65385,
65523,
65415,
65434,
128,
65531,
65444,
65417,
65381,
65414,
1,
60,
65473,
65516,
65446,
83,
65457,
78,
65482,
49,
65448,
65509,
65485,
65463,
65499,
65468,
72,
65517,
65512,
65474,
20,
65513,
36,
65490,
65522,
65461,
25,
2,
63,
0,
49,
65523,
86,
80,
52,
65444,
8,
90,
85,
65516,
65416,
65437,
65470,
65449,
65531,
65500,
109,
65387,
65369,
65433,
65438,
36,
42,
65497,
44,
65420,
65296,
65445,
29,
33,
161,
65462,
65411,
65484,
8,
65490,
27,
144,
65460,
65531,
44,
65462,
179,
132,
157,
65514,
112,
65411,
105,
161,
207,
65415,
6,
65480,
84,
32,
65402,
65421,
54,
20,
26,
65474,
65374,
65300,
43,
65448,
65394,
65427,
65501,
65456,
95,
65446,
65336,
65527,
65518,
65466,
65494,
55,
65469,
65389,
31,
16,
65491,
65485,
65493,
59,
91,
65476,
65501,
65324,
11,
84,
108,
65497,
11,
20,
65,
10,
63,
65476,
65525,
47,
35,
65427,
65533,
65486,
31,
65364,
35,
83,
65472,
43,
4,
65521,
106,
8,
65493,
65447,
34,
270,
82,
14,
65517,
65500,
11,
146,
48,
65419,
27,
75,
190,
72,
15,
36,
65505,
65506,
65419,
108,
10,
35,
42,
39,
65,
18,
65503,
34,
65524,
10,
15,
181,
131,
17,
139,
133,
144,
111,
21,
82,
91,
69,
65475,
65488,
65425,
0,
151,
136,
65484,
65499,
62,
65469,
65458,
77,
47,
65488,
195,
72,
36,
98,
5,
245,
40,
6,
65495,
65534,
71,
79,
65532,
65471,
14,
34,
65472,
65471,
52,
60,
65515,
65527,
29,
65533,
65446,
85,
27,
65519,
17,
28,
65485,
4,
65471,
50,
8,
65532,
65481,
65499,
37,
65454,
65509,
65523,
46,
86,
65518,
7,
65481,
75,
75,
67,
75,
56,
65498,
65147,
22,
65471,
104,
8,
65402,
65405,
59,
34,
28,
65419,
65269,
65373,
65473,
161,
65519,
56,
39,
65442,
65393,
16,
61,
45,
65472,
65368,
2,
58,
65431,
4,
65444,
65444,
65531,
65462,
65493,
65502,
65429,
65394,
78,
65458,
2,
49,
65413,
65488,
48,
23,
167,
86,
122,
65522,
121,
65480,
11,
177,
70,
124,
65486,
132,
130,
133,
54,
62,
63,
65520,
38,
38,
50,
65511,
65425,
65317,
65300,
65340,
65409,
92,
42,
47,
65496,
1,
44,
46,
212,
91,
65481,
65469,
0,
65422,
156,
149,
65494,
65319,
65264,
63,
128,
65471,
65519,
208,
247,
65400,
16,
295,
299,
306,
104,
43,
65528,
75,
147,
65517,
152,
288,
250,
102,
117,
38,
20,
34,
69,
98,
100,
91,
65514,
81,
67,
226,
388,
263,
55,
74,
2,
174,
78,
118,
65521,
65501,
65447,
65518,
115,
110,
104,
154,
45,
65435,
45,
105,
65510,
7,
65509,
175,
65458,
147,
65433,
28,
11,
152,
91,
78,
65361,
65470,
65513,
30,
174,
1,
149,
65489,
6,
26,
55,
65509,
65520,
65418,
12,
65480,
65461,
26,
65523,
65458,
65511,
65483,
65405,
65486,
57,
65398,
65426,
65433,
105,
65507,
36,
65457,
65510,
49,
65492,
65488,
32,
65399,
65527,
65472,
65482,
65370,
65518,
65510,
92,
65437,
35,
65464,
65395,
8,
65420,
65521,
65517,
65466,
34,
65518,
65258,
65291,
65359,
65392,
65303,
106,
65448,
43,
24,
65435,
65461,
119,
202,
152,
65370,
66,
18,
79,
166,
56,
65332,
65211,
65413,
229,
192,
65426,
70,
42,
188,
26,
64,
248,
434,
292,
146,
173,
65530,
65511,
114,
124,
64,
222,
65446,
153,
204,
109,
65456,
73,
73,
295,
202,
13,
133,
13,
100,
148,
398,
494,
60,
181,
53,
258,
137,
236,
106,
103,
52,
138,
65445,
65401,
65401,
78,
6,
65525,
7,
188,
226,
65525,
65390,
137,
267,
178,
65428,
65534,
65446,
252,
65526,
72,
24,
22,
148,
347,
420,
218,
32,
1,
131,
154,
117,
255,
285,
58,
53,
72,
65475,
53,
65410,
65485,
6,
65426,
100,
65501,
65406,
65240,
15,
65493,
105,
65426,
65418,
65329,
65433,
66,
15,
65525,
65517,
65369,
65496,
158,
111,
65447,
65533,
65491,
65407,
65452,
135,
65526,
65470,
65393,
65395,
65474,
65446,
65503,
65518,
65462,
156,
65484,
65448,
100,
151,
97,
65514,
121,
65460,
97,
278,
80,
72,
65502,
104,
65467,
41,
65519,
198,
65482,
65145,
65344,
65481,
150,
53,
35,
65468,
65403,
65424,
197,
139,
154,
167,
332,
190,
113,
65434,
65321,
65502,
65497,
65446,
172,
65521,
65294,
65534,
151,
123,
80,
65500,
62,
185,
1,
65352,
65317,
65296,
65454,
65510,
65478,
65484,
65482,
65485,
65404,
6,
82,
65438,
65503,
257,
65413,
65350,
65465,
65421,
65442,
65316,
65442,
65449,
108,
65499,
65487,
65319,
65483,
65529,
252,
177,
165,
17,
182,
147,
31,
65257,
65447,
65515,
93,
347,
206,
65489,
65441,
16,
39,
188,
143,
58,
65440,
59,
172,
59,
86,
86,
65499,
46,
106,
65479,
88,
78,
65318,
75,
65487,
65460,
65352,
45,
65435,
36,
65411,
65445,
65527,
52,
207,
65329,
65393,
65229,
65506,
103,
55,
65415,
65446,
65442,
65403,
65449,
131,
65491,
65373,
65352,
75,
65398,
65428,
65471,
65468,
65375,
65384,
65406,
152,
65411,
65436,
65191,
65352,
89,
226,
65456,
65358,
33,
153,
65505,
65496,
65382,
65391,
65056,
65053,
65424,
65519,
65526,
65424,
65456,
65266,
65366,
143,
128,
85,
12,
36,
65380,
65526,
65479,
0,
65427,
65394,
65406,
65386,
65456,
65496,
74,
65496,
14,
65485,
65460,
164,
96,
65490,
168,
65464,
51,
125,
5,
14,
158,
48,
65508,
88,
102,
65525,
65460,
65501,
65492,
65521,
65463,
65478,
16,
65448,
128,
63,
157,
128,
65489,
65420,
65440,
65528,
141,
65418,
65434,
65472,
65487,
65,
116,
15,
18,
113,
65520,
93,
53,
187,
8,
87,
74,
30,
65516,
65400,
110,
53,
8,
65517,
65526,
65412,
65530,
65526,
65490,
65469,
65481,
65516,
54,
65524,
59,
65473,
65465,
42,
7,
65460,
22,
41,
65438,
65470,
0,
65441,
75,
7,
65510,
65435,
65525,
65469,
65508,
50,
69,
65486,
65466,
88,
55,
54,
52,
65495,
26,
65533,
65526,
65471,
65530,
65437,
65433,
65415,
65509,
65470,
19,
65359,
65451,
65371,
12,
65456,
5,
65468,
65435,
65450,
65431,
164,
65452,
0,
68,
65473,
65320,
65441,
28,
43,
65468,
65472,
65385,
65385,
10,
65517,
65483,
65520,
89,
86,
68,
6,
10,
34,
91,
26,
65518,
65533,
65510,
15,
65510,
65513,
65450,
32,
65456,
68,
78,
65477,
65480,
3,
28,
65501,
65456,
85,
46,
40,
65465,
48,
65501,
1,
65521,
84,
65488,
65475,
51,
65440,
41,
65475,
65419,
65494,
43,
158,
65491,
65533,
100,
65389,
65467,
214,
146,
65499,
65511,
65507,
65535,
169,
111,
96,
122,
65428,
65510,
114,
86,
33,
65451,
65496,
65473,
65471,
65516,
77,
65499,
65435,
5,
37,
65479,
65519,
65485,
27,
65492,
79,
16,
65454,
0,
65495,
65,
25,
58,
40,
65507,
0,
65528,
65498,
65529,
46,
63,
65475,
65462,
65481,
65457,
65484,
65507,
22,
65471,
63,
5,
65516,
65497,
65454,
65532,
16,
65524,
46,
65485,
65355,
52,
16,
65464,
54,
65494,
65303,
65505,
65438,
162,
15,
69,
99,
65377,
107,
131,
239,
24,
65494,
65517,
140,
65528,
65489,
65343,
54,
65510,
65315,
65276,
65394,
65477,
65486,
54,
65,
116,
65534,
50,
65500,
205,
65528,
65486,
65386,
65427,
77,
65505,
81,
22,
37,
131,
24,
65495,
77,
65527,
205,
190,
45,
65410,
76,
185,
64,
65485,
65535,
65435,
65512,
65494,
128,
65446,
65505,
214,
151,
102,
102,
65505,
65375,
160,
65513,
74,
65349,
65218,
65514,
202,
65381,
65475,
244,
76,
152,
175,
65477,
65123,
65507,
165,
65470,
241,
65501,
65462,
65435,
79,
47,
91,
65457,
49,
141,
77,
22,
58,
80,
65479,
23,
24,
49,
109,
199,
101,
65414,
65333,
65403,
123,
65522,
65402,
65489,
65483,
65414,
62,
65530,
11,
65531,
65458,
65355,
167,
65457,
65429,
29,
91,
65364,
65497,
102,
37,
65525,
65507,
65494,
13,
126,
75,
137,
76,
65470,
80,
103,
209,
65481,
65470,
65315,
65532,
164,
223,
247,
136,
65416,
65268,
245,
406,
149,
65487,
65419,
65516,
65496,
158,
87,
65387,
65457,
65486,
65302,
65232,
65491,
65386,
20,
65521,
65433,
65507,
65508,
44,
65505,
27,
107,
66,
65528,
65468,
65457,
65514,
39,
44,
165,
65483,
65465,
53,
65428,
65399,
65531,
65471,
65339,
93,
65419,
65461,
65501,
65500,
65446,
65396,
65413,
65433,
65473,
65465,
65480,
65473,
65412,
65371,
65419,
65510,
65329,
65531,
65401,
65352,
123,
167,
65446,
65515,
65335,
65140,
65287,
65478,
79,
65456,
65433,
65179,
65205,
114,
21,
82,
35,
61,
86,
147,
65402,
65418,
65490,
238,
175,
65510,
65358,
65433,
65431,
22,
31,
65445,
42,
65495,
65491,
0,
65502,
65484,
65433,
54,
65526,
65519,
65440,
38,
65472,
65484,
65466,
81,
65522,
65466,
65489,
63,
0,
65467,
53,
61,
65468,
65488,
30,
65425,
65471,
65468,
40,
60,
65419,
36,
117,
65412,
65401,
150,
65521,
67,
65405,
65524,
65436,
28,
65488,
65482,
22,
65421,
65464,
82,
22,
2,
21,
32,
65531,
65306,
65476,
41,
104,
18,
65381,
18,
65532,
65406,
5,
65445,
65445,
65413,
65402,
65469,
65528,
170,
276,
0,
65321,
65516,
41,
243,
296,
65233,
65206,
65338,
65477,
42,
136,
65340,
65263,
65256,
65429,
81,
108,
136,
34,
65364,
65389,
65412,
20,
68,
65490,
1,
65386,
65329,
65452,
65489,
184,
87,
84,
65472,
105,
65477,
65479,
22,
65468,
28,
155,
65349,
174,
348,
240,
65153,
74,
65310,
421,
759,
521,
65388,
65379,
15,
195,
258,
176,
65427,
14,
13,
65399,
65399,
65326,
65412,
36,
81,
65506,
61,
117,
121,
65483,
65331,
142,
119,
23,
12,
65453,
61,
39,
65511,
93,
65500,
225,
224,
71,
39,
33,
179,
100,
249,
121,
65505,
116,
284,
79,
136,
84,
14,
103,
65499,
76,
46,
65524,
29,
55,
65521,
65456,
29,
54,
66,
65441,
67,
65511,
65501,
65524,
73,
13,
65534,
65431,
65510,
65527,
16,
65493,
54,
24,
65460,
65477,
65526,
65430,
65530,
21,
57,
65461,
65534,
39,
24,
59,
65522,
105,
4,
65486,
65491,
42,
65508,
128,
83,
33,
65502,
65516,
89,
116,
102,
65494,
197,
42,
62,
65462,
65523,
2,
67,
25,
65489,
65532,
65438,
65386,
24,
65513,
65434,
65425,
65368,
65393,
65457,
15,
65471,
65413,
118,
53,
14,
65513,
65418,
133,
360,
118,
65443,
24,
50,
234,
59,
61,
65291,
65388,
65473,
200,
406,
258,
55,
65388,
172,
274,
94,
248,
167,
65442,
13,
65496,
44,
65424,
65417,
65444,
65500,
102,
72,
65444,
65507,
50,
65505,
65525,
2,
184,
117,
65440,
65528,
65357,
65280,
12,
65529,
66,
65479,
65523,
65437,
65522,
160,
65522,
65514,
65477,
65498,
65507,
59,
65472,
36,
65491,
153,
91,
43,
61,
65462,
65522,
27,
65502,
17,
65475,
65490,
2,
65491,
31,
65455,
65432,
79,
65520,
65483,
45,
65468,
1,
65486,
38,
65519,
65521,
0,
65461,
72,
63,
65475,
65528,
65461,
65531,
65526,
9,
0,
65,
40,
65427,
65533,
36,
53,
40,
12,
7,
65446,
61,
211,
182,
112,
105,
77,
100,
65531,
85,
5,
215,
224,
147,
35,
215,
246,
204,
103,
63,
124,
75,
48,
303,
245,
129,
200,
236,
102,
10,
65339,
65341,
65524,
65417,
5,
128,
64,
65436,
65287,
62,
21,
198,
65421,
65357,
59,
66,
65331,
65368,
65405,
65283,
64988,
64956,
65282,
65515,
14,
65318,
65336,
65481,
65449,
65445,
124,
55,
201,
152,
85,
65403,
65511,
62,
65462,
30,
65532,
43,
67,
3,
65467,
65519,
22,
65433,
65480,
65450,
65446,
65467,
53,
81,
65436,
9,
49,
65476,
65462,
81,
65503,
65530,
10,
65472,
65442,
65515,
65466,
65527,
35,
39,
65470,
9,
65398,
65480,
65458,
65527,
65451,
65511,
15,
105,
65398,
65460,
85,
5,
96,
65508,
65478,
65447,
16,
111,
79,
65532,
164,
88,
65508,
65531,
29,
76,
124,
128,
103,
65486,
23,
65474,
107,
65527,
19,
130,
65387,
65479,
65477,
56,
59,
65352,
65364,
15,
65524,
189,
65519,
65465,
65497,
73,
68,
69,
65527,
65498,
0,
70,
25,
65456,
110,
61,
65502,
112,
65499,
65459,
65462,
61,
65,
117,
65504,
65368,
65379,
65466,
57,
5,
30,
65518,
24,
65518,
65530,
49,
29,
65504,
65418,
65485,
102,
82,
65422,
65341,
65439,
65495,
107,
54,
65411,
65241,
65447,
65470,
63,
65414,
65468,
65509,
145,
65482,
65420,
57,
160,
238,
194,
115,
65489,
65402,
65493,
22,
65405,
65393,
48,
58,
131,
79,
65278,
65403,
65525,
15,
91,
29,
65419,
65465,
67,
92,
136,
43,
65478,
65530,
65374,
71,
17,
189,
65487,
65383,
65382,
65487,
65481,
21,
65533,
65347,
49,
86,
119,
37,
64,
146,
38,
144,
52,
138,
51,
39,
240,
49,
15,
65517,
14,
158,
65518,
92,
30,
8,
65510,
65532,
51,
46,
47,
65494,
65451,
75,
105,
63,
119,
37,
186,
145,
65523,
63,
65446,
65454,
0,
65516,
65514,
65522,
65481,
44,
81,
65502,
38,
65445,
65384,
65383,
0,
65517,
61,
65439,
65419,
65362,
40,
61,
55,
65530,
65514,
154,
155,
65438,
65474,
82,
65501,
118,
45,
7,
56,
50,
65430,
65399,
60,
95,
52,
65498,
65458,
65476,
65435,
111,
65516,
65322,
61,
65330,
65383,
65363,
65407,
65405,
65091,
65183,
65277,
65499,
65428,
65295,
65199,
65379,
65463,
65464,
56,
65483,
65327,
18,
102,
71,
93,
89,
79,
65464,
65506,
65438,
65435,
65531,
65501,
176,
247,
65452,
65455,
183,
179,
266,
65498,
65448,
65291,
380,
603,
560,
33,
65443,
65394,
244,
313,
426,
67,
65362,
32,
65334,
65423,
65419,
65458,
153,
93,
230,
32,
65512,
79,
65305,
202,
103,
117,
65408,
65483,
65208,
98,
169,
221,
214,
30,
65461,
65409,
71,
381,
320,
65531,
65534,
171,
1,
6,
65389,
65442,
65469,
65515,
65465,
65307,
65293,
65464,
65531,
65371,
65502,
65356,
65460,
65528,
10,
65432,
65491,
65392,
21,
65448,
309,
65506,
65416,
65479,
65496,
65414,
65524,
108,
65151,
64856,
65117,
65353,
65493,
7,
65383,
65,
65355,
65392,
65487,
2,
347,
475,
261,
117,
65417,
97,
65521,
65515,
65,
65413,
29,
72,
55,
65503,
65449,
15,
65424,
65440,
65535,
48,
65467,
65457,
56,
128,
127,
46,
0,
65520,
65508,
29,
100,
138,
65477,
23,
103,
46,
76,
65370,
51,
65510,
65478,
65526,
65372,
65444,
65325,
65412,
65467,
65527,
65320,
65174,
65509,
76,
65518,
65445,
65312,
65267,
78,
30,
12,
65458,
65393,
65421,
141,
47,
65462,
65465,
29,
65373,
76,
65515,
65405,
65505,
65449,
123,
158,
11,
65484,
182,
9,
65471,
65500,
65531,
61,
65471,
91,
65459,
119,
65529,
73,
65459,
29,
4,
154,
124,
51,
119,
65421,
2,
65454,
213,
70,
36,
65529,
65526,
17,
86,
65513,
31,
65493,
65479,
65384,
65438,
65482,
40,
184,
65476,
65371,
65492,
26,
89,
65522,
65448,
148,
19,
149,
73,
49,
65444,
104,
42,
68,
65472,
65508,
65508,
3,
65386,
65481,
78,
9,
29,
65295,
65509,
65508,
47,
65464,
37,
65528,
3,
152,
65528,
3,
65428,
12,
65517,
155,
23,
65439,
65487,
60,
80,
202,
65518,
65517,
65454,
122,
70,
303,
49,
65466,
65394,
28,
196,
403,
125,
124,
65468,
65502,
25,
159,
56,
199,
158,
161,
56,
196,
88,
63,
1,
65391,
65420,
48,
24,
54,
104,
194,
70,
65389,
65460,
325,
199,
212,
65504,
6,
65429,
223,
372,
257,
65468,
65533,
42,
161,
160,
239,
120,
65506,
62,
65495,
96,
65484,
65491,
22,
26,
101,
22,
65466,
24,
183,
144,
25,
89,
136,
162,
174,
54,
65525,
2,
126,
96,
207,
156,
31,
51,
65509,
16,
29,
41,
128,
20,
65474,
22,
262,
144,
25,
139,
70,
103,
208,
41,
65488,
139,
117,
4,
65267,
65285,
75,
184,
65496,
65477,
65475,
65513,
66,
61,
49,
56,
73,
293,
58,
162,
226,
171,
149,
160,
65509,
139,
214,
237,
34,
108,
179,
77,
24,
65482,
73,
21,
65496,
65496,
65493,
65436,
65455,
65479,
65405,
65505,
62,
28,
65425,
58,
65476,
65441,
65437,
65507,
44,
65490,
65373,
65410,
65445,
105,
65535,
65462,
65535,
65482,
65528,
21,
65459,
65501,
84,
5,
52,
65507,
13,
149,
371,
247,
27,
72,
65529,
196,
108,
146,
81,
65516,
65427,
117,
65493,
65317,
23,
182,
53,
181,
65302,
65474,
65308,
142,
65519,
66,
65427,
65259,
65333,
1,
65407,
65391,
48,
65402,
65469,
65499,
25,
97,
18,
65461,
65256,
65492,
179,
152,
65408,
65360,
65460,
65521,
65495,
65504,
65408,
16,
65514,
65399,
65499,
65366,
65457,
52,
65415,
65329,
65506,
65490,
65469,
65465,
65396,
65363,
65443,
65507,
65442,
65398,
65416,
43,
86,
125,
203,
236,
123,
35,
65485,
114,
144,
65487,
75,
65378,
65251,
109,
65421,
65514,
65480,
273,
178,
148,
65478,
65349,
65432,
116,
29,
155,
65490,
65468,
65318,
95,
73,
65487,
106,
65436,
76,
65532,
21,
65509,
14,
35,
65458,
65453,
32,
65451,
65510,
65529,
65511,
65517,
65519,
20,
12,
39,
65454,
65518,
71,
19,
32,
65452,
65504,
65447,
29,
65497,
65465,
2,
65443,
65452,
64,
65519,
65458,
65458,
55,
49,
52,
1,
27,
65458,
152,
8,
65433,
65462,
5,
68,
65430,
65535,
65490,
65402,
65478,
65391,
65503,
2,
31,
65454,
65411,
65412,
65325,
85,
65450,
125,
65327,
65473,
65299,
65483,
65361,
14,
14,
65311,
65354,
65319,
65463,
68,
65495,
65522,
65514,
65433,
65423,
42,
65513,
65475,
65352,
65205,
65530,
65488,
65332,
65528,
65424,
65396,
22,
65495,
65466,
65226,
65367,
65374,
65530,
63,
65236,
65291,
65403,
39,
65484,
126,
52,
48,
211,
72,
65509,
65312,
65467,
65452,
65430,
65450,
190,
65488,
65421,
65464,
126,
117,
189,
65391,
116,
157,
65528,
65389,
65492,
65313,
6,
65534,
65396,
65482,
65501,
65408,
65521,
41,
31,
65477,
104,
16,
65462,
65530,
135,
108,
65420,
129,
240,
162,
54,
129,
25,
47,
163,
118,
65516,
65475,
60,
65511,
65312,
65483,
65318,
65486,
129,
194,
65153,
64932,
65091,
102,
99,
18,
65310,
65256,
1,
40,
62,
65451,
227,
233,
267,
143,
75,
65437,
65511,
65455,
45,
65470,
10,
65450,
50,
29,
65484,
65497,
65504,
1,
65512,
65454,
11,
41,
76,
65484,
74,
2,
65495,
19,
27,
15,
53,
26,
65519,
65525,
65462,
35,
65520,
1,
65469,
29,
9,
65452,
3,
82,
114,
65386,
65199,
38,
29,
23,
65408,
65522,
65279,
45,
93,
89,
65321,
65463,
65415,
71,
100,
65519,
65405,
65400,
65389,
65264,
65506,
65489,
15,
65526,
65435,
65494,
21,
1,
45,
65525,
65417,
99,
200,
6,
72,
101,
41,
163,
38,
65494,
29,
14,
125,
87,
65501,
65517,
65343,
96,
160,
175,
65325,
65245,
65356,
177,
199,
65457,
65421,
65458,
65447,
8,
149,
74,
191,
170,
208,
159,
113,
65441,
36,
65484,
65448,
25,
65417,
68,
46,
15,
65485,
65495,
65467,
25,
141,
104,
65533,
27,
65490,
48,
96,
46,
42,
46,
76,
116,
93,
116,
104,
17,
69,
65477,
34,
86,
65522,
65510,
35,
129,
19,
65345,
65404,
46,
25,
65478,
65390,
65424,
18,
65483,
163,
65500,
65351,
65509,
65347,
65511,
65521,
65280,
65274,
65020,
65016,
65305,
65513,
65415,
65284,
65288,
65341,
65421,
65512,
46,
65470,
65218,
70,
81,
11,
71,
172,
123,
168,
143,
65339,
65512,
78,
65512,
124,
141,
65478,
65455,
65175,
65039,
65194,
40,
319,
120,
65469,
65120,
65176,
308,
167,
65469,
65443,
65511,
5,
99,
65427,
65447,
65525,
44,
65493,
65504,
112,
141,
66,
36,
39,
121,
77,
29,
94,
100,
113,
65454,
51,
174,
217,
65517,
100,
65383,
65526,
75,
205,
271,
150,
56,
65533,
65390,
92,
168,
135,
94,
122,
65533,
65424,
26,
78,
46,
75,
65513,
86,
8,
65480,
37,
93,
155,
65463,
66,
4,
72,
65410,
65485,
65525,
38,
65408,
65535,
65421,
65351,
9,
74,
65362,
65371,
65349,
65399,
65500,
32,
65450,
65445,
65487,
65359,
65530,
65521,
65483,
65500,
29,
117,
65314,
65446,
65397,
72,
65418,
90,
65459,
47,
65503,
65317,
7,
156,
9,
65491,
65468,
65506,
68,
6,
65433,
65302,
65290,
65333,
65429,
79,
65345,
65389,
65319,
48,
65397,
65459,
259,
280,
155,
153,
65413,
35,
39,
65456,
18,
65452,
65496,
23,
65452,
65491,
30,
65466,
56,
5,
3,
84,
38,
65496,
65483,
27,
25,
76,
65518,
65522,
54,
60,
65521,
65486,
65436,
53,
62,
65453,
4,
74,
65487,
65473,
50,
65480,
65502,
65468,
34,
65528,
22,
48,
64,
6,
65504,
26,
65471,
65516,
65533,
100,
84,
59,
28,
65405,
114,
65528,
97,
65482,
46,
65502,
35,
104,
65450,
65502,
58,
21,
65449,
65501,
65457,
11,
126,
65517,
65416,
22,
65527,
65413,
4,
2,
65517,
65331,
65468,
65441,
48,
65515,
65455,
55,
65521,
65490,
116,
65479,
65447,
65526,
120,
35,
65467,
65534,
23,
64,
9,
65456,
65486,
0,
65455,
65487,
26,
65532,
65411,
65241,
65427,
65492,
44,
65522,
50,
65347,
65366,
65485,
90,
24,
349,
65280,
65525,
65517,
23,
65158,
65476,
65345,
101,
157,
115,
23,
116,
65441,
119,
87,
95,
59,
177,
184,
65461,
65443,
65534,
65459,
43,
65413,
65501,
27,
157,
67,
65284,
65314,
65532,
65522,
65470,
65421,
65317,
65357,
65516,
7,
65437,
65509,
71,
38,
22,
166,
237,
114,
65528,
1,
17,
208,
27,
92,
65458,
65477,
65513,
65462,
65472,
65530,
65504,
33,
65483,
50,
12,
105,
24,
83,
65506,
65515,
65451,
46,
135,
65458,
65427,
65490,
65413,
124,
96,
142,
65295,
65133,
65164,
80,
97,
3,
65394,
65349,
65350,
65504,
65493,
65390,
40,
102,
250,
85,
65467,
51,
65486,
45,
65454,
26,
68,
36,
65376,
65468,
92,
65399,
74,
65395,
65155,
65414,
65362,
255,
110,
65526,
65116,
65176,
65167,
65399,
47,
78,
65349,
65348,
65102,
65398,
97,
65534,
144,
40,
65510,
92,
34,
168,
87,
33,
31,
6,
65360,
61,
27,
65505,
65398,
65418,
65387,
25,
65347,
50,
65468,
65462,
5,
4,
65423,
65312,
65341,
65510,
65398,
216,
65351,
65455,
65395,
19,
71,
14,
65511,
65517,
149,
20,
100,
43,
65467,
153,
79,
65498,
101,
21,
65432,
65505,
81,
65519,
60,
65511,
24,
351,
223,
65464,
15,
65436,
65450,
339,
412,
65532,
65486,
121,
65429,
4,
240,
65526,
65415,
240,
65426,
65458,
65468,
65488,
65417,
34,
11,
65447,
65486,
65452,
207,
65504,
65309,
65427,
7,
83,
14,
65413,
65370,
65458,
65498,
65463,
65459,
65254,
65465,
4,
20,
65374,
4,
65523,
65420,
51,
65486,
65529,
65470,
65330,
65472,
8,
65535,
65490,
65453,
101,
62,
65505,
80,
87,
65379,
25,
65383,
5,
30,
65476,
36,
65324,
1,
65492,
65460,
65533,
74,
65326,
65493,
104,
65529,
65384,
65489,
65533,
126,
48,
65364,
65347,
65457,
65446,
65465,
65266,
65434,
65502,
65422,
28,
65509,
19,
62,
65408,
65486,
112,
65,
29,
65529,
65533,
65315,
206,
81,
108,
99,
65406,
65443,
92,
125,
100,
13,
71,
65388,
74,
65499,
65477,
30,
65453,
65426,
65508,
65420,
65329,
65381,
65436,
19,
1,
231,
65493,
65366,
23,
81,
5,
65495,
65372,
1,
182,
65382,
65348,
65389,
65331,
85,
65502,
65451,
65320,
121,
206,
386,
128,
65466,
65378,
178,
117,
227,
65464,
65337,
65464,
65337,
7,
65461,
65457,
114,
65516,
65527,
69,
65494,
65380,
65451,
65519,
33,
5,
29,
66,
85,
65486,
204,
65500,
62,
34,
9,
11,
148,
65510,
65465,
2,
65533,
65460,
36,
65528,
65429,
65524,
65446,
65341,
65455,
44,
65503,
70,
22,
34,
3,
5,
65528,
65431,
65526,
179,
9,
65469,
65499,
65488,
65516,
65528,
20,
74,
126,
83,
88,
42,
36,
81,
116,
122,
52,
8,
0,
142,
192,
65527,
65527,
35,
65516,
65532,
133,
65495,
65505,
65499,
65508,
65456,
65470,
10,
65458,
65530,
65441,
65393,
42,
4,
140,
65407,
65407,
65382,
65389,
5,
42,
65432,
65252,
65266,
65290,
65418,
126,
65533,
65419,
65478,
65361,
65349,
22,
13,
65469,
65480,
83,
65491,
65515,
65352,
65405,
10,
47,
65530,
65434,
65479,
65408,
65452,
93,
27,
45,
61,
38,
65490,
65490,
84,
65501,
36,
143,
65475,
65389,
24,
65476,
47,
38,
65494,
65511,
112,
37,
112,
65502,
65415,
65456,
65446,
32,
34,
65442,
34,
65459,
42,
65526,
65500,
53,
56,
65499,
65535,
32,
30,
82,
61,
65527,
65493,
65442,
65476,
65477,
65493,
65504,
65434,
65450,
65454,
59,
65519,
65436,
65522,
65470,
65521,
83,
65469,
35,
19,
39,
65408,
65491,
65442,
65345,
39,
259,
65393,
65428,
65450,
65475,
60,
168,
65482,
10,
22,
65520,
6,
65513,
65422,
65428,
74,
0,
65479,
65491,
65523,
65502,
65473,
65513,
10,
2,
65518,
24,
9,
65516,
65383,
15,
65534,
65535,
60,
1,
65517,
122,
65444,
65462,
65481,
78,
65533,
65498,
65521,
217,
343,
248,
65266,
40,
65461,
119,
295,
361,
0,
65533,
68,
266,
239,
204,
65343,
151,
208,
65448,
65287,
65315,
65429,
65392,
49,
65495,
56,
65404,
65497,
65485,
238,
470,
168,
65487,
65488,
65329,
250,
254,
128,
65435,
104,
0,
119,
112,
65530,
17,
98,
65461,
65484,
136,
12,
86,
51,
65528,
65523,
65422,
65388,
65441,
40,
30,
65487,
65531,
65493,
117,
21,
65499,
65438,
65503,
35,
65,
198,
94,
18,
65482,
65506,
25,
65482,
39,
16,
10,
99,
15,
65490,
98,
65464,
65517,
3,
132,
65519,
65523,
65482,
89,
196,
66,
62,
18,
12,
65345,
65469,
64,
75,
65485,
65317,
101,
63,
157,
65495,
62,
65513,
71,
65503,
55,
13,
170,
260,
53,
141,
135,
281,
43,
61,
61,
45,
164,
143,
35,
170,
65508,
21,
2,
74,
65499,
65235,
65493,
65401,
16,
65488,
4,
65377,
63,
77,
82,
61,
250,
65377,
181,
107,
208,
65321,
65528,
65440,
82,
95,
204,
65478,
125,
160,
65472,
65468,
65462,
31,
91,
100,
9,
45,
35,
65443,
65435,
65517,
58,
54,
14,
65516,
65520,
109,
112,
73,
4,
45,
57,
65469,
34,
57,
65419,
43,
65439,
15,
83,
71,
52,
65449,
78,
65500,
57,
10,
86,
65464,
65476,
65461,
65509,
34,
96,
65510,
65453,
0,
65498,
140,
205,
65504,
66,
114,
65410,
39,
65505,
149,
125,
65440,
65501,
65526,
65454,
124,
65531,
65435,
65436,
65362,
5,
65469,
229,
65507,
65409,
65468,
15,
0,
139,
65449,
44,
32,
114,
86,
69,
65494,
34,
65535,
65462,
76,
27,
65384,
234,
57,
66,
65466,
197,
106,
152,
65534,
110,
65395,
120,
395,
146,
64,
178,
147,
231,
113,
227,
0,
188,
92,
192,
220,
129,
158,
194,
16,
137,
65449,
88,
65458,
65421,
65437,
65490,
65360,
19,
5,
11,
28,
9,
65391,
65438,
182,
65,
118,
65518,
65442,
245,
433,
450,
52,
65465,
65495,
65528,
10,
161,
5,
233,
146,
65461,
23,
172,
127,
14,
67,
81,
28,
88,
52,
215,
75,
65419,
10,
65534,
59,
65479,
65403,
58,
124,
147,
65435,
28,
65503,
65531,
338,
283,
144,
65482,
43,
184,
168,
151,
65513,
65517,
65494,
65370,
65367,
65276,
65434,
65441,
25,
65522,
37,
56,
65485,
19,
65451,
65523,
65517,
179,
24,
65505,
65512,
89,
65349,
65430,
65436,
65469,
65454,
159,
306,
129,
27,
72,
65526,
94,
56,
36,
155,
48,
65533,
28,
127,
65473,
65410,
65528,
35,
65419,
8,
159,
77,
65324,
65466,
65531,
153,
65295,
65503,
65432,
65358,
78,
65528,
65353,
7,
65517,
65525,
38,
26,
130,
160,
24,
25,
65527,
198,
110,
27,
65471,
65464,
65504,
65477,
64,
63,
65459,
