memory_initialization_radix=10;
memory_initialization_vector =
12,
65327,
65372,
14,
65473,
226,
65501,
65494,
65438,
65526,
62,
140,
15,
65343,
1,
65481,
65501,
118,
27,
65532,
14,
51,
65365,
52,
65418,
65408,
25,
65456,
65401,
65533,
65390,
65383,
8,
65532,
65449,
65534,
65456,
65459,
65530,
65304,
65522,
14,
28,
65468,
65408,
65322,
65522,
8,
116,
14,
65468,
65528,
65476,
65392,
65472,
49,
65462,
65420,
65410,
65435,
65451,
39,
65305,
31,
65362,
65470,
38,
65524,
35,
13,
65311,
65465,
67,
5,
65458,
65442,
154,
204,
65417,
65453,
65458,
65379,
65477,
200,
105,
65436,
65406,
65268,
65318,
65520,
65499,
65466,
67,
65411,
65435,
39,
68,
65491,
160,
65517,
65532,
211,
94,
65502,
0,
34,
129,
82,
65520,
60,
58,
65513,
65487,
65337,
73,
137,
65386,
65508,
65394,
65322,
45,
65497,
105,
154,
18,
65237,
0,
233,
63,
65,
65491,
65175,
15,
65505,
65399,
65449,
65368,
65231,
65359,
65520,
65450,
65417,
65360,
65225,
84,
65443,
65534,
3,
65481,
88,
48,
65530,
65469,
61,
37,
50,
65448,
76,
9,
43,
65485,
39,
65443,
71,
55,
15,
2,
62,
76,
65442,
65507,
67,
65508,
65488,
65511,
76,
78,
35,
22,
65527,
19,
65285,
65209,
65257,
65426,
15,
65463,
65238,
65299,
65253,
65364,
29,
65421,
65457,
65497,
65334,
65507,
65458,
65446,
51,
75,
32,
65389,
65499,
46,
65503,
71,
65510,
65451,
53,
73,
65446,
1,
65485,
6,
76,
65329,
65528,
107,
39,
65533,
65430,
65420,
38,
134,
70,
6,
85,
65530,
34,
65520,
65525,
65532,
93,
65334,
107,
65512,
65458,
65466,
21,
65511,
30,
75,
103,
65527,
65529,
65517,
65508,
65505,
65436,
65490,
65485,
106,
128,
73,
86,
127,
44,
80,
109,
25,
224,
65531,
65375,
112,
65504,
18,
65427,
77,
65504,
42,
46,
35,
7,
78,
65519,
94,
65470,
65510,
60,
65447,
65501,
65404,
45,
65494,
28,
65457,
65468,
65482,
191,
121,
94,
28,
65464,
95,
128,
65,
53,
25,
65456,
43,
65512,
80,
149,
65535,
117,
65488,
109,
65499,
1,
27,
44,
0,
22,
65453,
8,
59,
65495,
124,
65516,
65514,
5,
65,
65483,
24,
65426,
65370,
65382,
65476,
65459,
44,
65482,
65529,
65403,
25,
65456,
60,
65391,
65422,
65480,
31,
65458,
65494,
65390,
65314,
65410,
65516,
73,
105,
65522,
65321,
65481,
55,
190,
136,
95,
65439,
41,
145,
103,
65454,
8,
65443,
52,
20,
12,
53,
65439,
48,
24,
65491,
65487,
65482,
65478,
65432,
65522,
65459,
65449,
65523,
84,
65476,
43,
65527,
65492,
65488,
39,
65487,
9,
65534,
47,
65456,
65451,
28,
38,
65480,
65505,
65333,
65491,
149,
176,
65464,
65449,
65474,
42,
204,
132,
40,
65471,
81,
38,
65514,
65509,
65424,
65428,
65520,
65490,
65510,
65354,
1,
65443,
65494,
65381,
106,
65506,
124,
31,
65532,
65332,
65459,
65433,
8,
65338,
96,
39,
28,
65433,
65496,
136,
2,
72,
158,
123,
114,
65528,
106,
26,
65533,
64,
52,
65513,
65482,
40,
65434,
65497,
136,
12,
25,
5,
65404,
1,
65494,
65436,
65465,
4,
65487,
33,
57,
55,
94,
117,
295,
131,
50,
227,
79,
65442,
65444,
169,
65476,
150,
88,
176,
143,
211,
43,
226,
78,
392,
155,
244,
44,
65439,
9,
76,
65534,
65464,
65305,
65338,
65488,
65379,
65356,
65477,
65495,
65424,
40,
119,
341,
94,
28,
92,
15,
68,
133,
61,
65506,
171,
32,
65526,
122,
85,
20,
138,
84,
65492,
56,
108,
65525,
201,
26,
65477,
65490,
26,
65513,
138,
93,
15,
17,
112,
139,
246,
56,
72,
65448,
19,
0,
33,
65508,
65443,
65489,
45,
65515,
2,
65488,
65482,
42,
65523,
86,
65394,
31,
3,
65400,
83,
65483,
65449,
65449,
98,
7,
65484,
65465,
65423,
65437,
65487,
65512,
30,
3,
65443,
65473,
65425,
65387,
8,
65450,
41,
65401,
7,
78,
65420,
65431,
65417,
65449,
65492,
65527,
41,
65421,
6,
65456,
34,
111,
65465,
65494,
11,
59,
34,
66,
131,
8,
65453,
65484,
65505,
68,
65472,
65442,
11,
262,
117,
256,
165,
154,
271,
65493,
37,
65502,
44,
12,
184,
82,
156,
110,
215,
12,
191,
41,
178,
3,
463,
184,
65465,
65489,
119,
65515,
65404,
65323,
65522,
65521,
65449,
65346,
105,
65507,
65277,
65422,
64829,
65113,
65181,
65327,
284,
65,
65169,
65220,
65235,
65501,
97,
65360,
65240,
65294,
65427,
65305,
86,
30,
65383,
65359,
88,
65310,
81,
121,
32,
65412,
65516,
42,
171,
87,
194,
178,
126,
200,
300,
145,
65361,
65401,
65380,
65285,
404,
136,
65451,
65438,
65348,
65371,
132,
65464,
65374,
65425,
65386,
65508,
65393,
65466,
11,
14,
85,
65442,
65362,
45,
0,
84,
65458,
65457,
65459,
65348,
65498,
109,
45,
65521,
96,
65381,
31,
65535,
94,
65468,
65392,
65487,
175,
136,
203,
8,
65391,
65527,
56,
65501,
65429,
65438,
65396,
37,
8,
46,
65475,
79,
65299,
65511,
7,
65475,
69,
54,
65479,
65392,
65375,
65487,
26,
65368,
65292,
54,
312,
141,
230,
114,
65264,
75,
175,
153,
251,
127,
65430,
122,
131,
75,
124,
112,
65505,
80,
49,
34,
20,
17,
37,
222,
60,
106,
56,
138,
65522,
193,
91,
65488,
211,
132,
122,
15,
111,
65468,
92,
150,
65436,
65432,
32,
65476,
35,
65485,
65504,
65305,
120,
30,
63,
11,
65365,
65482,
273,
170,
189,
65361,
65381,
33,
4,
191,
11,
30,
65460,
65264,
65499,
65521,
65463,
65381,
65228,
12,
81,
229,
38,
199,
65481,
65489,
65485,
65507,
54,
65335,
52,
65291,
65477,
65479,
65444,
65369,
115,
78,
186,
184,
182,
235,
142,
40,
206,
391,
72,
142,
65506,
74,
35,
10,
65487,
65533,
65512,
150,
16,
65426,
65528,
19,
65312,
194,
65533,
0,
65482,
65527,
65352,
65478,
65481,
28,
65461,
32,
65371,
65366,
65379,
19,
65427,
65493,
65424,
65483,
32,
65393,
49,
65384,
65410,
65476,
15,
65477,
65456,
65370,
65506,
152,
448,
241,
196,
232,
65224,
16,
273,
55,
106,
20,
65291,
18,
31,
252,
54,
80,
65407,
17,
65530,
65527,
109,
65524,
65459,
65508,
65421,
213,
73,
0,
65348,
65416,
65473,
52,
148,
65468,
65366,
65491,
65274,
65132,
65272,
65343,
5,
60,
6,
65487,
65405,
65365,
65344,
19,
63,
65449,
65489,
65410,
65363,
20,
65520,
116,
143,
65427,
65473,
104,
32,
65530,
1,
65485,
65399,
11,
43,
65535,
65,
65395,
65382,
15,
65036,
64946,
65041,
65375,
25,
0,
65133,
65165,
65288,
65451,
65422,
65428,
65433,
65291,
65255,
65429,
65500,
14,
65446,
65497,
53,
65387,
65475,
65485,
39,
65527,
65514,
21,
26,
8,
65509,
109,
59,
47,
65530,
63,
75,
65443,
65437,
56,
21,
65473,
65531,
65468,
65434,
65498,
80,
65443,
65450,
65530,
69,
20,
64,
68,
65434,
65519,
65498,
67,
65525,
48,
65451,
15,
65522,
61,
53,
58,
16,
84,
64,
65451,
65460,
5,
138,
215,
278,
93,
65277,
65496,
75,
170,
129,
65513,
65438,
19,
65499,
57,
65510,
71,
114,
65516,
65469,
65489,
65502,
7,
65478,
65511,
65393,
114,
65460,
65495,
65440,
47,
65473,
65396,
65450,
65529,
65400,
25,
65522,
65444,
67,
65528,
0,
65513,
65503,
65457,
65433,
19,
70,
89,
33,
65470,
65524,
65524,
65504,
65479,
65481,
12,
56,
65484,
65468,
26,
65460,
65515,
6,
51,
65504,
65529,
65469,
65486,
68,
65531,
65446,
65522,
65422,
65341,
65289,
65474,
24,
17,
86,
10,
65427,
65326,
65211,
135,
44,
65483,
36,
65374,
65158,
90,
104,
50,
149,
65505,
65430,
123,
122,
65518,
50,
65525,
65352,
65508,
65491,
65505,
65449,
65467,
65323,
65486,
65473,
65487,
65524,
39,
0,
54,
65502,
78,
65501,
65524,
10,
65496,
76,
96,
65480,
21,
41,
56,
65484,
65504,
2,
65497,
65506,
48,
65442,
65488,
17,
65507,
31,
65455,
39,
65448,
65441,
21,
82,
65520,
65449,
65456,
88,
14,
65468,
65506,
67,
65472,
65428,
65465,
65512,
96,
65522,
65330,
65309,
65481,
65506,
65475,
65498,
65510,
8,
65522,
65,
90,
45,
147,
116,
65490,
33,
78,
36,
65505,
65481,
65418,
56,
71,
108,
65517,
65436,
65461,
99,
65516,
43,
65511,
105,
47,
65492,
65481,
4,
103,
62,
82,
13,
67,
65505,
65476,
65524,
82,
129,
65522,
65363,
65509,
65395,
164,
156,
98,
11,
125,
181,
190,
260,
65376,
65203,
65323,
64997,
65199,
65528,
65514,
65362,
65399,
65362,
65499,
65481,
65466,
65496,
44,
139,
132,
65496,
65453,
65455,
65479,
65394,
65405,
65421,
65509,
65322,
65393,
65431,
65357,
65369,
61,
22,
65468,
65387,
65352,
65344,
65506,
65483,
65491,
65392,
13,
65422,
65524,
104,
65473,
65399,
65413,
6,
142,
45,
162,
46,
65441,
65467,
136,
65385,
34,
31,
65490,
65379,
0,
68,
46,
65488,
65485,
65532,
56,
65471,
65479,
65440,
25,
65402,
65290,
31,
101,
36,
65443,
65271,
11,
43,
38,
65528,
18,
65311,
65482,
0,
65404,
65527,
61,
65351,
65406,
55,
49,
65360,
1,
65470,
65445,
16,
65385,
65487,
8,
65282,
65400,
65390,
65342,
65432,
65443,
65320,
65412,
33,
83,
117,
43,
65505,
65469,
65464,
110,
33,
65394,
30,
75,
68,
12,
67,
53,
65373,
60,
65521,
1,
65504,
65467,
65530,
65408,
104,
70,
65429,
65475,
65379,
65515,
65486,
29,
65433,
65505,
65411,
150,
84,
90,
306,
89,
184,
65531,
65422,
85,
212,
232,
192,
29,
19,
121,
69,
145,
103,
65515,
61,
7,
65523,
72,
65480,
82,
53,
127,
65423,
65373,
121,
90,
65455,
44,
40,
65518,
65497,
65436,
65499,
25,
65476,
87,
65519,
65,
71,
65480,
65516,
65461,
68,
39,
49,
16,
65480,
65448,
65503,
65469,
9,
65512,
65520,
65502,
65492,
77,
48,
38,
65500,
65498,
50,
65532,
65513,
65502,
65534,
65529,
56,
65518,
51,
113,
229,
17,
65522,
65468,
80,
271,
291,
25,
65512,
91,
75,
141,
105,
82,
65519,
65501,
50,
65514,
28,
19,
65483,
99,
65516,
53,
108,
135,
23,
65519,
99,
63,
52,
104,
65380,
221,
65397,
65308,
65359,
21,
158,
65520,
65243,
65440,
65417,
52,
151,
65477,
65331,
65396,
65426,
65411,
75,
65317,
65376,
65407,
59,
65531,
263,
73,
65342,
65526,
80,
98,
217,
305,
182,
152,
230,
147,
521,
65383,
121,
48,
65505,
65488,
106,
65500,
65482,
68,
65455,
4,
65517,
65348,
65322,
65277,
65224,
65357,
65375,
3,
65519,
65454,
65429,
65496,
74,
29,
122,
144,
174,
207,
65516,
65516,
65465,
93,
25,
153,
213,
65526,
64994,
65009,
65122,
65411,
336,
4,
65151,
65172,
65358,
65432,
87,
65414,
65195,
65200,
65345,
65485,
65526,
89,
65488,
65349,
120,
65475,
56,
65490,
65515,
65381,
65500,
65511,
81,
65432,
72,
65465,
5,
65447,
73,
76,
65479,
20,
75,
65524,
65461,
89,
123,
0,
65518,
16,
65524,
89,
86,
59,
65453,
65500,
65443,
65513,
65432,
65448,
65509,
48,
84,
67,
65518,
65503,
65446,
97,
37,
11,
57,
84,
65514,
78,
65477,
65502,
65521,
65514,
66,
38,
65512,
65428,
65509,
18,
88,
3,
65520,
65464,
3,
65480,
39,
65471,
65526,
33,
119,
179,
65477,
16,
31,
49,
8,
65528,
28,
65454,
65508,
65476,
65515,
65480,
65438,
49,
38,
65440,
5,
70,
65452,
65400,
222,
65508,
65526,
65522,
65412,
65505,
32,
65466,
65476,
65514,
65365,
65356,
65252,
65505,
65521,
144,
149,
65360,
65344,
65469,
65441,
81,
15,
65434,
65514,
65384,
65464,
244,
59,
35,
60,
77,
110,
30,
1,
73,
44,
0,
65504,
65493,
65504,
76,
65419,
22,
58,
63,
65524,
65522,
65513,
65517,
80,
65414,
65460,
65405,
65468,
65523,
65477,
65478,
58,
65496,
65513,
65508,
65493,
47,
15,
31,
12,
65426,
65377,
65443,
65429,
23,
67,
65523,
65377,
65370,
65457,
78,
96,
65514,
65519,
65445,
65488,
4,
118,
65,
8,
35,
65468,
65525,
125,
0,
65470,
11,
65487,
100,
19,
37,
65434,
65510,
45,
28,
105,
114,
65337,
65398,
65334,
65462,
269,
20,
65429,
65306,
65345,
65477,
233,
191,
65453,
65360,
65383,
65403,
16,
63,
65511,
65305,
65463,
65411,
49,
65493,
65308,
65329,
65288,
65441,
91,
65456,
2,
65489,
35,
32,
99,
135,
222,
294,
103,
121,
65406,
10,
18,
44,
65456,
65514,
65389,
20,
135,
197,
28,
65380,
65491,
58,
94,
59,
260,
166,
65442,
53,
65485,
274,
65471,
65407,
65465,
65421,
65504,
99,
88,
65478,
65291,
65508,
65457,
65478,
26,
103,
65416,
65458,
1,
85,
65460,
65513,
28,
65509,
47,
86,
65450,
65469,
65430,
43,
65511,
115,
22,
15,
65420,
91,
65486,
36,
48,
42,
65496,
17,
65,
68,
65432,
61,
11,
96,
118,
214,
65494,
65458,
65514,
29,
82,
97,
46,
65485,
38,
58,
65526,
65518,
68,
64,
70,
65492,
117,
65517,
26,
65515,
65474,
65487,
65524,
65432,
65438,
65481,
7,
113,
19,
34,
58,
65535,
65468,
65419,
65338,
65117,
65374,
65293,
65316,
65467,
65408,
65494,
65399,
65424,
65264,
65447,
28,
65512,
65311,
65429,
65296,
65492,
50,
65,
78,
32,
65303,
90,
189,
9,
65469,
37,
65263,
65366,
65507,
65497,
65448,
65475,
65322,
116,
84,
215,
160,
53,
104,
45,
55,
111,
156,
161,
81,
22,
169,
113,
316,
205,
65491,
70,
352,
271,
123,
65509,
65422,
55,
126,
65385,
65362,
65473,
65407,
4,
65439,
65441,
65307,
65483,
65270,
65394,
81,
103,
200,
121,
65438,
55,
155,
164,
358,
119,
65387,
153,
60,
163,
65535,
65520,
65435,
142,
89,
65464,
8,
65494,
18,
65510,
122,
65508,
8,
147,
65515,
65512,
26,
64,
32,
62,
65509,
4,
240,
278,
199,
26,
65395,
111,
146,
62,
50,
65535,
65508,
74,
45,
51,
65518,
65469,
110,
26,
65485,
65473,
22,
16,
65507,
66,
19,
82,
0,
32,
25,
65535,
118,
65421,
7,
28,
72,
62,
48,
35,
36,
65527,
65496,
54,
32,
64,
17,
65528,
65454,
65487,
50,
65497,
16,
79,
65479,
66,
65476,
24,
51,
65422,
65432,
65473,
65497,
76,
65444,
65487,
65511,
65457,
21,
65523,
65433,
65499,
58,
112,
216,
98,
164,
88,
65291,
84,
265,
110,
90,
65490,
65402,
152,
91,
117,
193,
39,
65293,
65516,
66,
204,
143,
14,
65375,
65508,
27,
99,
156,
14,
65270,
65324,
65424,
65365,
65492,
65292,
65102,
65377,
302,
215,
172,
12,
139,
65487,
37,
258,
65459,
65498,
265,
7,
65462,
65403,
65386,
65491,
170,
76,
61,
65498,
65471,
65526,
255,
65443,
65489,
143,
26,
168,
130,
65,
65417,
112,
55,
219,
204,
65443,
65440,
65494,
65387,
65321,
65269,
97,
65523,
203,
65417,
65463,
65243,
65429,
65430,
65499,
65363,
65352,
65268,
23,
16,
65426,
65311,
65216,
65378,
78,
65523,
65519,
147,
65520,
65305,
65367,
65425,
65533,
65460,
65233,
65274,
146,
273,
277,
414,
196,
65444,
65531,
77,
83,
14,
24,
65519,
131,
166,
211,
233,
53,
112,
61,
175,
203,
83,
110,
41,
65497,
65445,
98,
65401,
65408,
65377,
65458,
65480,
65438,
37,
65462,
65314,
65522,
65490,
28,
8,
31,
36,
23,
46,
65461,
115,
65465,
65486,
65432,
65437,
65505,
65,
65489,
65368,
17,
65532,
65440,
10,
8,
65490,
65533,
44,
65380,
10,
11,
15,
65523,
65479,
65454,
49,
65416,
33,
114,
309,
375,
146,
103,
204,
65524,
184,
134,
283,
125,
292,
65488,
65318,
65533,
65437,
146,
384,
65342,
65459,
126,
65491,
109,
166,
65524,
65531,
43,
69,
238,
139,
65458,
54,
65441,
179,
152,
227,
65468,
65235,
65070,
65373,
65263,
94,
65374,
65435,
65272,
65467,
65403,
185,
65398,
65454,
42,
53,
65461,
44,
65445,
52,
65494,
65495,
65366,
10,
65504,
17,
65466,
65511,
65461,
65529,
51,
8,
108,
65467,
92,
21,
65463,
172,
149,
65401,
7,
65524,
6,
28,
65489,
65498,
65532,
82,
29,
53,
65485,
12,
65475,
116,
66,
9,
65447,
41,
65510,
64,
39,
65504,
40,
76,
65502,
28,
6,
19,
67,
65444,
65472,
126,
65522,
65220,
65121,
65155,
65483,
276,
65531,
65167,
65165,
65084,
65458,
193,
65464,
65358,
65312,
65352,
65431,
188,
65432,
65439,
65455,
75,
65446,
275,
56,
2,
65346,
55,
65,
300,
205,
196,
113,
159,
84,
429,
65333,
183,
173,
88,
65437,
65514,
145,
213,
180,
203,
33,
99,
68,
65502,
65494,
113,
65475,
65523,
65521,
65507,
65499,
119,
65475,
18,
65458,
46,
52,
65311,
65400,
58,
65472,
65512,
65529,
14,
19,
153,
10,
182,
65530,
127,
65525,
65469,
106,
36,
196,
20,
101,
54,
24,
65517,
127,
65467,
10,
140,
32,
30,
65464,
65519,
132,
34,
113,
65503,
146,
78,
71,
145,
20,
118,
65517,
24,
96,
65497,
2,
64978,
64934,
65183,
65421,
251,
65443,
65272,
65207,
65195,
65,
186,
65457,
65428,
65339,
65374,
65400,
114,
38,
65442,
65481,
65463,
65265,
74,
65475,
65445,
65416,
65535,
65398,
51,
65409,
65513,
65483,
32,
14,
176,
65461,
65520,
65474,
15,
75,
10,
65462,
65323,
65435,
65510,
7,
65497,
65501,
65501,
65533,
65534,
65438,
65503,
68,
39,
65533,
78,
55,
65470,
65519,
51,
54,
0,
65430,
50,
65503,
65535,
68,
70,
65499,
65526,
65367,
65311,
65277,
65115,
65223,
65415,
14,
65417,
65445,
65352,
65494,
29,
18,
65330,
105,
223,
65500,
65365,
65525,
65470,
65442,
65392,
65297,
65331,
151,
90,
112,
150,
65273,
65493,
62,
132,
3,
115,
65370,
65492,
65440,
334,
223,
218,
86,
65328,
107,
185,
96,
144,
27,
65410,
57,
153,
200,
107,
65515,
65331,
65500,
86,
110,
60,
65535,
65386,
12,
22,
86,
65502,
65348,
65203,
65355,
26,
65441,
65427,
65368,
65124,
5,
65301,
65404,
65381,
65339,
65452,
32,
65521,
65506,
65373,
3,
56,
65513,
93,
65467,
108,
72,
65431,
121,
107,
65449,
65282,
25,
65525,
53,
77,
65273,
65411,
65424,
62,
65527,
65502,
65351,
65491,
65424,
65386,
65488,
21,
75,
65534,
60,
36,
22,
18,
4,
65501,
78,
61,
20,
65495,
1,
65463,
65465,
30,
65470,
65490,
65468,
9,
52,
54,
22,
1,
20,
65464,
65473,
29,
90,
28,
65462,
65435,
75,
65452,
65514,
65286,
65154,
65233,
65410,
65422,
65427,
65254,
65445,
65267,
65422,
65473,
65408,
65443,
37,
65514,
65529,
65277,
52,
13,
111,
65533,
65323,
65394,
65468,
65453,
68,
65498,
65440,
65393,
65455,
65503,
30,
25,
65352,
65366,
54,
65417,
65450,
65396,
30,
147,
65322,
65244,
65312,
65186,
65449,
65479,
65292,
65338,
65334,
65441,
65467,
139,
13,
96,
95,
168,
216,
58,
64,
65512,
225,
62,
65468,
65437,
65516,
4,
65454,
65523,
65419,
65416,
124,
183,
198,
37,
161,
65429,
65519,
94,
65,
179,
140,
65519,
65392,
99,
20,
65494,
65493,
8,
65445,
65528,
85,
114,
168,
65418,
76,
124,
323,
65534,
30,
65340,
65335,
65441,
65386,
65475,
65415,
65224,
20,
65271,
65360,
65396,
65412,
5,
65527,
65388,
65365,
65301,
62,
85,
65374,
51,
65414,
37,
18,
99,
82,
64,
65527,
65431,
65404,
53,
120,
66,
65460,
65498,
65369,
123,
200,
80,
65317,
65485,
65435,
65393,
65505,
65452,
65476,
5,
65460,
76,
21,
65528,
10,
65465,
69,
1,
81,
65531,
65522,
65452,
12,
53,
34,
28,
65482,
65504,
63,
28,
65501,
65529,
65467,
84,
65496,
0,
45,
30,
32,
75,
50,
65505,
65408,
65518,
80,
99,
65495,
65279,
65498,
139,
184,
201,
65523,
65423,
98,
64,
65449,
65336,
65373,
65385,
65521,
42,
65525,
65433,
19,
65251,
65436,
53,
65529,
22,
23,
65426,
65436,
65508,
65420,
65535,
65444,
65384,
104,
56,
65450,
65512,
65534,
65418,
56,
124,
155,
65,
67,
74,
24,
68,
23,
65490,
33,
177,
32,
155,
65485,
65488,
65502,
65511,
65527,
76,
65513,
75,
19,
164,
129,
61,
10,
65509,
65503,
81,
65522,
39,
65503,
65466,
65479,
77,
71,
65485,
124,
65474,
65509,
96,
65500,
1,
65413,
65446,
46,
59,
65482,
2,
69,
29,
65522,
5,
65486,
71,
59,
38,
65531,
87,
65457,
46,
98,
65511,
13,
121,
144,
221,
65507,
65532,
129,
65217,
41,
53,
65343,
3,
115,
65339,
41,
169,
175,
100,
117,
65374,
65504,
83,
90,
124,
65490,
65382,
65465,
182,
21,
18,
65473,
65371,
65370,
65492,
65401,
65419,
65296,
65238,
85,
65505,
111,
4,
16,
50,
65468,
65456,
65462,
20,
45,
65454,
40,
65469,
46,
53,
32,
65513,
192,
65430,
65440,
65254,
65432,
65488,
39,
155,
65531,
65467,
65378,
25,
71,
50,
65,
16,
65506,
65478,
63,
256,
257,
186,
110,
65501,
40,
183,
235,
151,
65505,
65517,
131,
65517,
30,
133,
65492,
14,
113,
65478,
166,
11,
93,
122,
65487,
65504,
65425,
35,
7,
57,
65444,
65478,
16,
17,
161,
49,
58,
161,
341,
115,
20,
65401,
121,
129,
96,
124,
65488,
65440,
13,
16,
20,
65407,
50,
65443,
65532,
65535,
77,
12,
65506,
65411,
65363,
93,
165,
41,
65368,
65285,
65371,
65425,
65375,
65429,
65348,
65342,
65313,
65378,
65525,
25,
9,
65492,
65359,
65442,
65532,
65519,
65412,
65419,
65512,
85,
149,
90,
96,
56,
78,
223,
150,
255,
62,
65427,
81,
158,
245,
60,
65311,
65400,
65512,
65360,
65336,
65526,
65309,
65394,
65471,
65491,
65496,
14,
35,
65452,
21,
65523,
65478,
41,
65,
22,
65516,
48,
65478,
65532,
30,
79,
65509,
65444,
65454,
20,
65445,
78,
65517,
39,
54,
66,
72,
84,
65484,
65442,
97,
65529,
65510,
82,
72,
65486,
65425,
19,
65500,
65484,
34,
139,
113,
50,
65514,
65434,
65437,
65495,
65450,
65467,
65437,
65464,
63,
41,
28,
65481,
65512,
86,
63,
103,
82,
67,
65512,
45,
82,
65473,
63,
65438,
66,
65466,
34,
116,
105,
49,
117,
68,
86,
65495,
35,
195,
43,
65532,
65478,
77,
65472,
31,
44,
75,
65522,
65454,
65480,
60,
44,
68,
65446,
65446,
25,
88,
103,
83,
65394,
65386,
92,
65523,
70,
31,
65467,
137,
260,
108,
64,
65530,
101,
76,
90,
163,
62,
65485,
65330,
65512,
65411,
65370,
65405,
119,
65412,
136,
2,
59,
28,
65516,
26,
146,
214,
48,
186,
54,
6,
65476,
65400,
116,
115,
17,
61,
65131,
64891,
65190,
65466,
97,
65487,
65121,
65262,
65241,
65509,
87,
65473,
65455,
65307,
65315,
65491,
65505,
65399,
65446,
65445,
65432,
65352,
24,
62,
113,
155,
114,
12,
48,
112,
65446,
68,
36,
65459,
136,
65468,
24,
65454,
120,
65505,
65347,
65529,
96,
3,
25,
135,
65385,
72,
44,
178,
65518,
137,
1,
148,
135,
30,
65441,
9,
65472,
79,
44,
82,
167,
4,
65398,
65493,
96,
65515,
69,
65455,
65418,
65497,
65111,
65047,
65179,
65446,
87,
65493,
65158,
65139,
65139,
65418,
60,
65473,
65350,
65390,
65503,
57,
61,
28,
65534,
78,
89,
65519,
112,
150,
142,
65462,
108,
65415,
201,
263,
67,
65475,
120,
65504,
170,
61,
65400,
65279,
65450,
25,
65522,
65346,
65411,
65468,
65397,
108,
41,
25,
89,
113,
65456,
65513,
15,
35,
65525,
65530,
65,
65487,
36,
65525,
65519,
65475,
8,
65467,
11,
65530,
65449,
65,
6,
65383,
65435,
65472,
65525,
193,
20,
65446,
65529,
65442,
65522,
99,
33,
65324,
13,
42,
145,
21,
65504,
56,
65509,
65484,
65527,
65457,
65497,
65497,
65431,
105,
38,
65408,
98,
114,
58,
65417,
20,
72,
65467,
17,
38,
97,
182,
180,
112,
130,
181,
35,
175,
114,
108,
218,
232,
33,
65355,
72,
65480,
153,
53,
65371,
22,
25,
174,
57,
30,
65518,
65321,
76,
135,
43,
137,
65517,
65523,
37,
86,
99,
290,
65519,
65299,
65416,
65351,
65384,
65395,
65431,
65505,
65379,
65428,
65526,
65533,
65415,
65506,
65457,
65468,
65519,
65460,
65493,
65361,
65471,
65458,
65427,
65432,
54,
65527,
65478,
99,
65476,
65408,
65523,
14,
65478,
65451,
65364,
0,
65465,
21,
187,
36,
65304,
65509,
29,
213,
222,
163,
65487,
65493,
39,
94,
19,
47,
65389,
65522,
65524,
65451,
65311,
65342,
65421,
57,
65440,
65455,
65366,
65517,
2,
65463,
65466,
65308,
65339,
65452,
65397,
65455,
65422,
214,
161,
117,
65479,
65412,
69,
254,
604,
397,
144,
114,
64,
65497,
77,
37,
28,
65483,
47,
65519,
65345,
65262,
21,
156,
87,
65484,
65407,
65421,
125,
151,
146,
62,
120,
65448,
234,
321,
65435,
65389,
65423,
65452,
50,
65376,
89,
65502,
65472,
65433,
65280,
65314,
65453,
65503,
65437,
65503,
65351,
65429,
33,
153,
228,
186,
65503,
65283,
65518,
94,
47,
65508,
65356,
65142,
65411,
7,
65530,
65421,
65414,
65210,
13,
117,
22,
65458,
28,
28,
65524,
149,
26,
45,
65535,
49,
9,
82,
65511,
75,
65429,
65455,
90,
65444,
65503,
65386,
65490,
59,
126,
65511,
65469,
65392,
65525,
31,
37,
65525,
65533,
112,
132,
225,
110,
29,
65486,
65498,
23,
65430,
13,
103,
25,
84,
65521,
65370,
65534,
12,
65527,
6,
65459,
65513,
65460,
65432,
47,
4,
65496,
37,
72,
17,
3,
119,
75,
99,
65527,
93,
65528,
59,
52,
65465,
65399,
19,
65380,
65418,
65382,
65364,
65473,
65373,
65354,
65524,
65409,
65211,
65442,
65518,
65523,
65467,
65431,
65275,
65520,
154,
115,
59,
91,
65423,
26,
18,
51,
89,
65331,
65433,
65444,
65475,
108,
65370,
65364,
65376,
65462,
65506,
65489,
3,
14,
65496,
71,
65528,
82,
8,
65514,
64,
65466,
65461,
27,
65437,
46,
65524,
65470,
65482,
65477,
65452,
65464,
23,
65469,
65486,
0,
65470,
65432,
28,
13,
65499,
3,
65521,
20,
14,
189,
65460,
4,
65322,
65482,
307,
93,
65311,
65337,
65352,
33,
182,
65524,
65368,
65479,
65470,
65489,
154,
65445,
80,
65364,
282,
65513,
75,
65427,
73,
22,
71,
65443,
119,
111,
65524,
12,
164,
9,
239,
65428,
65407,
65471,
65512,
19,
65529,
65439,
52,
37,
65481,
51,
65493,
65510,
28,
65459,
65453,
65337,
1,
65485,
65246,
65474,
65450,
7,
157,
119,
65386,
65416,
135,
217,
172,
146,
26,
83,
37,
278,
332,
65226,
65523,
80,
315,
65425,
3,
64,
89,
288,
100,
65504,
65475,
221,
43,
40,
51,
73,
65480,
65451,
65488,
65520,
65363,
65498,
36,
65501,
90,
65425,
65428,
65432,
65439,
65427,
65385,
65363,
65428,
65427,
65403,
65532,
65525,
65477,
9,
14,
40,
65522,
6,
11,
65475,
65504,
65,
65496,
65461,
65486,
65397,
65531,
94,
65497,
65517,
49,
65495,
65507,
65469,
83,
65498,
98,
77,
65460,
31,
91,
65477,
65499,
65507,
65518,
65470,
65521,
65237,
65158,
65305,
65515,
175,
65362,
65392,
65360,
65476,
17,
122,
65377,
65399,
65475,
65463,
29,
34,
65466,
39,
65503,
65527,
65364,
36,
65484,
65415,
65344,
65395,
65507,
65516,
65425,
93,
65464,
73,
65497,
112,
21,
65319,
65409,
65419,
65458,
165,
37,
65384,
65067,
65317,
65378,
65489,
65415,
65273,
65154,
65325,
65439,
98,
65498,
65460,
65506,
65521,
71,
69,
64,
50,
180,
65531,
2,
85,
65511,
65469,
108,
42,
65485,
21,
8,
65527,
65479,
65482,
65488,
65518,
2,
24,
71,
65455,
27,
65519,
46,
65508,
47,
10,
3,
64,
65471,
30,
8,
65,
25,
65513,
68,
113,
96,
65500,
65454,
28,
65469,
65455,
65527,
65438,
65502,
65470,
178,
65377,
65316,
65178,
18,
260,
80,
65392,
65226,
65301,
65462,
121,
65436,
65463,
65237,
65508,
65380,
20,
65514,
65317,
65395,
120,
56,
84,
109,
65523,
65377,
25,
127,
305,
230,
187,
140,
152,
300,
421,
65354,
65357,
65366,
65520,
65447,
145,
65466,
65486,
155,
65500,
87,
9,
65492,
65460,
124,
65449,
65457,
65515,
28,
65502,
65376,
65452,
65425,
47,
65517,
65434,
65318,
65514,
65427,
44,
65530,
22,
26,
65413,
32,
65477,
65415,
59,
156,
163,
47,
65350,
65525,
150,
108,
65455,
65323,
65407,
21,
65341,
65353,
65354,
65439,
109,
60,
65348,
65436,
65497,
49,
65489,
65535,
65378,
60,
71,
107,
154,
88,
65525,
65523,
73,
79,
65511,
65396,
65467,
65390,
65450,
65422,
105,
65425,
9,
165,
89,
94,
65458,
65331,
65366,
65471,
65524,
65518,
65524,
65397,
65416,
65398,
41,
65516,
8,
65482,
65459,
65411,
8,
19,
16,
112,
84,
95,
164,
37,
42,
65512,
137,
248,
65514,
65511,
135,
65471,
65507,
65469,
7,
65534,
65507,
65389,
65264,
65343,
65469,
103,
65494,
65459,
60,
57,
22,
135,
18,
9,
85,
74,
132,
109,
65460,
65457,
65483,
11,
65495,
65438,
65459,
43,
65206,
65017,
65232,
45,
198,
65414,
65211,
65320,
65301,
65430,
0,
65362,
65420,
65340,
65366,
65496,
65450,
65396,
65450,
65399,
33,
65387,
65526,
65503,
49,
121,
70,
39,
77,
93,
65348,
55,
41,
24,
143,
