memory_initialization_radix=10;
memory_initialization_vector =
65360,
65470,
65359,
65479,
65415,
65404,
59,
4,
65507,
10,
18,
6,
35,
65492,
65521,
48,
48,
60,
48,
16,
148,
65515,
175,
167,
127,
23,
180,
82,
186,
67,
136,
112,
21,
160,
49,
86,
116,
87,
142,
42,
65489,
65450,
6,
65458,
65519,
65467,
65425,
65494,
28,
65456,
65499,
65326,
65532,
65398,
46,
65486,
41,
55,
42,
65444,
65427,
65533,
65532,
6,
65411,
65469,
109,
127,
65534,
75,
65476,
65420,
61,
65496,
57,
65513,
16,
65449,
41,
65377,
143,
120,
65506,
65502,
31,
65441,
65448,
65496,
65513,
65461,
65488,
65474,
65496,
91,
130,
65528,
21,
65481,
65505,
57,
43,
82,
65479,
65449,
65415,
65522,
53,
65499,
8,
15,
62,
118,
168,
113,
52,
65393,
65455,
30,
65468,
65497,
65520,
51,
107,
54,
65418,
65438,
101,
65465,
65406,
19,
65358,
65425,
15,
65456,
41,
0,
65442,
65472,
124,
81,
65506,
4,
65478,
65489,
5,
19,
65452,
63,
65504,
18,
65474,
65438,
65486,
0,
65516,
36,
65493,
65473,
8,
65522,
65472,
65444,
65483,
65531,
65468,
65469,
59,
2,
6,
65441,
65511,
65529,
30,
65491,
7,
65528,
64,
8,
65475,
0,
22,
65516,
19,
123,
100,
65437,
40,
65496,
65503,
65484,
65469,
65488,
65470,
41,
55,
65527,
48,
65446,
97,
65532,
65498,
65413,
65459,
65528,
70,
65447,
65393,
65375,
65466,
65432,
15,
65486,
65471,
65392,
22,
65487,
65512,
19,
65519,
65443,
1,
65443,
65532,
59,
53,
44,
65485,
65460,
65425,
65481,
65460,
65480,
25,
93,
65365,
65461,
65,
37,
65534,
65428,
7,
76,
60,
35,
86,
65462,
65362,
65448,
51,
65358,
65318,
65423,
65454,
65363,
65438,
65422,
65443,
65439,
65433,
65491,
65505,
61,
17,
4,
65408,
65530,
65367,
65358,
65483,
65488,
65512,
121,
21,
25,
65512,
28,
65453,
12,
65507,
65487,
65518,
65407,
17,
21,
65406,
33,
65497,
65453,
65484,
71,
19,
65486,
150,
150,
65499,
82,
28,
15,
65501,
72,
165,
104,
65505,
166,
65532,
150,
112,
101,
65503,
65500,
62,
8,
15,
69,
92,
15,
65420,
95,
32,
65533,
23,
96,
86,
71,
148,
110,
191,
30,
119,
48,
50,
65497,
65518,
65450,
65403,
44,
143,
51,
65478,
65511,
65473,
65431,
65511,
65510,
126,
164,
65518,
65475,
31,
71,
38,
87,
65432,
34,
114,
71,
73,
99,
65482,
1,
2,
65525,
65491,
54,
65475,
15,
65496,
43,
65453,
65456,
53,
24,
83,
65487,
65471,
29,
65530,
79,
65519,
43,
57,
32,
63,
65435,
65490,
27,
65471,
65506,
33,
65477,
29,
8,
65440,
65494,
47,
65497,
65517,
65423,
70,
55,
65480,
65339,
65447,
65535,
65497,
13,
65461,
65339,
65394,
65496,
65258,
3,
65516,
65354,
65341,
65285,
65498,
65471,
65422,
65399,
65521,
80,
65500,
65491,
65424,
65517,
65422,
65409,
65442,
27,
65519,
65447,
86,
65480,
65500,
65423,
65510,
24,
65526,
65453,
65446,
65414,
65519,
65508,
21,
65515,
65512,
28,
65503,
65529,
47,
77,
181,
109,
20,
65507,
65478,
166,
167,
5,
138,
4,
65511,
29,
39,
21,
65479,
8,
65489,
65431,
65222,
65331,
65406,
65203,
65422,
65494,
0,
65496,
92,
65524,
43,
65527,
123,
138,
366,
141,
178,
26,
97,
65425,
65525,
261,
177,
118,
65315,
65412,
59,
215,
46,
101,
312,
214,
123,
83,
65498,
22,
9,
65394,
65492,
8,
62,
12,
146,
56,
65508,
108,
91,
65482,
78,
136,
97,
110,
119,
177,
181,
124,
182,
158,
65515,
87,
166,
84,
65463,
136,
0,
6,
30,
68,
54,
13,
65384,
65502,
65518,
65481,
65505,
65501,
40,
65523,
15,
65534,
65524,
117,
6,
115,
80,
180,
65,
65509,
32,
123,
178,
89,
65475,
65442,
65492,
65455,
26,
30,
22,
27,
32,
177,
121,
47,
65510,
65414,
26,
65523,
65,
44,
40,
65502,
65497,
65439,
26,
99,
42,
65510,
65431,
65515,
65466,
16,
77,
65502,
8,
65436,
65449,
19,
65439,
65454,
65418,
65415,
65506,
65362,
4,
65422,
39,
65430,
65402,
16,
65387,
65429,
65403,
65450,
65378,
65207,
65388,
65352,
66,
157,
51,
33,
67,
108,
65443,
224,
207,
88,
250,
222,
226,
65476,
65456,
65236,
3,
202,
224,
65529,
65263,
65399,
170,
47,
60,
122,
173,
226,
142,
29,
38,
65531,
3,
65496,
242,
215,
192,
65524,
65380,
29,
14,
194,
65502,
100,
205,
261,
123,
277,
182,
264,
225,
305,
84,
75,
93,
216,
266,
222,
126,
119,
63,
70,
44,
65455,
65405,
65530,
65402,
65361,
65489,
65362,
65376,
65243,
77,
65515,
56,
84,
116,
39,
24,
131,
44,
129,
107,
123,
173,
3,
256,
159,
225,
195,
149,
55,
135,
161,
28,
112,
52,
293,
65486,
154,
154,
34,
65446,
65460,
65496,
12,
65451,
65272,
65336,
65447,
28,
27,
65524,
65283,
65418,
65394,
65363,
65402,
65466,
65509,
65385,
65423,
65444,
65530,
65384,
65518,
65437,
55,
65534,
65394,
65466,
65379,
65368,
65511,
65509,
72,
24,
65409,
53,
148,
139,
39,
53,
194,
116,
238,
113,
47,
25,
139,
65482,
219,
34,
3,
65479,
102,
65420,
65319,
65233,
65291,
65406,
65517,
40,
65489,
65338,
65419,
65423,
116,
71,
65427,
40,
65521,
65525,
60,
107,
79,
24,
115,
98,
166,
54,
65419,
75,
118,
11,
65427,
65418,
65342,
65409,
65300,
65383,
65469,
65416,
65364,
65253,
65310,
65306,
65426,
65354,
65449,
65375,
65298,
65264,
65400,
152,
126,
65435,
65381,
65401,
65404,
65509,
65484,
65441,
46,
38,
117,
65529,
89,
65507,
70,
65485,
26,
65439,
65491,
65471,
65516,
65410,
65458,
65493,
65474,
65447,
65504,
65535,
65455,
65508,
65365,
65393,
65493,
54,
65483,
100,
65483,
65444,
65504,
130,
65514,
95,
117,
47,
65508,
52,
89,
18,
65400,
65465,
65344,
65351,
65520,
65458,
12,
65437,
65437,
65252,
65335,
65325,
28,
65448,
65506,
65486,
65484,
65309,
46,
124,
179,
65468,
65399,
102,
65503,
65332,
65422,
65371,
49,
156,
158,
65486,
41,
65506,
65494,
65534,
170,
158,
65515,
5,
65527,
65495,
65459,
124,
65428,
65370,
69,
65512,
65438,
65290,
65273,
65422,
46,
200,
65427,
65121,
65209,
65427,
65514,
123,
65497,
65398,
65468,
65409,
76,
65468,
65520,
43,
65523,
65489,
65489,
36,
65434,
65394,
65476,
65471,
38,
49,
166,
71,
65419,
1,
22,
34,
90,
87,
215,
185,
19,
65442,
177,
68,
167,
65527,
110,
65405,
67,
101,
32,
118,
65461,
35,
65397,
9,
65528,
83,
65513,
3,
23,
65441,
65391,
65447,
65445,
65511,
140,
84,
89,
16,
95,
71,
286,
175,
144,
186,
136,
5,
65,
142,
30,
172,
66,
65482,
53,
22,
143,
142,
65439,
65434,
10,
53,
65442,
65457,
13,
65479,
65518,
65509,
46,
65502,
65495,
65507,
39,
65533,
65521,
91,
65462,
47,
65523,
21,
65480,
65504,
22,
65504,
63,
63,
65497,
62,
58,
65476,
65449,
75,
29,
8,
65522,
65488,
12,
87,
65506,
65340,
65428,
65380,
65480,
13,
54,
65368,
65422,
65400,
65374,
65414,
65427,
14,
65479,
65470,
65396,
12,
65413,
65392,
65465,
65479,
65532,
65457,
65514,
65511,
65460,
65504,
65523,
65439,
65401,
65451,
65535,
21,
38,
65453,
65500,
65517,
65506,
65516,
65491,
65479,
65439,
30,
48,
4,
65441,
65458,
81,
65492,
65497,
65506,
24,
2,
30,
65445,
65480,
65484,
65517,
65439,
13,
65455,
65489,
30,
65505,
65479,
65535,
24,
5,
65486,
65398,
20,
65428,
65496,
67,
65467,
65458,
65501,
65413,
65385,
65471,
65497,
168,
65471,
127,
65444,
65474,
65468,
299,
42,
164,
116,
86,
65457,
65,
167,
175,
1,
65463,
9,
65521,
65531,
135,
66,
65417,
65469,
35,
2,
24,
65492,
65519,
49,
3,
65460,
70,
65496,
65531,
65442,
65527,
56,
65467,
69,
65506,
65443,
65488,
63,
65441,
65476,
65438,
65449,
7,
65451,
65506,
65486,
67,
15,
65495,
1,
65435,
6,
65457,
65515,
65444,
65531,
133,
83,
149,
65504,
65325,
65475,
65529,
65405,
64,
56,
65481,
65503,
65444,
65438,
65296,
65408,
31,
209,
73,
30,
94,
65456,
73,
65462,
65489,
79,
36,
130,
6,
65478,
65317,
65450,
71,
97,
65524,
76,
3,
65531,
65526,
114,
65531,
49,
65440,
22,
115,
95,
65474,
21,
36,
65430,
65535,
9,
86,
221,
109,
1,
65482,
65517,
209,
171,
65493,
65531,
65481,
65378,
12,
65479,
65526,
65460,
65442,
279,
108,
118,
79,
65468,
65484,
39,
65434,
65518,
65347,
65411,
65450,
85,
24,
65535,
65345,
57,
65493,
65433,
95,
58,
135,
65531,
35,
65371,
65452,
57,
131,
65496,
22,
14,
21,
22,
65506,
35,
65445,
42,
65486,
65525,
65530,
78,
65507,
49,
65521,
46,
65528,
65440,
65449,
90,
65419,
65433,
65448,
65495,
65430,
65506,
65475,
172,
105,
65406,
65515,
65479,
65423,
78,
65521,
65462,
65493,
104,
85,
65418,
33,
65431,
65381,
8,
65526,
96,
47,
136,
90,
65404,
65293,
65393,
65395,
65364,
65387,
193,
65501,
65392,
65424,
65373,
65319,
65407,
101,
234,
198,
80,
76,
65305,
18,
146,
284,
65517,
65466,
65386,
21,
65395,
65450,
65417,
27,
65392,
16,
71,
65489,
60,
13,
48,
65500,
65453,
65498,
65525,
65391,
65459,
65424,
65467,
81,
65475,
65493,
65431,
65507,
33,
65461,
65441,
65415,
65479,
65476,
65488,
65423,
65437,
65516,
0,
65494,
89,
65512,
18,
65501,
147,
65300,
65351,
65402,
65257,
65257,
65508,
42,
188,
158,
27,
65409,
65356,
33,
103,
111,
211,
92,
92,
65389,
65313,
65394,
24,
65517,
123,
65422,
65334,
65490,
42,
65444,
65458,
65506,
141,
96,
138,
65487,
5,
74,
65513,
7,
65513,
65462,
61,
67,
21,
65466,
54,
65458,
38,
65455,
12,
56,
39,
71,
65508,
69,
2,
65476,
56,
65455,
65449,
65439,
41,
65446,
13,
65475,
45,
65440,
65468,
5,
65511,
65535,
65534,
65503,
65533,
0,
65427,
65500,
65483,
65488,
65456,
65535,
65463,
65496,
65360,
65508,
65350,
65422,
65418,
0,
65325,
65340,
65515,
21,
65379,
65523,
65365,
14,
65,
65534,
65442,
28,
65389,
65489,
65433,
65376,
65495,
65420,
120,
17,
26,
65531,
106,
124,
60,
65453,
65488,
65437,
46,
158,
29,
65454,
207,
44,
19,
165,
65478,
65502,
57,
85,
26,
65484,
190,
76,
65429,
52,
65471,
60,
27,
65465,
65338,
65284,
65469,
103,
65530,
65474,
119,
47,
125,
196,
65451,
65353,
65355,
42,
65353,
65429,
65431,
65261,
65449,
65355,
65236,
65498,
85,
156,
210,
132,
65526,
65531,
65525,
79,
135,
84,
27,
148,
27,
65432,
65416,
65371,
129,
44,
36,
65487,
65471,
65446,
43,
65415,
174,
106,
65509,
14,
188,
56,
17,
221,
165,
64,
102,
98,
173,
256,
67,
188,
273,
236,
130,
112,
266,
112,
165,
187,
56,
53,
106,
97,
130,
71,
65511,
67,
56,
65447,
44,
68,
65467,
65500,
30,
65490,
60,
65443,
65469,
65529,
65516,
23,
65441,
46,
79,
69,
65457,
2,
65496,
71,
65499,
95,
65481,
65503,
65428,
65459,
22,
13,
65526,
65446,
68,
65446,
65506,
23,
65482,
65456,
65511,
10,
65495,
6,
57,
65510,
65426,
65492,
65472,
15,
65519,
117,
19,
113,
65501,
53,
65528,
96,
67,
72,
65438,
65481,
65367,
101,
135,
79,
65535,
65529,
65510,
65508,
65507,
65,
65327,
65478,
65499,
65332,
65360,
65341,
65505,
39,
65516,
66,
93,
65439,
119,
27,
85,
60,
22,
143,
121,
22,
153,
162,
40,
164,
75,
65506,
145,
67,
110,
98,
7,
97,
152,
130,
98,
65535,
84,
65520,
65419,
65511,
65515,
65480,
65530,
191,
93,
172,
289,
65436,
15,
65531,
43,
155,
17,
38,
31,
65477,
65479,
14,
65531,
60,
52,
27,
65474,
122,
52,
65513,
65530,
77,
101,
55,
65485,
32,
66,
65454,
26,
70,
65471,
38,
65519,
65485,
65449,
65506,
65449,
2,
65524,
35,
88,
50,
65482,
65507,
60,
65501,
36,
86,
20,
65534,
65480,
65460,
65469,
89,
65494,
65524,
65499,
65454,
55,
76,
62,
65494,
24,
65448,
13,
9,
65483,
25,
54,
65484,
65423,
65482,
149,
100,
86,
19,
65465,
77,
21,
35,
65469,
59,
81,
70,
337,
249,
6,
135,
106,
222,
182,
223,
77,
165,
72,
161,
134,
117,
65526,
75,
74,
65451,
65447,
65423,
17,
301,
20,
65447,
65524,
1,
65476,
17,
65472,
53,
65489,
65521,
65495,
65242,
65112,
65339,
65373,
47,
65529,
65369,
65206,
65292,
65359,
64,
188,
122,
111,
53,
77,
115,
46,
10,
65479,
65485,
100,
65498,
40,
5,
65521,
65534,
65481,
65453,
29,
31,
65451,
65532,
65425,
21,
54,
51,
65469,
65533,
65441,
65445,
59,
65531,
65470,
73,
65488,
40,
13,
65451,
65458,
65496,
65459,
65480,
65468,
65402,
65522,
65434,
17,
65435,
50,
89,
65513,
65474,
65469,
88,
65509,
65489,
68,
17,
107,
33,
65503,
65533,
28,
51,
20,
151,
82,
49,
35,
65522,
29,
67,
65466,
85,
76,
42,
76,
65,
65427,
65456,
65522,
65,
72,
65437,
65509,
65454,
65448,
58,
89,
65533,
65402,
14,
16,
34,
65529,
65423,
65436,
25,
29,
94,
82,
117,
65477,
60,
68,
65505,
34,
65524,
34,
140,
40,
176,
162,
65470,
65411,
65441,
65394,
65474,
65387,
65330,
65452,
74,
50,
62,
111,
65503,
60,
127,
135,
219,
129,
104,
104,
21,
4,
65474,
38,
46,
65495,
57,
65523,
30,
53,
90,
65340,
74,
190,
120,
65513,
65530,
65492,
33,
65434,
33,
65520,
65397,
65475,
65394,
65413,
65478,
65517,
65474,
65431,
65417,
65348,
65513,
65526,
59,
65450,
66,
0,
38,
65430,
65470,
9,
65523,
139,
4,
51,
18,
20,
65482,
65524,
65509,
65462,
65411,
65524,
86,
65505,
50,
80,
208,
78,
64,
134,
65499,
65500,
65528,
176,
122,
168,
41,
112,
145,
133,
31,
65523,
52,
198,
105,
87,
65482,
41,
22,
65452,
65526,
117,
18,
58,
147,
56,
31,
40,
60,
65399,
65492,
65507,
65519,
65499,
147,
182,
122,
7,
65472,
29,
10,
140,
65515,
133,
73,
65497,
27,
65359,
65416,
65435,
65,
13,
76,
65434,
65503,
63,
65425,
65498,
65488,
65530,
96,
65527,
65417,
60,
165,
101,
65454,
65497,
98,
53,
23,
65526,
65454,
16,
93,
65465,
72,
65501,
44,
65217,
65485,
65365,
65325,
65313,
65367,
65496,
65340,
65410,
65394,
65271,
65359,
65324,
65452,
101,
65364,
22,
65417,
65443,
65477,
19,
42,
65517,
34,
65494,
65508,
65500,
65473,
65462,
63,
65490,
65467,
22,
65342,
65485,
16,
65397,
52,
56,
141,
160,
114,
65494,
116,
65521,
122,
178,
156,
65528,
263,
63,
65475,
22,
65413,
155,
140,
96,
65519,
105,
65509,
226,
112,
65390,
65410,
65463,
65332,
65236,
65477,
156,
65413,
65363,
65429,
65329,
65514,
65457,
69,
162,
101,
3,
6,
65510,
23,
144,
39,
23,
65439,
65386,
65529,
65430,
65377,
65521,
65437,
65507,
65499,
65464,
65284,
65444,
65257,
33,
68,
62,
53,
92,
65441,
65510,
154,
156,
65443,
65462,
78,
65499,
65304,
65236,
65306,
65336,
65532,
65532,
65450,
65087,
65341,
65527,
32,
7,
59,
149,
101,
83,
177,
4,
65473,
62,
65480,
65481,
65520,
34,
65422,
65530,
61,
65474,
65479,
65451,
65441,
65437,
65473,
65,
34,
65523,
41,
65509,
65447,
65470,
37,
14,
49,
109,
65470,
65459,
86,
60,
65509,
65494,
65525,
65511,
60,
90,
7,
65423,
51,
65456,
65432,
65525,
65407,
3,
65501,
29,
65377,
65514,
65439,
65397,
65330,
65447,
65329,
65523,
65346,
65464,
65497,
65507,
65473,
65416,
15,
65472,
65529,
65507,
41,
65524,
65422,
8,
65522,
9,
65473,
80,
65492,
18,
116,
118,
65518,
55,
65523,
65421,
65516,
89,
65534,
65441,
65500,
18,
28,
128,
65526,
65525,
65510,
21,
42,
65474,
156,
65516,
65488,
65477,
65399,
125,
34,
16,
65529,
65433,
65512,
65505,
65436,
65527,
117,
69,
65531,
56,
177,
96,
46,
82,
65409,
65501,
65533,
203,
22,
228,
118,
128,
138,
21,
15,
65482,
1,
0,
32,
121,
65523,
65493,
65475,
65520,
65443,
80,
57,
18,
76,
6,
78,
84,
69,
71,
31,
119,
149,
128,
64,
92,
68,
65508,
177,
73,
65499,
50,
65533,
65530,
145,
105,
65496,
3,
18,
88,
124,
160,
65531,
28,
41,
104,
210,
53,
65508,
65462,
65444,
65528,
62,
65478,
48,
65452,
0,
65443,
65388,
55,
81,
1,
58,
65498,
65495,
222,
0,
65450,
65498,
65490,
65513,
15,
53,
176,
27,
68,
76,
62,
54,
112,
65468,
18,
38,
65528,
65422,
65494,
65519,
64,
118,
29,
70,
58,
65505,
91,
295,
64,
32,
121,
85,
55,
64,
22,
107,
22,
36,
65502,
72,
138,
41,
7,
34,
88,
68,
101,
65524,
130,
65478,
65519,
38,
74,
65447,
65479,
82,
46,
100,
65516,
65343,
65342,
65469,
65410,
65415,
126,
65533,
65444,
31,
36,
65447,
41,
114,
18,
94,
114,
93,
65473,
65532,
210,
172,
90,
135,
190,
37,
282,
181,
118,
37,
36,
65531,
65534,
251,
49,
65493,
65520,
35,
65472,
65478,
65475,
65430,
65473,
65515,
96,
141,
118,
65368,
65441,
54,
105,
65497,
79,
65479,
10,
61,
65499,
3,
65468,
65527,
65529,
65439,
65402,
65475,
15,
33,
50,
65519,
38,
2,
65507,
48,
154,
85,
125,
195,
95,
65494,
65455,
65522,
65474,
65396,
65420,
65474,
65495,
153,
89,
199,
63,
15,
12,
89,
155,
72,
69,
65485,
65506,
65321,
65387,
65455,
76,
65369,
8,
65339,
65253,
65378,
65441,
65408,
49,
72,
65513,
78,
148,
98,
65484,
125,
65475,
65475,
65458,
41,
119,
65419,
28,
65515,
65403,
65413,
17,
25,
65492,
65508,
65523,
65380,
65497,
65509,
65489,
65448,
65376,
65459,
17,
7,
146,
6,
92,
65532,
49,
49,
199,
62,
81,
29,
65458,
65439,
77,
65535,
65394,
65476,
41,
32,
61,
85,
111,
65529,
65479,
65515,
65511,
72,
65503,
65523,
65477,
37,
17,
64,
142,
64,
65411,
65396,
12,
65373,
65494,
37,
65492,
20,
87,
65441,
65494,
62,
65464,
65445,
36,
16,
65530,
65439,
22,
65467,
65478,
65482,
65450,
65517,
65457,
2,
65510,
65449,
37,
65466,
52,
65534,
65463,
0,
46,
74,
65499,
75,
33,
3,
50,
41,
33,
65520,
47,
156,
104,
65463,
65476,
65396,
65483,
65503,
65439,
65502,
65491,
65433,
65527,
65524,
170,
65520,
65440,
65451,
65396,
65449,
28,
65370,
65534,
65336,
65405,
65445,
65442,
65461,
65485,
65503,
65454,
65482,
65428,
65466,
88,
65442,
12,
25,
65526,
65239,
65459,
52,
19,
65479,
65434,
65461,
29,
65532,
15,
65426,
65523,
65382,
224,
0,
65482,
65531,
16,
58,
106,
65349,
4,
77,
119,
107,
17,
65486,
59,
65494,
133,
65522,
65404,
65505,
65468,
77,
65,
254,
35,
78,
211,
90,
134,
50,
65432,
25,
31,
65391,
65514,
65526,
65390,
65429,
65360,
65219,
65391,
65385,
65420,
65522,
65268,
65382,
65531,
65400,
135,
45,
32,
68,
65444,
42,
238,
87,
181,
65509,
42,
65466,
65518,
148,
99,
65511,
75,
32,
20,
115,
65487,
65503,
103,
104,
62,
50,
65483,
65471,
45,
69,
65499,
28,
65506,
65420,
103,
65478,
65467,
65387,
171,
43,
65465,
4,
65501,
64,
86,
65518,
51,
65476,
50,
65469,
40,
72,
65525,
75,
50,
11,
65518,
65475,
3,
65523,
7,
3,
65478,
29,
65515,
65480,
65452,
88,
65496,
65503,
65458,
65467,
65482,
8,
88,
65466,
44,
65460,
65462,
9,
21,
27,
65365,
65325,
65369,
65404,
65532,
41,
65499,
65354,
65302,
65493,
65474,
65442,
5,
65408,
65447,
65479,
65505,
65417,
65446,
65376,
65442,
2,
65532,
65501,
65410,
6,
1,
65477,
65485,
85,
47,
65456,
83,
87,
110,
2,
42,
73,
94,
93,
190,
65492,
65446,
132,
22,
177,
64,
63,
65432,
65516,
33,
46,
65440,
40,
184,
65466,
65414,
65454,
65369,
65432,
65533,
65529,
97,
31,
112,
59,
65500,
144,
7,
12,
65491,
65463,
70,
45,
88,
65464,
65526,
59,
54,
65481,
65473,
0,
97,
65468,
46,
7,
65524,
150,
3,
34,
29,
72,
51,
62,
65461,
65532,
7,
12,
44,
65459,
70,
39,
65504,
163,
284,
208,
93,
65409,
87,
187,
58,
93,
31,
65468,
65454,
170,
65446,
39,
65533,
19,
65365,
65468,
65340,
65403,
65303,
65454,
65372,
65517,
65524,
65436,
65406,
65530,
65375,
65507,
36,
65447,
65508,
65442,
65501,
65525,
137,
65391,
65439,
65437,
65369,
65360,
65482,
172,
324,
144,
83,
80,
11,
19,
94,
142,
276,
135,
106,
65456,
65345,
65428,
59,
65482,
77,
143,
38,
65529,
135,
1,
65400,
65460,
133,
45,
1,
65445,
65486,
90,
101,
65432,
72,
152,
89,
37,
65508,
65514,
0,
93,
95,
2,
65380,
29,
65492,
65526,
44,
177,
281,
96,
76,
49,
65533,
96,
176,
53,
48,
91,
65469,
4,
42,
58,
65506,
32,
65487,
26,
65516,
65384,
65493,
64,
65470,
131,
114,
38,
1,
19,
147,
175,
65502,
65508,
45,
84,
20,
65524,
65458,
65500,
71,
30,
1,
65496,
92,
65510,
65454,
65513,
65408,
65509,
25,
86,
18,
65510,
118,
105,
65517,
65531,
65533,
65336,
65375,
65438,
65394,
65325,
65450,
65452,
65466,
73,
108,
65493,
41,
65496,
78,
65443,
38,
65507,
65381,
24,
65491,
65413,
65481,
72,
187,
36,
65443,
50,
81,
62,
67,
24,
19,
74,
65487,
65473,
35,
65470,
79,
80,
65488,
65496,
65451,
65519,
23,
65535,
65528,
65477,
10,
31,
25,
84,
65488,
24,
51,
90,
16,
35,
65486,
65460,
3,
3,
74,
65483,
56,
65501,
29,
72,
65465,
65423,
70,
65511,
112,
1,
53,
65471,
6,
75,
65497,
65518,
14,
65477,
37,
2,
65480,
14,
38,
65495,
109,
65457,
65458,
65449,
51,
80,
5,
89,
14,
43,
43,
8,
65418,
30,
65458,
95,
36,
65475,
65498,
21,
65444,
15,
0,
18,
65534,
47,
65433,
65473,
16,
65522,
65438,
65426,
65458,
54,
20,
49,
82,
98,
65454,
65469,
65461,
51,
65512,
160,
70,
53,
65479,
65527,
65517,
50,
65516,
65482,
82,
65503,
65499,
18,
31,
161,
80,
5,
216,
133,
97,
105,
65415,
65411,
65409,
65344,
65431,
26,
14,
65450,
65409,
65410,
65498,
65491,
65518,
65524,
65495,
65441,
65365,
104,
132,
43,
65397,
6,
65489,
106,
65411,
65486,
65493,
65402,
65453,
65377,
65463,
65434,
65523,
42,
57,
65340,
65384,
153,
65414,
89,
23,
65414,
65430,
117,
157,
313,
26,
65461,
43,
35,
217,
264,
19,
15,
65437,
30,
13,
65480,
65531,
65464,
53,
140,
89,
59,
12,
21,
65516,
90,
34,
225,
21,
182,
65496,
27,
67,
60,
65520,
65479,
9,
65492,
65332,
65351,
65409,
65377,
31,
65431,
65396,
65389,
65386,
65528,
65505,
65494,
40,
65419,
19,
19,
173,
65530,
65449,
9,
65442,
65480,
65483,
45,
86,
65473,
65510,
40,
65521,
75,
169,
130,
60,
65533,
57,
65495,
47,
56,
172,
65400,
65493,
65513,
65441,
65421,
53,
57,
65515,
65532,
43,
68,
15,
83,
30,
22,
65473,
56,
3,
65394,
14,
10,
30,
65533,
65479,
65423,
165,
65476,
57,
65432,
11,
65356,
65526,
45,
65526,
65454,
65428,
65480,
27,
65469,
65448,
36,
86,
65491,
50,
83,
85,
82,
65523,
89,
65485,
84,
1,
65509,
23,
203,
108,
65493,
21,
65473,
65513,
39,
22,
65449,
10,
48,
28,
15,
105,
2,
23,
65532,
116,
65341,
65531,
65444,
96,
47,
65448,
65531,
145,
65506,
9,
64,
168,
65357,
65526,
37,
65425,
13,
65459,
132,
57,
65531,
50,
65487,
8,
65474,
65533,
65346,
72,
65472,
65470,
65474,
65455,
65371,
39,
65522,
65525,
65394,
42,
65502,
65473,
65462,
65406,
65515,
65459,
65480,
33,
65478,
8,
25,
148,
163,
219,
115,
205,
332,
61,
65248,
65370,
65338,
65276,
15,
57,
65488,
65265,
65387,
65430,
65403,
65409,
33,
17,
65495,
65419,
65409,
65475,
157,
112,
65483,
65390,
65464,
65531,
65514,
65450,
65356,
65447,
65517,
65433,
90,
10,
65475,
67,
35,
5,
65449,
65420,
65400,
65492,
65505,
28,
65486,
65486,
65479,
65420,
65365,
65491,
71,
265,
168,
65468,
56,
66,
65510,
57,
154,
65490,
65428,
65500,
65402,
65427,
65357,
65465,
65436,
12,
125,
65446,
65503,
62,
18,
65472,
65353,
65457,
65527,
80,
65493,
65473,
65446,
65469,
65513,
65438,
65372,
44,
65499,
52,
65514,
12,
65328,
31,
179,
131,
65444,
65496,
57,
65476,
65418,
65418,
65438,
65446,
65471,
65432,
65434,
65509,
40,
65527,
65494,
65464,
65528,
78,
28,
65509,
65420,
65298,
142,
31,
65387,
44,
65461,
65454,
192,
65405,
65467,
65435,
65492,
65524,
50,
65471,
65463,
65475,
65385,
46,
19,
44,
184,
2,
65514,
76,
65481,
52,
65530,
3,
65512,
50,
65496,
65505,
65440,
65452,
167,
65524,
43,
65530,
120,
52,
108,
14,
121,
197,
90,
65515,
65500,
43,
82,
10,
105,
54,
11,
65498,
65512,
40,
16,
65477,
65393,
138,
186,
65492,
65464,
67,
128,
30,
49,
65460,
101,
63,
60,
65467,
80,
77,
35,
65451,
1,
65443,
45,
65350,
65427,
65459,
65403,
65451,
6,
65506,
65498,
65422,
65468,
10,
65446,
65524,
65399,
65390,
65527,
65370,
65423,
65471,
111,
24,
65444,
65398,
65514,
192,
90,
41,
32,
65453,
131,
118,
102,
6,
11,
86,
120,
65483,
128,
11,
11,
103,
37,
102,
24,
65490,
96,
70,
61,
101,
121,
214,
76,
65457,
76,
65493,
27,
64,
34,
65511,
11,
65487,
65454,
65518,
65502,
50,
32,
65479,
65464,
65445,
31,
65488,
65487,
65460,
65534,
65,
65438,
65512,
65493,
65449,
65455,
65493,
72,
82,
65468,
65496,
65534,
65498,
5,
65488,
65360,
65481,
65402,
65472,
65453,
81,
99,
111,
65504,
59,
136,
98,
11,
89,
124,
60,
154,
99,
122,
89,
155,
107,
155,
56,
65481,
65419,
65532,
90,
217,
65491,
67,
32,
56,
65505,
158,
177,
84,
108,
165,
187,
484,
158,
65419,
65309,
65460,
65439,
39,
20,
65524,
65475,
151,
65443,
65509,
65426,
149,
2,
65497,
65504,
65438,
65419,
143,
245,
95,
65337,
14,
125,
72,
65299,
65442,
65366,
28,
65414,
65373,
65461,
65510,
65481,
65474,
65423,
65505,
65527,
65514,
65400,
64,
156,
65499,
65378,
35,
40,
29,
65494,
65476,
178,
181,
7,
62,
65532,
17,
117,
185,
201,
233,
65531,
65510,
141,
76,
65434,
65513,
33,
65426,
39,
65533,
65422,
65483,
65522,
149,
55,
63,
117,
9,
65501,
84,
72,
65531,
149,
157,
65521,
65471,
65434,
65486,
65425,
15,
47,
65485,
65448,
37,
19,
65449,
65520,
83,
44,
149,
76,
54,
40,
65434,
65461,
88,
65496,
65465,
15,
65513,
65382,
65438,
72,
75,
65377,
41,
45,
56,
35,
151,
65450,
27,
82,
14,
152,
121,
22,
65509,
110,
23,
117,
187,
65502,
37,
12,
85,
72,
131,
67,
65411,
65473,
65510,
14,
65507,
95,
65522,
65471,
65516,
65524,
54,
30,
14,
20,
69,
64,
42,
183,
9,
115,
35,
65,
67,
69,
65459,
65484,
65452,
65466,
71,
162,
151,
65401,
69,
22,
68,
65434,
65533,
92,
65480,
70,
65445,
82,
132,
65535,
65519,
65486,
65483,
65468,
65493,
65533,
65472,
65443,
49,
65522,
65466,
61,
65457,
65480,
65480,
69,
9,
21,
65484,
83,
65523,
65534,
28,
65456,
94,
59,
65466,
30,
65512,
59,
36,
120,
70,
48,
65470,
2,
15,
23,
65521,
218,
84,
154,
65512,
14,
87,
65498,
5,
102,
154,
110,
65481,
49,
65530,
90,
65534,
113,
20,
21,
16,
43,
65464,
65435,
65448,
65526,
11,
65476,
55,
65438,
13,
134,
12,
65460,
65530,
82,
131,
115,
25,
65372,
65431,
113,
154,
65475,
65520,
31,
124,
23,
191,
182,
17,
65522,
157,
114,
45,
218,
9,
65,
113,
23,
6,
65492,
79,
106,
65527,
65474,
65516,
65451,
65298,
65417,
65414,
65391,
65426,
65376,
65439,
85,
65514,
65482,
65429,
31,
53,
136,
44,
4,
65508,
65432,
29,
147,
65489,
65529,
136,
87,
65418,
65491,
65506,
19,
87,
65532,
65518,
65507,
83,
135,
236,
83,
37,
65399,
65356,
65479,
65533,
65507,
65516,
65400,
65433,
65404,
1,
65479,
65499,
77,
22,
38,
65472,
75,
36,
137,
33,
65481,
65393,
12,
65523,
1,
65507,
29,
65308,
43,
65497,
65472,
65485,
4,
65452,
1,
109,
89,
73,
131,
65401,
65489,
101,
46,
3,
124,
65518,
138,
65487,
65441,
1,
120,
117,
99,
152,
65526,
97,
97,
123,
65451,
10,
65459,
190,
26,
65515,
65525,
65397,
65439,
65499,
65317,
65313,
17,
65458,
65395,
65495,
65441,
65339,
65345,
52,
65434,
100,
149,
6,
65400,
65464,
75,
100,
35,
49,
65516,
70,
169,
101,
207,
65479,
65468,
65529,
65514,
65500,
65439,
65428,
