memory_initialization_radix=10;
memory_initialization_vector =
72,
65479,
65486,
4,
131,
4,
118,
65509,
65502,
100,
65504,
65450,
19,
65326,
65500,
54,
65242,
65357,
104,
65402,
65429,
220,
65337,
65221,
65272,
65498,
19,
36,
65457,
65355,
139,
4,
91,
65449,
65393,
65404,
65387,
65329,
73,
83,
65519,
213,
65353,
65324,
48,
65535,
65512,
12,
65533,
65386,
65245,
11,
84,
65518,
21,
65471,
65498,
94,
65501,
54,
65530,
65512,
113,
55,
49,
106,
77,
65491,
65416,
65529,
65530,
21,
65364,
32,
250,
164,
81,
65251,
65497,
116,
288,
163,
65530,
65430,
62,
238,
363,
330,
171,
65405,
65436,
136,
219,
387,
65515,
65511,
65365,
65434,
65445,
65461,
65471,
65331,
65458,
65411,
65417,
65307,
65458,
65476,
49,
65271,
65317,
65476,
65320,
158,
65515,
65299,
65147,
65356,
65488,
144,
65429,
65326,
65197,
65352,
65531,
65453,
164,
65317,
65289,
65145,
65401,
158,
39,
121,
65311,
12,
191,
316,
147,
41,
116,
54,
119,
120,
65505,
65504,
65458,
65453,
48,
65461,
65490,
65474,
65,
4,
38,
65503,
13,
65454,
65511,
71,
63,
65530,
65463,
71,
65460,
65466,
65484,
65456,
65462,
82,
20,
65461,
17,
32,
81,
65508,
65447,
65442,
65449,
2,
65449,
65382,
65385,
65393,
65384,
65447,
65518,
65479,
65378,
29,
65521,
65329,
65450,
65446,
65293,
65326,
65505,
65438,
60,
65506,
65388,
65480,
9,
65456,
24,
9,
65510,
12,
65517,
65514,
2,
65494,
65491,
65506,
17,
65365,
65390,
65379,
65462,
135,
240,
65526,
65534,
65473,
65444,
65445,
122,
99,
104,
10,
65517,
65330,
67,
80,
53,
97,
191,
119,
65510,
67,
65435,
65466,
65484,
102,
65484,
28,
65525,
22,
65444,
65349,
65359,
65426,
65454,
65478,
65404,
65371,
65417,
65481,
65377,
65392,
65235,
65190,
65326,
65430,
5,
65521,
65415,
65383,
52,
65475,
69,
56,
65431,
65361,
65307,
65467,
85,
65480,
65337,
65495,
52,
9,
65476,
65456,
65498,
65488,
65507,
65439,
134,
31,
152,
138,
37,
144,
17,
65515,
155,
155,
54,
150,
89,
59,
65530,
55,
93,
13,
52,
65493,
100,
174,
65464,
76,
75,
1,
65470,
14,
37,
65496,
13,
73,
65529,
40,
10,
132,
56,
65484,
128,
65467,
65427,
57,
52,
65444,
65466,
59,
65357,
65447,
116,
65448,
65520,
65527,
65429,
65534,
65516,
8,
130,
65494,
83,
65534,
55,
66,
169,
145,
65442,
65457,
147,
65533,
65521,
23,
65518,
33,
4,
65509,
65461,
65493,
65476,
47,
65535,
65497,
78,
65460,
42,
65498,
16,
65527,
51,
65435,
42,
65533,
60,
36,
65430,
76,
65458,
65507,
65530,
2,
65445,
23,
65500,
78,
80,
23,
65451,
30,
65504,
28,
65406,
65421,
65152,
65346,
65350,
65464,
65521,
65407,
65330,
65182,
65220,
65475,
65524,
65482,
65404,
65271,
65471,
65516,
60,
64,
65363,
65482,
65362,
65354,
65445,
76,
19,
43,
65487,
65329,
65277,
65465,
65483,
65504,
65408,
65349,
11,
67,
65286,
65323,
65328,
65422,
65473,
27,
65228,
65375,
65408,
65512,
65423,
65514,
65405,
65282,
65422,
65512,
70,
39,
65383,
65366,
65469,
102,
30,
65526,
65401,
65465,
65461,
65483,
6,
18,
65531,
60,
42,
51,
65420,
26,
65502,
207,
133,
114,
336,
114,
419,
137,
69,
65406,
65390,
65485,
149,
65488,
146,
65473,
65366,
65311,
65435,
142,
65488,
65293,
65394,
65402,
31,
119,
65397,
65397,
65211,
65500,
65471,
65475,
65393,
65299,
78,
214,
155,
59,
181,
18,
72,
124,
283,
106,
65479,
0,
54,
113,
125,
26,
22,
122,
65407,
4,
185,
59,
65,
60,
65456,
65490,
63,
65503,
65481,
65507,
146,
54,
68,
61,
65497,
168,
6,
65525,
65431,
65456,
65529,
65405,
65436,
5,
38,
65404,
65486,
65423,
3,
65442,
65511,
65502,
1,
65435,
28,
65448,
65395,
65452,
65408,
25,
65377,
65475,
65506,
65510,
65399,
6,
53,
65428,
65483,
65409,
65440,
42,
65398,
65452,
84,
52,
65456,
65461,
48,
65527,
65428,
47,
65395,
65481,
65465,
24,
65440,
17,
21,
65415,
10,
78,
11,
94,
14,
65399,
2,
65420,
51,
65526,
65471,
65412,
65422,
65509,
5,
65469,
65479,
65466,
65464,
162,
65473,
220,
15,
65524,
357,
140,
280,
322,
48,
65460,
65411,
65084,
205,
184,
65522,
65442,
65368,
65323,
65452,
255,
26,
65204,
65405,
65363,
65415,
215,
101,
65284,
65285,
65233,
65319,
65430,
65298,
65453,
143,
84,
65490,
65297,
65440,
64,
65498,
212,
59,
240,
65391,
65483,
65491,
65365,
65466,
65491,
30,
65355,
65421,
40,
74,
65450,
65507,
65361,
65509,
65475,
65414,
65498,
153,
65485,
126,
65462,
26,
65523,
65494,
5,
193,
65384,
147,
11,
126,
65492,
65498,
89,
57,
154,
26,
65445,
129,
65443,
12,
65503,
65475,
65346,
65532,
65315,
65237,
38,
65259,
65409,
65328,
68,
65497,
40,
45,
65514,
43,
65382,
65512,
65476,
65238,
65363,
65380,
65364,
65255,
65228,
65285,
65420,
65397,
65437,
65272,
65035,
65261,
65447,
16,
65459,
65406,
65316,
65378,
65503,
90,
103,
65329,
65391,
65509,
65455,
0,
36,
50,
33,
5,
65482,
65295,
65445,
65379,
65518,
65459,
65400,
65514,
65311,
65509,
32,
65331,
65390,
91,
65467,
50,
65373,
65304,
65331,
49,
53,
82,
219,
170,
80,
65355,
126,
133,
120,
237,
88,
57,
51,
116,
50,
28,
12,
38,
65500,
65527,
11,
65456,
157,
171,
85,
171,
65526,
65275,
65488,
2,
248,
65528,
57,
65394,
65429,
65496,
48,
169,
107,
108,
65520,
65380,
65461,
55,
12,
240,
9,
13,
50,
65457,
65441,
49,
207,
43,
193,
95,
56,
3,
34,
194,
151,
4,
65434,
65518,
65323,
65484,
279,
119,
158,
101,
65438,
65507,
112,
89,
46,
6,
55,
65433,
148,
65384,
65524,
56,
75,
74,
65436,
65470,
65461,
22,
65461,
50,
37,
65491,
107,
65512,
170,
23,
65361,
65488,
65435,
65418,
51,
65415,
65433,
65259,
65405,
65522,
65505,
65458,
30,
65396,
65368,
151,
193,
251,
65528,
39,
10,
227,
52,
291,
65487,
65491,
96,
121,
85,
24,
91,
18,
70,
274,
126,
65468,
14,
65336,
65394,
65194,
65295,
77,
85,
91,
65367,
65192,
65438,
65397,
156,
23,
65396,
65432,
65348,
65169,
65500,
35,
162,
65,
45,
65353,
65453,
65351,
134,
17,
65436,
65433,
65534,
65472,
65520,
65345,
65465,
114,
10,
65411,
65208,
65331,
65535,
65467,
65264,
65132,
65362,
65202,
70,
65446,
65292,
65111,
65292,
65462,
65520,
86,
65310,
65206,
65048,
65316,
65511,
134,
14,
65406,
65500,
65511,
55,
90,
132,
65526,
293,
79,
5,
65440,
65521,
65374,
65289,
65510,
39,
65530,
3,
65464,
65342,
65361,
65473,
65490,
65420,
65464,
65470,
65528,
65411,
65489,
65426,
65279,
65230,
65437,
65468,
65458,
44,
65414,
65444,
65512,
65502,
65522,
13,
69,
62,
1,
65516,
16,
65440,
65445,
65446,
24,
18,
57,
65444,
86,
65499,
65449,
65465,
28,
65512,
65435,
33,
65465,
0,
65446,
65504,
65452,
71,
65479,
32,
65508,
37,
55,
78,
27,
65476,
74,
65423,
37,
65475,
65466,
65436,
65398,
65424,
65505,
65454,
65478,
65330,
65449,
65447,
65440,
65275,
65384,
65340,
65442,
65471,
65425,
65250,
65393,
65406,
56,
80,
65414,
31,
65470,
65333,
65497,
65436,
62,
65433,
65470,
65451,
65406,
65383,
65405,
65342,
65363,
65454,
68,
65438,
0,
84,
65473,
65447,
72,
79,
65503,
65531,
84,
76,
65468,
65497,
65473,
65470,
65480,
70,
65499,
65498,
65522,
22,
33,
63,
65531,
6,
65485,
65494,
67,
65457,
67,
65501,
49,
65502,
65456,
71,
65516,
65323,
65279,
65422,
65531,
44,
33,
65209,
65152,
65412,
65430,
36,
65481,
65315,
65177,
65409,
65405,
65510,
67,
65337,
65212,
65197,
5,
93,
154,
65508,
65387,
65535,
56,
65462,
6,
8,
4,
301,
159,
65500,
65496,
65532,
65458,
4,
65441,
65436,
65476,
29,
50,
65532,
72,
23,
40,
65464,
65433,
18,
65523,
62,
77,
65501,
65448,
65506,
50,
65477,
51,
65467,
65,
52,
65487,
65500,
65448,
5,
65524,
65498,
24,
65491,
31,
65472,
65518,
65407,
65449,
65482,
65506,
39,
65380,
65456,
65497,
10,
129,
166,
65449,
16,
26,
129,
98,
103,
30,
65503,
200,
192,
113,
65498,
64,
65469,
122,
151,
125,
180,
90,
4,
22,
51,
65484,
65508,
65446,
65495,
65494,
65493,
65342,
65495,
65379,
65462,
65529,
65511,
65525,
65500,
65393,
65383,
65505,
49,
65412,
37,
65497,
65341,
65466,
65457,
13,
51,
65528,
65426,
65411,
65530,
65446,
2,
65495,
65307,
65399,
65415,
65418,
65163,
65350,
65407,
65430,
180,
65477,
65137,
65254,
65522,
65459,
65521,
55,
65409,
65254,
90,
65521,
26,
189,
65342,
65461,
65294,
95,
132,
123,
319,
108,
109,
53,
29,
308,
305,
175,
101,
301,
65459,
65501,
65473,
75,
88,
65435,
4,
29,
65413,
22,
178,
22,
34,
263,
65465,
65473,
169,
89,
65448,
113,
6,
65497,
101,
65453,
65463,
11,
224,
44,
298,
65429,
4,
65474,
51,
65444,
74,
65501,
65432,
104,
65305,
0,
88,
67,
85,
65369,
65484,
65452,
65424,
108,
161,
29,
72,
43,
65273,
65462,
307,
226,
75,
184,
65412,
28,
134,
65520,
78,
57,
65515,
3,
221,
65521,
0,
175,
292,
65460,
95,
65401,
65457,
65458,
63,
65483,
79,
65381,
65338,
65359,
65307,
28,
93,
35,
65514,
65348,
65342,
65503,
65462,
94,
65475,
65533,
65480,
65514,
114,
65443,
65534,
123,
158,
65497,
42,
14,
65460,
65449,
65462,
65428,
65494,
65513,
302,
141,
419,
209,
65374,
65522,
185,
359,
158,
127,
65511,
65337,
95,
154,
42,
65463,
65324,
65315,
219,
402,
372,
85,
65230,
65438,
65411,
143,
26,
65478,
65466,
65371,
65385,
65450,
65306,
65363,
65453,
65529,
65505,
62,
65444,
65470,
36,
50,
65469,
83,
65497,
65504,
65463,
35,
37,
65453,
42,
65507,
3,
44,
8,
65535,
53,
65473,
34,
65505,
65511,
65443,
30,
83,
65498,
52,
65523,
54,
65527,
22,
57,
65406,
65450,
65261,
65304,
65344,
65387,
65349,
65387,
65281,
65287,
65251,
65507,
65431,
65412,
65367,
65276,
65346,
65444,
65515,
65515,
65450,
65445,
65386,
65431,
65459,
113,
6,
5,
65435,
65504,
65527,
5,
65445,
65498,
33,
23,
8,
65535,
65526,
1,
31,
65379,
76,
40,
206,
277,
39,
65415,
45,
238,
65494,
111,
126,
65430,
65437,
82,
65474,
90,
65517,
65339,
65466,
65476,
65519,
65391,
95,
65234,
65322,
65376,
22,
65511,
65445,
65410,
264,
65263,
87,
71,
131,
65429,
65397,
99,
30,
167,
65479,
51,
34,
226,
262,
57,
65510,
144,
65496,
104,
65496,
65387,
65530,
266,
65408,
65400,
65300,
65497,
78,
5,
55,
65484,
124,
168,
10,
65366,
285,
65484,
65499,
65303,
65436,
50,
65534,
65466,
65383,
65416,
65444,
65508,
43,
65373,
65460,
65401,
65516,
65358,
65472,
65390,
65502,
65512,
69,
65371,
140,
63,
123,
32,
2,
65413,
240,
65521,
32,
187,
65473,
65485,
65484,
65510,
67,
35,
49,
65511,
79,
65526,
28,
65471,
81,
55,
65474,
65523,
65438,
73,
86,
57,
65482,
65451,
33,
22,
19,
23,
65485,
35,
65448,
36,
33,
52,
55,
15,
65485,
65530,
65512,
62,
65450,
4,
65442,
55,
192,
43,
65432,
65531,
65423,
65402,
65493,
65521,
65501,
45,
23,
65341,
65516,
30,
65403,
10,
65528,
65505,
65522,
17,
65450,
16,
23,
44,
218,
203,
34,
65455,
65524,
57,
58,
65467,
23,
72,
134,
125,
190,
65460,
5,
134,
72,
60,
36,
111,
153,
65475,
66,
122,
65415,
65405,
65387,
65497,
65276,
65494,
65329,
51,
65343,
65423,
21,
96,
65362,
65382,
65433,
65384,
65497,
133,
65330,
65418,
65443,
152,
65436,
43,
59,
99,
31,
65519,
65505,
55,
74,
119,
50,
36,
75,
65520,
65429,
65313,
65413,
65496,
65514,
38,
65476,
65367,
13,
80,
49,
65433,
65393,
65486,
97,
65488,
20,
0,
65442,
138,
65516,
65480,
65489,
65455,
76,
65450,
18,
65477,
12,
89,
65429,
19,
65522,
65446,
65469,
65472,
68,
65437,
36,
65532,
39,
71,
21,
65392,
18,
65520,
68,
65505,
65533,
4,
39,
19,
65507,
65481,
65469,
65416,
284,
150,
111,
65342,
65413,
65463,
178,
65425,
65384,
65430,
65447,
65415,
89,
65425,
65488,
65449,
16,
65339,
65453,
65426,
65530,
133,
117,
65479,
65484,
65530,
65531,
65470,
65459,
65366,
211,
65522,
65532,
65444,
63,
65535,
65334,
65419,
65407,
32,
65065,
65481,
127,
65528,
65502,
65358,
65131,
65366,
65328,
65516,
50,
52,
65530,
65455,
65259,
65425,
47,
265,
129,
65478,
65516,
65374,
27,
69,
65502,
65336,
65365,
83,
65359,
65294,
65344,
65349,
10,
65471,
65492,
65521,
65454,
8,
65453,
79,
80,
57,
65480,
86,
65453,
65455,
65438,
30,
65477,
25,
38,
65497,
70,
65530,
122,
8,
2,
65471,
65515,
105,
137,
79,
67,
106,
3,
8,
65506,
22,
41,
65402,
65420,
65444,
23,
65427,
55,
76,
65529,
80,
65482,
65533,
65498,
54,
51,
65416,
65514,
65496,
65429,
65519,
65427,
65459,
65467,
60,
65439,
65412,
65455,
65439,
65474,
65425,
65528,
65511,
60,
73,
65483,
13,
72,
120,
65508,
65353,
65509,
68,
129,
65477,
65236,
65161,
65326,
10,
65525,
65267,
65155,
65280,
65396,
65503,
65,
65393,
65253,
65134,
65489,
84,
26,
3,
65518,
50,
71,
299,
115,
119,
17,
181,
112,
178,
65446,
45,
21,
336,
193,
119,
77,
65241,
14,
296,
118,
70,
4,
65418,
125,
71,
65535,
65516,
65410,
65430,
65462,
65516,
65397,
65304,
65353,
65465,
103,
193,
65485,
65493,
65496,
65439,
65497,
65398,
65296,
65473,
65336,
65425,
65337,
65329,
65443,
65505,
65332,
65425,
65135,
65214,
65356,
65462,
36,
65342,
65249,
65344,
65435,
111,
65524,
65402,
65242,
65224,
65494,
65473,
99,
37,
65338,
20,
65448,
65514,
65372,
65468,
9,
0,
67,
65402,
184,
58,
165,
64,
170,
180,
25,
124,
174,
35,
65524,
51,
68,
65491,
26,
58,
65475,
126,
65406,
65475,
127,
47,
104,
49,
65453,
65395,
65493,
18,
65492,
89,
18,
66,
65521,
68,
65411,
107,
65478,
224,
65505,
145,
76,
48,
95,
74,
80,
8,
108,
148,
65514,
65508,
62,
93,
65452,
65467,
65434,
56,
65444,
40,
65448,
65455,
1,
65522,
63,
37,
65401,
73,
31,
65398,
65444,
104,
69,
65461,
65366,
65411,
65533,
65484,
65399,
65429,
65343,
11,
15,
29,
58,
54,
65176,
24,
65370,
65455,
65513,
17,
65440,
110,
42,
124,
200,
171,
53,
65413,
135,
16,
109,
304,
13,
55,
114,
65345,
198,
65530,
152,
65441,
65484,
65499,
76,
65411,
65443,
39,
157,
85,
141,
17,
118,
240,
76,
65350,
20,
90,
76,
143,
92,
65392,
65371,
221,
65394,
91,
65482,
65339,
65491,
65495,
65485,
28,
115,
32,
65527,
65455,
137,
65450,
48,
65439,
65508,
65486,
65338,
65420,
65117,
65360,
65484,
73,
65509,
65502,
12,
65379,
32,
220,
142,
65396,
141,
65404,
206,
79,
65388,
65450,
65482,
65430,
85,
211,
138,
23,
278,
48,
65531,
31,
65308,
65427,
65454,
56,
65296,
65513,
195,
187,
62,
65394,
65285,
65351,
65323,
65321,
65522,
65519,
65480,
65357,
65238,
24,
142,
276,
50,
65193,
65287,
65476,
36,
157,
65386,
65028,
65240,
65486,
65320,
65311,
65163,
65283,
65511,
65508,
44,
65447,
54,
61,
65520,
65407,
23,
65450,
15,
65498,
9,
65340,
65429,
65432,
65463,
101,
65490,
65351,
65165,
65321,
65422,
82,
69,
65456,
65503,
46,
75,
65531,
65517,
30,
82,
28,
32,
108,
65373,
65514,
53,
160,
29,
65456,
65466,
65445,
131,
65384,
65493,
65357,
8,
140,
87,
43,
65496,
41,
65405,
65528,
58,
65486,
65512,
65506,
65525,
65498,
65384,
65371,
65231,
65354,
65305,
65456,
67,
65404,
65473,
65358,
65492,
65431,
65395,
65282,
65132,
65513,
65528,
65411,
65422,
65240,
65510,
65321,
61,
2,
65389,
65440,
65419,
65407,
113,
77,
65463,
65506,
25,
65520,
30,
65519,
65521,
49,
73,
65504,
94,
5,
77,
65479,
120,
44,
65453,
34,
148,
237,
65527,
76,
56,
68,
152,
129,
138,
196,
65441,
65428,
127,
98,
65411,
110,
65493,
65413,
69,
65508,
17,
58,
18,
65349,
30,
65515,
22,
216,
43,
65421,
65479,
136,
65530,
109,
142,
11,
173,
20,
106,
65360,
65489,
125,
266,
144,
182,
65328,
65394,
137,
197,
161,
60,
16,
65311,
65482,
111,
53,
26,
65390,
65386,
65315,
65496,
65329,
21,
65512,
65498,
65535,
4,
65486,
65481,
44,
98,
65426,
26,
81,
135,
28,
45,
229,
82,
68,
63,
207,
203,
245,
65532,
80,
65491,
65526,
88,
65506,
65386,
65442,
65524,
64,
65475,
65426,
65498,
35,
65473,
65533,
65431,
65495,
61,
65404,
65403,
65301,
199,
114,
131,
42,
76,
51,
69,
31,
18,
38,
65498,
139,
90,
65522,
84,
122,
65534,
70,
65519,
46,
27,
105,
109,
171,
52,
65428,
25,
10,
68,
65491,
185,
103,
65503,
26,
83,
72,
256,
60,
65436,
65344,
65472,
65454,
198,
53,
65447,
65381,
65419,
65415,
71,
65463,
44,
54,
65534,
65239,
75,
96,
159,
65522,
65446,
65301,
52,
68,
103,
47,
65520,
65341,
102,
65458,
22,
65472,
65460,
65409,
59,
117,
65436,
65517,
65511,
65496,
111,
65468,
65503,
30,
6,
47,
65446,
45,
112,
65504,
65531,
65499,
42,
63,
65383,
63,
65520,
27,
50,
89,
118,
68,
65497,
65531,
65490,
65519,
65384,
22,
65412,
17,
65207,
65258,
65263,
65507,
65501,
87,
65312,
65383,
65349,
65435,
93,
30,
65497,
65329,
65129,
65379,
111,
24,
116,
66,
65311,
65265,
121,
65526,
65471,
160,
66,
65500,
30,
72,
192,
65513,
65535,
9,
97,
90,
65390,
65402,
65512,
84,
65535,
114,
65467,
28,
41,
141,
65491,
209,
65438,
35,
25,
67,
92,
290,
65434,
65526,
65378,
65462,
65525,
229,
65494,
65293,
8,
128,
110,
188,
65374,
32,
97,
170,
127,
34,
65497,
65349,
65469,
65475,
0,
209,
65513,
65197,
65274,
65336,
65441,
115,
65470,
65408,
65245,
65410,
65441,
39,
65501,
65483,
65492,
80,
65359,
36,
65420,
50,
127,
149,
110,
52,
195,
152,
119,
65490,
45,
65523,
65494,
65447,
29,
65516,
79,
46,
65455,
73,
61,
65437,
31,
59,
65509,
31,
64,
65458,
65490,
73,
62,
41,
65480,
66,
65483,
50,
65446,
65472,
65511,
65522,
65432,
70,
65501,
42,
65534,
65499,
65452,
10,
65383,
65373,
65404,
65295,
65293,
65412,
65468,
65328,
65294,
65317,
65444,
65518,
13,
65372,
65255,
65358,
65435,
65518,
65486,
65460,
65342,
65524,
65480,
54,
97,
188,
73,
65496,
65533,
65500,
65421,
65450,
22,
65491,
48,
65504,
65386,
65379,
65262,
44,
65461,
73,
65451,
4,
226,
138,
65376,
22,
65301,
73,
157,
214,
116,
87,
65480,
65404,
40,
65,
65506,
65497,
65502,
121,
191,
165,
65502,
11,
65431,
20,
65497,
6,
50,
13,
65535,
215,
234,
49,
65396,
65325,
1,
173,
273,
22,
65438,
65322,
65399,
143,
84,
146,
65493,
65422,
65292,
136,
65409,
64,
176,
122,
65508,
65378,
65412,
19,
65393,
65471,
65439,
65433,
65529,
5,
65519,
88,
65184,
65481,
65305,
65498,
65405,
34,
108,
65453,
65527,
65397,
65393,
65510,
65403,
65325,
137,
65480,
44,
65454,
65443,
65497,
158,
235,
13,
65466,
65519,
54,
30,
113,
48,
65387,
38,
28,
65454,
65368,
37,
65406,
65439,
62,
65456,
56,
65442,
4,
61,
65480,
66,
65512,
65452,
65451,
85,
36,
65456,
65434,
65534,
65440,
66,
65460,
75,
65441,
79,
65460,
77,
13,
82,
65465,
46,
65523,
65530,
65503,
65525,
65489,
65468,
65514,
65397,
65353,
65105,
65320,
65309,
65450,
65440,
65324,
65109,
65211,
65312,
65431,
65511,
65300,
65204,
65240,
65429,
65469,
65522,
51,
65354,
65496,
65466,
65533,
89,
40,
4,
41,
65500,
7,
65387,
16,
28,
88,
57,
65467,
90,
50,
163,
65432,
65431,
65510,
84,
65523,
64,
94,
7,
4,
65426,
100,
242,
180,
65465,
161,
65490,
30,
381,
89,
104,
65534,
41,
24,
190,
206,
70,
65535,
19,
184,
2,
32,
19,
3,
65475,
78,
65529,
1,
65518,
65472,
108,
123,
125,
65535,
79,
65529,
83,
65502,
65483,
65436,
65489,
83,
65449,
32,
65410,
65434,
8,
89,
1,
39,
65458,
6,
24,
13,
65463,
65487,
76,
10,
65494,
7,
33,
65524,
65470,
145,
65500,
65522,
65516,
158,
133,
21,
69,
65339,
65292,
68,
65455,
18,
69,
65450,
111,
100,
65467,
43,
83,
176,
111,
65504,
65504,
45,
165,
185,
65499,
191,
41,
65357,
135,
215,
65482,
238,
21,
40,
158,
121,
65460,
65505,
194,
114,
105,
201,
65514,
48,
47,
46,
65483,
65310,
65512,
188,
180,
305,
22,
65278,
8,
65355,
115,
65527,
65320,
65437,
66,
65378,
65495,
65357,
70,
65528,
112,
65488,
224,
107,
35,
131,
60,
54,
129,
55,
128,
139,
6,
84,
122,
16,
65473,
12,
18,
65486,
65,
29,
65517,
71,
65492,
65517,
40,
65522,
65522,
110,
145,
19,
103,
49,
65437,
44,
65408,
65533,
65453,
100,
261,
60,
62,
79,
224,
349,
283,
131,
65410,
59,
107,
30,
4,
52,
46,
138,
65498,
16,
65518,
100,
65528,
65449,
65382,
35,
65466,
50,
65492,
65534,
65534,
121,
48,
65474,
65081,
65218,
65311,
112,
65524,
219,
22,
65360,
127,
135,
120,
157,
65319,
107,
65486,
26,
163,
234,
16,
65396,
65457,
36,
65448,
151,
65388,
166,
93,
389,
26,
120,
65263,
65449,
23,
65530,
90,
65420,
65484,
65450,
44,
57,
31,
65475,
65506,
49,
67,
65448,
41,
23,
27,
65463,
65445,
0,
68,
65447,
65503,
84,
65469,
9,
65491,
65440,
41,
65532,
65492,
26,
65522,
65525,
65503,
15,
53,
65511,
57,
65502,
126,
65491,
65494,
65531,
65498,
65477,
65503,
94,
104,
31,
54,
93,
71,
65491,
86,
71,
65457,
65520,
97,
107,
13,
65401,
78,
111,
65505,
65526,
8,
36,
150,
79,
65512,
32,
65476,
65524,
65534,
76,
65487,
65534,
10,
65452,
65456,
65433,
65523,
65527,
65482,
65393,
34,
65385,
19,
31,
36,
65482,
65419,
65476,
65506,
9,
57,
65364,
65446,
65357,
32,
65450,
65447,
65382,
65473,
65461,
65396,
65443,
65476,
34,
65522,
65519,
326,
176,
80,
65391,
65374,
65294,
6,
363,
306,
273,
101,
65383,
65475,
336,
417,
156,
65513,
65310,
65427,
5,
30,
93,
235,
57,
65516,
65338,
49,
65433,
65483,
37,
86,
65430,
65407,
65472,
8,
201,
65497,
65378,
65418,
65348,
59,
65276,
75,
65460,
65445,
65520,
65387,
65416,
52,
20,
5,
128,
65530,
65353,
34,
51,
65428,
79,
65427,
65115,
65424,
65484,
65520,
65438,
65441,
65234,
65474,
65343,
65488,
65484,
65321,
65301,
65386,
65525,
65422,
65431,
65402,
65503,
65467,
65432,
65447,
65480,
65341,
25,
65422,
7,
65427,
65416,
17,
140,
65480,
98,
39,
177,
65448,
65527,
54,
98,
65530,
162,
65483,
65423,
24,
65456,
65520,
65431,
65509,
30,
65362,
65499,
38,
218,
59,
13,
65485,
150,
361,
299,
125,
65426,
65310,
136,
44,
101,
221,
65519,
65477,
15,
41,
121,
68,
65366,
36,
32,
65435,
65462,
65470,
65499,
65471,
64,
65408,
65281,
65383,
65400,
65400,
65456,
65511,
30,
32,
112,
65474,
65452,
7,
35,
59,
80,
65504,
31,
65459,
34,
65446,
0,
113,
67,
65503,
65535,
65465,
52,
65482,
29,
75,
104,
90,
140,
65535,
65427,
65419,
65423,
51,
33,
190,
132,
76,
65379,
65436,
65420,
22,
80,
65459,
152,
65514,
65517,
65523,
12,
261,
76,
62,
65449,
65483,
65470,
89,
65473,
65473,
65406,
65490,
65445,
65486,
65393,
65475,
121,
65461,
87,
65515,
56,
65530,
138,
22,
253,
213,
361,
116,
65293,
65466,
195,
479,
227,
258,
45,
65505,
243,
255,
144,
173,
65523,
65448,
233,
305,
222,
105,
65389,
65417,
65410,
65439,
65481,
65451,
65496,
65377,
65385,
65496,
65367,
65491,
65389,
201,
65370,
98,
65363,
65335,
28,
65394,
65414,
65280,
65522,
65525,
65408,
65446,
46,
65272,
65444,
70,
71,
138,
228,
65468,
65458,
213,
177,
8,
14,
65358,
65532,
190,
49,
101,
333,
125,
65451,
196,
5,
47,
65454,
65509,
156,
170,
182,
111,
65474,
65283,
65386,
156,
134,
128,
65521,
65364,
65273,
123,
322,
52,
65504,
65349,
65487,
96,
131,
65411,
65531,
65491,
34,
7,
196,
65518,
102,
42,
11,
65519,
114,
65522,
10,
65445,
70,
65363,
65513,
65428,
121,
65495,
65382,
113,
221,
18,
183,
211,
65506,
65409,
65514,
91,
316,
256,
61,
85,
135,
6,
65406,
65389,
65282,
65346,
100,
65490,
30,
90,
65366,
26,
65512,
153,
91,
65463,
107,
117,
92,
65532,
65419,
65289,
65518,
198,
188,
90,
65492,
65502,
24,
7,
156,
159,
65318,
65168,
65399,
65467,
216,
285,
64,
65471,
65473,
65475,
145,
185,
12,
83,
201,
271,
210,
65476,
65380,
65427,
65433,
16,
65421,
65405,
65390,
65474,
65482,
65451,
65488,
65406,
65488,
65361,
65530,
65502,
65487,
15,
26,
65453,
65410,
65373,
65349,
65507,
13,
65489,
65402,
65347,
65534,
4,
65489,
65367,
65361,
65457,
65506,
65483,
83,
117,
77,
9,
38,
65474,
43,
84,
66,
60,
65435,
65335,
128,
65440,
101,
57,
110,
22,
9,
65509,
2,
36,
57,
187,
62,
105,
57,
46,
65463,
75,
111,
4,
16,
121,
78,
149,
38,
74,
10,
63,
81,
52,
45,
65455,
65480,
65453,
28,
161,
65507,
65461,
65284,
65384,
65451,
4,
65359,
65290,
65202,
65326,
133,
65493,
65359,
65410,
65493,
16,
109,
104,
91,
65442,
250,
72,
25,
1,
66,
65513,
39,
65459,
65523,
65438,
43,
65458,
65461,
65491,
56,
65535,
65483,
65428,
65464,
50,
71,
9,
65521,
22,
65481,
56,
65451,
42,
65469,
65440,
34,
65477,
40,
17,
65464,
55,
64,
65504,
68,
65440,
65512,
16,
173,
65405,
65261,
38,
153,
368,
240,
65535,
65331,
65476,
214,
388,
296,
19,
65435,
65325,
3,
124,
193,
65433,
65223,
65375,
65376,
65450,
65469,
65439,
65247,
65347,
65345,
65383,
65414,
65188,
65462,
445,
65521,
253,
65415,
65353,
65233,
65477,
176,
85,
266,
10,
65269,
65491,
40,
40,
21,
172,
8,
65440,
135,
143,
65477,
83,
58,
65505,
65499,
65477,
65358,
114,
65506,
61,
224,
149,
44,
63,
65486,
65444,
65452,
65463,
185,
178,
103,
48,
65155,
65219,
65346,
8,
312,
17,
65408,
65376,
65321,
65378,
317,
65527,
65421,
149,
65427,
65360,
65529,
65408,
19,
176,
336,
60,
154,
121,
64,
54,
88,
65477,
65441,
41,
74,
29,
113,
54,
65506,
66,
39,
50,
65457,
60,
65441,
25,
99,
108,
9,
65421,
65454,
24,
49,
37,
9,
65505,
71,
65426,
65520,
65487,
65491,
65532,
72,
65491,
65529,
78,
56,
58,
28,
155,
65482,
65436,
65335,
65456,
57,
29,
65437,
65468,
65482,
65434,
65494,
39,
65470,
33,
65428,
65480,
65353,
65497,
65394,
70,
28,
73,
65298,
65426,
15,
50,
65489,
54,
65428,
14,
65466,
95,
65450,
43,
65527,
65517,
85,
106,
56,
74,
65315,
52,
216,
295,
271,
143,
65344,
65523,
199,
114,
242,
322,
81,
91,
65496,
65431,
65474,
60,
8,
70,
30,
65468,
65461,
65526,
65379,
65468,
65449,
81,
173,
65469,
65477,
72,
65466,
65511,
65419,
65513,
37,
14,
65448,
14,
41,
65512,
7,
90,
23,
65502,
35,
63,
65505,
43,
65469,
67,
65430,
59,
65522,
78,
65498,
69,
98,
65485,
65503,
65498,
65456,
38,
58,
65533,
65440,
65383,
65442,
65462,
65440,
29,
43,
65462,
58,
65527,
32,
2,
65469,
9,
153,
24,
121,
7,
65274,
5,
107,
77,
118,
65390,
65365,
108,
65461,
65499,
65446,
65301,
65374,
65385,
65508,
65481,
65367,
65365,
65495,
216,
6,
21,
65328,
65308,
34,
114,
65423,
65214,
65429,
65349,
65460,
15,
65392,
65530,
53,
65391,
65348,
41,
65364,
65497,
65515,
65512,
65427,
58,
65511,
138,
65509,
65393,
65519,
177,
49,
37,
46,
65415,
73,
34,
65341,
65366,
65383,
65524,
65535,
44,
65289,
65441,
65491,
65356,
65466,
118,
203,
103,
65264,
65520,
13,
35,
2,
65462,
65279,
15,
18,
65491,
269,
37,
65463,
90,
160,
65525,
65,
65473,
8,
65487,
65508,
239,
65460,
22,
65410,
65318,
65496,
111,
65472,
65347,
65339,
65505,
138,
124,
111,
77,
189,
47,
15,
65371,
163,
112,
17,
3,
65533,
65388,
65366,
65294,
65266,
65319,
65491,
65335,
65473,
137,
65345,
93,
65513,
50,
169,
138,
42,
19,
65399,
75,
201,
245,
189,
116,
55,
66,
79,
34,
65531,
36,
65389,
65392,
65402,
65315,
65353,
65310,
80,
142,
89,
65416,
0,
4,
42,
65495,
65521,
108,
86,
65532,
40,
65473,
65425,
65312,
65247,
65450,
65390,
65521,
23,
65510,
65368,
65483,
65427,
54,
65474,
4,
30,
65424,
65370,
65480,
9,
65440,
65500,
65528,
65163,
65453,
94,
29,
65440,
65522,
65373,
65450,
65454,
65404,
65448,
65300,
65349,
