memory_initialization_radix=10;
memory_initialization_vector =
260,
65,
65468,
65525,
97,
343,
124,
18,
65479,
51,
58,
127,
77,
65507,
65464,
65501,
51,
36,
135,
65486,
65400,
65327,
65352,
28,
65521,
40,
50,
99,
65437,
89,
65530,
65434,
91,
7,
69,
179,
65487,
65459,
0,
65511,
74,
65438,
179,
187,
85,
74,
86,
40,
192,
103,
65510,
196,
30,
65515,
65404,
65489,
58,
20,
21,
65436,
65374,
98,
65513,
88,
71,
65462,
117,
26,
94,
371,
21,
59,
18,
160,
187,
229,
303,
167,
47,
106,
113,
171,
143,
48,
83,
105,
15,
65512,
65505,
65529,
65392,
65509,
50,
65508,
65491,
65444,
65468,
65524,
47,
65498,
65243,
65455,
35,
65402,
65492,
109,
65342,
65432,
150,
65520,
65251,
65223,
65472,
334,
140,
65441,
65360,
65384,
57,
204,
102,
65489,
30,
65513,
119,
63,
136,
7,
65436,
11,
196,
29,
65535,
29,
95,
147,
127,
32,
367,
219,
65527,
144,
264,
84,
65452,
65512,
65520,
65508,
20,
65480,
65499,
65486,
65440,
28,
65438,
65511,
65473,
41,
39,
65514,
65437,
65450,
35,
53,
65497,
65503,
65506,
72,
65524,
54,
11,
65478,
65493,
65440,
65450,
65478,
77,
65462,
65501,
65535,
246,
54,
65441,
65271,
83,
268,
250,
117,
65361,
65521,
199,
286,
215,
65514,
19,
65463,
206,
276,
15,
65503,
30,
24,
137,
284,
65518,
65444,
110,
139,
163,
172,
100,
65449,
49,
65498,
75,
205,
65470,
295,
442,
305,
210,
65408,
65353,
240,
221,
243,
284,
80,
65367,
148,
13,
88,
143,
65510,
65453,
217,
58,
65501,
69,
223,
64,
74,
13,
54,
65391,
65519,
65352,
65440,
45,
65471,
6,
114,
239,
324,
223,
106,
210,
322,
184,
122,
68,
65466,
113,
154,
156,
70,
65490,
3,
8,
65521,
76,
116,
65409,
65438,
65402,
35,
123,
64,
92,
75,
9,
78,
64,
84,
23,
105,
229,
239,
65429,
65447,
158,
78,
65438,
65145,
65388,
65384,
66,
65,
65462,
65382,
65385,
65508,
56,
65483,
24,
65377,
65488,
8,
112,
100,
28,
62,
194,
17,
65509,
18,
65503,
12,
100,
145,
65494,
65456,
77,
32,
65427,
65443,
25,
82,
65472,
65447,
65497,
65509,
72,
90,
189,
65410,
65531,
148,
151,
66,
103,
65522,
65407,
53,
67,
15,
65479,
129,
2,
65477,
65516,
65433,
65408,
65523,
65485,
33,
65385,
72,
0,
64,
65487,
52,
65494,
13,
65501,
65440,
65441,
65495,
25,
61,
65531,
9,
65480,
65464,
65500,
65441,
65493,
24,
18,
65533,
49,
65516,
65470,
65450,
65476,
65465,
65525,
64,
20,
68,
65521,
65468,
58,
65489,
22,
33,
34,
236,
271,
210,
150,
93,
33,
210,
93,
100,
306,
164,
203,
187,
65533,
112,
264,
277,
286,
50,
65528,
65453,
68,
266,
210,
82,
26,
168,
69,
224,
58,
39,
89,
65523,
55,
248,
96,
29,
64,
161,
70,
224,
65529,
45,
13,
17,
14,
141,
4,
65419,
23,
65492,
65380,
65401,
162,
5,
65404,
65363,
65299,
34,
77,
65452,
65430,
65410,
65399,
71,
177,
36,
65487,
53,
229,
62,
464,
233,
387,
372,
96,
239,
232,
157,
101,
175,
65525,
65480,
5,
48,
65434,
65501,
65460,
65392,
141,
65487,
65516,
65339,
65416,
65369,
166,
94,
65166,
65227,
65236,
65240,
152,
125,
65320,
65346,
65314,
65230,
65297,
65454,
224,
230,
65502,
65331,
65400,
65522,
162,
68,
65365,
65389,
65418,
68,
7,
65509,
65401,
65352,
65467,
65499,
54,
89,
65474,
65319,
65522,
65484,
72,
65481,
65390,
65523,
65345,
65471,
65491,
65422,
65454,
65421,
47,
65516,
65280,
65404,
65413,
65,
131,
26,
65533,
65460,
65450,
65428,
65470,
33,
65532,
65449,
62,
65534,
65520,
65435,
0,
20,
65511,
2,
65473,
82,
126,
64,
87,
65448,
127,
65442,
65470,
65378,
65505,
19,
19,
94,
51,
9,
83,
3,
68,
27,
65495,
75,
73,
95,
20,
65509,
81,
65511,
65525,
11,
65531,
65535,
100,
43,
79,
127,
68,
33,
110,
105,
65496,
53,
65,
65490,
56,
10,
92,
65498,
341,
39,
150,
234,
122,
375,
113,
65520,
4,
248,
65496,
156,
65429,
65393,
65372,
1,
65368,
65266,
65526,
65421,
89,
65527,
65,
65340,
65420,
65428,
65465,
65385,
65278,
65366,
65500,
218,
65257,
65265,
65312,
65393,
121,
65228,
64951,
65171,
65447,
369,
90,
65377,
65138,
65327,
65336,
65512,
43,
65384,
65398,
65215,
65407,
65395,
88,
65513,
65479,
65169,
65297,
65475,
65533,
176,
10,
65529,
65500,
65483,
65403,
40,
69,
65430,
127,
65475,
210,
65384,
65145,
65186,
65349,
421,
125,
65431,
65156,
65436,
65336,
17,
43,
65383,
65435,
65297,
65440,
65525,
21,
65529,
22,
65457,
65312,
65270,
65442,
65485,
65485,
25,
69,
65379,
65481,
65478,
65375,
65518,
73,
3,
25,
42,
155,
102,
143,
179,
65,
273,
37,
117,
225,
174,
255,
74,
101,
162,
248,
202,
374,
29,
65491,
65526,
67,
161,
24,
96,
49,
196,
59,
141,
188,
123,
65481,
104,
140,
301,
65200,
125,
212,
179,
65458,
65130,
65400,
2,
65407,
65509,
96,
65287,
184,
75,
88,
157,
49,
65422,
247,
88,
65479,
65515,
65471,
65428,
375,
65478,
65517,
65506,
56,
65372,
116,
257,
247,
183,
65360,
65333,
65458,
65400,
65375,
65302,
23,
65492,
65505,
65392,
65363,
65488,
65479,
1,
65417,
250,
185,
74,
36,
60,
294,
24,
121,
183,
25,
56,
126,
84,
369,
216,
372,
211,
60,
262,
376,
146,
210,
65449,
65389,
65441,
65303,
65385,
65470,
65352,
65406,
65478,
65511,
65369,
65498,
43,
65507,
82,
17,
65531,
46,
115,
289,
218,
152,
100,
163,
82,
93,
102,
142,
227,
128,
35,
65434,
228,
145,
56,
65523,
151,
65441,
123,
263,
179,
7,
65244,
65482,
78,
102,
113,
218,
65395,
133,
256,
87,
107,
75,
65330,
65398,
61,
271,
167,
65429,
65502,
65339,
65520,
128,
65509,
65428,
65497,
65489,
65499,
65411,
117,
31,
65466,
65464,
65359,
32,
46,
163,
65372,
65418,
65425,
65353,
65429,
65420,
65406,
65296,
65352,
58,
65399,
65339,
65336,
90,
65475,
65437,
165,
60,
65425,
92,
98,
94,
107,
55,
65499,
65504,
220,
169,
152,
131,
65339,
65414,
65440,
65263,
65157,
65443,
380,
83,
65348,
65261,
65258,
65399,
166,
110,
65502,
65327,
65392,
65476,
65207,
241,
13,
65394,
65367,
65412,
65237,
77,
12,
65521,
65471,
118,
65529,
219,
205,
73,
182,
136,
125,
65517,
65208,
65083,
65183,
65210,
114,
92,
65422,
65263,
65305,
65238,
65516,
220,
65508,
65429,
65320,
65416,
65362,
162,
80,
65316,
65408,
65371,
65514,
65481,
122,
90,
106,
174,
28,
36,
65443,
65405,
65487,
89,
68,
50,
65496,
7,
65491,
65452,
65494,
65517,
16,
11,
79,
65534,
65493,
65513,
65465,
48,
60,
65441,
19,
65443,
65457,
14,
65487,
45,
65498,
65489,
19,
65472,
65482,
65443,
65463,
65429,
68,
34,
65440,
65489,
65513,
48,
128,
412,
349,
116,
65442,
74,
176,
277,
241,
237,
66,
152,
41,
65488,
112,
219,
132,
257,
69,
65520,
48,
81,
114,
67,
65519,
65528,
163,
65469,
164,
90,
95,
41,
99,
71,
171,
37,
65470,
0,
65478,
65452,
65478,
65447,
65521,
36,
16,
64,
19,
11,
65443,
73,
43,
65535,
65454,
81,
3,
65453,
65529,
65449,
65452,
61,
64,
70,
65464,
65472,
63,
65530,
0,
65519,
44,
21,
65494,
55,
65364,
65324,
65389,
41,
212,
98,
65475,
65336,
65238,
65434,
139,
117,
65495,
65450,
65338,
65392,
65414,
119,
65480,
65283,
71,
65471,
65486,
12,
15,
65456,
135,
60,
65464,
327,
78,
65423,
98,
220,
217,
65526,
65516,
65484,
10,
65507,
7,
65437,
65445,
65529,
15,
65497,
65469,
2,
20,
65448,
17,
71,
69,
70,
65495,
3,
57,
41,
43,
65450,
65484,
65523,
29,
65460,
16,
65496,
65489,
65526,
8,
65469,
65500,
31,
6,
93,
65519,
44,
65362,
65316,
65433,
35,
65437,
42,
65494,
65531,
55,
32,
60,
10,
65480,
65422,
18,
47,
79,
65406,
180,
30,
29,
79,
179,
65527,
65502,
59,
65533,
59,
65521,
65518,
65376,
52,
3,
1,
65510,
57,
232,
65349,
65494,
54,
65409,
65424,
65498,
65501,
65431,
24,
65525,
65417,
65395,
73,
65523,
65411,
65433,
65377,
65501,
65379,
65310,
65366,
65404,
65301,
17,
48,
65429,
65295,
65518,
67,
22,
163,
65432,
65418,
65218,
65384,
258,
375,
65473,
65464,
65489,
63,
217,
677,
145,
65417,
170,
40,
149,
45,
15,
65467,
65506,
63,
93,
65423,
65234,
65367,
97,
198,
65499,
254,
65330,
65383,
15,
65503,
126,
85,
156,
60,
65527,
65345,
65430,
107,
367,
47,
171,
10,
65482,
40,
65433,
65504,
46,
76,
91,
65416,
65419,
65529,
138,
81,
81,
65489,
65425,
5,
65526,
65461,
47,
46,
65340,
65369,
65405,
65512,
41,
65437,
65466,
268,
144,
23,
65240,
65391,
65520,
120,
65507,
22,
65228,
65400,
109,
172,
65422,
65423,
65270,
65408,
119,
65499,
65496,
65531,
65415,
87,
155,
25,
237,
132,
65433,
32,
14,
284,
123,
124,
65430,
59,
150,
148,
151,
180,
115,
52,
65530,
150,
127,
187,
80,
64,
65511,
65464,
65370,
192,
53,
124,
162,
59,
65437,
111,
157,
65483,
86,
82,
120,
44,
65535,
127,
1,
86,
169,
59,
159,
100,
200,
280,
124,
57,
121,
83,
302,
167,
118,
180,
65443,
65475,
9,
65474,
95,
17,
85,
106,
136,
65531,
65375,
20,
90,
92,
20,
65447,
65490,
65522,
55,
65408,
118,
110,
54,
65450,
65432,
75,
77,
65519,
6,
65465,
65521,
65458,
65524,
65499,
34,
31,
16,
65446,
65484,
65467,
19,
42,
44,
65491,
65439,
65521,
65508,
65429,
20,
33,
65523,
42,
65520,
65531,
65500,
55,
65531,
16,
24,
81,
65531,
63,
171,
149,
168,
166,
191,
114,
180,
27,
65531,
218,
131,
169,
65503,
65508,
65534,
97,
121,
294,
9,
65446,
65472,
65523,
173,
104,
36,
65,
82,
167,
184,
156,
96,
159,
208,
122,
427,
62,
65362,
65338,
65266,
65428,
65396,
65355,
65232,
65225,
65309,
65208,
65327,
65186,
65145,
65322,
65247,
65300,
65439,
65309,
65213,
65442,
19,
65375,
65334,
65405,
65501,
49,
55,
49,
68,
65243,
65470,
65484,
65455,
22,
65296,
65217,
65238,
65174,
65272,
65502,
92,
65423,
65016,
65208,
65160,
65231,
62,
65269,
37,
135,
65228,
65345,
65437,
65457,
79,
65488,
46,
65444,
65366,
65396,
82,
133,
102,
97,
65382,
65382,
57,
343,
157,
174,
65428,
122,
65273,
65167,
65433,
65534,
268,
56,
65322,
65130,
65406,
65511,
137,
111,
65445,
65289,
65285,
65523,
81,
144,
37,
65336,
65479,
65469,
28,
3,
65476,
154,
220,
148,
65522,
77,
65494,
65390,
29,
65515,
64,
65527,
65513,
65445,
65461,
65520,
65486,
65466,
65468,
65455,
65531,
3,
65478,
65486,
66,
65462,
67,
65465,
58,
65464,
65461,
22,
65447,
65445,
65476,
65447,
68,
1,
65434,
65483,
65530,
51,
65530,
65482,
65450,
65452,
65490,
89,
58,
65534,
21,
65472,
33,
66,
98,
155,
30,
101,
65485,
120,
88,
80,
29,
204,
65534,
65510,
108,
96,
65441,
65412,
65518,
245,
92,
65440,
65532,
65454,
65517,
143,
65365,
65513,
65505,
115,
65486,
261,
65424,
65282,
65196,
65390,
376,
190,
65442,
65311,
65347,
65288,
38,
65453,
65392,
65336,
65286,
65254,
65320,
65464,
65501,
65462,
65402,
65455,
65295,
65366,
65516,
65509,
32,
65504,
65154,
82,
65448,
65448,
65331,
53,
17,
65426,
52,
68,
2,
65481,
118,
57,
35,
65418,
41,
65528,
92,
65431,
65432,
65436,
63,
0,
17,
65433,
65516,
65494,
82,
78,
65502,
65452,
65459,
65404,
65527,
24,
65493,
65521,
65483,
2,
65520,
65473,
65519,
100,
6,
65501,
65483,
65406,
65472,
65462,
65486,
65483,
108,
6,
81,
33,
65519,
8,
7,
86,
155,
65424,
65530,
24,
65448,
65496,
187,
41,
7,
1,
65516,
25,
117,
29,
65444,
65515,
68,
65492,
74,
79,
279,
297,
143,
117,
433,
60,
119,
65427,
111,
65534,
94,
273,
32,
65429,
6,
65504,
65511,
25,
65429,
65492,
65380,
65438,
62,
65438,
65321,
46,
65380,
65476,
65470,
45,
65366,
65415,
65412,
60,
308,
81,
65466,
11,
65487,
88,
65432,
65478,
65478,
65479,
65535,
51,
65327,
65422,
65464,
104,
115,
12,
65477,
233,
65431,
26,
138,
141,
65400,
155,
11,
65505,
35,
9,
95,
27,
108,
138,
92,
65498,
59,
74,
65511,
65436,
47,
48,
6,
64,
55,
65503,
15,
65482,
23,
0,
65534,
46,
65485,
65491,
65434,
65517,
65478,
74,
65521,
19,
38,
91,
85,
87,
65480,
65485,
54,
20,
110,
115,
58,
122,
65430,
65483,
65444,
58,
65436,
65457,
56,
2,
0,
65489,
65456,
2,
43,
65352,
65456,
65400,
65341,
24,
27,
65466,
20,
65501,
65520,
65487,
65469,
104,
12,
65530,
65506,
65483,
2,
5,
87,
65438,
65491,
65435,
65535,
65524,
65442,
65148,
65183,
65307,
125,
163,
65398,
65279,
65361,
65429,
77,
38,
65424,
65527,
65481,
65446,
65415,
127,
65525,
65373,
65374,
65496,
65468,
65484,
11,
41,
72,
112,
65528,
170,
116,
65498,
143,
281,
65497,
65516,
126,
263,
176,
59,
65278,
94,
148,
215,
271,
87,
65392,
27,
121,
65509,
32,
154,
65441,
65535,
131,
65527,
104,
91,
65320,
91,
65486,
65434,
50,
39,
65215,
6,
127,
8,
65373,
65299,
65298,
65395,
32,
144,
244,
97,
108,
56,
184,
48,
101,
168,
137,
123,
47,
65434,
65466,
71,
157,
308,
156,
65501,
65516,
65507,
213,
204,
65531,
23,
77,
65478,
144,
152,
306,
94,
65,
225,
470,
65225,
65325,
138,
51,
65370,
65152,
65325,
65453,
193,
86,
65531,
65294,
65379,
65488,
65526,
61,
65502,
65334,
65466,
65487,
65531,
65502,
65487,
65510,
65428,
15,
65446,
65412,
65372,
65462,
65333,
65472,
65498,
65430,
65410,
65451,
65431,
65531,
65496,
65535,
65519,
59,
65488,
65523,
65474,
62,
65496,
34,
113,
10,
65392,
19,
14,
112,
62,
65472,
65401,
15,
24,
65436,
65532,
65485,
65458,
65476,
63,
6,
65451,
4,
65490,
65527,
65473,
4,
65289,
106,
100,
65402,
65512,
65384,
65369,
65337,
65332,
65411,
88,
65276,
115,
130,
65449,
65454,
58,
65489,
155,
65526,
65392,
95,
88,
65515,
180,
219,
145,
198,
180,
65495,
19,
160,
343,
481,
51,
65237,
65324,
65252,
5,
65433,
121,
255,
65191,
65256,
65309,
65390,
65307,
138,
65259,
65345,
41,
65382,
65473,
65485,
65381,
65400,
65502,
65460,
65210,
65492,
65326,
65309,
115,
6,
65369,
65405,
65440,
65387,
85,
30,
37,
65456,
38,
65474,
65475,
65337,
65233,
65440,
65521,
65514,
65487,
65375,
65397,
65430,
71,
277,
296,
64,
65487,
65329,
55,
129,
72,
65498,
65379,
65448,
138,
21,
113,
191,
348,
65494,
158,
65515,
14,
189,
271,
65333,
162,
83,
116,
393,
189,
65359,
36,
65414,
65517,
149,
65448,
65358,
65401,
65474,
65386,
141,
181,
77,
162,
41,
105,
150,
210,
65495,
156,
74,
65452,
80,
65482,
0,
92,
241,
65535,
113,
3,
28,
10,
65526,
65522,
65417,
65498,
192,
4,
65394,
65462,
65520,
65483,
226,
107,
2,
65438,
65515,
65512,
65419,
89,
24,
65388,
65438,
65526,
11,
65529,
16,
65510,
65435,
71,
65444,
65503,
61,
145,
100,
53,
95,
104,
294,
259,
284,
237,
22,
65467,
55,
65523,
27,
48,
25,
65410,
15,
65478,
65408,
65437,
156,
17,
159,
195,
65482,
65441,
233,
65529,
65500,
28,
65468,
65312,
191,
65236,
65464,
31,
65519,
65406,
99,
386,
65531,
65339,
65287,
107,
536,
189,
70,
65529,
65514,
156,
244,
65489,
65468,
11,
12,
100,
275,
5,
65467,
71,
40,
2,
222,
65532,
65432,
55,
84,
65490,
210,
310,
66,
18,
65527,
273,
473,
65497,
65319,
65364,
65285,
65278,
65356,
65438,
65361,
65502,
65469,
65478,
65516,
65404,
65312,
9,
65453,
65436,
65463,
65420,
65479,
2,
110,
22,
60,
12,
44,
65449,
65482,
66,
65353,
58,
134,
30,
65518,
65506,
65300,
97,
65462,
65232,
65312,
65428,
65476,
5,
65385,
65310,
65257,
65388,
19,
65495,
65428,
65294,
65369,
65418,
65384,
65337,
65404,
65475,
65508,
65461,
65479,
65446,
65467,
20,
65491,
47,
44,
65430,
65519,
65530,
65393,
65223,
65306,
65435,
65327,
0,
38,
65483,
144,
65270,
65403,
65465,
65475,
65217,
35,
65243,
65491,
65422,
65412,
65405,
10,
65429,
65486,
65497,
65448,
65380,
65532,
24,
65508,
147,
65324,
65336,
65360,
85,
2,
65409,
65490,
65519,
87,
65463,
27,
188,
190,
14,
65234,
65443,
65506,
65479,
65447,
61,
65496,
65419,
45,
113,
18,
27,
65392,
65425,
65535,
133,
168,
65424,
65427,
52,
65383,
65387,
65376,
65441,
32,
65425,
5,
65380,
5,
65444,
65405,
230,
65431,
65308,
65255,
65472,
229,
99,
136,
65347,
14,
65460,
131,
43,
65521,
65426,
65515,
68,
65,
65,
105,
65390,
65343,
65342,
65533,
15,
63,
59,
117,
41,
119,
65506,
68,
12,
9,
91,
228,
46,
65490,
65426,
65532,
65492,
94,
121,
65474,
65517,
65513,
65535,
4,
53,
65528,
40,
65420,
65472,
65514,
65422,
22,
65503,
65468,
81,
65514,
59,
155,
65463,
23,
54,
65474,
47,
59,
92,
9,
65482,
3,
65502,
65255,
65045,
64747,
65083,
143,
65515,
5,
204,
45,
65467,
181,
179,
103,
82,
119,
183,
318,
65490,
226,
115,
65428,
32,
228,
65503,
3,
23,
265,
164,
65488,
362,
38,
65473,
65370,
138,
65491,
65329,
65415,
24,
65369,
65442,
65146,
65452,
65377,
43,
65431,
65483,
65431,
65379,
1,
37,
134,
25,
65528,
89,
65440,
18,
209,
118,
13,
243,
168,
65512,
150,
81,
65500,
225,
248,
122,
214,
127,
65403,
252,
241,
315,
170,
13,
65323,
166,
322,
224,
240,
355,
65441,
150,
31,
185,
156,
341,
96,
94,
251,
22,
65486,
55,
46,
135,
65398,
65446,
30,
65422,
65390,
92,
65463,
65478,
58,
65428,
17,
65472,
29,
28,
27,
65532,
65459,
65457,
65449,
65524,
65525,
65468,
65488,
65477,
65478,
65509,
42,
52,
65508,
65455,
65442,
65459,
65493,
65461,
65473,
65506,
65470,
65522,
58,
65447,
39,
65489,
65459,
31,
15,
66,
65507,
497,
38,
65323,
65211,
1,
377,
222,
62,
65390,
65505,
66,
284,
150,
71,
28,
65532,
152,
326,
175,
54,
0,
167,
121,
249,
49,
65437,
240,
83,
224,
139,
269,
95,
129,
31,
156,
300,
268,
88,
98,
2,
57,
149,
65457,
65468,
30,
65473,
65366,
65532,
98,
65400,
96,
90,
60,
46,
7,
57,
72,
65520,
126,
207,
65525,
65504,
65461,
282,
65495,
65400,
65502,
65337,
65194,
65345,
65340,
65419,
65422,
65439,
65347,
65358,
65442,
65388,
65418,
65438,
65360,
65366,
65371,
80,
65423,
65444,
71,
75,
65532,
161,
281,
65420,
4,
237,
26,
86,
289,
328,
244,
216,
152,
105,
4,
349,
272,
128,
153,
24,
240,
65,
80,
110,
227,
65521,
159,
99,
14,
65534,
246,
65521,
145,
65478,
65487,
65473,
73,
28,
65480,
128,
65469,
65433,
27,
126,
134,
65499,
65490,
65440,
65384,
36,
65408,
65508,
65375,
65529,
65235,
61,
8,
61,
16,
50,
65482,
65513,
65495,
50,
61,
25,
65444,
65506,
64,
65522,
65449,
51,
65473,
46,
9,
42,
65470,
32,
65493,
22,
71,
58,
9,
65462,
35,
65471,
65460,
55,
44,
87,
65527,
65504,
44,
56,
152,
158,
142,
99,
210,
92,
49,
42,
151,
185,
214,
45,
49,
35,
217,
202,
319,
65534,
34,
65451,
33,
65509,
92,
65502,
112,
166,
221,
53,
190,
63,
215,
144,
110,
135,
65215,
113,
301,
161,
65442,
65148,
65472,
65397,
34,
65516,
199,
65358,
130,
26,
32,
38,
65461,
65322,
65516,
4,
65504,
65526,
38,
65360,
42,
65495,
65444,
65348,
65458,
65473,
65345,
16,
9,
65530,
65430,
65402,
41,
65478,
65529,
65509,
65459,
65495,
65457,
65477,
24,
65434,
65523,
6,
65426,
65496,
65483,
47,
24,
65463,
24,
65505,
65462,
65479,
32,
65476,
30,
65438,
93,
65523,
65485,
65496,
65531,
18,
65444,
65473,
48,
26,
65302,
5,
65470,
65398,
65493,
65369,
65275,
65258,
65258,
65432,
65461,
65343,
65526,
65459,
65409,
65423,
65442,
65469,
65468,
65517,
65304,
52,
65511,
65477,
71,
204,
149,
147,
60,
65481,
65528,
84,
242,
197,
13,
65298,
113,
179,
119,
126,
161,
88,
221,
64,
26,
92,
199,
47,
108,
40,
2,
53,
7,
102,
65480,
57,
65414,
65464,
65468,
65472,
21,
152,
65484,
65329,
65516,
65420,
81,
84,
19,
367,
65488,
99,
65238,
2,
317,
418,
65472,
65310,
65350,
65496,
108,
50,
65436,
65386,
65405,
83,
154,
65516,
65514,
65371,
65457,
189,
42,
65534,
65339,
65465,
42,
65475,
65466,
65517,
65464,
65413,
65487,
65529,
65507,
55,
68,
65408,
65171,
65427,
186,
68,
65414,
65089,
65287,
14,
71,
111,
65499,
65230,
65382,
65502,
65526,
65523,
65495,
65362,
65360,
65489,
19,
165,
65391,
65230,
22,
37,
65498,
65525,
40,
65380,
65425,
69,
151,
65491,
65421,
65275,
65341,
65204,
65292,
65457,
65368,
65234,
35,
273,
34,
239,
65534,
65312,
154,
149,
65444,
84,
225,
59,
65535,
46,
19,
65517,
67,
65471,
106,
65465,
65297,
46,
65489,
65376,
65526,
65167,
65362,
65298,
65158,
65309,
65481,
10,
5,
65473,
65456,
65435,
65470,
47,
3,
64,
65441,
65469,
11,
65528,
65472,
65435,
65511,
99,
65518,
71,
34,
65515,
91,
107,
65465,
65458,
65483,
65513,
50,
65523,
48,
11,
65491,
36,
65527,
10,
65511,
34,
65509,
25,
65480,
45,
65488,
65431,
34,
45,
65411,
65441,
46,
65505,
65521,
65465,
44,
65438,
65463,
82,
65510,
65429,
65437,
61,
65435,
65471,
60,
65496,
65490,
10,
60,
58,
113,
65473,
65469,
65524,
67,
171,
193,
202,
201,
202,
55,
65507,
15,
56,
65519,
105,
25,
65429,
65531,
61,
26,
13,
53,
65526,
65460,
65419,
65358,
65419,
65515,
65493,
65395,
65461,
65435,
68,
65406,
65482,
10,
45,
51,
87,
65484,
65352,
65291,
65326,
65335,
65458,
65409,
65207,
65382,
65297,
65321,
65233,
65339,
65422,
65511,
65408,
65402,
65525,
96,
33,
91,
164,
65435,
22,
65460,
203,
229,
177,
71,
69,
65420,
233,
171,
37,
48,
65354,
229,
149,
65376,
65282,
69,
304,
246,
65511,
65469,
65381,
47,
191,
63,
54,
65470,
65529,
97,
155,
171,
18,
65443,
65305,
65355,
65393,
65443,
97,
47,
252,
174,
140,
65445,
65410,
65527,
65485,
65412,
125,
65526,
65445,
85,
202,
49,
65366,
33,
115,
123,
153,
149,
65324,
64,
65501,
70,
58,
140,
65498,
106,
65535,
65320,
65528,
6,
21,
187,
65457,
65399,
89,
65529,
65468,
65484,
113,
114,
156,
65509,
116,
256,
65452,
65253,
65219,
65468,
65467,
65423,
65519,
65408,
65504,
65312,
27,
65351,
65370,
65453,
65437,
65384,
65480,
65266,
65455,
10,
48,
65519,
65527,
65340,
113,
55,
9,
47,
65399,
65452,
65215,
65256,
55,
65244,
65301,
24,
65505,
9,
65470,
65487,
65500,
58,
65497,
37,
65505,
33,
52,
52,
65359,
60,
0,
135,
95,
65494,
68,
28,
65455,
65518,
65470,
11,
65400,
65340,
34,
38,
65406,
41,
65525,
65486,
57,
65463,
65450,
65520,
65493,
65424,
65212,
65228,
65502,
116,
65525,
65381,
65162,
65261,
74,
65,
65391,
65422,
65404,
65312,
65456,
44,
28,
65471,
65453,
13,
65406,
55,
119,
65490,
40,
305,
53,
48,
239,
65,
65480,
231,
93,
9,
72,
186,
230,
111,
65353,
65294,
65477,
43,
112,
65427,
115,
65110,
65521,
22,
38,
65438,
77,
65333,
65495,
206,
122,
65510,
67,
65479,
18,
30,
65468,
65272,
77,
65254,
65521,
65531,
65469,
65404,
65440,
65453,
6,
65375,
65400,
65361,
65375,
35,
65455,
65399,
65454,
9,
65479,
107,
231,
154,
65521,
65518,
65529,
65522,
165,
111,
66,
109,
66,
65513,
65443,
88,
136,
230,
199,
100,
65530,
184,
157,
117,
65459,
65500,
307,
446,
245,
152,
65518,
145,
28,
143,
104,
49,
43,
25,
152,
137,
108,
69,
10,
65450,
163,
65506,
65506,
126,
19,
65520,
166,
83,
109,
82,
65484,
132,
23,
65450,
78,
75,
128,
65457,
65458,
33,
134,
65,
65460,
65420,
45,
168,
43,
119,
65515,
65295,
65416,
151,
65490,
37,
12,
65436,
65516,
65472,
65318,
46,
31,
17,
65489,
141,
65457,
65459,
174,
136,
65533,
65492,
65505,
173,
35,
65435,
65271,
65077,
65201,
65461,
89,
252,
65426,
65351,
65495,
65527,
39,
169,
82,
99,
49,
65463,
14,
75,
29,
65444,
18,
140,
65504,
32,
79,
65,
217,
187,
65437,
363,
142,
144,
283,
47,
143,
46,
104,
65526,
52,
45,
88,
45,
65526,
65521,
94,
6,
65377,
37,
16,
20,
65500,
65495,
65370,
65514,
65379,
65494,
65362,
65364,
65312,
77,
65406,
65465,
65419,
65292,
9,
65527,
65510,
65403,
65349,
53,
120,
65419,
65511,
65513,
85,
65528,
65420,
65390,
65312,
65385,
65448,
65473,
65380,
65516,
65408,
65488,
65430,
65489,
65436,
65502,
65471,
65515,
65511,
65466,
65369,
65500,
146,
157,
120,
65507,
100,
65412,
137,
146,
212,
10,
65451,
6,
65432,
65214,
65204,
65318,
35,
153,
65277,
65350,
65395,
65399,
29,
127,
65408,
65509,
65369,
65414,
65511,
65524,
53,
65343,
44,
9,
65462,
65448,
108,
65517,
124,
222,
65449,
50,
19,
14,
65,
41,
65519,
4,
36,
65469,
72,
65479,
64,
67,
83,
65482,
65477,
65483,
83,
65484,
65446,
65517,
65509,
65500,
46,
33,
57,
38,
31,
65477,
32,
65507,
20,
30,
65484,
65451,
65449,
65481,
39,
7,
14,
83,
65472,
95,
65395,
65267,
65233,
65425,
249,
65365,
65283,
65354,
65313,
65245,
65464,
65212,
65286,
65441,
65438,
65271,
65256,
65346,
65353,
65341,
48,
65422,
65196,
65372,
65338,
65352,
16,
19,
65345,
65334,
65402,
65292,
65422,
65392,
65294,
65321,
65374,
65430,
65471,
65429,
65207,
65315,
65279,
65329,
65317,
65341,
65450,
65459,
98,
70,
91,
33,
65286,
102,
81,
70,
189,
65498,
65370,
65494,
14,
189,
65436,
128,
56,
65462,
65500,
65388,
62,
277,
65459,
65456,
65522,
382,
303,
198,
14,
65476,
234,
488,
113,
221,
65443,
65527,
98,
117,
44,
62,
23,
65452,
65422,
65498,
65408,
74,
98,
175,
102,
65515,
133,
65488,
65420,
286,
100,
31,
65459,
8,
254,
89,
32,
65338,
65488,
36,
65526,
65474,
68,
34,
65480,
65504,
14,
110,
94,
118,
16,
65469,
31,
109,
138,
111,
65481,
65498,
65431,
84,
36,
65501,
27,
19,
65481,
5,
65507,
65468,
65519,
65377,
65515,
408,
200,
63,
65517,
144,
390,
161,
177,
65483,
44,
198,
274,
226,
19,
65450,
65518,
64,
81,
141,
35,
136,
65456,
58,
203,
0,
65478,
65529,
108,
65451,
116,
14,
32,
37,
65434,
1,
361,
65493,
65382,
65236,
65317,
65433,
111,
1,
65349,
65300,
65384,
65371,
65465,
65456,
52,
65484,
65428,
65478,
35,
65473,
65437,
48,
65509,
19,
65534,
65455,
65485,
26,
116,
39,
44,
65393,
65363,
95,
65367,
65512,
65491,
65464,
65499,
38,
23,
10,
65534,
49,
89,
87,
65496,
65478,
65397,
65503,
65470,
65480,
48,
65467,
65453,
65495,
65485,
65430,
54,
65464,
56,
65483,
28,
47,
34,
65517,
65420,
65489,
0,
65381,
65492,
65501,
14,
121,
65379,
65239,
65379,
65514,
102,
65528,
65411,
65443,
65286,
65417,
65387,
65530,
65518,
65502,
65296,
65411,
65336,
65490,
65520,
65439,
65493,
65408,
65379,
65390,
15,
65503,
65493,
65376,
65376,
65271,
65319,
65306,
65495,
65366,
65419,
197,
60,
91,
233,
164,
305,
65478,
33,
95,
40,
47,
65526,
65486,
61,
4,
4,
35,
30,
65364,
2,
59,
65423,
83,
65498,
65529,
65393,
102,
65522,
65499,
71,
134,
111,
19,
86,
65463,
359,
65384,
67,
296,
258,
15,
65417,
3,
65460,
110,
65491,
195,
79,
65502,
56,
74,
81,
154,
182,
57,
65501,
65488,
123,
136,
170,
65507,
65367,
131,
65492,
80,
139,
72,
65476,
88,
211,
171,
120,
197,
83,
65402,
65149,
65320,
364,
86,
65394,
65309,
65169,
65367,
36,
65470,
65326,
65358,
65357,
65331,
158,
65334,
65404,
65409,
65446,
44,
219,
65474,
154,
168,
65442,
221,
254,
87,
139,
225,
306,
365,
201,
65466,
65376,
65246,
65250,
65411,
163,
77,
65470,
65385,
65360,
65352,
65489,
65517,
21,
65534,
65431,
65354,
65498,
110,
65438,
65455,
65509,
65504,
65492,
65525,
65475,
65482,
32,
74,
65468,
65371,
65524,
34,
65492,
65522,
65356,
248,
195,
52,
65388,
40,
396,
179,
148,
65447,
65483,
50,
88,
123,
65535,
20,
65483,
92,
127,
32,
33,
65393,
65373,
65456,
65521,
65459,
228,
280,
130,
73,
222,
65495,
65416,
0,
194,
65481,
265,
