memory_initialization_radix=10;
memory_initialization_vector =
65433,
65514,
65495,
65520,
65459,
22,
65512,
66,
11,
90,
48,
65504,
6,
139,
84,
238,
65490,
132,
174,
48,
167,
84,
76,
196,
72,
175,
148,
114,
158,
124,
56,
228,
2,
147,
180,
127,
65530,
83,
153,
178,
251,
242,
65514,
65454,
65447,
65520,
65426,
65490,
65517,
65508,
89,
65486,
65480,
65444,
65495,
365,
267,
65497,
65428,
65394,
91,
92,
94,
145,
65323,
65342,
57,
65518,
65511,
65441,
65454,
65517,
284,
65510,
65483,
163,
80,
79,
265,
87,
136,
119,
183,
106,
110,
164,
42,
112,
65515,
65407,
22,
6,
2,
13,
65384,
65516,
108,
31,
111,
22,
56,
112,
18,
95,
67,
65493,
20,
52,
65491,
65509,
37,
65449,
65471,
65466,
65508,
65446,
65508,
34,
65453,
1,
65515,
65459,
65473,
32,
53,
161,
4,
2,
65368,
65451,
93,
65519,
65511,
53,
13,
65446,
65439,
65465,
65366,
65454,
6,
65427,
65433,
65302,
65495,
68,
65501,
55,
65491,
65441,
66,
65483,
65484,
65473,
65504,
65485,
77,
0,
65469,
65524,
65535,
31,
65522,
65485,
13,
30,
65521,
65503,
65,
57,
44,
65448,
65481,
45,
65528,
65529,
54,
3,
65445,
53,
124,
106,
65487,
54,
171,
185,
179,
49,
33,
65458,
123,
91,
161,
47,
64,
65464,
65515,
149,
182,
65532,
65462,
65508,
65508,
22,
93,
49,
65497,
65441,
65423,
163,
87,
65529,
65415,
65410,
30,
68,
65449,
65512,
65517,
12,
4,
158,
122,
114,
65502,
65520,
65470,
65529,
174,
65513,
67,
65503,
97,
53,
65477,
97,
197,
124,
50,
25,
65497,
9,
115,
65488,
11,
65442,
25,
65499,
65343,
65432,
46,
65392,
65426,
65376,
65433,
65469,
65504,
65312,
65459,
65523,
116,
31,
65530,
65472,
65360,
65530,
65454,
137,
136,
65505,
65534,
56,
78,
157,
88,
65504,
65427,
65513,
93,
65464,
65428,
65412,
65507,
43,
43,
65471,
6,
9,
65435,
65449,
65509,
51,
86,
83,
65488,
65475,
65487,
65526,
67,
4,
65523,
21,
65510,
34,
74,
65535,
65519,
106,
85,
94,
56,
16,
65430,
50,
65517,
50,
45,
65398,
65383,
65520,
107,
42,
65516,
8,
192,
65515,
74,
110,
62,
213,
69,
39,
65446,
65454,
1,
17,
20,
65516,
11,
65470,
65383,
65464,
16,
105,
1,
65527,
65458,
55,
65477,
91,
65479,
195,
16,
38,
8,
92,
65481,
8,
110,
65475,
31,
65527,
27,
75,
12,
1,
65449,
65442,
46,
7,
36,
72,
74,
65466,
65494,
65529,
65493,
25,
65470,
47,
65472,
1,
67,
65476,
65527,
65532,
16,
65473,
65450,
21,
65505,
31,
17,
65518,
65498,
27,
65535,
106,
162,
70,
65480,
65421,
65518,
65455,
116,
146,
54,
65435,
65525,
61,
65488,
158,
65516,
65494,
65488,
65394,
65425,
65515,
80,
65501,
65444,
65331,
65426,
65535,
65517,
65492,
89,
56,
26,
65499,
117,
165,
65414,
65433,
93,
65394,
65422,
65215,
30,
65499,
65477,
65491,
65338,
65442,
65439,
65520,
65530,
47,
77,
65415,
65476,
144,
107,
209,
243,
128,
65489,
65525,
65532,
188,
189,
40,
65517,
65480,
65429,
65471,
65395,
65468,
65296,
65394,
65308,
65288,
65442,
65433,
65499,
65451,
65342,
81,
167,
12,
133,
48,
35,
251,
190,
245,
70,
43,
65469,
65507,
44,
30,
217,
65518,
65314,
65360,
65433,
163,
105,
291,
252,
306,
149,
153,
65478,
65481,
65454,
65463,
65446,
65472,
60,
90,
70,
65475,
28,
92,
65499,
65498,
8,
37,
153,
65419,
65443,
81,
61,
147,
186,
65528,
65439,
23,
165,
186,
123,
90,
8,
65421,
65529,
65519,
69,
35,
65309,
65379,
34,
39,
47,
124,
26,
65498,
25,
204,
152,
184,
65508,
65524,
116,
266,
130,
111,
23,
65525,
135,
315,
225,
22,
25,
94,
114,
95,
113,
65449,
39,
97,
167,
56,
65480,
65465,
65527,
64,
24,
75,
181,
83,
73,
162,
65512,
10,
83,
81,
78,
65479,
65463,
65535,
94,
27,
31,
65529,
30,
65533,
65364,
65477,
65503,
65532,
17,
65437,
65530,
65491,
65,
72,
65476,
44,
65499,
114,
65294,
65408,
65362,
65280,
65402,
65341,
65394,
46,
65314,
38,
111,
46,
212,
215,
1,
97,
90,
148,
250,
97,
65306,
65447,
89,
93,
149,
65498,
65068,
65283,
65340,
150,
109,
53,
135,
392,
101,
312,
65449,
65416,
65477,
65461,
65512,
93,
14,
27,
65386,
65488,
32,
31,
20,
29,
65535,
160,
121,
148,
229,
94,
152,
64,
193,
275,
144,
218,
65487,
65496,
129,
117,
65509,
23,
62,
19,
65373,
65492,
65327,
65274,
65397,
65454,
65503,
4,
65455,
150,
30,
185,
117,
80,
51,
65531,
24,
197,
32,
64,
140,
178,
177,
330,
146,
266,
206,
177,
272,
200,
200,
65502,
65530,
70,
65474,
69,
65484,
80,
65502,
39,
115,
174,
65455,
65458,
65502,
65470,
30,
150,
65533,
65535,
46,
65497,
13,
129,
59,
65463,
53,
3,
65361,
146,
5,
65479,
65465,
65445,
65376,
10,
65462,
65456,
22,
138,
65481,
12,
46,
129,
315,
215,
257,
167,
30,
255,
36,
185,
72,
65406,
65514,
65500,
65375,
33,
65339,
65293,
65309,
65515,
6,
65338,
65069,
65289,
65270,
11,
65435,
65254,
65338,
65349,
65325,
17,
99,
65495,
65463,
144,
65475,
22,
286,
123,
127,
65454,
30,
65520,
80,
98,
243,
7,
40,
65478,
65458,
65394,
65297,
65394,
65491,
65323,
65501,
65181,
65289,
65263,
65334,
65338,
1,
65285,
65321,
65408,
65420,
66,
65530,
65390,
65444,
65417,
65354,
65256,
162,
112,
31,
38,
37,
34,
65493,
188,
107,
65462,
65508,
77,
65369,
65500,
65387,
65453,
65414,
65376,
65339,
65169,
65202,
65391,
19,
79,
65404,
65254,
65273,
65457,
171,
56,
65397,
65462,
65469,
35,
29,
65361,
22,
65436,
65518,
45,
44,
5,
14,
17,
65479,
65397,
65438,
41,
20,
65490,
38,
65471,
65423,
29,
65462,
65513,
223,
65532,
65489,
65458,
65470,
64,
160,
177,
4,
65468,
65447,
65332,
65431,
65441,
65445,
65525,
412,
257,
79,
23,
16,
34,
247,
227,
65495,
65498,
93,
79,
199,
65508,
79,
65355,
65437,
65430,
142,
65295,
65155,
65064,
65283,
65503,
65419,
65254,
65113,
65111,
65393,
145,
167,
44,
45,
33,
65472,
28,
65337,
65420,
65410,
65343,
65335,
65423,
65232,
65358,
65438,
65389,
65403,
65436,
65371,
65509,
52,
25,
66,
129,
65477,
241,
21,
230,
326,
162,
65456,
135,
77,
65529,
13,
65527,
65237,
11,
121,
49,
43,
65531,
65380,
65461,
54,
14,
12,
65459,
65408,
65417,
65474,
65486,
65505,
69,
65404,
35,
65535,
55,
173,
93,
164,
61,
214,
21,
188,
211,
135,
218,
36,
65501,
65,
65517,
65512,
173,
115,
65511,
80,
65495,
73,
65474,
59,
65451,
65461,
74,
65441,
96,
82,
40,
53,
65529,
65511,
25,
65423,
65445,
65464,
65485,
74,
65487,
65458,
65464,
81,
65443,
71,
52,
65482,
42,
65472,
41,
39,
65498,
65502,
65468,
65490,
65483,
36,
211,
13,
172,
65522,
96,
22,
1,
125,
26,
65375,
65433,
2,
69,
65469,
39,
65457,
65400,
1,
65387,
65406,
65518,
65453,
65342,
65456,
65396,
65470,
65497,
65483,
65479,
137,
70,
65491,
33,
38,
92,
65481,
54,
32,
65509,
65447,
65471,
65487,
65513,
65482,
54,
65482,
88,
65462,
82,
3,
12,
65482,
65501,
65510,
71,
65461,
65522,
65441,
65518,
55,
82,
65520,
65482,
65484,
35,
65446,
65475,
65531,
65517,
65525,
29,
65400,
65493,
65518,
65443,
65331,
65479,
65450,
46,
59,
65493,
65302,
65459,
65392,
77,
90,
65535,
38,
123,
64,
180,
42,
218,
272,
134,
65473,
179,
103,
101,
10,
65463,
65295,
19,
169,
65520,
65421,
65450,
10,
65441,
65477,
65531,
65523,
56,
59,
65486,
65467,
65473,
9,
65471,
65493,
13,
65521,
65489,
65472,
65480,
65465,
25,
24,
39,
22,
65451,
13,
20,
65474,
65512,
66,
65502,
65461,
71,
40,
65498,
64,
47,
29,
65460,
46,
64,
66,
19,
40,
25,
122,
68,
65385,
73,
65479,
65,
75,
65505,
65424,
65486,
65497,
32,
231,
65525,
65528,
65437,
65437,
28,
140,
65479,
65410,
65528,
65315,
65306,
65320,
65281,
65371,
65416,
4,
100,
47,
65376,
65318,
65292,
82,
73,
12,
65440,
65498,
65487,
11,
234,
70,
36,
105,
41,
62,
97,
144,
259,
128,
137,
65433,
100,
30,
143,
190,
105,
65475,
65512,
65419,
65488,
65496,
65479,
3,
65387,
14,
113,
69,
101,
65414,
65477,
65273,
65489,
65320,
23,
65416,
65386,
8,
4,
115,
241,
71,
403,
400,
65507,
28,
65517,
200,
203,
112,
93,
65469,
65433,
65493,
47,
151,
65484,
65433,
100,
65378,
65450,
65401,
65439,
114,
173,
45,
66,
65475,
65447,
45,
65447,
65514,
21,
65535,
114,
65515,
65499,
65501,
254,
236,
114,
65445,
65476,
40,
7,
184,
135,
94,
65392,
25,
95,
65511,
65484,
89,
27,
65334,
65396,
65425,
69,
83,
104,
65425,
53,
55,
36,
65534,
65522,
65408,
23,
106,
125,
97,
65532,
65454,
65463,
476,
353,
156,
68,
65338,
65521,
417,
311,
61,
65430,
65180,
65279,
65297,
65321,
65437,
65446,
5,
84,
65513,
49,
9,
45,
139,
95,
1,
77,
102,
65463,
149,
65531,
65535,
155,
65520,
65482,
45,
77,
65509,
129,
65529,
65417,
7,
65522,
65439,
65463,
65525,
62,
65503,
65495,
65512,
53,
79,
65535,
92,
8,
65397,
65525,
2,
22,
200,
65393,
13,
61,
50,
65503,
259,
59,
65526,
116,
2,
65460,
143,
65391,
65293,
65375,
65381,
65480,
135,
65428,
65508,
65480,
114,
129,
359,
149,
65473,
203,
200,
208,
4,
73,
35,
65487,
56,
34,
65503,
65429,
0,
65429,
65514,
65504,
65528,
65514,
66,
50,
65497,
16,
65513,
38,
54,
24,
4,
65525,
65534,
43,
65533,
65487,
65509,
65502,
25,
65511,
65474,
65524,
65445,
65534,
109,
77,
51,
158,
34,
13,
65390,
65440,
56,
64,
65439,
65455,
65488,
68,
65393,
65527,
2,
9,
65501,
65512,
65390,
89,
65473,
20,
65426,
65418,
65477,
65400,
65463,
65474,
13,
49,
65474,
12,
91,
65533,
365,
238,
94,
29,
58,
111,
309,
65518,
62,
36,
24,
102,
119,
26,
106,
65276,
65320,
65525,
176,
65453,
24,
65456,
65447,
50,
65535,
65503,
65284,
65377,
103,
257,
161,
23,
65534,
65433,
95,
65471,
43,
81,
52,
33,
65479,
65454,
37,
169,
117,
19,
65425,
65477,
65471,
65535,
21,
65481,
65427,
65322,
65311,
65429,
125,
196,
65457,
118,
65502,
62,
157,
204,
145,
18,
65264,
65237,
65382,
65259,
65420,
65484,
65341,
65398,
84,
79,
65364,
8,
65427,
30,
108,
4,
7,
113,
53,
9,
65526,
33,
195,
164,
243,
164,
152,
227,
207,
189,
111,
252,
192,
201,
65486,
73,
65442,
148,
294,
11,
95,
65469,
77,
65504,
65526,
65481,
8,
85,
65533,
2,
50,
65534,
24,
65483,
20,
4,
78,
1,
65496,
14,
65493,
65535,
65447,
25,
74,
65443,
65446,
65504,
24,
52,
59,
65526,
79,
65490,
65488,
34,
58,
65461,
65353,
65322,
65469,
65451,
65437,
65478,
65372,
77,
65513,
65422,
65477,
13,
65530,
84,
65486,
47,
114,
149,
65500,
65515,
65484,
51,
169,
124,
65417,
65496,
65489,
70,
65464,
39,
65492,
65421,
65436,
65412,
65524,
10,
65233,
65259,
65384,
65506,
2,
30,
77,
133,
122,
201,
187,
38,
65501,
46,
25,
216,
158,
78,
57,
95,
136,
313,
225,
212,
57,
197,
252,
104,
178,
58,
65375,
46,
65417,
107,
65477,
65523,
65529,
65502,
65526,
65514,
65532,
65433,
65481,
7,
65444,
65496,
42,
65470,
65503,
65515,
65476,
65489,
65526,
65522,
119,
117,
65456,
6,
75,
65518,
65528,
57,
70,
93,
65487,
5,
59,
179,
31,
5,
139,
59,
65494,
73,
115,
15,
132,
46,
10,
65483,
65459,
49,
39,
6,
78,
65490,
65462,
65405,
65450,
65483,
4,
65509,
59,
65438,
65503,
10,
74,
65451,
65473,
65488,
65477,
41,
20,
64,
58,
65508,
65490,
65528,
38,
65461,
6,
92,
65448,
65509,
65497,
97,
62,
47,
99,
65511,
65492,
54,
70,
36,
52,
150,
65,
65515,
65450,
148,
59,
181,
71,
106,
29,
215,
249,
172,
159,
44,
135,
150,
65530,
66,
144,
478,
243,
58,
40,
65354,
27,
164,
19,
65425,
65440,
65466,
138,
65494,
65459,
65357,
65446,
65511,
155,
65330,
64869,
64934,
65177,
65389,
17,
65304,
64988,
65215,
65383,
61,
164,
65500,
65418,
28,
65444,
20,
14,
65462,
79,
65494,
65495,
44,
15,
65469,
83,
7,
65528,
65451,
46,
65432,
65451,
65478,
65455,
65440,
65442,
65507,
65525,
61,
22,
65440,
65462,
65454,
26,
65470,
65504,
65510,
65526,
65496,
65513,
65526,
65469,
65446,
65422,
65435,
65398,
24,
65490,
65475,
18,
11,
41,
65426,
65497,
23,
92,
65492,
72,
110,
15,
115,
88,
68,
29,
96,
65520,
106,
55,
65450,
142,
138,
107,
65527,
65433,
9,
117,
34,
65515,
45,
65336,
65348,
65434,
32,
24,
65434,
65238,
65236,
65453,
133,
65484,
65491,
65360,
65378,
65529,
32,
144,
104,
65493,
109,
23,
157,
229,
58,
25,
232,
130,
65473,
65416,
65332,
65370,
40,
18,
32,
65510,
65342,
65237,
65258,
65374,
65511,
65486,
43,
65381,
65517,
65374,
74,
118,
65473,
124,
153,
100,
235,
254,
45,
65503,
182,
65528,
191,
79,
5,
29,
114,
157,
59,
161,
0,
65494,
156,
9,
140,
195,
26,
7,
65480,
65523,
65463,
26,
65417,
65385,
65498,
32,
65388,
65488,
65350,
65350,
39,
6,
121,
146,
65500,
22,
65476,
65502,
139,
62,
65534,
65417,
65409,
37,
3,
78,
17,
65474,
65510,
65376,
65437,
46,
65504,
65525,
22,
65463,
65507,
65508,
53,
65401,
65501,
65520,
20,
30,
36,
65489,
65460,
61,
65525,
65464,
65455,
65489,
36,
47,
65534,
55,
65527,
65451,
65450,
74,
65510,
65489,
65491,
65477,
65520,
98,
8,
65518,
65523,
61,
6,
64,
53,
65437,
65533,
65414,
65528,
46,
58,
65457,
65394,
65523,
65525,
65523,
65422,
36,
65516,
65456,
44,
65417,
65477,
65429,
65531,
65532,
48,
65499,
70,
60,
65486,
65489,
104,
64,
149,
18,
84,
257,
134,
88,
14,
65445,
65535,
55,
97,
63,
65477,
65519,
9,
25,
49,
65380,
65439,
65427,
65464,
81,
65321,
65231,
65194,
65275,
65270,
65528,
65453,
65306,
65153,
65496,
4,
65446,
65446,
65387,
65378,
65413,
65402,
120,
2,
65430,
65455,
65517,
65343,
136,
84,
36,
65420,
65242,
65209,
26,
31,
221,
65438,
65313,
65414,
65356,
65503,
268,
188,
65445,
65374,
65357,
65510,
221,
214,
280,
203,
65454,
65407,
65534,
65365,
65403,
65456,
65289,
65234,
41,
11,
60,
163,
65384,
56,
90,
32,
65453,
94,
65355,
65424,
201,
32,
37,
65,
65435,
140,
413,
203,
65525,
35,
65403,
256,
300,
290,
65517,
65402,
65403,
65468,
65329,
65294,
65270,
65466,
173,
379,
99,
65505,
79,
65534,
193,
203,
6,
101,
65517,
65458,
88,
129,
65405,
70,
65419,
65347,
47,
65504,
65194,
65124,
65260,
65388,
85,
65293,
65142,
65113,
65527,
213,
333,
63,
65490,
344,
119,
166,
65516,
142,
65524,
65504,
18,
7,
65449,
18,
65502,
65481,
65409,
65409,
65532,
65501,
65511,
83,
37,
47,
65472,
52,
65521,
110,
147,
147,
65511,
83,
27,
6,
38,
61,
65528,
65465,
65485,
65490,
65491,
65518,
313,
43,
65320,
9,
65313,
65416,
29,
183,
32,
65451,
65485,
65442,
169,
8,
65465,
65492,
65256,
65228,
65446,
65447,
65530,
65491,
65398,
65453,
65425,
65342,
65504,
20,
65,
65534,
244,
85,
65495,
36,
62,
69,
142,
79,
120,
121,
186,
54,
243,
65501,
36,
3,
142,
56,
40,
41,
57,
79,
43,
58,
140,
65412,
2,
36,
58,
64,
98,
32,
65513,
9,
13,
106,
180,
141,
65471,
65505,
35,
91,
65464,
98,
4,
65519,
63,
120,
19,
123,
65481,
111,
28,
40,
134,
69,
125,
65490,
98,
50,
53,
157,
164,
65455,
171,
65529,
59,
135,
50,
65460,
41,
5,
65371,
65482,
24,
15,
65521,
20,
285,
83,
65530,
85,
44,
51,
166,
94,
81,
65447,
65533,
193,
121,
65437,
65448,
65390,
65438,
39,
140,
10,
41,
65508,
1,
66,
135,
166,
17,
6,
65448,
99,
268,
73,
124,
171,
55,
172,
82,
65487,
65402,
65401,
65509,
65366,
148,
61,
8,
65533,
65351,
65308,
155,
94,
218,
104,
71,
77,
40,
65490,
206,
203,
55,
65511,
65452,
98,
169,
136,
216,
54,
65289,
10,
65487,
40,
65424,
65487,
65491,
52,
110,
36,
65474,
86,
65535,
65465,
65492,
65405,
65437,
110,
65431,
65488,
22,
65372,
65469,
65395,
65417,
65471,
28,
65494,
65447,
65430,
65463,
65430,
37,
65533,
65520,
65518,
65530,
65518,
75,
60,
65497,
12,
65350,
65432,
65528,
98,
89,
100,
65514,
65450,
73,
151,
218,
61,
21,
77,
65527,
201,
86,
292,
52,
68,
32,
84,
153,
213,
59,
135,
63,
147,
97,
14,
106,
117,
149,
116,
37,
65507,
65516,
65524,
64,
65456,
100,
65419,
39,
65518,
65503,
115,
61,
65417,
72,
40,
65533,
119,
21,
24,
80,
65503,
29,
65515,
65496,
64,
102,
65481,
65447,
65309,
65494,
8,
43,
103,
84,
122,
74,
179,
65488,
65530,
68,
61,
222,
163,
107,
65478,
65415,
65421,
65528,
172,
108,
74,
210,
112,
65507,
51,
53,
141,
203,
46,
65395,
65500,
106,
116,
39,
108,
65452,
65286,
65226,
65313,
65410,
65382,
65235,
65473,
65499,
65424,
29,
62,
65439,
65420,
65488,
117,
104,
65532,
65415,
65434,
65438,
65404,
38,
65437,
85,
4,
65342,
65493,
86,
65423,
65509,
65369,
65411,
65467,
65455,
65492,
69,
65426,
65353,
65422,
65480,
65272,
65451,
65347,
65510,
65463,
42,
115,
219,
128,
11,
65500,
65477,
65430,
65497,
60,
26,
139,
222,
65525,
152,
113,
28,
152,
114,
76,
65,
65429,
116,
217,
94,
162,
65512,
65392,
65457,
65372,
65487,
65490,
65397,
65505,
43,
65444,
65446,
29,
65441,
47,
86,
86,
20,
10,
75,
24,
80,
15,
65455,
65465,
46,
65518,
39,
65506,
61,
65459,
65524,
65466,
65448,
65477,
65523,
65465,
16,
65478,
87,
89,
89,
65523,
61,
65511,
60,
99,
18,
98,
117,
104,
63,
65451,
98,
65514,
20,
114,
29,
65471,
65499,
65427,
65406,
6,
158,
59,
65444,
65450,
65387,
65488,
113,
65491,
65418,
65320,
65384,
65475,
40,
30,
65508,
65462,
65352,
65516,
65416,
65378,
45,
28,
17,
65426,
65402,
65508,
65385,
106,
65516,
65373,
65531,
65412,
65532,
29,
65406,
33,
28,
127,
111,
65334,
65477,
65477,
212,
86,
15,
65380,
65450,
59,
175,
20,
109,
128,
89,
219,
202,
134,
15,
65420,
65400,
65499,
65530,
2,
217,
12,
65486,
65512,
65475,
65444,
65374,
65377,
65337,
65361,
65391,
65223,
65135,
65228,
65401,
65347,
65435,
65313,
65141,
65241,
65466,
59,
65,
65361,
8,
68,
2,
65445,
45,
224,
148,
157,
115,
120,
28,
56,
65395,
65500,
59,
65502,
222,
7,
96,
65475,
65432,
122,
95,
40,
65424,
65242,
65301,
65533,
118,
65416,
65361,
65415,
65445,
144,
302,
8,
36,
65476,
87,
59,
4,
31,
65502,
83,
3,
65439,
65440,
76,
65532,
65507,
65496,
24,
33,
73,
65459,
70,
57,
23,
65494,
65507,
29,
63,
87,
65468,
65485,
19,
15,
65442,
65500,
13,
76,
65462,
65446,
55,
65508,
61,
65498,
65517,
142,
119,
65392,
65513,
65327,
65533,
95,
12,
132,
65433,
65413,
71,
65529,
68,
65464,
65469,
18,
65489,
65451,
52,
65503,
35,
65462,
65390,
65395,
65449,
65356,
65418,
65498,
150,
81,
42,
102,
45,
65511,
65491,
13,
65511,
65532,
65521,
9,
65533,
65523,
65379,
50,
34,
65448,
65513,
41,
65448,
65355,
65,
21,
99,
65465,
65480,
65396,
65493,
65527,
65458,
65413,
65436,
65456,
65450,
8,
65492,
52,
32,
65516,
30,
10,
65464,
65409,
65467,
65430,
65451,
65532,
24,
65507,
65431,
65513,
20,
15,
65468,
42,
65509,
65512,
45,
65465,
65469,
36,
116,
106,
43,
65473,
65452,
32,
124,
69,
99,
65459,
75,
39,
78,
127,
97,
142,
65511,
65459,
65534,
65444,
65297,
68,
33,
103,
66,
65524,
65492,
106,
65466,
65507,
65444,
2,
65525,
65479,
65495,
65275,
65214,
65259,
65356,
65483,
65385,
65425,
65276,
65389,
65478,
55,
65384,
65401,
65385,
65421,
65427,
11,
68,
65432,
112,
66,
65451,
26,
65445,
65490,
69,
55,
44,
91,
123,
98,
59,
48,
136,
183,
184,
65452,
65362,
65509,
69,
123,
65500,
65525,
60,
65517,
26,
201,
140,
79,
8,
26,
47,
65532,
65473,
65438,
65390,
65342,
65497,
65465,
106,
25,
65454,
39,
14,
65470,
65383,
44,
140,
2,
65476,
65429,
168,
158,
139,
110,
65467,
65355,
93,
243,
285,
133,
65481,
65379,
65471,
65500,
65510,
9,
65431,
65308,
65464,
42,
65531,
65528,
90,
65317,
65466,
76,
65497,
52,
65487,
65430,
65502,
19,
37,
20,
65394,
65281,
28,
183,
164,
27,
56,
65397,
28,
92,
65521,
65523,
65466,
65425,
65423,
65487,
65520,
108,
65469,
65530,
80,
65525,
65525,
65417,
65520,
65281,
65446,
65355,
65315,
65317,
65353,
65480,
65444,
65459,
41,
65444,
71,
65512,
65487,
8,
65523,
52,
65431,
44,
65503,
65501,
65353,
65406,
6,
62,
132,
126,
131,
202,
56,
11,
7,
49,
85,
65526,
29,
47,
58,
65469,
46,
65520,
65454,
65488,
65522,
65,
35,
65480,
65463,
74,
86,
65500,
55,
82,
88,
20,
17,
65525,
65449,
65455,
79,
41,
58,
65468,
65495,
92,
65464,
65523,
71,
90,
65524,
113,
1,
65528,
65470,
43,
18,
65533,
65501,
65476,
65479,
74,
65477,
65498,
3,
22,
51,
65533,
65503,
65472,
20,
65477,
65475,
34,
46,
73,
34,
39,
65521,
65479,
65447,
69,
12,
65501,
65532,
65492,
65480,
65287,
65356,
65475,
35,
55,
48,
65524,
65530,
65499,
62,
65532,
17,
65513,
65458,
65496,
65456,
32,
96,
190,
119,
15,
65519,
75,
68,
65509,
74,
84,
12,
65450,
61,
65486,
65512,
43,
35,
80,
78,
65467,
65424,
121,
79,
174,
192,
244,
47,
65391,
65312,
65524,
65449,
65419,
65265,
8,
65176,
65370,
65357,
65373,
65505,
65353,
65415,
65295,
65422,
74,
27,
136,
65494,
65520,
24,
26,
65371,
65510,
65458,
32,
29,
65411,
26,
96,
65486,
28,
63,
190,
65493,
119,
140,
65513,
135,
129,
96,
158,
37,
54,
156,
73,
148,
95,
111,
166,
131,
121,
89,
9,
88,
100,
160,
140,
51,
13,
104,
65525,
135,
99,
19,
72,
65475,
65389,
65475,
104,
65483,
96,
65453,
65518,
65487,
65404,
34,
65501,
65517,
65250,
65350,
65375,
65516,
39,
65515,
65355,
65406,
65425,
43,
65509,
65490,
65491,
1,
65532,
65492,
17,
65520,
84,
90,
59,
67,
219,
65473,
65452,
65456,
65375,
35,
224,
65491,
65497,
65506,
65519,
207,
251,
59,
32,
65339,
65428,
16,
186,
139,
65504,
65413,
65447,
192,
231,
65529,
65481,
59,
65466,
65516,
65503,
1,
86,
65465,
85,
65464,
65517,
65415,
65412,
65526,
65445,
65349,
16,
65405,
2,
65482,
65507,
65522,
19,
195,
65532,
65449,
6,
44,
115,
171,
21,
65492,
33,
65488,
145,
26,
65521,
103,
50,
205,
65482,
65508,
65384,
65471,
65407,
28,
57,
112,
65495,
65456,
65507,
65522,
65364,
65367,
65446,
215,
124,
97,
65386,
65517,
65504,
167,
226,
142,
56,
65475,
65487,
122,
50,
65406,
14,
65459,
65490,
65360,
65346,
65378,
294,
192,
65407,
33,
65476,
143,
159,
147,
58,
65341,
8,
65490,
172,
155,
150,
65515,
65413,
65330,
65441,
65473,
100,
77,
65482,
65341,
65461,
65376,
63,
49,
87,
67,
65520,
65440,
65348,
65434,
68,
65505,
284,
50,
44,
55,
78,
235,
48,
97,
102,
0,
65486,
136,
132,
105,
91,
65518,
65526,
10,
78,
65535,
142,
85,
26,
65396,
65475,
153,
125,
69,
65376,
65471,
65374,
65307,
65334,
65376,
65425,
65421,
65325,
65371,
15,
65439,
49,
43,
65487,
65518,
65420,
65524,
3,
65425,
65448,
23,
153,
140,
16,
65504,
65459,
28,
437,
184,
135,
65414,
65486,
121,
305,
194,
65529,
65441,
65506,
35,
9,
65439,
65436,
65417,
114,
36,
69,
65495,
165,
52,
89,
45,
6,
65368,
65391,
65493,
88,
65468,
65523,
65529,
65427,
65333,
65520,
68,
156,
196,
65336,
65391,
65416,
65315,
53,
60,
93,
65506,
65497,
65450,
65512,
65444,
65456,
65529,
65243,
16,
133,
65432,
65333,
65307,
65507,
65460,
43,
65490,
65518,
65467,
65296,
65491,
65515,
65398,
65522,
65462,
65348,
89,
39,
77,
69,
65425,
65314,
160,
20,
12,
65480,
65406,
65350,
85,
229,
65430,
11,
65465,
187,
113,
65517,
65443,
65415,
65485,
146,
11,
65468,
65472,
65444,
65365,
16,
74,
6,
65515,
4,
64,
42,
31,
143,
177,
113,
155,
44,
90,
50,
125,
203,
65,
65526,
65497,
65474,
65481,
74,
71,
121,
31,
24,
41,
11,
65483,
22,
46,
65483,
65520,
65512,
65486,
65486,
65466,
65487,
65395,
65416,
65493,
22,
65447,
65355,
65320,
65336,
65450,
0,
65399,
65351,
65391,
65508,
65497,
65516,
65371,
65399,
65447,
65382,
65530,
65274,
65353,
45,
40,
24,
65355,
65369,
65361,
65506,
102,
9,
65522,
65287,
65495,
35,
65454,
3,
86,
79,
23,
193,
118,
252,
177,
91,
151,
105,
65509,
2,
65356,
65441,
60,
114,
65530,
65470,
65360,
65533,
65508,
43,
17,
65452,
4,
72,
15,
79,
65500,
39,
65501,
57,
65529,
81,
65502,
65504,
65497,
65438,
38,
17,
65441,
74,
65475,
60,
20,
65534,
65528,
65531,
65532,
65446,
65444,
45,
14,
65453,
24,
65476,
65485,
65386,
65514,
64,
65535,
208,
156,
65479,
65375,
121,
65516,
139,
225,
65528,
65493,
103,
156,
26,
2,
45,
176,
31,
175,
37,
179,
65509,
65474,
128,
134,
65478,
85,
14,
136,
175,
15,
245,
96,
65500,
30,
124,
279,
85,
44,
65522,
65441,
65508,
65506,
27,
65415,
127,
19,
65461,
65460,
87,
65477,
65449,
50,
57,
32,
65299,
65447,
8,
212,
58,
14,
65490,
65321,
65412,
65338,
65470,
65128,
65110,
65165,
65386,
65403,
65436,
91,
65495,
120,
65509,
5,
65487,
65509,
65435,
2,
151,
180,
159,
8,
65513,
131,
315,
415,
155,
65497,
11,
143,
340,
182,
6,
65415,
65367,
65453,
65490,
65458,
65510,
72,
31,
65475,
25,
65438,
65526,
65467,
8,
65479,
65490,
37,
41,
136,
2,
65513,
65364,
65498,
43,
22,
65486,
65417,
65321,
65408,
65491,
7,
65505,
65460,
65478,
83,
65,
65515,
104,
53,
116,
98,
10,
65523,
65504,
65421,
54,
80,
177,
67,
47,
14,
106,
20,
43,
178,
111,
64,
18,
134,
43,
26,
136,
65528,
65449,
20,
65476,
183,
170,
84,
65482,
96,
174,
194,
264,
182,
33,
70,
156,
66,
65480,
65504,
65468,
65522,
29,
65514,
78,
16,
67,
65535,
89,
65372,
65400,
65419,
65451,
65386,
65390,
65509,
65503,
65344,
65479,
65518,
65487,
48,
93,
90,
120,
65479,
156,
109,
65496,
50,
161,
128,
65515,
22,
26,
52,
103,
6,
84,
65502,
65453,
72,
131,
73,
65456,
65491,
2,
65496,
65528,
65505,
65457,
15,
61,
36,
65472,
65467,
65523,
65433,
65409,
23,
65473,
65446,
50,
65499,
65443,
65495,
65484,
79,
29,
65500,
156,
104,
77,
97,
10,
65497,
150,
136,
65375,
65524,
65518,
26,
102,
67,
65355,
39,
60,
131,
65458,
2,
313,
3,
170,
313,
97,
144,
69,
65529,
134,
82,
98,
25,
144,
87,
58,
13,
17,
65517,
65499,
64,
65465,
65445,
65501,
65429,
21,
106,
65451,
37,
6,
53,
65532,
85,
150,
159,
27,
65503,
65504,
65528,
112,
65509,
65513,
65445,
90,
49,
142,
65472,
73,
63,
60,
144,
65426,
65439,
226,
31,
36,
127,
124,
44,
65453,
65457,
79,
65396,
65463,
65417,
65492,
65459,
8,
87,
65297,
65364,
16,
65440,
65350,
65396,
65331,
65343,
65385,
65396,
65535,
11,
65483,
65505,
65497,
65489,
65390,
65318,
28,
74,
191,
24,
65487,
65449,
112,
102,
243,
179,
48,
65522,
31,
66,
102,
96,
0,
40,
60,
37,
154,
65482,
258,
204,
56,
65452,
81,
65380,
9,
22,
96,
65523,
65520,
65509,
65444,
65264,
65344,
65442,
17,
65530,
65528,
92,
75,
65494,
65489,
18,
65512,
56,
132,
30,
65481,
65501,
23,
40,
36,
65463,
65520,
65361,
26,
95,
151,
68,
1,
149,
163,
65,
50,
146,
111,
92,
199,
199,
65526,
67,
65515,
65490,
8,
0,
65508,
117,
65522,
65453,
26,
185,
118,
7,
65517,
60,
30,
119,
65496,
65467,
42,
65443,
232,
174,
65500,
122,
195,
91,
18,
37,
125,
215,
179,
231,
65531,
51,
80,
14,
