memory_initialization_radix=10;
memory_initialization_vector =
65443,
65326,
65504,
127,
55,
65473,
170,
65469,
1,
10,
65437,
65461,
65443,
65453,
65495,
65450,
65386,
65270,
65374,
65491,
65407,
65484,
65209,
65277,
65309,
65296,
244,
65466,
65385,
65269,
65438,
65405,
65394,
65411,
65234,
65316,
65500,
65507,
26,
162,
132,
63,
65491,
41,
155,
174,
65461,
65497,
65529,
351,
77,
266,
59,
65488,
211,
301,
211,
241,
117,
65343,
80,
65533,
103,
36,
65528,
65473,
111,
86,
150,
65500,
65440,
65370,
65427,
65429,
26,
35,
65457,
65291,
65503,
104,
228,
253,
1,
65308,
65442,
26,
454,
517,
275,
65395,
65412,
69,
101,
335,
37,
65414,
65274,
65437,
65418,
65406,
65375,
65380,
65452,
65358,
65412,
65432,
65352,
65454,
91,
65431,
65359,
65435,
65397,
1,
65519,
65466,
65366,
8,
65385,
70,
1,
65349,
65052,
65256,
65502,
213,
173,
65487,
65169,
65490,
157,
30,
309,
120,
37,
65519,
65501,
134,
299,
209,
97,
184,
90,
135,
2,
65452,
12,
65511,
65533,
1,
79,
65439,
7,
65518,
78,
25,
65463,
65437,
65478,
5,
65484,
65513,
22,
65490,
65513,
10,
25,
65514,
61,
65483,
65502,
65446,
65450,
65509,
65503,
65497,
44,
65455,
65439,
44,
65529,
65441,
65316,
65446,
65530,
65535,
70,
51,
28,
0,
65532,
65470,
65397,
66,
65434,
65513,
65447,
81,
28,
4,
65389,
65390,
65466,
65372,
22,
59,
65425,
65372,
65468,
65425,
56,
65500,
65396,
65415,
65467,
65420,
65212,
100,
65464,
214,
36,
65392,
65432,
65531,
218,
280,
269,
65355,
65417,
202,
485,
466,
156,
12,
65427,
65433,
214,
258,
310,
154,
25,
59,
45,
63,
34,
65415,
65349,
24,
65529,
15,
65448,
65454,
65424,
69,
65482,
65485,
65320,
65480,
9,
41,
65446,
65337,
65286,
93,
109,
9,
65355,
65420,
65408,
65380,
30,
45,
65482,
65456,
65500,
47,
19,
65498,
115,
13,
156,
37,
65407,
65369,
65507,
65489,
65499,
65381,
183,
102,
176,
23,
37,
78,
122,
81,
132,
1,
105,
76,
65490,
64,
65521,
181,
38,
82,
36,
0,
45,
17,
20,
124,
55,
65441,
65474,
65462,
96,
64,
107,
65413,
65524,
155,
26,
57,
216,
215,
308,
78,
201,
40,
65532,
167,
163,
15,
65514,
194,
112,
65534,
86,
139,
213,
65511,
65384,
206,
146,
93,
65531,
65334,
135,
43,
130,
65454,
21,
19,
44,
101,
170,
108,
59,
252,
40,
65488,
65452,
83,
65447,
72,
65462,
65504,
65440,
10,
65453,
32,
49,
65443,
65477,
65520,
65462,
65435,
65488,
65514,
65444,
41,
65480,
62,
0,
0,
65525,
65500,
48,
70,
65448,
78,
65476,
18,
28,
65448,
65273,
65414,
65400,
65462,
65283,
65320,
65394,
65529,
65256,
65379,
65282,
65451,
65510,
65525,
65522,
65450,
65391,
26,
65348,
142,
5,
65459,
57,
65419,
65367,
65530,
102,
65523,
65405,
65281,
65123,
65406,
65379,
65270,
65451,
65272,
65435,
65370,
65406,
65448,
65528,
39,
65442,
65358,
65305,
65369,
65361,
65521,
65336,
65388,
65379,
65379,
65440,
65491,
65513,
65499,
65401,
65376,
65442,
65524,
210,
65456,
65378,
65462,
18,
4,
65528,
42,
65341,
54,
65477,
67,
65341,
65393,
65422,
65498,
65320,
65291,
113,
65385,
88,
96,
65445,
65292,
65316,
65460,
294,
356,
65520,
65374,
65441,
65241,
289,
362,
139,
81,
65430,
65213,
73,
66,
65440,
65253,
65343,
65256,
65447,
65341,
65205,
65376,
124,
142,
118,
65514,
56,
23,
65508,
75,
47,
129,
70,
58,
65491,
65417,
176,
51,
47,
65467,
65421,
65413,
65327,
6,
65491,
65423,
65526,
65468,
12,
65512,
65525,
9,
94,
65512,
81,
124,
81,
98,
65456,
65419,
5,
65416,
65464,
65431,
65483,
65449,
34,
65404,
65507,
65458,
65410,
35,
65417,
65507,
65396,
65376,
65450,
7,
58,
65395,
65311,
65472,
18,
65379,
65488,
65498,
65389,
65368,
34,
65526,
65469,
41,
93,
65514,
65488,
65495,
43,
65491,
24,
65453,
65466,
65442,
65499,
65504,
65410,
65438,
49,
32,
65433,
65508,
65522,
65486,
65526,
65501,
65498,
42,
15,
27,
65528,
65503,
65478,
65457,
65438,
65460,
65489,
0,
65491,
65428,
65509,
65458,
65535,
65321,
65236,
65329,
65388,
65399,
87,
65279,
65364,
2,
65376,
65175,
65442,
65257,
65518,
109,
65508,
65235,
65212,
65287,
65523,
502,
5,
61,
65358,
65206,
70,
65455,
65466,
65442,
65371,
5,
65399,
65297,
65187,
65213,
137,
93,
116,
24,
65461,
233,
65457,
65533,
56,
65509,
65367,
65505,
65496,
65406,
22,
65433,
65497,
65336,
65293,
65476,
65458,
65231,
65303,
65448,
65368,
65385,
65301,
56,
139,
103,
65365,
65340,
57,
56,
65517,
168,
69,
65380,
9,
65410,
65521,
65452,
86,
36,
136,
183,
65467,
65274,
65401,
88,
65475,
65434,
65273,
65237,
65261,
65313,
65270,
65366,
64964,
65373,
65460,
65409,
111,
88,
65407,
65416,
45,
65297,
15,
65510,
8,
65321,
65232,
65361,
65377,
65409,
65288,
65250,
65505,
65348,
65388,
65418,
65362,
65315,
65457,
65473,
65302,
65418,
65516,
1,
29,
26,
2,
65506,
75,
65442,
50,
177,
181,
99,
16,
65375,
65228,
65359,
65439,
65415,
65492,
65349,
57,
65400,
3,
65260,
65471,
65465,
65474,
48,
65294,
65196,
65460,
52,
32,
80,
133,
81,
102,
159,
65465,
65528,
32,
3,
65480,
31,
65452,
65478,
36,
99,
9,
44,
65507,
65461,
53,
65457,
30,
89,
231,
223,
65518,
65343,
65296,
65438,
114,
65336,
65310,
65495,
65492,
65493,
327,
65287,
65327,
65264,
65375,
65530,
48,
65380,
65241,
65234,
65461,
60,
207,
28,
46,
65365,
70,
47,
181,
58,
90,
86,
207,
173,
72,
145,
59,
2,
65534,
65265,
65529,
2,
65311,
65494,
23,
90,
65423,
65461,
65484,
65130,
65419,
152,
65498,
32,
65409,
65350,
65393,
249,
138,
34,
76,
171,
65507,
295,
65455,
53,
166,
151,
164,
171,
186,
129,
308,
199,
205,
69,
70,
225,
106,
74,
11,
113,
284,
58,
126,
187,
232,
200,
172,
322,
141,
98,
222,
65467,
77,
21,
119,
134,
10,
157,
85,
84,
146,
279,
106,
136,
65234,
65294,
65311,
65246,
65072,
65274,
65442,
65325,
65420,
65285,
65400,
65104,
65303,
65308,
65326,
65532,
65355,
65304,
65213,
65258,
65310,
65285,
65383,
65417,
65238,
65365,
65378,
65478,
65513,
65370,
12,
65396,
65519,
65471,
65403,
65442,
53,
35,
65512,
65423,
65407,
59,
65479,
51,
65274,
65298,
65336,
156,
129,
65359,
65077,
65177,
65233,
65474,
131,
65442,
65377,
65440,
65341,
65413,
115,
95,
115,
88,
193,
208,
8,
176,
65518,
120,
254,
175,
20,
65451,
76,
65516,
71,
59,
65504,
34,
65520,
65522,
65288,
65523,
241,
65527,
65488,
65317,
65357,
65334,
34,
65535,
65441,
65418,
65258,
65352,
65440,
65354,
26,
109,
18,
65453,
65438,
65491,
23,
129,
120,
65404,
31,
65523,
46,
57,
88,
65466,
65531,
65499,
39,
65528,
65476,
60,
65440,
65441,
65514,
70,
48,
65458,
65514,
70,
65513,
65450,
40,
65524,
29,
35,
65437,
10,
66,
65439,
65423,
31,
65448,
65464,
57,
65435,
65139,
65415,
65531,
65360,
65342,
65190,
65286,
65484,
65349,
65530,
65325,
65429,
65302,
65473,
34,
65425,
65440,
65387,
65359,
6,
25,
65394,
65478,
65396,
65398,
65415,
65463,
0,
65447,
65303,
65255,
65169,
65423,
65263,
65328,
65352,
65472,
65471,
27,
65497,
30,
65523,
21,
65462,
65449,
67,
65457,
65456,
65476,
65466,
65457,
65444,
56,
65457,
65451,
49,
38,
65473,
65515,
83,
65519,
37,
65432,
43,
65493,
17,
65446,
79,
55,
65478,
54,
65489,
65477,
65368,
65340,
65398,
20,
65453,
0,
65325,
65272,
65470,
65445,
7,
104,
65284,
65058,
65225,
65327,
65457,
71,
65436,
65352,
65322,
65508,
54,
41,
167,
62,
76,
140,
62,
3,
32,
80,
149,
65514,
65489,
65440,
29,
65530,
40,
16,
65497,
65454,
65436,
65521,
65497,
23,
65511,
65480,
65432,
65486,
65486,
65513,
67,
65447,
65473,
59,
65527,
65515,
65456,
57,
65466,
65508,
77,
65494,
65460,
65448,
65497,
65500,
9,
65450,
65445,
210,
133,
107,
74,
17,
32,
166,
88,
40,
65513,
61,
56,
237,
28,
89,
25,
129,
107,
231,
27,
14,
65465,
140,
170,
107,
4,
134,
178,
86,
65484,
65509,
65516,
20,
65519,
253,
201,
65253,
65323,
65345,
65449,
65492,
65499,
65232,
65289,
65361,
65400,
65454,
65498,
65373,
65343,
65405,
65387,
65467,
65510,
65501,
17,
65434,
65429,
65400,
22,
65513,
65491,
65410,
65515,
65369,
65456,
65415,
56,
65449,
65380,
65413,
65392,
47,
110,
65507,
315,
357,
159,
65268,
4,
65415,
36,
27,
68,
65338,
186,
65373,
95,
139,
65467,
202,
445,
50,
63,
336,
65286,
119,
235,
368,
165,
338,
37,
65519,
203,
559,
265,
63,
65468,
65533,
65512,
154,
17,
49,
65436,
114,
114,
65530,
298,
65531,
14,
136,
268,
278,
91,
173,
65463,
261,
295,
65400,
191,
65523,
65,
253,
155,
84,
72,
65425,
65466,
1,
65529,
65523,
40,
65351,
65279,
118,
164,
202,
220,
144,
65494,
65528,
240,
50,
58,
65457,
166,
113,
135,
214,
146,
41,
207,
65520,
123,
65479,
18,
163,
10,
155,
131,
133,
220,
100,
65495,
11,
65511,
174,
83,
152,
166,
65451,
65516,
65474,
2,
65452,
65514,
65448,
65429,
65515,
45,
19,
72,
65427,
12,
43,
65480,
65369,
65526,
65495,
118,
65423,
107,
151,
1,
177,
99,
65438,
85,
13,
65476,
65425,
85,
65430,
65447,
3,
65474,
146,
65509,
65382,
140,
65523,
65356,
65391,
65487,
65528,
24,
258,
65408,
65318,
65371,
96,
287,
118,
65443,
65443,
65455,
65515,
206,
165,
65417,
65313,
65287,
65233,
65254,
65048,
65298,
65477,
65533,
65438,
65446,
65409,
65271,
65532,
65483,
65520,
65494,
61,
33,
65436,
65533,
65506,
65474,
35,
65513,
65467,
84,
65493,
1,
65442,
70,
65496,
57,
65526,
65475,
65479,
15,
65460,
6,
65493,
65434,
65492,
80,
22,
65495,
67,
65507,
65522,
32,
65408,
65476,
65343,
65364,
65294,
65307,
65443,
65364,
65396,
65374,
65335,
65443,
65438,
65450,
65501,
65465,
65382,
65463,
65403,
40,
65476,
65457,
107,
65413,
65489,
65515,
17,
65,
64,
65507,
65288,
65237,
65390,
65466,
54,
65344,
65529,
65521,
65453,
65472,
65422,
65508,
65388,
65382,
65403,
65244,
65334,
65269,
58,
65412,
65275,
65384,
65409,
65453,
65311,
65369,
65183,
65112,
65303,
65385,
65276,
65187,
65277,
65426,
65447,
65498,
58,
65385,
65407,
17,
29,
65460,
105,
46,
37,
65352,
65429,
65442,
65327,
65434,
65443,
65457,
65518,
57,
117,
65416,
65325,
65311,
65177,
91,
74,
65223,
65052,
65335,
65149,
162,
65448,
65496,
15,
61,
150,
65519,
65432,
2,
65458,
370,
301,
215,
169,
65481,
7,
2,
196,
256,
121,
65505,
65454,
65393,
65436,
46,
65474,
65470,
65460,
65339,
55,
65427,
65521,
79,
65468,
97,
65367,
65370,
65471,
65438,
65525,
65522,
141,
65344,
114,
45,
9,
60,
65478,
65529,
64,
66,
65499,
65459,
5,
74,
84,
7,
65442,
65526,
85,
65494,
5,
65467,
13,
65533,
68,
5,
65523,
65513,
67,
65516,
65462,
92,
65442,
65523,
65514,
65498,
43,
65481,
55,
65467,
30,
16,
31,
65532,
65238,
65483,
123,
111,
13,
65529,
65309,
65464,
69,
158,
184,
65506,
65349,
65495,
116,
198,
133,
65482,
65431,
65430,
318,
99,
180,
47,
65383,
65475,
64,
222,
126,
89,
93,
65518,
128,
34,
65465,
65474,
61,
65354,
65512,
29,
65355,
65365,
198,
18,
62,
171,
65493,
65328,
65377,
103,
88,
65345,
65348,
65108,
65316,
65398,
65451,
65507,
64989,
65421,
65441,
65484,
2,
18,
65435,
65313,
21,
65342,
65388,
65346,
65532,
65384,
43,
65387,
65454,
65485,
84,
132,
65464,
65493,
1,
25,
117,
56,
65529,
109,
65481,
65412,
13,
124,
65408,
65533,
74,
65477,
30,
70,
65525,
0,
65364,
65273,
65292,
65447,
29,
65455,
65406,
65429,
65367,
65533,
65421,
65480,
65485,
74,
81,
65492,
65432,
76,
65492,
25,
22,
65455,
45,
39,
108,
65501,
65525,
65507,
65487,
34,
65477,
65497,
84,
65442,
65525,
65527,
65473,
65527,
65448,
65439,
65395,
65456,
65515,
65410,
65530,
65489,
125,
65511,
65519,
65463,
124,
60,
86,
65482,
65303,
65377,
65523,
65515,
5,
65366,
65332,
65532,
65445,
65354,
65393,
65483,
65517,
134,
65495,
65458,
3,
65522,
14,
65429,
65519,
65516,
11,
65495,
31,
65525,
65253,
142,
65031,
65372,
65366,
65364,
65060,
65397,
41,
10,
1,
65332,
65403,
65196,
0,
65331,
65483,
85,
65517,
65391,
65432,
65410,
65498,
26,
65350,
65363,
65509,
65434,
65384,
65506,
65410,
65497,
65521,
65435,
65482,
65276,
65383,
65283,
93,
103,
85,
65520,
29,
65476,
19,
86,
65481,
65522,
65474,
108,
58,
12,
65479,
82,
65472,
18,
129,
92,
115,
65513,
132,
61,
67,
109,
65516,
54,
113,
5,
65506,
40,
6,
92,
95,
65479,
22,
65483,
65484,
65414,
65333,
65403,
65517,
65453,
65534,
65505,
65533,
0,
65496,
38,
65493,
65460,
65508,
65518,
65480,
65378,
65372,
65445,
65492,
65509,
65415,
65384,
37,
65534,
65358,
65456,
65462,
65340,
65370,
65520,
21,
65517,
126,
20,
5,
65420,
65486,
43,
174,
30,
65405,
65328,
65397,
130,
118,
65379,
65049,
65181,
65447,
25,
119,
65379,
65339,
65447,
4,
65443,
192,
101,
186,
178,
240,
136,
169,
1,
65514,
133,
93,
86,
65355,
65414,
65436,
98,
122,
65288,
26,
33,
116,
151,
88,
65481,
65308,
86,
103,
385,
212,
65405,
65365,
65504,
488,
499,
65457,
65499,
65407,
65424,
65491,
91,
65431,
65387,
65445,
65422,
65518,
65526,
65336,
65375,
65333,
65488,
65454,
65446,
65308,
65286,
65476,
65411,
65252,
65387,
65466,
65506,
65440,
65342,
65255,
65315,
65419,
7,
65518,
65373,
65336,
65227,
65505,
65406,
25,
38,
114,
87,
45,
65485,
65260,
65380,
65491,
65482,
56,
65287,
208,
138,
56,
65512,
39,
61,
86,
118,
0,
165,
10,
148,
65459,
54,
139,
148,
40,
193,
65520,
65493,
165,
6,
104,
164,
16,
65399,
65425,
65424,
109,
65522,
28,
16,
65505,
174,
15,
48,
185,
26,
65420,
65495,
45,
83,
30,
65498,
92,
113,
141,
190,
65502,
2,
65506,
28,
25,
27,
18,
65428,
65439,
65501,
65373,
125,
65356,
65428,
65499,
65322,
65371,
65527,
42,
68,
65478,
167,
65479,
65463,
65509,
65515,
65504,
65380,
65429,
65431,
88,
65481,
65380,
0,
65522,
65500,
65531,
59,
65413,
86,
67,
172,
300,
155,
216,
17,
65528,
172,
65459,
75,
78,
65471,
177,
25,
232,
164,
145,
78,
65463,
19,
113,
34,
65399,
65383,
119,
39,
65277,
65450,
65425,
65378,
167,
70,
65518,
65315,
65340,
65429,
65320,
65481,
175,
65318,
65113,
65195,
65318,
65445,
65451,
65511,
65394,
65308,
65525,
61,
65368,
65365,
65444,
65517,
64,
222,
79,
88,
210,
60,
111,
32,
65466,
323,
155,
208,
65445,
65496,
203,
15,
235,
122,
34,
166,
171,
16,
24,
80,
65451,
65447,
72,
65516,
59,
206,
65498,
142,
221,
65451,
31,
62,
229,
134,
65216,
65363,
65531,
65354,
65139,
65212,
65380,
65409,
65400,
65494,
65423,
65247,
65279,
65406,
147,
207,
70,
65285,
65165,
230,
220,
298,
41,
65304,
65356,
65400,
67,
30,
65343,
65240,
65237,
65305,
65428,
65053,
65369,
65155,
47,
65464,
65457,
65458,
65453,
65492,
65451,
68,
65421,
63,
15,
29,
65478,
65354,
65259,
65426,
65443,
95,
65510,
65382,
65396,
65515,
65525,
65515,
31,
65443,
65468,
0,
22,
65468,
24,
47,
54,
147,
135,
44,
65476,
65361,
36,
41,
16,
65422,
65358,
65492,
65514,
65482,
65427,
12,
65476,
65466,
1,
65504,
16,
65527,
65529,
217,
65366,
65392,
10,
65483,
65353,
17,
4,
65377,
65357,
65386,
65202,
65316,
65364,
65315,
65423,
65379,
65511,
10,
65356,
65448,
65424,
65519,
41,
65480,
65425,
65312,
65370,
65467,
52,
65436,
65394,
65345,
65527,
65509,
3,
65516,
65387,
65346,
43,
65417,
152,
3,
65508,
65405,
65415,
65501,
199,
76,
87,
65446,
30,
65524,
209,
118,
65400,
65488,
31,
150,
53,
8,
58,
40,
103,
79,
0,
65475,
65496,
14,
14,
174,
15,
65422,
65495,
65471,
65515,
103,
73,
20,
65412,
65453,
57,
79,
242,
107,
122,
68,
105,
137,
108,
65433,
65396,
8,
65482,
116,
65321,
65391,
1,
65311,
65509,
65461,
65419,
65305,
65424,
65519,
68,
65437,
65376,
65335,
65312,
65296,
65369,
65482,
65436,
65260,
65276,
65419,
65523,
144,
65496,
65455,
65455,
80,
96,
162,
9,
65242,
65483,
65422,
65531,
65468,
65375,
65410,
65427,
81,
42,
23,
16,
18,
65482,
65494,
65363,
50,
67,
65353,
65102,
65421,
65116,
84,
65310,
65385,
65273,
65363,
65499,
65206,
65423,
65457,
65464,
65382,
61,
70,
202,
202,
111,
65530,
65,
142,
137,
69,
65515,
25,
65506,
156,
11,
2,
124,
109,
71,
134,
65482,
65414,
152,
66,
101,
117,
30,
59,
65427,
65415,
140,
135,
8,
65533,
60,
107,
65509,
137,
77,
65323,
25,
207,
158,
205,
25,
65410,
65380,
65500,
37,
65426,
63,
65514,
65444,
65469,
34,
65273,
65482,
43,
192,
65501,
65393,
65333,
65476,
65308,
67,
92,
44,
65335,
65227,
65443,
65386,
65500,
65427,
65378,
14,
65505,
65522,
42,
12,
65499,
112,
16,
65407,
65453,
104,
7,
18,
48,
65491,
78,
65524,
65481,
12,
65425,
65531,
69,
65530,
31,
65441,
65507,
65521,
65446,
65433,
65375,
90,
65419,
65422,
65430,
65382,
65501,
65412,
92,
103,
193,
190,
104,
65328,
65382,
65530,
5,
230,
65454,
65530,
65494,
65263,
65528,
65455,
65522,
81,
169,
73,
11,
229,
65407,
65512,
12,
124,
112,
34,
107,
175,
65515,
65523,
65521,
65456,
9,
34,
111,
65518,
65363,
65269,
65424,
65487,
42,
213,
124,
41,
65475,
22,
109,
91,
69,
65366,
92,
106,
65398,
23,
84,
65511,
189,
182,
35,
65445,
65451,
65532,
153,
135,
84,
176,
105,
234,
90,
65335,
13,
242,
346,
256,
182,
65533,
65473,
65521,
190,
161,
65,
65391,
182,
253,
463,
152,
65532,
65451,
112,
358,
368,
301,
65521,
65369,
65486,
62,
75,
158,
65394,
65439,
65516,
181,
119,
41,
65468,
65468,
24,
65499,
56,
65442,
65495,
21,
46,
65520,
65454,
65522,
65453,
72,
54,
72,
65461,
65481,
65438,
65486,
65451,
65500,
65499,
45,
65437,
65496,
65473,
24,
65508,
43,
65489,
5,
41,
65476,
65482,
65458,
65465,
65517,
38,
65386,
65436,
65362,
65406,
65518,
65505,
65342,
65457,
65482,
65462,
19,
65463,
65402,
65440,
65349,
68,
61,
65454,
65402,
65293,
65471,
65329,
34,
116,
65525,
65389,
65466,
65511,
65430,
57,
65464,
65507,
65438,
65431,
65372,
15,
65416,
65428,
65450,
65456,
27,
127,
22,
13,
14,
155,
65349,
1,
103,
106,
65400,
65424,
65447,
65422,
163,
274,
310,
76,
65497,
65533,
46,
65529,
130,
27,
65531,
65386,
133,
65526,
65418,
65429,
65515,
54,
65508,
65356,
65189,
65442,
123,
65503,
65440,
65457,
154,
65534,
26,
65424,
65298,
65234,
65235,
65482,
65405,
65172,
65143,
65285,
65144,
192,
10,
30,
65299,
65532,
65531,
136,
43,
65526,
18,
65445,
92,
65426,
65491,
12,
65431,
60,
34,
65477,
65386,
65463,
65474,
107,
119,
154,
65461,
112,
326,
199,
59,
65466,
65479,
104,
461,
364,
51,
65448,
65336,
62,
276,
73,
65401,
65200,
65411,
65448,
65486,
150,
65394,
65407,
93,
65451,
46,
65531,
65463,
65531,
63,
65499,
65512,
8,
67,
65476,
11,
65447,
65504,
25,
81,
65469,
65456,
70,
65510,
65491,
65533,
83,
65513,
65439,
76,
65480,
65440,
65438,
65467,
7,
65492,
23,
65511,
65455,
65434,
21,
65406,
65430,
65382,
65315,
65421,
65416,
65198,
65339,
65427,
65419,
31,
65360,
65294,
65258,
65488,
65461,
55,
22,
65455,
65488,
70,
65481,
65492,
41,
106,
17,
14,
65395,
65407,
65301,
65412,
65516,
65523,
65336,
276,
34,
162,
75,
146,
39,
147,
65511,
49,
65512,
134,
65511,
47,
26,
44,
3,
91,
22,
26,
169,
412,
274,
68,
144,
65429,
4,
165,
65509,
39,
65489,
85,
65469,
52,
188,
65531,
49,
49,
14,
65472,
12,
7,
65501,
65448,
65376,
33,
65402,
65460,
15,
65464,
65487,
65457,
72,
87,
65511,
80,
65431,
65449,
6,
76,
92,
65437,
65428,
65469,
13,
65491,
65457,
65497,
51,
65506,
65464,
65517,
42,
144,
61,
125,
52,
65496,
65471,
271,
65529,
46,
65371,
9,
65378,
195,
65515,
65417,
107,
55,
211,
199,
77,
43,
27,
122,
74,
221,
56,
137,
65511,
65364,
230,
182,
197,
105,
144,
65523,
52,
65472,
65334,
65417,
138,
174,
57,
65524,
115,
142,
210,
276,
65462,
65474,
169,
119,
185,
65515,
65502,
65480,
65444,
129,
257,
140,
65512,
65531,
41,
65443,
65293,
65198,
65281,
179,
65498,
65398,
65489,
65319,
65400,
39,
113,
174,
52,
21,
18,
103,
68,
65509,
11,
65490,
107,
32,
43,
72,
123,
22,
99,
78,
10,
65491,
20,
65516,
65535,
65532,
65480,
32,
0,
75,
150,
65431,
15,
190,
90,
65474,
78,
65502,
88,
50,
65506,
65421,
65381,
65535,
113,
224,
221,
65500,
17,
69,
236,
249,
199,
65519,
80,
65504,
65518,
60,
55,
65494,
13,
37,
65464,
97,
8,
75,
104,
14,
68,
59,
40,
46,
65484,
65086,
65144,
65508,
65407,
65513,
65463,
65359,
65438,
49,
110,
65498,
75,
65224,
145,
176,
288,
211,
27,
65317,
227,
683,
529,
383,
121,
65334,
65439,
304,
358,
227,
19,
65361,
65424,
65521,
37,
65483,
65404,
32,
65447,
22,
68,
86,
65499,
65472,
65504,
7,
65464,
65492,
65473,
65448,
65514,
65496,
65456,
33,
65468,
17,
65445,
65446,
65469,
65462,
65487,
11,
65516,
65459,
65469,
65474,
49,
65445,
65427,
3,
18,
65466,
65515,
65469,
65525,
65482,
65443,
65527,
77,
65470,
65469,
16,
39,
72,
93,
65499,
65404,
65486,
21,
69,
108,
7,
65331,
65491,
65507,
71,
65505,
65453,
65374,
65423,
117,
6,
77,
57,
65533,
65524,
43,
25,
10,
65529,
65502,
65436,
65432,
65397,
65498,
65400,
65529,
65398,
65486,
65426,
65492,
29,
10,
18,
65468,
65412,
65338,
65467,
18,
65453,
65522,
65362,
65440,
65445,
65487,
65430,
65499,
65434,
65481,
65293,
65467,
65451,
65505,
65456,
65360,
253,
32,
40,
65345,
65329,
65343,
65517,
65505,
65482,
65381,
65491,
54,
169,
65517,
65383,
65188,
65433,
39,
83,
65200,
65224,
65115,
65149,
186,
65431,
20,
65444,
33,
65439,
205,
65517,
30,
110,
82,
138,
39,
65415,
65424,
65515,
65531,
101,
65339,
65401,
26,
65467,
65507,
65530,
65218,
65416,
5,
68,
65506,
34,
65184,
65432,
98,
35,
66,
65364,
65058,
65366,
13,
67,
52,
65400,
65264,
65199,
65332,
65304,
65375,
65456,
65176,
65336,
65445,
65387,
27,
65514,
65526,
65490,
65438,
10,
84,
66,
188,
65517,
161,
150,
103,
3,
58,
65499,
105,
417,
212,
228,
65447,
65496,
26,
245,
136,
65476,
65442,
65469,
65456,
54,
65476,
65438,
65343,
65460,
65519,
65495,
174,
65425,
65399,
46,
198,
391,
93,
371,
65432,
65519,
159,
213,
190,
38,
65487,
10,
9,
116,
7,
231,
65424,
65410,
160,
65477,
65431,
65320,
65514,
15,
65491,
65491,
65350,
65377,
65285,
65410,
65405,
62,
97,
68,
82,
65528,
25,
220,
169,
61,
133,
65397,
75,
129,
31,
43,
65513,
65397,
65,
435,
372,
19,
65509,
65504,
113,
194,
98,
37,
45,
65523,
97,
83,
65467,
45,
65427,
24,
65480,
108,
65311,
65229,
65320,
65489,
126,
40,
65516,
65195,
65490,
65524,
181,
65499,
65258,
65148,
65350,
34,
103,
65380,
65168,
65092,
65395,
192,
42,
65293,
65350,
65494,
92,
217,
65422,
65408,
65385,
224,
308,
65521,
52,
47,
54,
65529,
65409,
65528,
64,
224,
56,
44,
65428,
65367,
146,
287,
262,
44,
72,
65469,
65497,
25,
47,
65483,
107,
65430,
65444,
65351,
65336,
65381,
65313,
65534,
65489,
65477,
65346,
10,
65365,
161,
172,
56,
212,
208,
92,
65402,
172,
65496,
65454,
65521,
65446,
280,
7,
65337,
65514,
118,
94,
306,
65518,
7,
65499,
207,
65434,
149,
65454,
68,
9,
71,
97,
220,
230,
64,
257,
200,
134,
120,
145,
35,
111,
172,
24,
193,
262,
110,
168,
141,
118,
180,
181,
105,
160,
102,
49,
65527,
178,
65325,
7,
65430,
45,
205,
65419,
158,
159,
65497,
65468,
81,
14,
18,
5,
95,
65498,
65418,
65501,
65481,
65347,
65184,
65446,
65397,
39,
65392,
65470,
119,
192,
65440,
65428,
36,
65447,
65495,
208,
27,
65375,
65191,
65093,
12,
218,
232,
65414,
65207,
65168,
65325,
65469,
65491,
65217,
65224,
65329,
65388,
134,
221,
73,
65379,
65457,
34,
158,
208,
65402,
65339,
65496,
108,
165,
291,
65461,
65266,
65331,
65399,
248,
266,
65445,
65334,
44,
89,
262,
406,
36,
182,
87,
33,
244,
379,
162,
114,
219,
137,
65534,
65346,
65383,
65455,
65524,
65377,
65372,
65214,
65353,
65454,
65385,
65426,
96,
65309,
65433,
65410,
65432,
65405,
65334,
65530,
65530,
65426,
65501,
27,
65483,
65385,
65396,
65316,
65414,
65398,
3,
65404,
65427,
65351,
65468,
65385,
65412,
146,
126,
70,
139,
122,
176,
162,
54,
65499,
65498,
49,
33,
220,
103,
65490,
53,
216,
121,
56,
109,
10,
64,
26,
116,
157,
66,
87,
65511,
46,
73,
21,
199,
144,
77,
11,
65483,
313,
56,
65527,
65506,
54,
43,
246,
71,
161,
65299,
112,
46,
180,
142,
65352,
65391,
65404,
8,
62,
65459,
65460,
65346,
65295,
25,
94,
36,
65413,
65515,
65534,
104,
92,
65482,
65362,
65444,
6,
110,
51,
65498,
26,
65449,
10,
65480,
65532,
31,
72,
27,
65528,
65466,
65504,
65520,
79,
56,
74,
65526,
67,
65474,
65499,
50,
65442,
65470,
34,
65431,
65495,
65453,
65485,
65524,
65531,
66,
65532,
19,
3,
78,
5,
65297,
65289,
65253,
65196,
65507,
65324,
65477,
187,
65459,
65472,
65121,
65404,
65532,
65479,
150,
65265,
65171,
65398,
65296,
65322,
65346,
65150,
65303,
65390,
65316,
65158,
65274,
65321,
65302,
65525,
65464,
65318,
65235,
65264,
65287,
338,
309,
79,
65439,
65394,
33,
65462,
9,
65363,
65279,
65368,
65425,
248,
65463,
65338,
65252,
59,
93,
120,
65349,
65281,
65260,
65355,
67,
247,
65489,
65347,
65511,
16,
254,
129,
161,
262,
403,
284,
512,
65390,
65440,
292,
194,
147,
65388,
104,
395,
34,
231,
165,
228,
65443,
124,
178,
116,
65507,
45,
65436,
65469,
376,
86,
100,
65527,
65477,
209,
330,
307,
65411,
65497,
65510,
65376,
65514,
67,
78,
65377,
148,
2,
65475,
65519,
100,
65530,
65453,
2,
65443,
65514,
104,
108,
65410,
65386,
65459,
20,
41,
42,
65486,
53,
65534,
65474,
65468,
52,
65467,
80,
5,
65504,
65451,
84,
65,
13,
2,
72,
176,
65526,
44,
65406,
65481,
65506,
92,
50,
65489,
65408,
65315,
65307,
65531,
65503,
0,
65521,
65378,
65507,
65502,
65434,
65405,
65511,
60,
65432,
65446,
65333,
65338,
65432,
18,
65375,
65355,
65514,
65437,
65508,
65412,
16,
65438,
65526,
0,
53,
64,
65435,
37,
65385,
65415,
65410,
65471,
65303,
65409,
65504,
65512,
65487,
65414,
65347,
65478,
65455,
102,
65506,
65404,
65348,
65510,
33,
59,
65496,
65420,
65509,
16,
135,
65509,
178,
144,
105,
238,
10,
65496,
65476,
65529,
65500,
25,
103,
61,
65438,
55,
65523,
65513,
65527,
65484,
65532,
65524,
65529,
65416,
65535,
65459,
65533,
65497,
65437,
65492,
65510,
65491,
65515,
65491,
65465,
71,
2,
65489,
65517,
65533,
65473,
65462,
65438,
65401,
65369,
65445,
32,
65525,
102,
65353,
65498,
65523,
65410,
15,
65465,
65451,
65388,
69,
65380,
65480,
65201,
65364,
143,
65509,
65339,
65452,
65475,
65394,
65426,
65422,
21,
65463,
65409,
65397,
65346,
65313,
65326,
65341,
65261,
112,
65518,
65443,
65477,
65469,
141,
173,
65323,
65301,
65447,
65425,
12,
65506,
65409,
65414,
65458,
65514,
46,
65392,
65406,
92,
65497,
65443,
65475,
109,
65527,
65442,
65339,
12,
127,
65498,
65388,
65367,
65454,
65290,
178,
65476,
103,
65392,
65211,
65435,
65463,
176,
103,
65328,
65263,
65394,
36,
154,
60,
65305,
65405,
65291,
64,
5,
160,
65457,
65227,
45,
99,
31,
65515,
286,
60,
57,
196,
65283,
65467,
86,
65434,
65523,
174,
65503,
65400,
82,
65283,
65281,
65522,
65468,
65484,
259,
65472,
65466,
65521,
65363,
65534,
202,
65323,
65053,
65458,
65432,
65269,
65109,
65123,
65005,
65320,
29,
169,
65230,
65163,
65259,
65293,
65463,
65514,
65281,
65466,
82,
61,
91,
45,
65502,
65510,
32,
65495,
65482,
65397,
65365,
65510,
103,
65470,
16,
65353,
65282,
65295,
65312,
65481,
28,
65489,
65311,
65412,
76,
75,
65507,
31,
65367,
65414,
65533,
171,
65435,
56,
76,
243,
11,
167,
65275,
65272,
65410,
65482,
65520,
65267,
65374,
65485,
65474,
65267,
65448,
65338,
65490,
65519,
70,
98,
65485,
65194,
65393,
10,
38,
65500,
65436,
65284,
65295,
65431,
65516,
62,
65399,
65190,
65162,
65352,
65408,
65365,
65299,
65164,
