memory_initialization_radix=10;
memory_initialization_vector =
241,
65229,
65242,
65145,
65281,
65504,
65446,
65409,
65270,
65272,
65222,
65484,
65513,
65527,
65519,
65456,
65319,
65235,
65506,
65396,
130,
65510,
65337,
65498,
65360,
65459,
74,
65412,
65362,
65371,
65401,
65401,
8,
65419,
65470,
65486,
65413,
65442,
65529,
65321,
65409,
65409,
65454,
65483,
65381,
65419,
65422,
65431,
65440,
65464,
65436,
65475,
65491,
65397,
7,
65471,
65444,
65450,
65463,
65374,
65439,
179,
178,
65442,
65429,
65388,
65481,
9,
4,
65411,
65490,
49,
65466,
185,
309,
38,
153,
65516,
6,
60,
140,
354,
224,
77,
65483,
65509,
308,
336,
254,
65519,
49,
65470,
65399,
25,
92,
65478,
65479,
65462,
65382,
65509,
44,
65474,
65438,
43,
65456,
24,
65425,
65435,
65346,
65297,
65177,
65056,
65234,
65439,
65489,
65468,
65299,
65321,
65256,
65382,
65399,
65419,
65368,
65433,
65477,
65439,
65513,
65356,
65424,
21,
65462,
8,
65484,
6,
45,
65531,
65524,
56,
65379,
65427,
65473,
32,
65418,
65445,
7,
28,
71,
65485,
4,
65527,
65491,
1,
65433,
65447,
79,
81,
91,
65471,
65517,
24,
9,
88,
8,
16,
53,
65439,
65443,
65466,
36,
56,
65516,
65448,
65503,
65490,
69,
65529,
65531,
65522,
65440,
86,
65450,
65060,
65294,
65290,
65284,
65384,
65297,
65390,
65358,
65449,
65532,
65465,
65397,
65407,
65499,
53,
65495,
7,
65387,
65491,
65503,
65348,
65400,
65338,
65452,
65483,
10,
65438,
65456,
65485,
128,
65457,
65503,
65498,
15,
78,
65450,
37,
248,
51,
24,
65318,
30,
65492,
114,
65445,
120,
77,
65464,
87,
156,
51,
65484,
65486,
15,
11,
161,
65517,
65477,
65450,
65462,
65450,
65373,
65309,
65435,
65414,
65476,
65524,
65441,
65435,
13,
65454,
65528,
65390,
65228,
65258,
65126,
65389,
65498,
65309,
65037,
64927,
65138,
65390,
55,
65369,
65301,
65258,
65303,
65460,
51,
46,
65520,
87,
27,
65457,
39,
122,
65512,
144,
72,
65507,
65423,
65532,
19,
32,
96,
65535,
203,
318,
432,
254,
179,
65488,
163,
113,
245,
196,
129,
202,
99,
65494,
51,
73,
146,
182,
62,
113,
28,
134,
21,
220,
65529,
25,
65502,
65364,
65479,
192,
256,
51,
55,
99,
34,
165,
65491,
65354,
65354,
65090,
65279,
65390,
65451,
49,
65449,
65265,
65357,
65496,
8,
65503,
62,
36,
23,
65356,
65513,
65474,
8,
65499,
7,
65462,
65487,
65480,
85,
65459,
49,
65455,
7,
35,
74,
65506,
65474,
65519,
65527,
65526,
65463,
33,
65474,
81,
79,
65511,
65492,
65448,
65460,
49,
65527,
63,
65423,
65480,
74,
65460,
65532,
22,
65521,
65531,
65523,
44,
65471,
16,
65496,
65520,
81,
65503,
65502,
65465,
71,
65462,
65478,
65527,
65306,
65259,
65158,
65063,
65262,
65382,
65388,
65106,
64899,
64886,
65027,
65402,
65401,
65244,
65196,
65258,
65309,
65334,
65498,
65429,
65357,
65432,
65348,
65284,
21,
65422,
65522,
65523,
65373,
65446,
65320,
8,
65481,
65516,
65409,
65473,
36,
65495,
65365,
65121,
65385,
65511,
114,
65416,
65168,
65167,
65253,
65421,
63,
65346,
65375,
65507,
26,
65458,
93,
65433,
65465,
65511,
99,
65532,
65489,
65501,
65448,
65527,
21,
101,
65498,
65509,
38,
65517,
80,
65467,
341,
2,
202,
388,
394,
290,
400,
123,
123,
181,
159,
180,
129,
115,
65466,
14,
65533,
194,
65526,
65519,
65384,
147,
5,
201,
65454,
130,
19,
65375,
65404,
65503,
65351,
65373,
65410,
65289,
65491,
65495,
139,
389,
108,
158,
151,
166,
148,
19,
158,
151,
176,
49,
33,
65493,
48,
102,
204,
133,
58,
65404,
65525,
59,
65514,
215,
32,
7,
65515,
74,
96,
72,
136,
197,
160,
177,
74,
204,
89,
71,
70,
65461,
65395,
65424,
5,
86,
81,
40,
65463,
65384,
67,
0,
129,
136,
73,
65526,
65443,
78,
143,
249,
109,
79,
2,
65421,
65526,
7,
65,
65466,
65375,
65448,
65419,
65453,
65409,
65512,
49,
65524,
65435,
65503,
71,
65469,
65482,
65498,
65503,
66,
65397,
41,
65430,
65530,
65521,
64,
65530,
65509,
8,
56,
65471,
65487,
65533,
66,
65478,
54,
10,
47,
38,
65505,
65449,
65523,
65486,
65457,
64,
65488,
296,
352,
276,
438,
457,
494,
227,
65402,
298,
295,
246,
171,
161,
65454,
65528,
117,
65420,
259,
65528,
260,
91,
65532,
73,
260,
65506,
65496,
37,
65362,
65431,
83,
65460,
65504,
65444,
65278,
54,
45,
65503,
65148,
65026,
65006,
65070,
65524,
65370,
65384,
47,
307,
127,
65494,
65488,
65503,
124,
235,
228,
65453,
20,
155,
65514,
65510,
93,
65449,
119,
23,
65478,
65492,
39,
96,
148,
170,
32,
52,
128,
199,
256,
12,
89,
154,
26,
222,
151,
65471,
119,
246,
132,
142,
59,
54,
20,
320,
88,
26,
65400,
24,
65526,
30,
65500,
101,
65325,
65396,
65511,
68,
65475,
65314,
65403,
65410,
65457,
65355,
65238,
65487,
65198,
65159,
64999,
65169,
65193,
65412,
65380,
65208,
65009,
64897,
65010,
65299,
65425,
65037,
65090,
65187,
65246,
65454,
65498,
65277,
65331,
65418,
65454,
65441,
65405,
65378,
65509,
65452,
65507,
65495,
65390,
65427,
65445,
65460,
65512,
65363,
65404,
197,
65522,
161,
65405,
65450,
15,
51,
65510,
65510,
65506,
65461,
96,
65338,
65492,
65483,
65534,
65512,
17,
65447,
65506,
65526,
46,
124,
280,
41,
145,
65442,
247,
70,
249,
180,
87,
252,
306,
209,
65166,
65532,
65470,
118,
199,
10,
65237,
159,
143,
80,
33,
65420,
65347,
65428,
65511,
112,
65513,
65164,
65490,
65361,
65388,
45,
65499,
65457,
84,
46,
65480,
89,
120,
65475,
65415,
65470,
130,
92,
78,
65362,
65412,
17,
65535,
114,
121,
284,
65474,
65433,
17,
60,
65449,
65329,
65488,
65481,
47,
49,
65428,
65300,
90,
65534,
65531,
65482,
24,
65374,
30,
65455,
65357,
65472,
116,
50,
114,
52,
215,
122,
65454,
52,
65432,
65353,
65399,
65103,
65396,
65354,
65459,
118,
65475,
65371,
65491,
65468,
21,
73,
65481,
65505,
65451,
65380,
65449,
65491,
65501,
65487,
3,
65360,
65462,
70,
84,
29,
92,
65493,
65512,
65485,
65486,
87,
60,
93,
65364,
162,
304,
454,
9,
80,
65416,
140,
262,
153,
101,
13,
24,
137,
86,
171,
334,
65382,
87,
65457,
65503,
92,
210,
65535,
65406,
65466,
65469,
65432,
189,
2,
65423,
65417,
65490,
90,
147,
12,
65427,
65343,
65052,
65009,
65196,
65513,
65481,
65231,
65040,
65092,
65260,
65412,
66,
65406,
65282,
65417,
65533,
65397,
33,
65418,
65434,
45,
8,
65296,
204,
67,
65467,
105,
65535,
65455,
81,
207,
173,
10,
65528,
65473,
0,
65299,
65159,
65155,
65361,
65448,
65477,
37,
65411,
65402,
65387,
65467,
0,
65467,
65486,
65486,
65528,
65356,
65464,
65515,
60,
61,
65396,
65430,
65514,
65461,
36,
65534,
26,
65508,
65447,
65504,
65489,
52,
10,
65445,
25,
65439,
65500,
65514,
65444,
59,
65470,
65505,
69,
65422,
42,
18,
65428,
23,
65471,
65471,
27,
65494,
65533,
65511,
65511,
2,
3,
13,
41,
65444,
65485,
65509,
10,
65486,
58,
14,
36,
65501,
65437,
65434,
65374,
65439,
65369,
65454,
65355,
65398,
65530,
65380,
65108,
65108,
65284,
65377,
65439,
65363,
65194,
65374,
65469,
65508,
65425,
65363,
65280,
65392,
65396,
65463,
48,
65412,
65489,
65468,
65355,
65466,
65531,
65487,
2,
65511,
65441,
65363,
65446,
39,
0,
77,
35,
91,
65494,
65494,
48,
70,
20,
65517,
65453,
13,
79,
65479,
65503,
55,
89,
65480,
65473,
32,
65477,
65511,
65504,
77,
22,
4,
65477,
65499,
65470,
65467,
65440,
24,
65530,
61,
65435,
65399,
64999,
65287,
65312,
48,
53,
65243,
64953,
65226,
65280,
65458,
65495,
65287,
65130,
65311,
65449,
65159,
14,
65439,
65483,
49,
65449,
65352,
60,
65425,
69,
85,
2,
65343,
65439,
65486,
32,
65420,
65473,
65320,
65498,
6,
65462,
88,
65532,
65509,
49,
65476,
49,
65447,
24,
65446,
39,
65445,
65433,
32,
65412,
69,
54,
65517,
65502,
65515,
74,
65430,
45,
65455,
4,
65471,
65501,
65475,
65515,
19,
65496,
65457,
9,
65528,
65391,
65312,
65291,
65270,
65369,
65354,
65392,
287,
162,
42,
5,
65502,
65375,
56,
60,
17,
65485,
65495,
65400,
65463,
65529,
65399,
65455,
105,
38,
65441,
140,
52,
65509,
47,
96,
65532,
11,
32,
65369,
20,
6,
65458,
65498,
65344,
65412,
65508,
65478,
65534,
65311,
65285,
65486,
65516,
65517,
42,
117,
65434,
65467,
65272,
65481,
114,
65474,
14,
130,
65403,
65495,
74,
65384,
65492,
6,
65458,
29,
89,
17,
143,
170,
59,
65504,
64923,
64898,
64955,
64952,
65255,
65512,
65123,
65165,
65370,
65165,
65431,
65511,
65470,
65483,
65332,
65511,
65430,
65418,
65395,
65428,
65447,
65424,
65298,
65456,
36,
138,
57,
65405,
65467,
65495,
11,
65508,
65437,
65472,
72,
65438,
198,
65493,
65397,
65433,
65490,
185,
167,
26,
102,
15,
65476,
65510,
116,
65488,
8,
65451,
65435,
49,
9,
65513,
69,
39,
65378,
65494,
239,
124,
73,
65471,
65404,
1,
65468,
65386,
65359,
65411,
65430,
65419,
65530,
65380,
65471,
65392,
65519,
65431,
259,
104,
65484,
65506,
97,
65420,
78,
101,
133,
65487,
6,
65453,
33,
1,
68,
155,
65515,
65413,
65472,
115,
53,
65480,
63,
65527,
65399,
65491,
65474,
65335,
65454,
65506,
78,
65467,
65468,
65425,
65484,
65517,
65421,
65291,
65429,
65328,
65466,
65453,
65502,
65509,
65441,
65400,
65389,
43,
65515,
12,
65361,
22,
65484,
65470,
31,
3,
11,
0,
65461,
65490,
65416,
65378,
65481,
65422,
65525,
216,
322,
580,
719,
493,
244,
72,
10,
36,
65394,
146,
59,
65382,
65498,
65419,
65413,
97,
65532,
65395,
65449,
65333,
65496,
94,
97,
65487,
65476,
65353,
65317,
65521,
122,
65411,
65520,
65464,
65519,
78,
15,
55,
65507,
65513,
4,
59,
65507,
28,
67,
65506,
65504,
65511,
65499,
37,
65446,
65533,
65514,
65456,
65530,
21,
65518,
55,
85,
32,
65486,
65465,
65529,
65512,
37,
65433,
57,
65484,
4,
38,
65512,
15,
36,
65412,
65314,
65184,
65121,
65264,
39,
65398,
65214,
65102,
65034,
65061,
65400,
18,
65230,
65141,
65272,
65300,
65445,
65487,
65373,
65430,
65441,
65524,
65407,
65481,
65479,
65533,
1,
65512,
65481,
65509,
2,
103,
65509,
65535,
56,
55,
65243,
65446,
419,
270,
160,
65398,
199,
146,
420,
364,
65498,
65463,
265,
203,
98,
265,
55,
19,
123,
107,
67,
38,
65498,
210,
65489,
65497,
131,
183,
158,
276,
60,
79,
140,
0,
83,
65370,
65184,
65452,
56,
14,
65415,
65253,
103,
231,
187,
328,
65521,
65380,
12,
127,
68,
65488,
79,
65521,
142,
90,
39,
96,
65443,
47,
38,
111,
37,
148,
65508,
65436,
47,
186,
244,
12,
65512,
267,
65057,
64863,
64821,
65049,
65423,
57,
65172,
65118,
65106,
65124,
65512,
65497,
65349,
65333,
65356,
65227,
65356,
96,
65509,
86,
65458,
65457,
65463,
38,
15,
65402,
39,
65492,
19,
65517,
79,
56,
21,
70,
80,
35,
65451,
65501,
65435,
25,
21,
65478,
84,
65456,
65515,
35,
65463,
65479,
65531,
22,
10,
65533,
55,
26,
17,
65470,
64,
65517,
65524,
65479,
22,
65521,
59,
65468,
65445,
15,
65485,
78,
14,
10,
65454,
2,
65526,
65489,
0,
16,
65376,
65442,
65519,
100,
42,
52,
8,
65432,
65516,
65435,
36,
65511,
65517,
60,
65391,
65423,
65395,
65530,
8,
65535,
65443,
65486,
65427,
65422,
32,
65438,
65456,
74,
37,
65495,
65534,
289,
65530,
173,
204,
74,
164,
177,
0,
313,
412,
166,
191,
65497,
166,
27,
271,
91,
65483,
65511,
30,
135,
65497,
65491,
60,
65341,
65530,
65466,
195,
65532,
65505,
65333,
65265,
65393,
65418,
65299,
65473,
8,
148,
65496,
65488,
63,
26,
24,
65447,
65384,
65242,
65440,
46,
65512,
65510,
65443,
65363,
65437,
0,
65468,
65408,
65393,
65481,
65470,
4,
65507,
65512,
17,
1,
1,
65534,
65456,
58,
25,
65478,
17,
65456,
43,
65469,
65443,
35,
81,
65494,
64,
65479,
65513,
65488,
57,
65485,
65508,
65462,
35,
65471,
8,
8,
33,
46,
65472,
65397,
65519,
42,
28,
65494,
19,
65519,
65464,
15,
65469,
45,
65459,
65485,
65450,
65437,
159,
65166,
65125,
64925,
65246,
65499,
119,
65233,
64875,
64983,
64913,
65253,
65506,
65327,
65262,
65199,
65272,
65465,
65513,
65490,
65394,
65530,
65534,
65411,
33,
65423,
65457,
65457,
34,
65481,
65438,
62,
65501,
65520,
31,
44,
131,
355,
268,
474,
65490,
39,
136,
69,
286,
284,
222,
99,
80,
177,
210,
159,
110,
37,
130,
264,
65512,
151,
57,
37,
65472,
54,
65504,
65412,
65512,
65505,
65471,
65418,
17,
65431,
13,
65347,
1,
33,
28,
65517,
65518,
65413,
84,
65525,
27,
65426,
65432,
65472,
65526,
49,
65449,
65531,
65501,
65518,
65502,
65479,
65430,
113,
29,
65523,
65504,
45,
65434,
54,
50,
62,
65469,
65492,
65521,
33,
65456,
71,
65520,
65531,
65495,
106,
65519,
65534,
104,
36,
23,
154,
65502,
44,
85,
65460,
55,
65455,
41,
62,
15,
37,
65466,
65411,
35,
94,
78,
4,
65437,
65472,
65394,
42,
65468,
65463,
65455,
37,
65507,
65445,
65532,
65378,
65308,
65025,
65145,
65496,
65493,
65349,
65119,
65028,
65118,
65327,
65529,
65299,
65237,
65211,
65350,
65394,
65505,
65413,
65441,
65488,
65419,
65410,
65472,
65466,
101,
65515,
65496,
65379,
65447,
65452,
88,
65442,
46,
65477,
376,
297,
372,
229,
132,
106,
186,
61,
122,
62,
264,
224,
95,
116,
65534,
95,
65483,
76,
65400,
65445,
65472,
13,
8,
68,
65357,
65487,
71,
11,
65453,
65386,
65452,
65435,
65292,
65236,
65250,
65428,
65466,
65286,
65291,
65292,
65146,
65361,
65464,
65321,
65007,
64971,
65038,
65477,
65455,
65313,
65164,
65209,
65108,
65290,
38,
65440,
65393,
65411,
65439,
65412,
51,
65534,
65516,
65520,
65425,
65492,
16,
88,
103,
65529,
65470,
65503,
14,
169,
307,
235,
229,
69,
25,
81,
164,
311,
192,
239,
97,
11,
39,
95,
47,
351,
6,
90,
107,
65479,
65515,
91,
162,
71,
102,
36,
9,
170,
296,
76,
21,
65517,
24,
169,
19,
235,
242,
192,
231,
76,
65467,
65389,
65522,
65482,
65480,
65517,
68,
86,
65423,
65469,
65466,
65528,
65533,
65516,
65495,
65482,
65431,
30,
65417,
65399,
65453,
65400,
65508,
65488,
13,
65450,
22,
56,
96,
65454,
65239,
65517,
150,
135,
246,
65535,
65375,
85,
132,
69,
330,
65456,
65433,
115,
82,
65435,
34,
65322,
65384,
56,
91,
85,
132,
65348,
65455,
65422,
118,
23,
98,
65456,
65442,
65520,
11,
138,
65460,
65321,
65501,
141,
111,
122,
48,
65525,
65522,
49,
124,
173,
65502,
55,
65484,
143,
128,
65466,
54,
41,
37,
50,
60,
65404,
206,
146,
43,
16,
2,
197,
96,
30,
65507,
96,
163,
39,
104,
65528,
65532,
65408,
65183,
65229,
65297,
65342,
65421,
207,
183,
65486,
173,
136,
65437,
97,
65423,
122,
14,
65474,
65437,
65505,
65495,
127,
87,
65462,
1,
65321,
142,
67,
65406,
65359,
65497,
38,
1,
65363,
65448,
65468,
217,
343,
393,
509,
65478,
83,
168,
65477,
293,
157,
10,
65519,
125,
14,
122,
131,
113,
65517,
66,
147,
13,
180,
67,
65473,
65465,
118,
65430,
65421,
65383,
65489,
65289,
65378,
65211,
65305,
65401,
65446,
19,
65480,
65532,
65464,
30,
65459,
65494,
0,
65386,
65381,
65526,
65425,
65470,
65430,
65263,
65338,
17,
65493,
65485,
65424,
65435,
67,
27,
25,
76,
65473,
65440,
41,
65513,
65489,
17,
65522,
83,
43,
65489,
46,
65533,
123,
208,
153,
21,
65519,
30,
65443,
65464,
65460,
65462,
65498,
65477,
65430,
65494,
65510,
28,
13,
31,
65448,
65275,
65319,
65472,
113,
65492,
65526,
65435,
40,
80,
88,
47,
65472,
65476,
138,
115,
65508,
65247,
64901,
64925,
64794,
64975,
65313,
65235,
65343,
65164,
65219,
65269,
65288,
65427,
65288,
65475,
65372,
65393,
65265,
65379,
65503,
62,
65345,
65525,
65530,
65533,
25,
51,
65478,
65503,
21,
77,
65512,
65430,
65519,
86,
55,
63,
210,
184,
327,
233,
101,
21,
133,
174,
376,
126,
304,
1,
170,
100,
233,
122,
442,
40,
31,
57,
65516,
7,
199,
65491,
87,
121,
65507,
65480,
100,
206,
65518,
65461,
65419,
81,
123,
117,
65416,
18,
65486,
37,
123,
65377,
65406,
233,
120,
47,
65453,
65523,
163,
148,
5,
126,
17,
5,
10,
22,
65519,
137,
123,
94,
121,
65473,
65519,
218,
266,
373,
286,
108,
140,
89,
358,
65482,
120,
380,
209,
134,
142,
65474,
125,
134,
206,
16,
197,
107,
87,
174,
125,
80,
65521,
65492,
192,
65407,
144,
208,
18,
79,
54,
65501,
145,
65533,
65397,
65407,
65421,
27,
91,
65495,
0,
65444,
20,
119,
34,
94,
65463,
28,
65512,
48,
65473,
143,
125,
65499,
65508,
73,
63,
65502,
168,
12,
65497,
65534,
21,
120,
155,
113,
38,
66,
45,
78,
95,
229,
174,
116,
102,
88,
151,
174,
65093,
64849,
64688,
65039,
104,
68,
65210,
65093,
64979,
65156,
65452,
65439,
65375,
65463,
65401,
65450,
65333,
65393,
65442,
79,
65461,
65513,
65426,
65337,
65331,
5,
65439,
65520,
65378,
65410,
65386,
65356,
65464,
65436,
141,
129,
40,
65412,
53,
65516,
79,
68,
65503,
65496,
65370,
65433,
65522,
65513,
65495,
65530,
65404,
65410,
65529,
65506,
65497,
65472,
65443,
21,
56,
65491,
2,
65483,
48,
65451,
4,
65519,
29,
65446,
65508,
67,
65473,
65325,
65215,
65023,
64896,
65263,
65315,
76,
114,
82,
56,
144,
30,
45,
127,
44,
24,
65522,
47,
65500,
65320,
65514,
65340,
65391,
65497,
65532,
65395,
65484,
65364,
65281,
65468,
86,
65513,
65466,
65331,
65499,
65475,
65476,
396,
429,
350,
335,
93,
22,
341,
263,
203,
357,
155,
65522,
202,
176,
56,
62,
112,
65511,
68,
2,
65533,
111,
65,
65455,
65521,
65481,
5,
31,
65379,
65287,
65463,
39,
65371,
65496,
65312,
108,
65287,
65330,
65139,
65220,
65290,
84,
65495,
65237,
65274,
65275,
65432,
65476,
65422,
65497,
65344,
65345,
65399,
65392,
65394,
65444,
65416,
65418,
65488,
65446,
65483,
22,
44,
65440,
65369,
65400,
56,
65442,
65421,
65510,
5,
65513,
73,
19,
65470,
65481,
25,
39,
65503,
65494,
65469,
65497,
65515,
65456,
65497,
65466,
65428,
65523,
65530,
46,
65519,
13,
65477,
65486,
65439,
77,
39,
65515,
65503,
1,
73,
38,
78,
35,
48,
37,
9,
65415,
65167,
65110,
65224,
65395,
65361,
65453,
65268,
65261,
65458,
65445,
65474,
65449,
65491,
65470,
60,
69,
81,
0,
65513,
65518,
65414,
65422,
22,
65531,
65431,
65520,
65518,
65306,
65450,
65486,
65400,
65424,
65333,
17,
65330,
32,
65405,
65467,
65517,
65494,
45,
20,
0,
238,
111,
65517,
16,
65518,
38,
104,
16,
78,
94,
29,
72,
117,
72,
65464,
109,
65468,
353,
171,
119,
3,
65491,
65501,
65459,
0,
35,
65484,
65482,
65324,
202,
184,
657,
367,
12,
39,
65435,
161,
23,
190,
65394,
65445,
93,
164,
207,
56,
65322,
81,
111,
33,
65392,
39,
74,
27,
65427,
65366,
65446,
65490,
36,
8,
48,
71,
109,
77,
65521,
23,
65352,
65492,
32,
65528,
65387,
9,
65382,
7,
65528,
65531,
65373,
65430,
24,
48,
65458,
65354,
65514,
65401,
65463,
65409,
47,
65481,
65440,
44,
118,
105,
127,
39,
168,
111,
65481,
65335,
65345,
159,
205,
65439,
14,
22,
65449,
65526,
65503,
91,
77,
65479,
65495,
65471,
65443,
65509,
65532,
23,
65442,
60,
23,
65532,
65451,
65501,
64,
65479,
56,
5,
48,
19,
59,
65471,
34,
65450,
84,
65502,
79,
65481,
65471,
65454,
65305,
64983,
65217,
65228,
65279,
65478,
65049,
64897,
64880,
65175,
65393,
65423,
65195,
65052,
65203,
65224,
65398,
62,
65407,
65422,
65446,
65295,
65295,
65523,
65278,
65478,
65468,
65312,
65516,
65432,
65482,
4,
65512,
65432,
65326,
65527,
65470,
65471,
65432,
65427,
65487,
65465,
62,
34,
65464,
65435,
46,
124,
65401,
38,
65489,
65497,
30,
65525,
65498,
65515,
135,
65462,
77,
158,
85,
165,
41,
189,
72,
29,
173,
65516,
26,
24,
192,
63,
29,
145,
40,
40,
65504,
65454,
22,
154,
76,
65492,
65477,
87,
65427,
65513,
109,
70,
65523,
65534,
65460,
65528,
7,
65481,
90,
47,
32,
40,
65518,
65519,
65462,
65507,
65520,
65493,
61,
36,
65464,
65349,
212,
65535,
232,
181,
14,
65325,
39,
230,
155,
27,
65437,
65488,
223,
30,
78,
62,
65366,
65510,
35,
136,
65511,
119,
65324,
65521,
65452,
128,
28,
39,
65399,
65503,
53,
72,
62,
65381,
65337,
168,
157,
418,
296,
216,
55,
38,
65237,
65422,
65323,
65389,
65529,
65502,
37,
65402,
65362,
65477,
65451,
65494,
65449,
65374,
65324,
18,
18,
65478,
65470,
65142,
65144,
65286,
65525,
65437,
65445,
65445,
65522,
14,
54,
205,
223,
291,
218,
205,
65531,
143,
65496,
65471,
78,
22,
65488,
142,
59,
101,
61,
222,
65499,
51,
65497,
41,
65503,
126,
127,
139,
65414,
6,
12,
65491,
65491,
222,
212,
111,
43,
63,
60,
9,
385,
438,
540,
346,
90,
85,
361,
487,
457,
124,
191,
18,
231,
147,
238,
360,
201,
57,
82,
174,
119,
60,
134,
47,
65437,
48,
30,
65495,
65516,
65375,
65404,
65342,
65445,
65451,
65409,
65391,
65391,
57,
80,
69,
65392,
284,
254,
335,
290,
210,
117,
315,
65484,
111,
76,
65464,
269,
212,
65423,
65345,
65496,
65512,
276,
65489,
306,
273,
317,
65531,
65384,
65443,
65378,
65373,
65337,
65329,
65464,
65464,
65447,
65514,
41,
29,
19,
69,
65523,
54,
65441,
74,
65465,
11,
34,
44,
65463,
65524,
65491,
17,
65441,
50,
65468,
65462,
65459,
67,
12,
65529,
65443,
2,
63,
65474,
65488,
65529,
65443,
72,
49,
65512,
65521,
49,
51,
65532,
27,
65472,
65497,
39,
25,
65479,
24,
8,
61,
114,
59,
65397,
29,
18,
70,
65527,
65497,
65510,
65468,
65447,
65436,
1,
65483,
72,
14,
55,
65526,
40,
65462,
19,
28,
65444,
65419,
65420,
65378,
27,
110,
21,
65467,
65467,
65350,
65405,
12,
65470,
65460,
65532,
2,
70,
14,
65460,
0,
65512,
72,
205,
2,
65481,
65480,
41,
60,
114,
101,
65491,
65491,
65436,
37,
124,
65478,
65404,
65357,
56,
206,
306,
134,
65436,
65442,
56,
243,
202,
65447,
46,
65478,
183,
274,
70,
65496,
94,
137,
136,
48,
89,
65380,
6,
65360,
65367,
65504,
91,
65492,
26,
44,
132,
38,
65478,
65514,
20,
65284,
64994,
64983,
65258,
63,
10,
65352,
65398,
65323,
65478,
65319,
65488,
65402,
28,
85,
65511,
65302,
65496,
65387,
26,
9,
65431,
65323,
65398,
65324,
65354,
72,
65438,
65364,
65459,
65334,
65363,
65396,
65378,
65402,
65525,
65485,
184,
78,
105,
65532,
126,
65526,
173,
65489,
65366,
51,
65489,
65329,
65471,
65451,
65512,
65419,
65451,
65391,
65490,
46,
0,
65490,
65518,
44,
45,
58,
1,
29,
48,
65492,
49,
18,
65510,
53,
43,
171,
153,
164,
115,
71,
65463,
100,
289,
240,
292,
3,
65491,
159,
242,
208,
274,
238,
65462,
167,
65404,
65494,
7,
115,
53,
104,
65507,
41,
65527,
24,
83,
80,
65432,
65418,
18,
61,
55,
57,
65395,
65421,
65508,
65429,
65503,
65393,
65475,
20,
65426,
127,
65443,
65425,
65525,
33,
65405,
78,
65504,
9,
9,
65449,
65450,
7,
65491,
193,
151,
63,
101,
65460,
4,
26,
34,
65456,
65408,
65497,
22,
41,
65379,
65510,
64,
65497,
65528,
65508,
65518,
139,
169,
105,
65521,
65487,
46,
212,
162,
0,
65443,
65370,
34,
238,
47,
65435,
65521,
65499,
65519,
65411,
69,
81,
57,
5,
49,
65466,
65440,
65460,
50,
543,
723,
733,
478,
125,
6,
390,
691,
731,
512,
59,
65526,
606,
408,
239,
334,
245,
14,
241,
86,
97,
207,
137,
65504,
65470,
65475,
60,
77,
27,
65410,
65483,
18,
222,
65515,
41,
65245,
65190,
65134,
65064,
65387,
65314,
65339,
65345,
65469,
4,
19,
65450,
65370,
110,
65437,
65479,
65403,
65433,
65419,
65529,
65524,
141,
65450,
65359,
12,
85,
60,
65454,
40,
22,
63,
5,
22,
29,
50,
12,
114,
113,
65494,
65410,
65485,
65440,
2,
156,
65515,
65489,
26,
25,
15,
19,
19,
49,
17,
65522,
65457,
45,
65463,
103,
140,
65315,
65445,
3,
77,
65443,
65491,
65534,
65454,
65489,
15,
65386,
65451,
65429,
22,
65402,
65518,
65421,
65405,
65491,
65451,
65,
65526,
65387,
65445,
67,
117,
16,
11,
32,
178,
87,
65530,
69,
60,
125,
91,
31,
10,
3,
65379,
65416,
58,
104,
108,
65514,
65461,
65522,
65498,
65471,
65463,
65259,
65173,
65503,
161,
30,
65474,
65204,
65056,
65221,
65485,
65443,
49,
65191,
65206,
65383,
65213,
65404,
65496,
65466,
65380,
65484,
26,
65415,
56,
65424,
7,
102,
65512,
65379,
65481,
9,
65473,
65440,
39,
65434,
43,
43,
65490,
65372,
8,
65447,
97,
28,
65472,
65419,
65521,
65382,
4,
65441,
23,
65455,
65495,
65320,
65482,
65377,
65440,
38,
92,
65455,
65507,
39,
65491,
65489,
65531,
74,
65521,
19,
65532,
108,
48,
80,
65511,
65530,
0,
65,
66,
55,
65491,
65481,
128,
97,
102,
65484,
65534,
65534,
138,
9,
65449,
65448,
65470,
65480,
87,
21,
29,
25,
65442,
65472,
53,
34,
26,
137,
68,
67,
49,
90,
65503,
65523,
65533,
65531,
65409,
65348,
65396,
65347,
65467,
65433,
65337,
65154,
65382,
65441,
65524,
65328,
65130,
65198,
65327,
65408,
19,
65362,
65306,
65455,
65289,
65482,
65444,
65420,
65315,
95,
65490,
65497,
52,
65491,
86,
16,
65494,
65444,
65,
79,
65490,
47,
65434,
65491,
65486,
10,
18,
65429,
44,
65474,
65511,
65433,
65491,
65478,
65466,
34,
63,
65467,
65532,
65535,
65514,
65487,
65489,
8,
65521,
65491,
65489,
65520,
65534,
12,
65451,
65438,
27,
65521,
321,
291,
344,
722,
331,
406,
274,
196,
348,
612,
547,
322,
193,
433,
234,
249,
513,
340,
63,
229,
255,
172,
250,
284,
12,
65468,
65369,
161,
161,
117,
109,
65373,
65466,
65530,
65402,
65453,
65390,
65152,
65008,
65294,
65421,
65459,
65345,
65528,
65523,
199,
213,
27,
65392,
178,
111,
98,
235,
65412,
65431,
65506,
65532,
147,
64,
65412,
207,
69,
65383,
65420,
149,
43,
202,
85,
124,
112,
60,
207,
145,
4,
56,
65533,
65445,
65317,
96,
65476,
122,
65476,
65368,
266,
90,
65466,
14,
51,
65316,
65475,
65529,
65482,
65402,
65491,
76,
95,
65384,
65446,
41,
53,
65331,
65337,
65337,
65481,
65441,
65322,
65516,
65485,
65525,
132,
85,
50,
2,
131,
65534,
65409,
65454,
65429,
65521,
65534,
65421,
65400,
65437,
65386,
65459,
65498,
65436,
65443,
65459,
65414,
65354,
65485,
6,
40,
65401,
65485,
84,
68,
41,
65515,
65507,
77,
8,
65497,
65415,
64896,
64979,
64889,
65120,
65453,
65456,
65137,
65155,
65188,
64993,
65317,
65393,
65301,
65246,
65248,
65232,
65246,
65355,
65528,
88,
65406,
65441,
65450,
65479,
65493,
65398,
65512,
65514,
65468,
2,
65351,
65426,
65457,
65518,
96,
65475,
52,
65,
174,
20,
104,
65505,
8,
208,
408,
292,
65516,
65523,
65468,
124,
121,
141,
65403,
65510,
65484,
65476,
65325,
65466,
65518,
65477,
52,
92,
93,
195,
83,
65505,
65503,
58,
95,
65435,
65447,
28,
65390,
65461,
65486,
9,
65516,
65512,
65514,
65520,
65505,
65525,
51,
1,
65495,
65502,
47,
65511,
65496,
65450,
31,
65517,
8,
65498,
9,
65506,
26,
65469,
65460,
26,
65473,
44,
65497,
65429,
38,
65523,
10,
65472,
65486,
65479,
65397,
4,
13,
65451,
11,
88,
55,
131,
3,
65470,
134,
192,
180,
135,
65472,
65473,
26,
7,
65506,
65418,
65444,
35,
65471,
65395,
65476,
94,
125,
299,
65523,
107,
182,
146,
143,
65462,
65095,
64965,
65012,
65016,
65360,
65508,
65147,
64912,
64862,
65175,
65334,
65513,
65286,
65194,
65298,
65350,
65346,
65506,
65449,
65408,
65461,
29,
131,
65482,
65525,
65363,
62,
43,
177,
65530,
0,
46,
28,
141,
93,
65474,
65288,
65314,
109,
65479,
65451,
65498,
65244,
65430,
65428,
65461,
65330,
23,
65312,
65388,
65458,
65366,
9,
13,
65341,
65391,
65383,
65414,
65344,
122,
61,
33,
137,
159,
65512,
50,
131,
70,
171,
21,
65488,
65435,
65260,
65174,
65407,
65342,
65417,
65302,
0,
65301,
65468,
115,
58,
65366,
65533,
10,
69,
112,
65446,
65269,
65500,
65461,
127,
73,
65516,
65502,
65377,
65421,
65383,
65482,
65529,
65454,
65437,
53,
65459,
65400,
65403,
7,
77,
111,
391,
165,
96,
88,
65462,
96,
218,
79,
159,
65401,
65515,
65344,
65501,
27,
4,
65495,
65347,
65489,
65516,
65522,
65459,
43,
35,
65534,
65531,
65496,
61,
65465,
65424,
57,
57,
74,
65477,
74,
65393,
64997,
64964,
65209,
39,
65457,
65353,
65319,
65235,
65336,
65367,
65419,
65382,
65517,
65521,
65444,
65230,
65468,
65419,
17,
65525,
65415,
65254,
65379,
65398,
65426,
65514,
65366,
65334,
65419,
65406,
65334,
65321,
65385,
65377,
