memory_initialization_radix=10;
memory_initialization_vector =
65363,
65310,
65453,
65324,
65438,
65,
65313,
65419,
65420,
65491,
65521,
17,
65401,
65490,
54,
65475,
65510,
65421,
65499,
65424,
133,
65532,
65529,
65439,
65320,
65440,
43,
109,
65491,
65446,
65226,
65472,
65428,
0,
65405,
65421,
65407,
65414,
65402,
65472,
65488,
65441,
92,
65480,
29,
65461,
65340,
65522,
78,
47,
65459,
65401,
65434,
65452,
102,
65397,
65526,
65451,
65366,
65483,
65429,
65432,
65355,
65331,
65436,
65517,
65421,
65428,
65479,
65410,
65465,
85,
65469,
129,
34,
65469,
65409,
48,
73,
136,
65515,
87,
65469,
37,
103,
64,
65481,
65328,
65404,
0,
65464,
72,
65532,
65505,
65504,
65465,
66,
65461,
65529,
65506,
59,
65488,
65450,
107,
20,
142,
65528,
53,
65502,
65443,
65394,
65515,
65461,
65526,
5,
65384,
65380,
65465,
18,
65386,
65484,
65522,
65450,
65505,
65528,
65523,
65492,
65487,
65535,
65439,
51,
65450,
65511,
65399,
65258,
65346,
65350,
65484,
65529,
65418,
65459,
65302,
65372,
65430,
65465,
52,
65453,
65457,
84,
65512,
38,
65472,
65512,
22,
58,
65452,
65502,
65508,
65471,
65525,
65473,
75,
65460,
65478,
70,
65488,
50,
90,
65482,
13,
65497,
39,
65526,
37,
65,
30,
65493,
82,
65463,
65487,
65453,
65372,
65466,
65371,
65496,
65403,
65429,
65443,
65438,
65450,
65480,
65426,
65530,
65483,
65397,
65460,
65426,
65386,
65467,
65368,
65438,
65521,
65511,
65366,
65429,
65216,
65167,
65209,
65366,
65479,
54,
65337,
65351,
65306,
65474,
65535,
65395,
65371,
65487,
2,
0,
65429,
28,
65484,
126,
102,
65448,
65479,
11,
65443,
65498,
65487,
65334,
65472,
65491,
65397,
65505,
65298,
65317,
65433,
65429,
65466,
65386,
65370,
65293,
65513,
65483,
65534,
65388,
65391,
65455,
65518,
65403,
65370,
65340,
65178,
65280,
65535,
65408,
65299,
65388,
65445,
65415,
63,
65459,
65267,
65532,
65376,
65532,
29,
65519,
65419,
4,
65502,
69,
65525,
13,
196,
61,
72,
0,
35,
65469,
13,
65388,
23,
6,
65452,
194,
96,
170,
71,
212,
184,
174,
57,
14,
65501,
77,
26,
162,
65511,
44,
18,
65445,
82,
108,
65483,
18,
65502,
65429,
203,
152,
79,
65495,
7,
51,
95,
100,
80,
142,
187,
157,
198,
65507,
65485,
65322,
65256,
65377,
47,
65510,
78,
65317,
65338,
65406,
65351,
65468,
121,
65486,
65369,
65434,
65352,
65495,
65419,
65503,
65428,
65501,
28,
65499,
45,
28,
197,
65510,
9,
65499,
14,
89,
182,
26,
65534,
72,
65500,
65445,
65441,
65519,
38,
37,
12,
15,
24,
65457,
77,
11,
65519,
4,
7,
59,
51,
65455,
7,
65502,
65427,
64,
65506,
49,
21,
65464,
2,
65498,
65528,
15,
58,
9,
34,
58,
20,
65325,
65215,
65225,
65238,
65350,
65471,
65392,
65167,
65157,
65154,
65204,
65462,
65276,
65343,
65382,
65278,
65326,
65384,
65325,
65414,
65319,
65473,
3,
65515,
65450,
65498,
65352,
23,
65500,
65422,
65422,
65403,
65471,
65422,
65374,
65370,
19,
65404,
65353,
65261,
65318,
65486,
65531,
8,
65428,
65534,
65503,
65437,
38,
124,
65362,
65535,
24,
65495,
65444,
217,
27,
36,
65398,
37,
78,
212,
183,
235,
130,
141,
65475,
124,
124,
181,
31,
65478,
65532,
18,
374,
196,
165,
149,
56,
65355,
47,
68,
199,
262,
15,
65529,
65498,
131,
38,
256,
65490,
35,
18,
65431,
65495,
34,
65443,
65403,
65474,
65217,
65371,
65435,
10,
65454,
29,
65483,
65510,
27,
91,
72,
48,
108,
65500,
71,
107,
171,
33,
81,
65462,
119,
100,
177,
38,
90,
69,
65534,
148,
53,
144,
65535,
65513,
181,
158,
143,
175,
261,
171,
197,
68,
145,
142,
149,
85,
89,
65512,
64,
64,
48,
65525,
65456,
64,
65510,
110,
147,
44,
65420,
97,
65524,
251,
179,
134,
3,
65464,
63,
193,
40,
188,
21,
65484,
57,
8,
65505,
93,
65505,
65512,
65477,
44,
65529,
65454,
65462,
41,
65450,
65535,
65446,
65485,
65514,
33,
65526,
65477,
65535,
65463,
65452,
65517,
25,
65384,
65500,
65516,
48,
65442,
65392,
65414,
65463,
65429,
65525,
65521,
65452,
65520,
65483,
65356,
29,
65,
65531,
65497,
65421,
0,
65474,
41,
103,
308,
342,
163,
136,
156,
65518,
216,
327,
65515,
194,
65517,
285,
165,
100,
167,
414,
65442,
206,
65320,
50,
65501,
103,
65476,
65271,
65415,
65273,
65338,
65467,
65414,
65514,
65422,
65428,
65453,
38,
65434,
65329,
65358,
65490,
65485,
70,
65525,
53,
33,
65491,
65429,
33,
65534,
65518,
196,
152,
65471,
65416,
51,
163,
114,
65494,
45,
38,
223,
234,
236,
203,
156,
19,
130,
84,
351,
186,
109,
56,
65521,
21,
195,
64,
65517,
161,
65420,
27,
101,
73,
201,
44,
105,
12,
128,
192,
206,
65520,
65499,
100,
85,
236,
303,
65468,
65328,
65452,
112,
157,
26,
65516,
65253,
65462,
81,
65496,
65377,
65359,
65312,
65219,
65129,
65231,
65277,
65421,
65284,
65025,
65222,
65314,
65358,
65335,
65155,
65256,
65399,
65341,
65322,
65489,
65268,
65400,
65273,
65334,
65504,
65461,
65393,
65505,
65417,
65507,
39,
6,
65504,
65302,
65479,
65490,
65490,
65410,
17,
134,
215,
65505,
65492,
65494,
53,
43,
65525,
65436,
65513,
65530,
8,
65517,
65486,
65514,
65511,
65472,
65492,
114,
65442,
31,
65390,
16,
183,
273,
134,
65481,
81,
48,
151,
41,
46,
196,
158,
95,
65403,
65521,
105,
169,
50,
65366,
65245,
65493,
65413,
65408,
20,
65403,
65395,
65426,
126,
65523,
113,
9,
65414,
75,
112,
65464,
57,
65387,
65492,
65440,
22,
65446,
65485,
65501,
65506,
65292,
65356,
65420,
65510,
65348,
178,
185,
40,
19,
28,
65441,
65,
27,
65509,
51,
65431,
65374,
65456,
65524,
35,
65406,
65391,
129,
65528,
143,
216,
12,
65505,
87,
7,
117,
148,
113,
122,
9,
86,
148,
37,
65525,
65497,
65469,
65361,
65282,
65219,
65406,
65490,
65455,
65508,
65358,
65390,
65435,
65462,
65420,
5,
152,
65524,
62,
65515,
65424,
7,
65465,
65526,
65426,
65527,
65526,
65485,
29,
102,
164,
65509,
65439,
29,
65512,
22,
43,
108,
65497,
179,
295,
400,
206,
24,
120,
140,
140,
133,
29,
38,
65432,
15,
170,
196,
147,
65524,
65487,
65489,
146,
65419,
30,
159,
65469,
3,
65501,
65339,
65350,
65490,
25,
65487,
65514,
65425,
65440,
65506,
65512,
65438,
65413,
65177,
65161,
65375,
65532,
65416,
65483,
65378,
65299,
41,
65462,
65459,
39,
23,
30,
41,
65487,
30,
58,
61,
16,
65454,
60,
125,
141,
157,
181,
16,
65529,
76,
65465,
118,
74,
33,
66,
65488,
65466,
65390,
65285,
65356,
65412,
65475,
92,
65445,
65457,
65464,
65491,
33,
76,
118,
61,
171,
55,
65516,
228,
244,
140,
186,
35,
65414,
48,
104,
109,
96,
65476,
65524,
34,
157,
65532,
74,
65522,
7,
58,
63,
73,
65503,
86,
65529,
34,
23,
85,
65474,
65484,
65458,
52,
65513,
0,
68,
65511,
65444,
80,
30,
65446,
74,
21,
65528,
65459,
65490,
65431,
65467,
6,
76,
65504,
65493,
65463,
65451,
65463,
65431,
65288,
65296,
65225,
65349,
12,
65359,
65221,
65130,
65201,
65276,
65434,
65350,
65388,
65318,
65342,
65349,
22,
65420,
65196,
65327,
65463,
65511,
65447,
65465,
65493,
65404,
70,
65497,
65445,
65379,
65425,
15,
65419,
65422,
65502,
65478,
92,
65458,
65486,
45,
65521,
65510,
45,
1,
65469,
65436,
65526,
65468,
42,
65481,
65522,
0,
65446,
65468,
45,
28,
9,
65465,
65474,
65453,
56,
65479,
10,
65527,
65522,
65510,
28,
65466,
85,
65488,
65510,
65391,
65317,
65251,
65303,
65428,
65452,
65447,
65371,
65438,
65277,
65532,
4,
65408,
65409,
140,
65466,
68,
65449,
65441,
37,
38,
115,
19,
26,
31,
47,
86,
52,
79,
65524,
27,
65465,
20,
146,
9,
65386,
40,
75,
91,
65528,
28,
55,
27,
65530,
49,
65477,
42,
65477,
65482,
65502,
65440,
21,
20,
65526,
65457,
65516,
65529,
65419,
65433,
65531,
19,
27,
65509,
65462,
79,
71,
65501,
65496,
65500,
23,
65487,
4,
4,
65397,
65313,
65377,
65391,
17,
65386,
65392,
65433,
65225,
65435,
65464,
65525,
38,
65485,
24,
75,
65525,
53,
48,
142,
171,
46,
5,
65405,
91,
137,
65508,
134,
65534,
53,
65432,
109,
65517,
89,
65477,
65483,
65419,
65421,
65430,
65486,
65463,
65523,
65477,
0,
65495,
65419,
65434,
9,
118,
12,
10,
32,
57,
65458,
170,
2,
65472,
104,
117,
105,
149,
316,
135,
148,
144,
115,
182,
198,
219,
1,
98,
65477,
65319,
65271,
65197,
65276,
65469,
8,
65194,
65279,
65435,
65432,
29,
65369,
65383,
69,
65387,
9,
65342,
65535,
65253,
156,
63,
31,
65480,
65396,
65472,
65487,
65350,
65447,
14,
65534,
65385,
65478,
65362,
65436,
65451,
65435,
65518,
35,
65518,
65422,
65464,
65493,
65497,
33,
70,
65510,
65507,
65519,
65345,
65372,
65455,
65444,
65513,
65488,
65437,
65460,
4,
65468,
65427,
11,
65470,
65452,
65473,
65436,
65474,
65520,
65504,
22,
65474,
65528,
0,
7,
65419,
65234,
65375,
65442,
22,
47,
35,
65368,
65449,
205,
65501,
191,
62,
86,
65429,
65424,
65289,
33,
65515,
49,
127,
195,
10,
65380,
45,
116,
447,
155,
41,
36,
65443,
114,
69,
51,
42,
65497,
65453,
65478,
65392,
65514,
65517,
65454,
65359,
65282,
65451,
65470,
65514,
65486,
65384,
65413,
65338,
65335,
65501,
65429,
65381,
65470,
41,
65385,
1,
65515,
65471,
65527,
65415,
65471,
65535,
65515,
3,
65450,
65393,
65442,
65469,
65494,
268,
323,
440,
130,
128,
65450,
65464,
13,
159,
65398,
29,
65424,
65477,
149,
65351,
65269,
80,
65492,
66,
49,
65414,
65399,
5,
65530,
65395,
65530,
65308,
65351,
65512,
65419,
65447,
65475,
65367,
65510,
65471,
17,
60,
65506,
65471,
2,
88,
65481,
65465,
68,
7,
65491,
4,
47,
65505,
65506,
66,
65505,
36,
11,
65442,
65475,
65508,
65530,
55,
65479,
6,
65509,
36,
8,
65445,
85,
55,
65461,
65479,
65462,
18,
65474,
65240,
65364,
65203,
65360,
65533,
65375,
65299,
65264,
65348,
65383,
44,
65244,
65437,
65349,
65313,
65392,
65527,
65378,
65451,
65353,
65478,
65497,
97,
65530,
71,
94,
159,
42,
47,
28,
65478,
65493,
101,
39,
65419,
102,
81,
335,
359,
207,
103,
161,
378,
203,
117,
150,
67,
169,
210,
73,
88,
2,
65507,
150,
103,
8,
75,
232,
184,
58,
65486,
63,
95,
139,
186,
124,
207,
148,
105,
212,
193,
65487,
65445,
212,
9,
102,
33,
65529,
65467,
65480,
65329,
57,
65408,
65497,
65441,
65525,
84,
187,
65460,
154,
68,
233,
178,
419,
40,
65480,
170,
335,
142,
199,
74,
130,
246,
253,
196,
160,
172,
65398,
65347,
65293,
65291,
65223,
65503,
65426,
65327,
65495,
65280,
34,
65431,
65465,
37,
72,
8,
65367,
65427,
19,
147,
160,
166,
88,
65535,
65440,
22,
65,
122,
65470,
65407,
65408,
68,
91,
36,
65492,
29,
65485,
65535,
65474,
65470,
65438,
45,
18,
73,
13,
65486,
40,
15,
57,
65459,
65513,
65445,
65445,
65489,
65464,
86,
65461,
9,
65457,
40,
65468,
65439,
65525,
65483,
0,
65477,
65469,
8,
65491,
65490,
1,
74,
65471,
65407,
65491,
46,
65471,
65470,
13,
65432,
65526,
65521,
96,
30,
65439,
65516,
93,
65519,
6,
65519,
65459,
65441,
65496,
65405,
65449,
65370,
27,
65486,
65373,
65508,
65528,
65471,
63,
5,
65518,
65507,
65477,
40,
10,
160,
214,
105,
9,
90,
65500,
28,
118,
248,
132,
79,
65513,
24,
68,
177,
211,
79,
65499,
109,
233,
182,
349,
65533,
65417,
65466,
62,
65529,
209,
65488,
65288,
65480,
53,
65509,
65535,
65436,
13,
112,
107,
103,
65485,
65501,
65521,
78,
36,
131,
65522,
65523,
52,
65366,
86,
65425,
65429,
65535,
65492,
41,
69,
65497,
65424,
65461,
65462,
65451,
65377,
65450,
20,
65473,
26,
65478,
16,
65495,
65431,
25,
72,
31,
65426,
72,
26,
65525,
65428,
38,
39,
65457,
65488,
87,
65527,
65459,
65483,
65527,
65507,
65468,
61,
64,
30,
65468,
10,
65490,
65519,
65398,
65496,
65475,
33,
65504,
65519,
40,
65485,
10,
65510,
65486,
65428,
65367,
65029,
65037,
65212,
65474,
4,
65322,
65228,
65287,
65412,
65425,
65412,
65435,
65392,
65462,
65535,
65361,
65438,
65532,
65495,
65495,
65510,
65429,
65481,
118,
65462,
148,
25,
65506,
65428,
65505,
59,
41,
24,
65533,
149,
228,
387,
316,
182,
65514,
62,
60,
34,
141,
28,
18,
65528,
252,
48,
65401,
101,
29,
65423,
92,
65459,
65407,
65530,
65414,
65457,
65482,
65385,
65407,
65403,
65386,
5,
65483,
65375,
65381,
65296,
65513,
59,
62,
65513,
65510,
65497,
65450,
65471,
65466,
65421,
65438,
27,
22,
65440,
65460,
15,
11,
65486,
50,
73,
0,
77,
65416,
10,
65498,
25,
65533,
34,
76,
48,
65473,
65492,
59,
44,
23,
65534,
65427,
82,
25,
65530,
73,
65468,
65481,
65482,
63,
148,
65505,
51,
76,
76,
67,
2,
31,
65493,
26,
97,
65526,
3,
65464,
49,
65532,
4,
9,
9,
28,
65485,
74,
77,
88,
62,
73,
80,
117,
65464,
20,
65265,
65275,
65398,
65535,
65430,
65302,
65218,
58,
65470,
24,
65359,
65274,
65494,
68,
13,
65411,
65420,
48,
65513,
65513,
17,
15,
65,
69,
44,
65451,
65478,
65516,
37,
65493,
65410,
65501,
65464,
65455,
23,
2,
12,
100,
65511,
11,
15,
65450,
65441,
160,
50,
146,
65493,
65518,
65435,
65515,
41,
107,
65521,
151,
65486,
65518,
65431,
65402,
65489,
65507,
23,
65330,
65430,
65435,
65524,
40,
116,
65423,
13,
65430,
65408,
65455,
65267,
65239,
65278,
65411,
65373,
65363,
65199,
65295,
65398,
65481,
65340,
65447,
65389,
65357,
65488,
65505,
65406,
65418,
65260,
65470,
65496,
50,
17,
65511,
119,
185,
162,
113,
5,
65473,
65521,
79,
65495,
65522,
48,
151,
65,
103,
264,
96,
204,
183,
21,
0,
65426,
153,
114,
65486,
140,
145,
65454,
61,
81,
18,
65527,
131,
65449,
96,
132,
98,
35,
51,
85,
81,
94,
199,
58,
135,
156,
98,
65516,
249,
152,
132,
81,
65528,
65529,
157,
44,
106,
65506,
90,
18,
65451,
34,
65473,
13,
65528,
28,
65423,
65464,
18,
65459,
65498,
24,
65452,
65526,
12,
98,
65445,
18,
14,
65491,
65473,
67,
65456,
57,
45,
170,
221,
97,
65455,
65466,
64,
35,
76,
130,
56,
23,
65530,
198,
102,
93,
65526,
65476,
14,
10,
65531,
65505,
65395,
65439,
7,
65455,
65289,
65420,
65485,
65426,
65448,
65360,
65299,
65367,
1,
47,
105,
162,
16,
60,
79,
65521,
118,
65483,
65506,
55,
36,
134,
83,
76,
138,
69,
52,
207,
68,
121,
321,
217,
194,
34,
136,
295,
354,
243,
89,
163,
126,
157,
159,
56,
218,
65482,
65368,
65351,
65360,
65427,
99,
65501,
37,
65474,
65506,
65433,
65507,
28,
74,
8,
37,
136,
65397,
65437,
65489,
245,
65501,
65535,
65483,
65449,
56,
65470,
149,
193,
65393,
11,
65377,
65485,
18,
65471,
36,
150,
300,
317,
195,
180,
109,
99,
108,
132,
298,
65394,
20,
130,
62,
65397,
65388,
65420,
56,
65327,
71,
65313,
65400,
65483,
65527,
65460,
65428,
65389,
65143,
65141,
65446,
65405,
65408,
65376,
65331,
65403,
65344,
18,
65470,
25,
65517,
46,
63,
44,
65527,
22,
15,
42,
65519,
65460,
65434,
65431,
65506,
4,
15,
65398,
65521,
94,
65470,
65427,
65524,
75,
74,
35,
102,
15,
65516,
14,
43,
16,
16,
65520,
34,
89,
67,
77,
65492,
65534,
65462,
65534,
27,
65528,
65458,
65302,
11,
0,
40,
65525,
65471,
101,
60,
8,
65325,
65444,
65474,
130,
49,
65521,
65437,
65515,
65519,
65478,
85,
36,
54,
34,
45,
14,
108,
65305,
65311,
65262,
65384,
65390,
65380,
65415,
65249,
65339,
65420,
29,
65503,
65396,
142,
65430,
65417,
65521,
65457,
65464,
65410,
65451,
65443,
68,
65533,
65519,
65298,
65331,
65444,
65333,
65535,
65390,
65507,
65394,
65336,
65358,
65509,
195,
261,
222,
254,
207,
214,
223,
168,
90,
93,
147,
61,
134,
37,
32,
257,
95,
161,
87,
76,
61,
33,
65488,
71,
41,
65466,
65479,
65369,
112,
159,
81,
48,
65508,
65519,
18,
196,
103,
145,
174,
239,
89,
14,
234,
229,
93,
56,
95,
23,
73,
62,
118,
144,
93,
93,
192,
73,
57,
49,
126,
24,
110,
41,
177,
65485,
65484,
111,
171,
225,
99,
88,
98,
253,
65496,
35,
288,
65516,
63,
65514,
28,
96,
65454,
75,
167,
65482,
32,
70,
106,
170,
108,
65525,
113,
215,
126,
116,
15,
65469,
65462,
190,
220,
104,
33,
24,
48,
65432,
81,
134,
84,
65479,
128,
50,
65524,
65446,
74,
65530,
109,
65530,
38,
17,
65440,
63,
119,
65426,
36,
56,
65395,
3,
78,
65423,
65458,
65513,
65452,
108,
117,
25,
90,
87,
162,
63,
76,
61,
130,
166,
139,
194,
65319,
65265,
65272,
65139,
65399,
65489,
65324,
65489,
65390,
65266,
65458,
65513,
65450,
65445,
65433,
65488,
65511,
65432,
65432,
20,
53,
65515,
6,
65460,
65393,
65481,
66,
191,
13,
65369,
65453,
65484,
104,
65487,
65401,
65345,
62,
65489,
65514,
113,
55,
65,
65515,
29,
65452,
65509,
40,
65495,
64,
65507,
65514,
10,
65534,
50,
44,
88,
180,
47,
45,
65495,
65487,
65531,
65422,
65309,
65360,
47,
65458,
2,
65410,
65385,
65453,
1,
65404,
65396,
65288,
65513,
65492,
65395,
188,
98,
398,
237,
73,
135,
62,
65511,
65444,
65413,
65427,
65400,
65433,
65296,
65416,
65289,
65359,
65473,
65452,
65390,
65286,
65220,
65360,
65428,
29,
65366,
65328,
65265,
65457,
11,
124,
216,
90,
279,
258,
79,
102,
94,
46,
27,
192,
157,
157,
65525,
75,
103,
138,
92,
79,
62,
34,
49,
65516,
8,
65508,
65484,
65508,
65443,
22,
10,
65377,
65459,
65487,
65456,
65471,
42,
65374,
65255,
65247,
65352,
65367,
65400,
65486,
65300,
65304,
65394,
65359,
65372,
65517,
65323,
65422,
65413,
65459,
65274,
65495,
65377,
32,
59,
65310,
65417,
65356,
65508,
65488,
77,
65375,
65381,
65526,
65421,
65504,
65454,
65409,
65381,
54,
81,
65440,
38,
47,
65461,
65492,
65497,
65467,
18,
42,
60,
65519,
65474,
65515,
65477,
65448,
52,
3,
11,
65460,
60,
77,
65526,
65519,
65482,
65438,
65440,
52,
16,
88,
65461,
65517,
23,
65440,
90,
65381,
65274,
65364,
65357,
65466,
65455,
65456,
65426,
65410,
65520,
65519,
65400,
65442,
65527,
65482,
65456,
65477,
65322,
65490,
65228,
65355,
65467,
65417,
65399,
65383,
65326,
65203,
65173,
65401,
65370,
65400,
65255,
65382,
65308,
65227,
65388,
65427,
65500,
27,
11,
65431,
65469,
65534,
65413,
65442,
65510,
45,
113,
157,
232,
200,
324,
204,
65509,
32,
35,
234,
184,
199,
65460,
5,
65443,
19,
65358,
58,
14,
65471,
65504,
65322,
65263,
9,
67,
65517,
273,
314,
249,
57,
65460,
65462,
84,
84,
189,
65414,
65500,
65523,
63,
46,
65475,
67,
121,
65328,
124,
163,
50,
150,
11,
59,
29,
65398,
65474,
8,
65449,
65534,
65454,
65436,
65509,
65444,
65479,
32,
65448,
65440,
65397,
1,
36,
21,
65430,
65493,
65416,
65407,
1,
30,
65393,
65512,
65488,
83,
65436,
65419,
65335,
112,
65521,
65410,
65529,
42,
26,
65385,
65297,
65415,
65522,
65489,
15,
65240,
65263,
65406,
65531,
65494,
65462,
65443,
9,
53,
65535,
65517,
65504,
65482,
8,
11,
65508,
21,
65527,
54,
65528,
3,
51,
65479,
65514,
46,
65462,
43,
65532,
65457,
65436,
65469,
54,
65521,
90,
61,
65,
74,
65459,
65496,
17,
65493,
65245,
65264,
65291,
65337,
65448,
65205,
65131,
65102,
65167,
65432,
1,
65263,
65312,
65376,
65317,
65240,
65372,
65423,
65269,
65449,
65296,
65423,
65486,
65456,
65482,
65375,
65524,
65440,
65515,
65443,
65357,
65403,
65410,
65431,
65398,
13,
52,
65335,
65504,
65523,
65510,
101,
165,
50,
65416,
65511,
26,
65515,
42,
68,
94,
65497,
48,
43,
163,
65530,
65507,
65399,
156,
104,
195,
14,
53,
65489,
2,
95,
195,
186,
56,
123,
65519,
111,
65521,
83,
65454,
65476,
65454,
7,
65500,
95,
65512,
65532,
65456,
40,
65473,
84,
53,
23,
65445,
50,
59,
39,
170,
87,
65523,
65436,
7,
52,
98,
86,
54,
65464,
9,
24,
65488,
101,
87,
65522,
106,
61,
152,
86,
29,
125,
288,
17,
167,
100,
65517,
73,
156,
347,
95,
37,
65464,
51,
97,
117,
65490,
65464,
125,
65478,
45,
29,
65324,
65480,
65478,
65499,
65516,
65455,
65472,
65425,
65447,
65475,
103,
128,
105,
97,
65513,
99,
205,
105,
62,
65441,
23,
69,
65431,
41,
65428,
65460,
65455,
8,
38,
65416,
65393,
65263,
65373,
65412,
65347,
65445,
65277,
65520,
65454,
65483,
65529,
65466,
6,
65462,
65499,
65529,
39,
65443,
65470,
27,
124,
131,
121,
22,
65498,
8,
5,
80,
102,
208,
65517,
65470,
121,
53,
95,
110,
7,
55,
126,
47,
270,
143,
247,
169,
130,
112,
184,
271,
257,
157,
144,
99,
231,
134,
280,
124,
171,
157,
286,
99,
48,
130,
86,
100,
111,
137,
127,
66,
65,
130,
186,
65497,
79,
65516,
50,
65423,
140,
66,
16,
65517,
65467,
65494,
65381,
65534,
65460,
19,
65523,
25,
62,
101,
65450,
65532,
65502,
65491,
65488,
65494,
132,
65479,
127,
65468,
138,
65371,
212,
65498,
100,
13,
74,
65516,
65480,
65455,
65521,
93,
31,
65328,
65287,
65388,
65459,
65435,
65466,
65500,
65244,
65413,
65459,
65511,
65456,
51,
41,
65507,
65482,
8,
70,
65504,
65466,
50,
65451,
60,
65497,
29,
65495,
65510,
65521,
97,
59,
65474,
65460,
65535,
65452,
65492,
65502,
65524,
40,
44,
65455,
35,
82,
65450,
29,
65448,
65462,
65455,
12,
69,
65464,
65464,
55,
19,
39,
55,
65505,
65434,
65532,
76,
65,
4,
65427,
65502,
65524,
77,
65473,
91,
13,
65532,
65500,
46,
97,
53,
65535,
65530,
65488,
17,
74,
65453,
37,
65479,
65511,
72,
65431,
65501,
65453,
65468,
48,
65486,
65473,
17,
65494,
65525,
65479,
21,
65499,
122,
41,
133,
65525,
65533,
21,
73,
111,
100,
39,
65433,
105,
51,
212,
134,
48,
65464,
65441,
2,
87,
69,
65510,
65493,
142,
96,
239,
146,
58,
65535,
123,
139,
64,
33,
65484,
65395,
65483,
33,
95,
40,
88,
65412,
77,
264,
65422,
65501,
86,
65498,
123,
153,
53,
81,
38,
65519,
55,
124,
103,
15,
65496,
65395,
65296,
65321,
65319,
65204,
65433,
65444,
65507,
65519,
65377,
65357,
65358,
65339,
164,
39,
45,
65514,
65445,
65407,
52,
135,
18,
71,
65421,
54,
65512,
96,
223,
65532,
65530,
65532,
61,
124,
13,
65468,
65345,
56,
68,
65478,
65474,
65412,
51,
26,
65486,
65428,
65505,
0,
65446,
65430,
65394,
65481,
65458,
65431,
88,
65494,
88,
8,
65490,
65306,
65503,
83,
54,
65464,
65393,
65434,
65426,
65520,
65522,
65414,
65338,
65464,
15,
65495,
211,
208,
113,
176,
88,
109,
207,
85,
163,
29,
34,
199,
79,
112,
51,
60,
77,
174,
159,
65495,
82,
73,
120,
197,
22,
65442,
65318,
65485,
65529,
82,
47,
65418,
65387,
21,
159,
65463,
65471,
65516,
65525,
65428,
65433,
52,
65331,
65411,
65390,
65497,
10,
50,
65457,
59,
65471,
22,
65458,
51,
65518,
65528,
192,
93,
65471,
44,
65413,
65418,
65439,
12,
65491,
65479,
65507,
65485,
65495,
65396,
4,
65532,
65506,
65528,
36,
35,
65508,
65438,
65398,
65493,
157,
167,
2,
65471,
65438,
65348,
91,
74,
96,
65525,
49,
32,
76,
131,
65524,
65467,
65489,
65471,
277,
180,
141,
73,
65443,
39,
71,
46,
20,
254,
242,
345,
358,
198,
124,
180,
129,
407,
188,
175,
79,
241,
244,
65523,
124,
93,
98,
133,
11,
65507,
65477,
174,
157,
82,
65522,
108,
65508,
92,
39,
92,
65527,
65460,
65524,
63,
230,
65422,
65369,
65334,
65485,
65431,
65410,
65369,
8,
65530,
65414,
65475,
65486,
88,
80,
65471,
65466,
20,
65283,
12,
65406,
32,
65446,
87,
65491,
65531,
94,
65399,
81,
11,
65487,
57,
65472,
126,
86,
115,
96,
20,
65462,
65326,
65516,
65431,
65470,
65462,
33,
65352,
65505,
65476,
65421,
65533,
42,
116,
65401,
65413,
65514,
65463,
22,
83,
65394,
65527,
34,
38,
21,
104,
62,
59,
9,
13,
65415,
65493,
65408,
65488,
7,
59,
65444,
65432,
65468,
65464,
65529,
65499,
170,
116,
65408,
4,
65470,
103,
97,
63,
41,
65520,
1,
165,
65501,
12,
65520,
39,
120,
22,
65521,
65514,
133,
179,
54,
93,
112,
75,
137,
96,
51,
65487,
65434,
65383,
99,
117,
58,
65493,
65284,
65515,
80,
75,
65483,
65416,
65276,
94,
65487,
65366,
32,
65374,
65404,
173,
73,
65386,
65409,
65404,
16,
70,
65293,
65416,
1,
65436,
65376,
65452,
65491,
65436,
65372,
75,
65437,
65465,
65458,
65455,
65530,
65485,
65427,
65315,
65422,
65462,
65442,
19,
136,
65415,
65483,
44,
65471,
93,
65,
58,
24,
65483,
98,
64,
63,
158,
76,
113,
120,
33,
176,
162,
86,
91,
40,
65508,
65535,
65409,
55,
65523,
65505,
75,
121,
65534,
65533,
65456,
65509,
18,
35,
136,
7,
20,
65526,
52,
65456,
175,
27,
65484,
61,
65475,
65493,
27,
25,
26,
14,
47,
79,
65509,
65486,
53,
79,
46,
132,
65377,
65492,
65505,
65523,
65454,
65404,
65340,
110,
65531,
65497,
65431,
65344,
102,
68,
74,
21,
65391,
5,
32,
170,
144,
65445,
65435,
65482,
65411,
65414,
65398,
65482,
38,
65528,
65382,
65481,
42,
65529,
65476,
28,
85,
65451,
65521,
65507,
65520,
65481,
24,
65468,
65439,
65467,
67,
58,
65526,
65484,
65497,
24,
65439,
41,
65512,
42,
2,
65459,
17,
65439,
65463,
22,
10,
69,
65447,
35,
28,
65514,
80,
65446,
104,
252,
528,
535,
318,
240,
211,
242,
405,
314,
180,
85,
213,
197,
239,
157,
239,
188,
40,
141,
58,
134,
240,
40,
36,
65468,
82,
65482,
25,
119,
164,
213,
221,
143,
71,
3,
65333,
65261,
65254,
65303,
65345,
9,
14,
111,
65513,
65503,
65409,
65450,
65516,
88,
57,
98,
73,
65385,
65399,
44,
107,
65232,
63,
40,
65491,
113,
118,
353,
163,
49,
168,
196,
258,
305,
144,
239,
21,
65237,
65237,
65313,
65465,
65500,
74,
65278,
65367,
65403,
20,
124,
107,
65434,
1,
65431,
65385,
54,
65444,
145,
65472,
65468,
65461,
65534,
65457,
65482,
65526,
162,
54,
65501,
65391,
65365,
65439,
65502,
96,
65390,
57,
34,
77,
44,
3,
65472,
65451,
65487,
55,
86,
63,
84,
65525,
65513,
65441,
65334,
65477,
73,
65523,
65482,
110,
65430,
65504,
65524,
65478,
65511,
65513,
65528,
65502,
34,
65458,
21,
38,
65494,
24,
93,
65298,
65211,
65140,
65215,
65281,
65478,
65292,
65364,
65239,
65181,
65394,
65514,
65502,
89,
65520,
65307,
65417,
65420,
65419,
10,
65528,
65531,
65535,
65302,
65390,
65511,
19,
65499,
65318,
65360,
65478,
65420,
65421,
44,
65459,
65404,
65503,
107,
241,
92,
18,
44,
44,
163,
150,
65501,
65422,
65481,
65485,
20,
65487,
223,
118,
74,
43,
56,
122,
88,
216,
3,
40,
27,
161,
65502,
65510,
27,
65508,
63,
63,
74,
37,
65534,
65493,
65438,
65441,
65490,
4,
65488,
65483,
65526,
47,
65491,
65481,
78,
6,
65497,
65516,
65428,
65436,
79,
65509,
34,
65528,
65493,
65435,
65439,
15,
31,
65441,
72,
65451,
46,
75,
65525,
22,
65458,
65467,
24,
65503,
34,
65516,
109,
65473,
53,
65490,
65530,
101,
174,
57,
65436,
65526,
186,
108,
0,
38,
6,
44,
181,
278,
44,
48,
20,
30,
137,
202,
156,
86,
179,
54,
155,
187,
86,
68,
11,
65455,
65267,
65069,
65070,
65356,
65479,
65507,
65440,
65356,
65288,
65478,
86,
65406,
65398,
65382,
65423,
65386,
57,
65470,
41,
48,
95,
65443,
65436,
82,
97,
65,
50,
65462,
65461,
65514,
134,
65453,
90,
40,
11,
65393,
50,
65502,
65446,
65394,
65463,
65379,
65254,
65224,
65201,
65338,
65412,
65365,
65434,
65455,
65448,
65344,
65375,
65373,
65350,
65456,
116,
63,
85,
11,
97,
25,
120,
98,
88,
75,
19,
65529,
111,
126,
78,
65450,
65404,
65522,
70,
214,
65532,
5,
65500,
35,
204,
261,
65399,
1,
58,
52,
82,
145,
65504,
65502,
134,
31,
65481,
83,
65453,
94,
65430,
23,
108,
111,
0,
44,
65489,
38,
223,
7,
20,
13,
200,
284,
207,
168,
28,
65486,
250,
47,
211,
65497,
65508,
65428,
65423,
86,
42,
65492,
141,
65510,
82,
172,
192,
240,
37,
65484,
65465,
205,
114,
65517,
69,
65465,
0,
126,
73,
12,
43,
65362,
65302,
65297,
65374,
65266,
65384,
65353,
65341,
65313,
65462,
65380,
65414,
65449,
25,
65451,
65523,
65502,
65370,
65488,
40,
111,
57,
65458,
65367,
65406,
97,
229,
121,
65505,
65369,
65449,
65450,
33,
65525,
65419,
65443,
