memory_initialization_radix=10;
memory_initialization_vector =
109,
65437,
65406,
65307,
65509,
40,
27,
65427,
65374,
65371,
65487,
65458,
39,
65420,
65312,
65429,
65528,
42,
65514,
65371,
3,
65519,
100,
65489,
65534,
65426,
65524,
67,
65428,
40,
65420,
65448,
65389,
65528,
65391,
34,
5,
65394,
65378,
65387,
65358,
65474,
65516,
65399,
11,
65441,
65463,
65488,
65454,
18,
65504,
65379,
65477,
65502,
65512,
65512,
62,
96,
65511,
65521,
65526,
65468,
65499,
65454,
65521,
65458,
65511,
65534,
65417,
45,
63,
65518,
237,
37,
65367,
65486,
65498,
46,
65529,
65494,
65523,
65428,
65431,
45,
65509,
75,
65433,
12,
65456,
46,
72,
65459,
65491,
65507,
65528,
22,
111,
65523,
57,
83,
65523,
9,
73,
65522,
19,
63,
65512,
26,
65407,
65423,
136,
65485,
65501,
65392,
65403,
56,
42,
57,
23,
65422,
65392,
65488,
65521,
65441,
65459,
65476,
65469,
56,
104,
65529,
65532,
65428,
65418,
0,
117,
65508,
65410,
65372,
65370,
1,
65371,
65323,
65501,
65279,
65531,
66,
65449,
65451,
65456,
65459,
65465,
74,
65488,
65493,
79,
55,
65494,
31,
65499,
56,
0,
38,
50,
65449,
65473,
70,
65446,
65514,
47,
65535,
65527,
53,
53,
75,
65445,
35,
79,
65445,
43,
65465,
119,
65490,
65465,
65394,
65372,
65509,
21,
65478,
65475,
65417,
65360,
65485,
49,
65412,
65393,
65485,
65455,
65459,
33,
65449,
64,
125,
65505,
2,
65535,
55,
16,
2,
50,
10,
16,
65478,
65512,
65515,
65473,
65529,
65463,
65497,
65437,
65401,
65408,
40,
65,
65495,
65487,
65455,
65436,
31,
65425,
65510,
120,
65512,
65430,
85,
65532,
65415,
31,
123,
65532,
157,
65499,
65480,
65514,
124,
65535,
65514,
65515,
65487,
65435,
65421,
13,
65532,
65427,
58,
45,
65517,
38,
18,
65440,
39,
0,
93,
35,
65492,
65531,
65511,
65517,
1,
65507,
60,
48,
65482,
127,
65485,
78,
107,
0,
82,
1,
103,
65485,
65459,
65385,
17,
47,
65462,
65515,
65482,
65465,
72,
161,
20,
65500,
65495,
19,
65498,
129,
65526,
13,
104,
65398,
49,
65512,
65516,
65462,
19,
65522,
65518,
30,
65444,
65488,
25,
65522,
51,
77,
16,
40,
50,
67,
45,
79,
65519,
65474,
21,
65485,
0,
65367,
65498,
65496,
65527,
28,
65461,
65446,
65396,
65472,
65499,
65491,
65498,
65452,
2,
34,
65457,
65450,
65421,
46,
65480,
65469,
11,
97,
57,
30,
65499,
90,
65473,
65515,
30,
13,
25,
62,
31,
65521,
48,
28,
15,
77,
65482,
46,
51,
65448,
21,
31,
39,
9,
7,
52,
65461,
52,
44,
65469,
37,
65496,
65486,
77,
65526,
65478,
65520,
65461,
91,
65478,
69,
82,
38,
69,
63,
38,
50,
65502,
65412,
65498,
76,
129,
65493,
17,
86,
25,
102,
7,
65507,
28,
70,
9,
65534,
65511,
65522,
70,
66,
64,
84,
24,
42,
20,
65469,
69,
56,
73,
85,
6,
36,
110,
92,
65471,
49,
65525,
15,
65511,
116,
58,
65533,
65526,
65455,
16,
121,
43,
66,
26,
65485,
104,
113,
29,
109,
71,
21,
119,
20,
21,
54,
65535,
65485,
65485,
3,
65497,
65423,
65462,
18,
65528,
120,
65533,
65482,
102,
16,
101,
133,
101,
18,
59,
14,
65476,
65448,
8,
34,
65469,
65456,
65426,
44,
200,
99,
65427,
6,
117,
151,
65532,
7,
65442,
65487,
65421,
65425,
65525,
65522,
65418,
65466,
65523,
65448,
65530,
65436,
23,
56,
122,
65528,
40,
65522,
65501,
115,
29,
72,
45,
113,
65527,
82,
54,
24,
40,
122,
65428,
65525,
56,
65533,
65467,
100,
65519,
50,
65407,
0,
65486,
65513,
65478,
5,
56,
26,
34,
60,
85,
65490,
52,
65527,
25,
65380,
65469,
65503,
65450,
65495,
65520,
65503,
65461,
62,
65531,
7,
69,
65455,
45,
65474,
46,
65442,
9,
65444,
65471,
65460,
65523,
2,
67,
61,
65491,
65512,
65436,
65472,
65440,
65446,
65509,
26,
18,
65512,
50,
82,
24,
65477,
27,
65470,
65431,
51,
65480,
65452,
71,
30,
65510,
12,
52,
51,
25,
65,
65533,
65454,
65495,
33,
65485,
43,
65496,
65503,
3,
65448,
65492,
27,
65501,
37,
114,
22,
217,
78,
21,
164,
46,
65534,
65492,
63,
76,
65535,
79,
82,
50,
120,
70,
15,
53,
9,
158,
45,
76,
65480,
16,
20,
3,
37,
81,
65483,
65392,
24,
65439,
65410,
65473,
65516,
106,
65506,
65324,
65419,
65503,
65421,
47,
65410,
65385,
65504,
65488,
2,
40,
65426,
65306,
65508,
65492,
65476,
42,
65432,
30,
65484,
65470,
65427,
65472,
65411,
65431,
65490,
41,
65406,
53,
6,
65525,
65450,
60,
62,
96,
20,
65427,
65386,
65489,
65451,
65515,
65439,
65406,
65349,
65355,
65444,
35,
65425,
65391,
65399,
65433,
65451,
65439,
65490,
65482,
0,
65522,
65488,
65375,
65529,
65452,
65518,
47,
65483,
65444,
65504,
65462,
120,
36,
20,
65354,
65408,
65487,
65497,
77,
65430,
31,
95,
169,
86,
35,
65455,
44,
65,
7,
65490,
65528,
65443,
65508,
16,
58,
130,
38,
5,
65493,
65477,
132,
88,
65532,
65436,
65508,
65518,
65504,
65459,
65524,
65454,
65520,
68,
57,
70,
84,
59,
65526,
121,
65382,
40,
40,
92,
65,
65528,
65509,
65523,
65506,
65470,
235,
146,
65459,
65487,
34,
27,
129,
105,
65487,
27,
65531,
57,
16,
65497,
106,
39,
65521,
65518,
65374,
65461,
142,
65524,
89,
20,
65413,
124,
111,
148,
169,
100,
65496,
75,
92,
133,
65497,
85,
56,
29,
65469,
65499,
65469,
65453,
57,
65522,
53,
65465,
22,
65465,
65449,
65495,
65457,
65448,
65494,
65381,
17,
124,
94,
32,
173,
65520,
65473,
37,
76,
112,
133,
47,
113,
19,
65375,
65461,
65531,
65526,
112,
65515,
65511,
65511,
36,
65533,
17,
65515,
90,
65450,
65522,
65501,
39,
73,
55,
67,
68,
64,
65470,
51,
65478,
65517,
65417,
65456,
65420,
65521,
65526,
65508,
89,
65417,
10,
65488,
65494,
2,
53,
55,
65504,
79,
65510,
64,
53,
65471,
65472,
65465,
65491,
65415,
65485,
65512,
19,
65476,
19,
4,
65441,
102,
65528,
91,
292,
158,
123,
65,
18,
22,
110,
35,
116,
23,
31,
47,
207,
155,
1,
8,
77,
162,
65471,
41,
65525,
7,
68,
43,
98,
44,
65497,
54,
22,
65534,
65473,
65519,
83,
65495,
65409,
65431,
65491,
65357,
65468,
65470,
65519,
65449,
51,
65523,
87,
65469,
72,
65386,
65466,
65452,
145,
65376,
65412,
65433,
42,
38,
92,
65491,
65450,
65432,
69,
87,
65490,
65349,
65504,
65468,
65453,
65431,
65471,
65413,
112,
65508,
65293,
65337,
65360,
65433,
21,
65514,
65366,
65461,
20,
65430,
22,
65480,
65379,
65387,
65501,
65446,
19,
65497,
65488,
65534,
65535,
65459,
65492,
65413,
65474,
65423,
65523,
65405,
105,
89,
65500,
65444,
65446,
65530,
65520,
58,
65491,
77,
65528,
56,
65458,
61,
65535,
65468,
6,
69,
65510,
68,
5,
21,
65499,
90,
60,
32,
65506,
68,
65449,
65492,
65469,
60,
65508,
7,
50,
65444,
65468,
51,
20,
48,
41,
65459,
65425,
65439,
2,
57,
65498,
58,
87,
65492,
101,
24,
65510,
6,
65525,
65516,
45,
65488,
65505,
132,
65491,
48,
137,
76,
136,
54,
34,
2,
0,
91,
32,
46,
65484,
26,
61,
65479,
65506,
65453,
26,
55,
26,
65449,
52,
10,
65518,
65461,
65486,
64,
65522,
28,
65494,
33,
65480,
76,
80,
82,
65443,
65473,
5,
65448,
44,
65501,
65481,
65530,
65452,
68,
27,
50,
65528,
65452,
65529,
24,
87,
26,
65466,
57,
7,
65398,
96,
65450,
43,
65467,
65500,
26,
65530,
65341,
72,
78,
65516,
65492,
32,
65488,
63,
1,
12,
65483,
65502,
27,
28,
18,
65529,
7,
65529,
65468,
65416,
65431,
54,
65363,
65473,
65497,
65528,
65502,
65521,
75,
93,
75,
94,
53,
65446,
15,
73,
55,
65531,
65444,
65487,
84,
65533,
36,
92,
83,
16,
18,
65534,
79,
84,
65529,
11,
7,
18,
65485,
65467,
65530,
65515,
65503,
51,
65524,
65464,
65519,
65349,
65510,
65435,
49,
65417,
1,
37,
130,
54,
21,
65490,
65500,
65525,
65308,
65444,
65442,
65501,
65492,
65511,
65510,
24,
65510,
65531,
124,
65429,
65472,
65449,
65466,
58,
119,
29,
65521,
65496,
83,
65472,
23,
130,
107,
140,
115,
65467,
14,
65466,
109,
65531,
22,
23,
65506,
71,
65,
57,
35,
30,
65505,
95,
56,
65526,
51,
88,
38,
35,
65506,
10,
65487,
191,
76,
48,
74,
101,
46,
65390,
65395,
65277,
65343,
65305,
65366,
65533,
65406,
65336,
65429,
65488,
65434,
2,
65413,
65437,
65313,
65534,
65529,
65531,
65524,
76,
46,
65523,
4,
65523,
65476,
65476,
112,
65532,
65463,
11,
65401,
65463,
13,
65463,
65474,
47,
65384,
65347,
65526,
65490,
65474,
4,
65482,
65498,
35,
65490,
30,
65463,
11,
104,
65440,
65467,
65508,
36,
108,
129,
2,
65526,
81,
65487,
24,
65535,
59,
69,
59,
86,
65476,
65519,
65458,
65491,
65461,
65394,
65399,
65451,
74,
53,
65513,
65529,
60,
98,
66,
32,
65404,
65516,
61,
65535,
65467,
65434,
65396,
65453,
65533,
65488,
65525,
65489,
65460,
6,
28,
65523,
65473,
65400,
65525,
65438,
65519,
44,
65472,
28,
39,
65471,
25,
11,
6,
32,
16,
65490,
65522,
7,
102,
42,
20,
35,
65490,
22,
61,
24,
7,
65448,
65525,
78,
54,
63,
68,
65457,
65530,
65501,
65492,
68,
65460,
65515,
65469,
65497,
65442,
51,
65451,
89,
103,
22,
218,
292,
225,
65534,
86,
65472,
65480,
101,
199,
65531,
79,
65535,
65,
145,
154,
131,
7,
65506,
65515,
158,
139,
55,
140,
55,
97,
104,
134,
65434,
65476,
65485,
65519,
65525,
111,
65521,
65512,
65456,
65513,
16,
65468,
65450,
65503,
65480,
65448,
65455,
65481,
65480,
31,
67,
65519,
65471,
6,
65,
65456,
60,
65495,
65472,
47,
73,
65520,
14,
65535,
65469,
65514,
76,
64,
65452,
90,
74,
21,
65376,
38,
65462,
65476,
65526,
65506,
65514,
12,
35,
1,
130,
65528,
44,
132,
79,
132,
120,
65487,
36,
65515,
186,
35,
45,
76,
65452,
29,
65516,
47,
111,
37,
65422,
95,
65515,
86,
3,
65424,
106,
106,
30,
189,
65466,
105,
214,
229,
65448,
136,
65434,
125,
132,
9,
65489,
65517,
35,
107,
164,
65433,
65418,
65499,
65532,
65515,
92,
50,
25,
70,
65504,
59,
276,
135,
21,
176,
169,
143,
65418,
65489,
12,
155,
115,
56,
65426,
33,
91,
164,
2,
74,
11,
65464,
65476,
62,
65351,
65400,
65480,
65377,
65485,
65470,
65478,
65430,
65514,
37,
65447,
29,
65518,
44,
71,
87,
65492,
65505,
50,
65511,
138,
65444,
65242,
65315,
65384,
65426,
65535,
65450,
65276,
65324,
65322,
65465,
65454,
65435,
65379,
65353,
65404,
21,
65455,
65452,
65533,
65420,
16,
65447,
65334,
65403,
65435,
65501,
6,
65389,
65466,
65516,
65484,
65487,
65520,
65511,
7,
79,
10,
65484,
11,
7,
45,
36,
86,
65512,
76,
0,
65532,
14,
65508,
65477,
65535,
65518,
65516,
65501,
65483,
65467,
65486,
26,
65452,
76,
53,
32,
65495,
39,
65502,
77,
19,
76,
83,
65489,
65534,
27,
65521,
65444,
65461,
65437,
35,
65433,
65453,
65471,
65527,
21,
24,
65499,
65382,
65504,
8,
43,
65521,
62,
65464,
27,
55,
24,
65513,
7,
17,
11,
65448,
52,
27,
0,
84,
65507,
44,
51,
168,
65530,
65486,
65478,
65448,
65453,
65470,
47,
8,
65490,
65382,
65438,
81,
12,
26,
65515,
23,
65520,
65379,
65472,
81,
65443,
80,
65513,
65515,
65515,
44,
35,
8,
36,
65520,
65488,
68,
45,
30,
42,
12,
88,
65429,
32,
65527,
65485,
59,
65464,
65478,
65528,
65515,
53,
65533,
65528,
8,
1,
44,
68,
65481,
15,
65437,
65486,
65415,
30,
49,
13,
65458,
65511,
65414,
65502,
65478,
65516,
65431,
4,
39,
65463,
65454,
31,
32,
65468,
31,
37,
84,
65432,
65490,
65462,
65480,
119,
65499,
18,
65409,
65509,
65535,
31,
65493,
65469,
63,
65521,
118,
65522,
55,
65488,
52,
47,
26,
87,
65511,
18,
1,
90,
78,
149,
145,
65,
65470,
65491,
65371,
65494,
10,
65459,
65436,
65520,
65464,
22,
97,
65429,
65489,
65392,
65393,
65508,
65459,
65417,
65464,
65341,
65363,
65475,
64,
65428,
45,
65434,
65425,
65414,
65504,
65381,
65410,
65423,
65502,
65514,
65441,
19,
181,
111,
154,
65505,
5,
3,
13,
9,
14,
156,
37,
146,
89,
46,
159,
10,
119,
65,
65531,
154,
101,
65499,
31,
130,
78,
54,
171,
65497,
65484,
49,
18,
9,
88,
65473,
65502,
65522,
90,
93,
31,
20,
65527,
95,
30,
65525,
85,
65460,
36,
70,
65481,
65516,
82,
45,
70,
65528,
65491,
65438,
2,
65485,
65468,
65463,
8,
34,
49,
14,
14,
67,
3,
45,
17,
65,
29,
31,
28,
15,
65518,
46,
65509,
63,
108,
110,
15,
65477,
24,
65503,
5,
37,
91,
65482,
65499,
65476,
57,
65461,
65517,
65497,
43,
26,
74,
65462,
36,
24,
65516,
90,
14,
4,
15,
65456,
65315,
65503,
65490,
65469,
65526,
65244,
65462,
65493,
24,
29,
65510,
65347,
49,
65444,
107,
65434,
65494,
65374,
65517,
65494,
29,
65519,
60,
65529,
65400,
65423,
47,
65528,
65460,
65460,
7,
65529,
65478,
60,
65490,
65489,
5,
65452,
65466,
8,
73,
65490,
41,
65515,
15,
12,
31,
16,
65469,
53,
65474,
65519,
70,
65508,
10,
69,
97,
94,
3,
54,
65535,
65499,
65468,
65440,
65463,
48,
65473,
65496,
65463,
52,
65522,
65528,
65431,
54,
103,
52,
140,
65491,
49,
51,
97,
96,
71,
65493,
30,
65499,
31,
178,
114,
79,
18,
65510,
139,
116,
65515,
125,
65417,
65,
65519,
84,
61,
65513,
65369,
23,
111,
40,
65518,
65426,
65463,
117,
27,
49,
65519,
65431,
65495,
4,
53,
96,
65508,
65449,
63,
10,
40,
144,
65418,
65472,
65446,
81,
77,
65473,
65496,
65430,
65460,
82,
48,
65476,
65479,
65494,
31,
34,
33,
1,
38,
65507,
65519,
69,
65504,
59,
28,
65530,
58,
10,
65534,
65404,
12,
83,
42,
57,
10,
65489,
65478,
65457,
21,
65446,
51,
65455,
65479,
65490,
65493,
27,
65436,
65455,
65513,
54,
65497,
26,
65465,
65506,
68,
65463,
65501,
145,
163,
65511,
179,
41,
7,
173,
106,
65520,
65,
65474,
69,
171,
36,
55,
113,
65,
95,
129,
65518,
65530,
65479,
65503,
23,
19,
65481,
9,
65465,
65479,
4,
45,
65494,
0,
65465,
65395,
65401,
72,
184,
185,
90,
62,
15,
97,
82,
131,
65469,
25,
65396,
4,
50,
65482,
65401,
78,
65507,
65424,
65464,
65380,
65447,
38,
65467,
65533,
65424,
16,
65376,
56,
23,
65511,
65520,
173,
8,
65534,
65370,
65343,
65410,
65418,
65397,
65316,
65460,
65467,
65438,
14,
59,
65351,
12,
65502,
65474,
65491,
65527,
65313,
65519,
8,
65457,
65438,
65481,
65287,
2,
65452,
65387,
65477,
65364,
65282,
33,
65524,
19,
65472,
65500,
65375,
206,
110,
221,
85,
39,
48,
10,
65533,
2,
65531,
73,
151,
182,
213,
21,
128,
207,
79,
120,
201,
108,
26,
167,
60,
68,
122,
114,
113,
114,
57,
65513,
2,
2,
65430,
65511,
35,
9,
31,
65446,
65425,
65510,
65534,
65437,
65509,
65488,
4,
85,
40,
50,
20,
41,
65473,
38,
65513,
9,
56,
32,
31,
55,
26,
13,
65530,
65509,
65457,
65462,
65432,
65438,
65454,
65443,
65440,
65419,
28,
131,
112,
323,
216,
145,
278,
65484,
65524,
78,
184,
30,
148,
65472,
65529,
4,
65488,
123,
48,
46,
65534,
67,
54,
65488,
134,
49,
65491,
48,
65481,
123,
95,
51,
65432,
65439,
65459,
183,
37,
65510,
65520,
65372,
65451,
65410,
46,
65512,
65493,
65382,
65430,
65444,
65436,
28,
65506,
65429,
65465,
65418,
63,
65,
57,
43,
65433,
65492,
65525,
13,
89,
65475,
65473,
16,
65390,
65521,
65490,
65516,
65374,
65445,
65384,
65458,
24,
114,
99,
51,
65507,
65513,
65491,
8,
65511,
65470,
65481,
65451,
65482,
56,
78,
42,
100,
65457,
58,
65512,
65408,
65421,
38,
65529,
65477,
65437,
22,
37,
65,
122,
22,
65528,
24,
31,
30,
122,
50,
65462,
22,
65332,
149,
30,
12,
65380,
51,
65403,
116,
10,
65448,
65433,
65412,
65505,
65527,
77,
62,
65412,
65411,
5,
37,
31,
65506,
1,
65458,
65466,
53,
119,
65503,
30,
65503,
78,
53,
65487,
71,
94,
27,
91,
6,
65530,
65474,
58,
162,
20,
65530,
65440,
65524,
109,
86,
73,
65461,
65531,
65516,
65508,
65481,
15,
23,
94,
45,
65494,
65440,
57,
0,
103,
65518,
65471,
144,
38,
22,
65493,
46,
63,
59,
65521,
18,
31,
38,
85,
65483,
65524,
88,
65478,
65456,
20,
5,
38,
105,
65469,
115,
34,
65501,
65425,
18,
70,
65472,
65466,
65467,
20,
85,
32,
65529,
123,
65523,
51,
65467,
229,
65498,
65357,
65329,
65356,
34,
142,
65387,
65320,
65237,
65356,
65428,
98,
65414,
65377,
65488,
38,
62,
65530,
65416,
65509,
65495,
77,
20,
22,
65415,
65522,
65471,
65461,
65403,
65487,
65504,
65494,
65426,
65457,
65419,
118,
20,
65522,
65354,
73,
65497,
65508,
65427,
65444,
65473,
9,
65458,
8,
6,
65519,
65531,
65520,
88,
65441,
77,
67,
57,
65480,
39,
36,
65479,
65523,
65,
41,
65510,
58,
65518,
43,
58,
24,
65521,
65476,
65535,
65280,
65237,
65312,
65304,
65480,
65416,
65379,
65382,
65502,
65423,
65471,
65400,
17,
16,
16,
65508,
70,
65405,
65465,
39,
27,
65401,
65474,
13,
23,
51,
65493,
3,
12,
87,
65458,
65383,
65522,
65515,
65343,
65522,
127,
128,
71,
65499,
65384,
95,
164,
113,
65522,
65429,
65426,
54,
115,
128,
65510,
65476,
65501,
12,
65439,
46,
65477,
65403,
65360,
4,
10,
65409,
65528,
65447,
65501,
65421,
65513,
65473,
65401,
65381,
31,
65378,
65262,
65383,
65321,
65471,
65466,
65315,
65374,
65345,
65406,
23,
65451,
65488,
65480,
65360,
65475,
0,
69,
65503,
12,
74,
65532,
75,
65503,
65509,
58,
65495,
65472,
66,
65407,
2,
7,
65397,
22,
28,
65521,
19,
88,
65460,
65488,
65481,
65523,
65511,
65506,
65472,
73,
65530,
65450,
66,
13,
65468,
89,
61,
65461,
45,
39,
65532,
82,
65453,
29,
73,
65509,
6,
51,
65446,
90,
69,
65512,
65462,
65468,
41,
65521,
65427,
65442,
65499,
65426,
65456,
65499,
65438,
65532,
65480,
65447,
65374,
80,
65505,
65478,
65444,
65493,
65512,
65520,
66,
18,
125,
65528,
65501,
16,
65526,
52,
65522,
65505,
65438,
45,
26,
65426,
65468,
65467,
65419,
96,
31,
65475,
65478,
65482,
78,
70,
65408,
65470,
65458,
65498,
65505,
33,
65497,
65499,
65475,
3,
65519,
32,
57,
83,
65497,
54,
51,
28,
65526,
65533,
65444,
65462,
68,
65440,
65528,
65515,
65407,
65419,
65485,
65415,
46,
149,
40,
147,
65500,
65526,
293,
197,
164,
117,
238,
65489,
125,
65518,
107,
64,
19,
65510,
8,
21,
65484,
65455,
65479,
65447,
65434,
31,
8,
65503,
46,
65418,
65372,
65525,
65392,
34,
65411,
127,
65459,
65414,
65447,
65524,
56,
28,
65318,
65485,
65358,
65406,
97,
55,
65481,
5,
65442,
65501,
65470,
7,
34,
40,
83,
65526,
92,
164,
65505,
38,
58,
65519,
65510,
4,
113,
65438,
65454,
4,
65514,
65444,
79,
65478,
65441,
65453,
65461,
65475,
65497,
65491,
53,
47,
65520,
65461,
45,
65520,
62,
33,
10,
65480,
65448,
71,
65534,
48,
65485,
65459,
18,
65488,
65476,
65462,
65526,
1,
81,
24,
65518,
20,
65532,
65382,
65390,
25,
20,
65500,
9,
65509,
72,
65493,
77,
73,
65487,
65450,
58,
21,
65466,
35,
65445,
65,
87,
164,
126,
58,
62,
65506,
2,
79,
38,
65488,
15,
65436,
65454,
65524,
65443,
65410,
65502,
65428,
22,
65464,
65499,
12,
65507,
65451,
25,
65448,
65465,
65491,
101,
87,
43,
65518,
47,
65494,
65506,
15,
65492,
65456,
65474,
65471,
65488,
65460,
65500,
65479,
65497,
51,
65486,
39,
65494,
73,
65443,
9,
26,
65478,
16,
65530,
65533,
65499,
65520,
49,
74,
2,
26,
53,
65477,
66,
107,
94,
65455,
65430,
65495,
65511,
65479,
65535,
65484,
65458,
65505,
65464,
65454,
45,
49,
65468,
65465,
65462,
61,
65452,
54,
0,
14,
65481,
106,
78,
85,
34,
65527,
65527,
176,
205,
59,
44,
62,
23,
65515,
65491,
116,
94,
95,
65482,
3,
65453,
65467,
65473,
65402,
33,
65458,
65450,
65416,
65396,
65452,
14,
65456,
65428,
65414,
65529,
65515,
38,
7,
65426,
122,
89,
84,
65475,
65408,
65403,
65403,
65483,
65498,
51,
65515,
65449,
65506,
65478,
65479,
83,
71,
65455,
65430,
57,
26,
35,
17,
65518,
65463,
64,
51,
65450,
65497,
65467,
35,
36,
65471,
65471,
65436,
65502,
105,
92,
65489,
65489,
65530,
125,
114,
139,
65534,
65512,
91,
36,
104,
88,
65515,
42,
65476,
79,
65381,
65496,
18,
25,
65516,
39,
65407,
65519,
65513,
65413,
65457,
92,
3,
102,
73,
65525,
27,
41,
47,
118,
65487,
65510,
48,
167,
67,
17,
43,
69,
174,
131,
152,
25,
65456,
65438,
65531,
18,
72,
65485,
65435,
65469,
65480,
65459,
65406,
65467,
40,
65528,
5,
39,
18,
65518,
65515,
65411,
65485,
65419,
65506,
41,
6,
65527,
65470,
18,
65341,
96,
65513,
65527,
65393,
15,
53,
184,
54,
65430,
11,
99,
275,
65489,
65511,
0,
12,
51,
87,
65464,
65467,
2,
65478,
65512,
65466,
65459,
36,
65495,
65481,
65460,
46,
65480,
73,
65493,
40,
65533,
81,
65493,
7,
52,
65506,
65522,
65500,
64,
55,
65456,
65485,
65437,
39,
86,
65518,
65517,
2,
65490,
65451,
65490,
65463,
21,
61,
65528,
89,
65530,
65461,
65496,
92,
65486,
67,
65418,
58,
65453,
9,
47,
36,
65428,
65472,
88,
65485,
67,
30,
65484,
65489,
65457,
65521,
65448,
50,
65508,
65459,
75,
65508,
40,
65494,
65486,
72,
65,
69,
65520,
58,
65499,
65478,
65510,
6,
71,
55,
33,
115,
65473,
65481,
6,
7,
124,
104,
65493,
65528,
28,
76,
65496,
6,
22,
65421,
65511,
104,
65514,
29,
57,
65440,
4,
77,
161,
15,
65448,
65482,
44,
145,
40,
96,
65,
65523,
172,
197,
42,
130,
65504,
149,
167,
91,
100,
36,
65456,
97,
65463,
109,
65496,
65482,
65454,
65440,
65519,
65471,
8,
65513,
65443,
65520,
65420,
65466,
65524,
73,
65451,
65478,
10,
65493,
65484,
65458,
233,
0,
65383,
65337,
65349,
65517,
18,
65458,
65436,
65402,
65386,
65522,
130,
65398,
65496,
65435,
65527,
65459,
20,
65380,
65427,
11,
70,
26,
65505,
65516,
65494,
25,
52,
67,
53,
65506,
105,
65505,
46,
122,
65447,
65460,
113,
99,
65484,
95,
36,
65391,
65468,
65478,
65493,
65517,
110,
65529,
129,
65463,
65522,
46,
96,
29,
65478,
92,
19,
65519,
65519,
77,
123,
96,
49,
65464,
5,
65486,
65487,
42,
65522,
65520,
152,
65483,
65482,
23,
65423,
65520,
150,
65436,
65402,
65374,
65309,
65461,
27,
65437,
65430,
65383,
8,
4,
105,
65525,
65435,
20,
2,
50,
207,
56,
83,
50,
65474,
71,
291,
149,
52,
40,
156,
140,
101,
26,
65415,
65372,
26,
65452,
73,
65438,
65390,
65431,
65474,
33,
17,
65527,
65455,
65350,
65390,
65396,
65523,
97,
41,
67,
65471,
65454,
72,
78,
36,
71,
65470,
65497,
12,
33,
65521,
65425,
51,
21,
65486,
65468,
65419,
65525,
65506,
65445,
65531,
22,
64,
163,
65466,
65483,
34,
55,
65514,
46,
62,
1,
65484,
65415,
65505,
65494,
17,
65504,
42,
65465,
65492,
65523,
65476,
65420,
65468,
65,
63,
4,
65437,
65439,
92,
181,
27,
36,
151,
346,
65524,
193,
28,
13,
65,
98,
65430,
62,
152,
128,
58,
65482,
35,
22,
65476,
43,
65489,
118,
8,
13,
65526,
163,
48,
89,
29,
23,
50,
55,
222,
230,
65480,
65446,
65461,
65445,
65370,
65484,
29,
5,
30,
65459,
6,
65507,
65393,
65371,
65487,
33,
65372,
65447,
65486,
65482,
6,
65491,
65498,
65401,
65510,
82,
41,
65494,
65484,
65469,
100,
65474,
65529,
65492,
65460,
1,
65447,
65507,
65442,
65502,
65432,
65500,
51,
65474,
126,
65473,
55,
65430,
22,
65464,
26,
65480,
65485,
65411,
38,
65482,
65480,
65461,
65442,
65457,
65452,
65514,
17,
65430,
65522,
65530,
21,
65530,
65511,
65441,
14,
65504,
65434,
118,
131,
44,
90,
56,
33,
146,
112,
99,
106,
96,
65409,
65535,
244,
2,
65418,
73,
83,
40,
50,
65511,
80,
70,
16,
87,
28,
108,
65500,
217,
54,
149,
101,
10,
107,
206,
65399,
65393,
65406,
26,
61,
65291,
65401,
65339,
65524,
65508,
65476,
65407,
65508,
65455,
65411,
65449,
65518,
65338,
65371,
65528,
65516,
65532,
67,
65534,
65478,
21,
53,
65481,
65457,
65459,
65423,
14,
65456,
65372,
65523,
65371,
157,
112,
148,
56,
97,
65484,
111,
6,
135,
18,
47,
5,
65470,
65518,
65483,
107,
76,
65486,
11,
65449,
65525,
12,
14,
65497,
148,
65496,
42,
77,
65523,
98,
144,
69,
64,
42,
101,
133,
65433,
16,
69,
65525,
65489,
33,
6,
123,
65519,
51,
10,
113,
65,
65533,
65444,
65534,
39,
120,
65530,
96,
18,
65467,
65441,
25,
65488,
92,
65526,
65490,
44,
65457,
71,
9,
37,
20,
65532,
97,
65362,
65426,
65476,
65439,
65513,
65389,
65400,
65504,
65409,
20,
20,
2,
65480,
65402,
65389,
65437,
65520,
65502,
65512,
21,
65451,
65534,
21,
65459,
65517,
65448,
65464,
65456,
65438,
65352,
65401,
65412,
65439,
65462,
65527,
65524,
41,
87,
65451,
65522,
48,
65458,
65520,
77,
49,
27,
19,
65448,
93,
65525,
26,
65483,
83,
65486,
65482,
65479,
65507,
65483,
34,
65484,
65445,
71,
49,
0,
52,
65465,
32,
91,
65492,
65456,
41,
65468,
236,
206,
180,
102,
48,
164,
37,
76,
99,
116,
65527,
6,
118,
65507,
51,
98,
102,
65481,
65503,
65437,
65510,
65483,
65509,
65468,
130,
65426,
52,
125,
65532,
52,
231,
23,
65525,
117,
188,
200,
59,
65532,
2,
105,
65475,
65526,
31,
65533,
27,
194,
61,
147,
7,
65476,
65277,
95,
65497,
51,
113,
65531,
65411,
65429,
65482,
74,
65530,
87,
3,
58,
65482,
64,
74,
56,
65509,
65489,
45,
112,
65526,
65383,
65374,
65485,
65506,
65448,
65467,
65453,
14,
65397,
64,
65499,
65479,
100,
65450,
113,
2,
65462,
65423,
65395,
13,
67,
22,
65468,
65474,
65513,
29,
65504,
65425,
51,
65477,
65423,
1,
29,
65518,
21,
87,
65473,
21,
106,
34,
87,
82,
65471,
65439,
55,
65523,
70,
90,
30,
65517,
65499,
65421,
65480,
36,
11,
65463,
65532,
65474,
35,
9,
92,
74,
65518,
77,
65456,
58,
65465,
65499,
13,
65490,
65500,
69,
65438,
65379,
65339,
65344,
79,
30,
65489,
65297,
65448,
65381,
65514,
65480,
65426,
65445,
65508,
65496,
65518,
65402,
65452,
37,
65496,
53,
65517,
65489,
65493,
65509,
38,
45,
9,
65493,
65426,
65527,
65388,
65414,
65447,
65523,
27,
65515,
65529,
48,
73,
65508,
5,
65409,
65464,
65484,
65486,
65499,
65334,
65329,
65347,
65405,
12,
65478,
65410,
8,
61,
65460,
65423,
120,
38,
77,
65485,
65486,
65445,
99,
65515,
65505,
32,
66,
77,
65449,
65488,
65455,
65501,
65526,
58,
36,
95,
72,
3,
65,
65492,
65533,
65456,
75,
65457,
77,
65475,
65451,
93,
12,
14,
106,
65501,
47,
18,
65492,
29,
11,
69,
46,
82,
63,
65492,
27,
65474,
114,
152,
21,
65529,
50,
161,
219,
89,
65463,
65292,
65506,
161,
18,
65469,
65517,
65370,
16,
104,
135,
65436,
65503,
65387,
136,
65505,
134,
26,
65465,
65493,
60,
86,
370,
74,
95,
102,
113,
126,
65444,
65498,
65462,
65372,
65414,
65499,
65479,
65534,
65441,
65458,
65507,
1,
65408,
65497,
65496,
65460,
65487,
5,
65455,
65430,
65489,
65508,
65522,
4,
65449,
65518,
65454,
35,
65492,
65425,
65337,
65439,
65517,
65479,
65420,
65365,
65359,
65493,
16,
19,
65500,
24,
65423,
95,
110,
65465,
103,
65499,
65521,
65498,
130,
65495,
65436,
36,
45,
151,
65489,
55,
32,
91,
65535,
129,
55,
28,
37,
65497,
8,
65509,
16,
65484,
65407,
80,
123,
65477,
65371,
26,
65423,
65500,
98,
90,
65508,
122,
65414,
65532,
75,
7,
65477,
129,
65407,
65442,
113,
45,
65438,
79,
131,
65468,
96,
65505,
65462,
65526,
65475,
41,
109,
139,
65517,
63,
74,
62,
65508,
95,
78,
99,
197,
65506,
22,
65459,
65424,
82,
63,
65502,
54,
65509,
65394,
65497,
65495,
10,
88,
65488,
70,
65459,
65527,
65523,
0,
65497,
28,
12,
65516,
8,
65508,
65481,
65490,
65479,
65532,
27,
180,
10,
65383,
65469,
65484,
65526,
50,
65499,
65517,
65349,
65430,
65451,
111,
65477,
65398,
65419,
13,
65528,
133,
65453,
65471,
65495,
82,
112,
65476,
20,
65448,
96,
65529,
71,
125,
65519,
65484,
3,
15,
64,
