memory_initialization_radix=10;
memory_initialization_vector =
65311,
8,
65533,
10,
65339,
102,
65474,
45,
100,
65520,
65531,
84,
65305,
47,
45,
65502,
75,
25,
65503,
65428,
78,
46,
174,
65442,
104,
101,
65433,
65349,
65451,
65503,
65493,
65508,
14,
35,
8,
128,
201,
65458,
65495,
65473,
65451,
20,
53,
65459,
65511,
65409,
65509,
65488,
65482,
65480,
65422,
65434,
59,
4,
67,
121,
135,
65445,
43,
65528,
65511,
93,
17,
65492,
65481,
125,
167,
55,
23,
65532,
65474,
198,
65297,
121,
93,
65514,
65508,
90,
65362,
52,
65474,
21,
65495,
59,
65471,
113,
65512,
112,
25,
87,
94,
103,
27,
0,
40,
65459,
78,
65479,
65475,
47,
65495,
65461,
65386,
65503,
52,
65390,
65397,
65264,
480,
190,
65388,
65462,
317,
345,
96,
65462,
65457,
65386,
104,
65509,
152,
26,
65525,
15,
61,
33,
326,
89,
95,
65424,
65465,
170,
197,
119,
65528,
107,
152,
84,
502,
355,
196,
205,
188,
310,
32,
21,
46,
56,
65477,
62,
65495,
51,
65482,
77,
19,
65440,
9,
26,
65488,
3,
47,
65517,
65514,
65457,
28,
65458,
25,
65532,
65474,
6,
65490,
65443,
61,
72,
65521,
48,
65518,
25,
65476,
15,
307,
270,
117,
51,
252,
582,
294,
49,
147,
69,
170,
427,
168,
205,
186,
212,
61,
258,
274,
154,
311,
208,
316,
207,
302,
137,
191,
205,
81,
263,
571,
338,
202,
312,
251,
356,
0,
35,
40,
65490,
65438,
22,
65492,
65402,
65508,
20,
65496,
65515,
65462,
6,
78,
85,
65511,
65469,
65415,
62,
134,
167,
188,
99,
65488,
65437,
65467,
65524,
65427,
52,
65291,
65513,
92,
65420,
65428,
98,
242,
177,
65449,
19,
146,
146,
178,
87,
89,
47,
193,
98,
125,
15,
180,
136,
65525,
65524,
58,
102,
65393,
65390,
65415,
59,
18,
8,
65388,
17,
65494,
75,
65449,
65432,
38,
11,
128,
138,
65418,
65345,
30,
56,
65485,
65276,
65531,
65502,
65514,
65525,
65480,
65446,
37,
6,
65496,
65235,
4,
65498,
65463,
65469,
65387,
65489,
65446,
65459,
65529,
11,
65524,
32,
141,
65457,
23,
37,
117,
65489,
28,
65484,
65430,
65476,
72,
87,
65494,
65436,
65514,
65497,
28,
36,
65526,
65352,
65457,
65437,
65476,
65487,
65506,
35,
65296,
65363,
65527,
65423,
3,
65467,
65388,
65456,
65473,
65535,
65405,
65488,
65360,
65387,
65451,
23,
65440,
65467,
65471,
66,
65442,
84,
53,
65505,
65495,
47,
45,
65530,
50,
75,
1,
65454,
14,
65525,
68,
65528,
50,
65508,
65531,
65488,
39,
65504,
71,
65462,
65457,
65497,
34,
8,
65530,
65527,
65486,
70,
65435,
65444,
346,
163,
65495,
65413,
132,
251,
214,
147,
140,
186,
76,
106,
130,
165,
135,
336,
337,
234,
179,
65534,
65533,
7,
94,
15,
140,
52,
168,
121,
65500,
165,
70,
40,
19,
62,
65435,
201,
65502,
65394,
65476,
65522,
65525,
142,
65521,
65504,
65409,
136,
65470,
65530,
20,
65426,
65470,
65372,
65409,
65419,
65460,
65305,
65321,
65276,
65298,
65389,
65433,
8,
19,
68,
65427,
21,
65531,
49,
39,
106,
65507,
65480,
65500,
65392,
240,
148,
65473,
65451,
65315,
65488,
95,
5,
65464,
65467,
65377,
65474,
65381,
65459,
65387,
65319,
65529,
65503,
65535,
94,
61,
65432,
55,
55,
4,
65451,
65488,
65412,
7,
65505,
65510,
65331,
65305,
65328,
65117,
65406,
1,
58,
65457,
65181,
65263,
23,
65458,
65516,
65362,
65392,
65370,
65389,
65289,
65297,
65449,
65375,
65321,
65280,
65360,
65173,
65301,
65360,
65389,
65448,
65404,
65362,
65394,
65230,
65186,
65180,
65234,
65428,
65368,
65214,
65418,
65376,
65428,
65431,
65518,
65299,
65487,
65420,
65388,
65427,
65478,
65388,
65529,
65533,
65493,
65430,
59,
71,
65522,
65436,
65349,
65534,
10,
65518,
49,
65443,
65278,
65423,
65410,
65516,
65453,
38,
65427,
65449,
33,
135,
158,
172,
15,
113,
44,
78,
140,
57,
100,
79,
22,
257,
175,
201,
108,
171,
203,
247,
90,
45,
33,
62,
123,
314,
165,
68,
215,
15,
104,
173,
77,
162,
174,
209,
204,
121,
65386,
65416,
82,
67,
20,
58,
65274,
65353,
65501,
65500,
65356,
65534,
65358,
65525,
65385,
65310,
65333,
65476,
65521,
213,
75,
65512,
5,
65495,
65525,
201,
44,
10,
65491,
65386,
65470,
41,
65394,
65288,
65443,
65252,
65281,
65351,
65473,
112,
81,
65347,
65439,
65496,
120,
34,
56,
65449,
65391,
65493,
65472,
50,
62,
65535,
65428,
65264,
65369,
65535,
65518,
65478,
65381,
65358,
65340,
65408,
65523,
65532,
65288,
7,
53,
94,
133,
90,
65413,
65388,
65504,
65425,
65416,
65428,
65440,
65377,
65494,
65502,
65470,
65483,
65526,
65501,
112,
65484,
214,
104,
65402,
65402,
58,
126,
82,
65375,
65452,
65337,
65470,
65386,
65427,
14,
65517,
45,
57,
74,
270,
156,
300,
173,
65521,
65437,
211,
274,
246,
108,
172,
136,
110,
188,
164,
116,
185,
242,
75,
269,
134,
6,
65512,
31,
21,
208,
65,
134,
205,
13,
50,
278,
65359,
93,
194,
81,
66,
176,
65376,
65430,
29,
77,
65484,
65251,
65458,
65397,
15,
29,
61,
65493,
65331,
21,
65500,
23,
65518,
65373,
65395,
65444,
65379,
65294,
65424,
65483,
65431,
65479,
65379,
65338,
82,
65367,
65381,
65480,
65470,
65368,
65487,
65261,
157,
89,
65506,
65512,
65498,
136,
128,
55,
145,
107,
65500,
80,
276,
257,
352,
243,
50,
270,
232,
26,
65385,
65518,
65463,
274,
59,
99,
65470,
151,
237,
282,
21,
65471,
65437,
80,
223,
31,
133,
65525,
65389,
65415,
65519,
65523,
36,
227,
175,
79,
30,
69,
20,
172,
230,
47,
41,
236,
78,
58,
65250,
65298,
65353,
124,
65514,
17,
65516,
65508,
7,
18,
65480,
65375,
65401,
65508,
84,
80,
65421,
65470,
65468,
4,
65467,
65289,
44,
10,
49,
76,
24,
65417,
65464,
65429,
65497,
26,
65384,
65271,
65284,
65453,
1,
65458,
65383,
65357,
65274,
65478,
65482,
115,
17,
65333,
65240,
65384,
20,
22,
65382,
65211,
123,
34,
65396,
65439,
65462,
65492,
36,
69,
57,
65473,
65530,
27,
79,
164,
97,
65521,
76,
139,
195,
65481,
174,
52,
65511,
31,
65528,
43,
52,
65453,
114,
65453,
176,
149,
65478,
21,
43,
65416,
246,
16,
65533,
103,
100,
149,
241,
166,
97,
46,
79,
65461,
75,
65476,
40,
65458,
65440,
65494,
65439,
65475,
65383,
65378,
65472,
65510,
191,
43,
65470,
65475,
127,
127,
98,
126,
65452,
58,
84,
4,
65483,
40,
120,
65501,
65529,
65361,
114,
92,
36,
115,
103,
65398,
65529,
65461,
65513,
119,
65534,
8,
24,
65509,
65395,
65494,
65424,
94,
69,
65496,
0,
54,
72,
155,
108,
65500,
65483,
65531,
34,
207,
3,
18,
65496,
65531,
86,
65479,
65434,
65473,
65436,
65494,
65512,
28,
65494,
65468,
65451,
41,
65526,
39,
65464,
16,
65430,
65454,
65434,
65472,
65454,
65535,
26,
65484,
65426,
65484,
65524,
46,
38,
44,
26,
65482,
285,
275,
65441,
65470,
84,
321,
118,
73,
83,
67,
157,
115,
92,
81,
166,
150,
93,
298,
172,
37,
124,
65523,
75,
63,
1,
47,
175,
29,
65490,
206,
48,
108,
101,
165,
65465,
94,
9,
28,
33,
65441,
46,
65525,
65459,
65442,
65523,
3,
65458,
65509,
70,
24,
65497,
65530,
65441,
72,
65499,
35,
2,
34,
65511,
45,
65491,
65452,
65514,
63,
65469,
20,
65520,
65513,
31,
65481,
53,
66,
130,
42,
68,
134,
48,
15,
102,
86,
15,
69,
146,
65507,
221,
58,
65519,
32,
58,
70,
209,
65399,
65447,
65384,
65495,
39,
344,
42,
65472,
107,
65513,
65518,
82,
82,
123,
122,
67,
65510,
65445,
65523,
64,
65481,
89,
12,
65501,
32,
68,
21,
27,
9,
23,
58,
65520,
65478,
15,
65508,
61,
65451,
65481,
46,
65474,
79,
65531,
65522,
65490,
65532,
65457,
7,
65522,
65482,
65509,
8,
65421,
19,
65373,
65496,
75,
65461,
12,
65420,
11,
11,
65491,
42,
65445,
65459,
8,
65515,
65345,
29,
65494,
65388,
65449,
65493,
65428,
65464,
65450,
32,
65411,
65456,
65473,
96,
17,
65481,
65534,
65349,
65466,
28,
65406,
65434,
65496,
65440,
18,
40,
65534,
93,
65395,
65428,
65517,
131,
65437,
65441,
65518,
65380,
65371,
65422,
65354,
65246,
9,
65391,
65394,
65492,
65325,
65270,
65396,
65430,
20,
65372,
65432,
11,
65449,
65464,
18,
65494,
0,
65498,
159,
65499,
65525,
65515,
227,
500,
155,
65394,
65480,
156,
213,
65482,
30,
135,
102,
167,
33,
65382,
65525,
89,
270,
65519,
8,
47,
62,
65238,
73,
49,
18,
24,
344,
65489,
11,
65389,
18,
213,
132,
12,
65494,
36,
19,
65334,
100,
17,
1,
65468,
15,
65510,
65428,
65389,
65440,
15,
65458,
65522,
3,
65431,
94,
10,
146,
109,
34,
65331,
65444,
65472,
2,
11,
65502,
65274,
65305,
65318,
65505,
61,
65526,
65514,
65380,
65451,
65508,
65302,
116,
65452,
65388,
65436,
65422,
65243,
195,
12,
65460,
65323,
65535,
65310,
65512,
65294,
65460,
65463,
65328,
65508,
65289,
65297,
65202,
65401,
65299,
65374,
65397,
65392,
65309,
65357,
65362,
65369,
309,
93,
63,
70,
120,
275,
208,
128,
85,
65509,
113,
86,
207,
67,
155,
0,
156,
102,
196,
89,
195,
185,
73,
201,
195,
196,
194,
144,
65522,
229,
64,
285,
181,
194,
154,
103,
65261,
65427,
65480,
65397,
65218,
65395,
65368,
53,
13,
65514,
65443,
64,
65469,
105,
110,
151,
65405,
109,
65506,
63,
126,
282,
104,
65508,
65466,
111,
87,
65511,
65511,
65502,
65416,
132,
65474,
65518,
65377,
65319,
64,
47,
65472,
65497,
65534,
45,
65437,
18,
65517,
65467,
65445,
65496,
65434,
40,
73,
32,
89,
30,
65497,
79,
65478,
12,
65442,
65500,
24,
65472,
7,
65527,
34,
53,
74,
65449,
65456,
65478,
75,
32,
268,
61,
23,
65421,
144,
184,
190,
144,
35,
81,
57,
240,
90,
3,
79,
229,
221,
134,
37,
50,
65400,
65414,
65429,
120,
160,
65532,
65472,
65450,
65428,
178,
65487,
43,
114,
112,
65447,
120,
65408,
65374,
65509,
66,
65384,
65347,
65452,
40,
65378,
6,
65332,
65378,
123,
114,
65467,
65480,
7,
65465,
113,
50,
169,
68,
61,
7,
65515,
60,
86,
65493,
39,
55,
65455,
65509,
65417,
162,
175,
65508,
65510,
65504,
1,
62,
10,
65491,
101,
65534,
0,
6,
65310,
28,
115,
128,
22,
65526,
121,
91,
218,
65343,
65252,
65234,
55,
65430,
36,
5,
65424,
65410,
65525,
65399,
200,
251,
73,
64,
177,
27,
65304,
65454,
45,
125,
57,
65431,
65523,
37,
65376,
138,
141,
65453,
65376,
65455,
65486,
65532,
8,
5,
65419,
65314,
65480,
65451,
65472,
65498,
65399,
65408,
65476,
65463,
5,
66,
10,
65474,
9,
85,
65501,
230,
40,
75,
65455,
4,
24,
65464,
65505,
65460,
65450,
65518,
65462,
71,
24,
11,
62,
65448,
74,
45,
50,
65456,
65464,
65521,
15,
65487,
65439,
57,
65469,
65498,
39,
65,
54,
21,
22,
65479,
65440,
65436,
142,
69,
1,
11,
65460,
65400,
98,
44,
53,
65465,
57,
65479,
114,
65523,
65518,
65521,
65478,
65479,
65529,
102,
52,
130,
65526,
65470,
65535,
65419,
7,
63,
52,
65459,
24,
65520,
65527,
65522,
13,
27,
52,
65522,
1,
65455,
9,
65470,
65519,
65445,
65436,
65344,
65333,
65450,
54,
11,
16,
95,
151,
72,
51,
16,
17,
65504,
322,
65438,
78,
65349,
65514,
65375,
65442,
65447,
76,
157,
109,
65521,
18,
65509,
65391,
65421,
65495,
65446,
11,
65445,
65470,
65473,
54,
65425,
65429,
65404,
65427,
33,
27,
16,
65482,
29,
65414,
65491,
129,
23,
34,
58,
65483,
65499,
96,
11,
87,
65455,
65475,
65462,
109,
2,
56,
65453,
65511,
65493,
80,
84,
68,
65486,
29,
77,
29,
65500,
27,
63,
33,
126,
80,
122,
91,
43,
79,
65507,
64,
83,
47,
196,
49,
65497,
57,
10,
65528,
79,
65522,
81,
65477,
76,
15,
64,
65449,
158,
122,
98,
65504,
24,
65408,
65488,
65419,
65490,
65467,
65474,
65324,
65416,
65368,
65502,
65425,
65497,
65321,
65406,
65449,
65436,
65487,
65232,
65466,
72,
93,
65512,
65355,
65402,
65489,
65414,
65409,
65445,
65444,
105,
157,
65448,
65273,
65311,
65480,
176,
27,
65429,
65481,
44,
27,
129,
65499,
5,
172,
65,
37,
249,
400,
191,
159,
89,
100,
113,
83,
228,
65515,
8,
321,
86,
164,
32,
15,
65449,
65498,
23,
65501,
107,
65450,
22,
44,
34,
30,
45,
65496,
60,
0,
11,
19,
79,
65504,
65472,
103,
65459,
65483,
23,
94,
81,
41,
50,
65501,
65523,
65499,
74,
16,
65485,
65490,
33,
65492,
58,
60,
56,
65471,
65472,
65499,
41,
4,
30,
65456,
65506,
65405,
65412,
65390,
65465,
65486,
65471,
6,
65513,
65446,
87,
65509,
65529,
65461,
52,
57,
65518,
126,
65485,
65389,
65493,
82,
65527,
115,
55,
65498,
65534,
86,
30,
274,
126,
46,
85,
285,
112,
151,
65529,
270,
143,
42,
65471,
50,
35,
128,
134,
220,
138,
101,
65490,
58,
65324,
65518,
65436,
65519,
65527,
44,
158,
24,
14,
5,
57,
136,
162,
73,
40,
65443,
26,
43,
113,
65450,
65325,
17,
65483,
65535,
65419,
65410,
65377,
65414,
65454,
65435,
65467,
13,
65320,
65534,
65453,
54,
308,
70,
65299,
65525,
19,
65471,
18,
62,
65205,
65366,
65399,
65498,
65271,
65280,
65331,
230,
312,
65413,
13,
11,
250,
287,
143,
131,
85,
35,
196,
297,
39,
123,
66,
139,
54,
145,
65494,
65495,
65282,
65383,
105,
42,
65473,
65486,
65359,
65453,
46,
65529,
101,
120,
158,
65496,
136,
65199,
65433,
30,
84,
65412,
65195,
65426,
65516,
65396,
65506,
65437,
65306,
65392,
65519,
65407,
65285,
65406,
65322,
65367,
65535,
65392,
65429,
65275,
65403,
65470,
65396,
65471,
65388,
65445,
65302,
65328,
65373,
65408,
65349,
65334,
65330,
65356,
23,
37,
65454,
49,
65502,
65442,
65497,
65419,
63,
47,
65511,
129,
65497,
16,
65466,
65517,
65531,
65525,
65489,
65446,
65523,
25,
28,
65529,
5,
65498,
24,
47,
47,
58,
31,
65522,
65504,
65440,
49,
57,
65294,
65378,
65507,
65501,
65294,
58,
65503,
27,
65532,
0,
65335,
87,
88,
255,
65477,
47,
65410,
124,
45,
65445,
38,
65497,
155,
65483,
65534,
45,
47,
169,
65502,
58,
65475,
65420,
65522,
65489,
65424,
65467,
65402,
65419,
65526,
65390,
65500,
65492,
65511,
65398,
65396,
65317,
27,
65525,
65343,
65416,
65315,
65376,
65323,
65386,
65219,
65138,
65181,
65396,
65231,
65490,
65184,
65250,
65122,
65175,
65349,
65441,
65334,
65210,
65347,
65368,
65318,
145,
110,
65476,
65526,
43,
65498,
128,
36,
65513,
65398,
29,
65351,
114,
83,
87,
41,
154,
65445,
246,
108,
93,
65452,
123,
93,
193,
7,
65295,
65503,
50,
128,
149,
65532,
65473,
65523,
160,
47,
65445,
65323,
65345,
65343,
65294,
65477,
65506,
10,
65529,
65524,
81,
14,
65426,
180,
79,
27,
126,
107,
373,
65512,
65534,
213,
230,
63,
55,
219,
65502,
18,
65531,
62,
65423,
76,
65408,
65398,
65488,
65329,
16,
36,
65481,
65498,
56,
50,
77,
64,
122,
65531,
65502,
122,
33,
3,
7,
70,
65416,
23,
65456,
65445,
78,
65493,
65470,
65519,
16,
62,
65514,
65459,
65451,
2,
20,
143,
138,
55,
65412,
65444,
78,
185,
29,
65435,
30,
231,
65505,
101,
65522,
39,
19,
308,
17,
67,
65478,
187,
65461,
105,
65492,
65457,
165,
56,
65371,
27,
65524,
65441,
65441,
65453,
65445,
65492,
65355,
65347,
65441,
65252,
65275,
65327,
297,
99,
65463,
65451,
122,
536,
5,
65496,
176,
101,
93,
290,
65398,
65496,
5,
230,
29,
203,
85,
110,
153,
174,
291,
216,
139,
68,
201,
30,
87,
517,
525,
295,
281,
377,
286,
441,
29,
65496,
46,
123,
100,
65504,
65446,
65490,
65531,
65371,
37,
20,
54,
32,
17,
65532,
36,
65411,
8,
46,
103,
99,
40,
71,
10,
72,
34,
2,
123,
65520,
242,
145,
65515,
65506,
85,
162,
65339,
65267,
14,
210,
65495,
65334,
65354,
5,
65514,
65452,
63,
34,
65523,
65423,
65441,
65303,
65531,
65408,
65396,
38,
48,
65497,
9,
5,
65494,
45,
153,
167,
65460,
65315,
1,
65451,
65364,
65340,
77,
65514,
28,
65367,
65419,
65437,
65341,
65451,
65388,
65278,
65366,
65429,
65238,
38,
65489,
65435,
65413,
65374,
65461,
65527,
65476,
65494,
65368,
65447,
32,
65446,
128,
65436,
65355,
65382,
65372,
57,
65507,
65395,
65226,
65430,
106,
54,
65176,
65414,
139,
141,
65452,
65187,
65481,
65406,
65402,
65366,
65482,
65327,
65422,
65351,
65439,
65342,
65335,
65395,
65347,
65335,
65356,
65445,
65288,
65333,
65332,
65326,
65360,
65357,
65416,
65327,
65124,
65175,
65306,
65353,
65313,
65262,
65264,
65466,
65433,
65448,
65451,
65438,
65476,
65434,
38,
102,
65473,
83,
65243,
65361,
65531,
64,
8,
65424,
65352,
65305,
135,
65497,
78,
35,
65455,
91,
121,
65513,
65499,
146,
65431,
65498,
132,
109,
65529,
151,
103,
32,
65439,
65491,
8,
98,
44,
0,
26,
11,
103,
139,
40,
65518,
114,
5,
118,
44,
162,
164,
136,
92,
99,
210,
201,
9,
127,
196,
243,
180,
60,
107,
158,
2,
108,
162,
55,
65259,
65392,
65365,
65503,
145,
38,
65458,
30,
53,
119,
100,
105,
65531,
14,
65526,
19,
126,
17,
250,
158,
180,
54,
259,
227,
65432,
81,
97,
126,
255,
392,
196,
77,
108,
178,
354,
3,
34,
65485,
41,
65517,
65498,
23,
65478,
73,
65497,
9,
65378,
113,
148,
65510,
65441,
65525,
97,
297,
163,
65460,
65529,
16,
208,
38,
65494,
0,
65431,
53,
76,
289,
86,
65473,
32,
116,
65502,
65521,
65418,
59,
65505,
65341,
65484,
65447,
65505,
65444,
26,
12,
65453,
65402,
65432,
65525,
65362,
65300,
65251,
65387,
98,
224,
53,
65456,
65310,
65380,
65454,
93,
168,
0,
65308,
65327,
65385,
24,
36,
65341,
65492,
65492,
65464,
65447,
55,
10,
65508,
65479,
61,
71,
60,
65535,
81,
37,
65,
59,
65533,
15,
79,
78,
78,
10,
68,
19,
65436,
70,
65462,
0,
25,
82,
78,
65505,
65484,
65473,
65483,
25,
65490,
505,
222,
41,
65332,
140,
512,
371,
47,
176,
29,
65520,
388,
277,
234,
146,
75,
16,
163,
408,
225,
128,
301,
200,
282,
288,
146,
277,
256,
261,
494,
523,
355,
276,
247,
417,
450,
52,
81,
145,
71,
7,
149,
65519,
65487,
65493,
65312,
88,
115,
65412,
65504,
65412,
87,
65534,
65530,
83,
65457,
27,
47,
95,
239,
32,
65,
43,
7,
65532,
65509,
49,
65517,
26,
65268,
65365,
65364,
98,
24,
65416,
65501,
23,
36,
161,
77,
60,
181,
182,
231,
181,
107,
218,
167,
226,
262,
316,
117,
65449,
65521,
65431,
208,
36,
248,
65477,
89,
268,
7,
65497,
65517,
65419,
65374,
65458,
65512,
35,
65380,
65502,
65471,
65295,
65508,
65533,
65416,
65400,
65485,
65495,
65531,
65465,
65466,
115,
48,
65516,
65423,
134,
65520,
51,
181,
94,
65532,
65458,
65440,
93,
107,
65500,
56,
31,
65512,
56,
65483,
65282,
65421,
65443,
65512,
65442,
27,
65503,
0,
65523,
65461,
65471,
65499,
65525,
65460,
65535,
65454,
65445,
63,
65435,
65489,
65462,
45,
65476,
65449,
65500,
26,
57,
65463,
65513,
65474,
65530,
65436,
49,
65466,
65522,
65487,
65457,
65439,
420,
170,
65511,
65387,
239,
334,
328,
107,
182,
73,
40,
178,
136,
126,
282,
318,
200,
104,
119,
134,
43,
65513,
73,
13,
67,
130,
109,
47,
88,
126,
40,
260,
265,
158,
65481,
129,
65213,
65466,
65470,
56,
65346,
65115,
65356,
65435,
65492,
65409,
65454,
65217,
65290,
65380,
65419,
65433,
65457,
65318,
65275,
15,
39,
65479,
65415,
65396,
65241,
65389,
65506,
65471,
65400,
65208,
65053,
65184,
65370,
65237,
65233,
65198,
64,
65530,
56,
98,
53,
65446,
71,
39,
65451,
2,
65445,
22,
65454,
65499,
65424,
65406,
65457,
24,
3,
65456,
65455,
65501,
65485,
65524,
65470,
33,
65472,
65534,
56,
55,
12,
65416,
65410,
65400,
65428,
6,
65398,
65496,
65395,
65506,
179,
65361,
65527,
112,
2,
32,
84,
65394,
198,
87,
112,
137,
9,
65450,
65442,
58,
45,
8,
65524,
164,
65419,
1,
65444,
48,
62,
65527,
8,
65339,
65422,
50,
114,
65333,
65332,
65372,
19,
102,
65535,
88,
65448,
65317,
65482,
24,
62,
22,
65453,
65525,
65478,
38,
65469,
65430,
65487,
208,
22,
300,
94,
49,
65528,
157,
214,
203,
109,
132,
102,
193,
161,
65514,
48,
78,
65222,
65430,
126,
38,
65273,
65019,
65325,
70,
65378,
65327,
65486,
65289,
65276,
65367,
65396,
65218,
65327,
65279,
65333,
65259,
65221,
65210,
65261,
65292,
65224,
65243,
65275,
65253,
65297,
65357,
65129,
65289,
65296,
65296,
65293,
65278,
65262,
65513,
100,
65470,
65250,
65036,
65505,
65515,
65385,
65327,
65428,
65204,
34,
47,
65440,
3,
83,
65417,
1,
65495,
65392,
65435,
65458,
65396,
65502,
65462,
65458,
65434,
65525,
65328,
65322,
65261,
65334,
65142,
65241,
65226,
181,
65392,
65524,
44,
65365,
65340,
108,
65409,
33,
65496,
65472,
65501,
65403,
65506,
21,
65479,
65387,
65340,
31,
72,
3,
173,
27,
65474,
65470,
65387,
65512,
5,
75,
65192,
65337,
65274,
65276,
65101,
65155,
65456,
37,
65521,
65439,
65451,
65534,
4,
65479,
74,
78,
65532,
65499,
65497,
85,
65466,
61,
93,
4,
65465,
65449,
65455,
14,
65469,
111,
45,
65515,
65466,
65450,
63,
65491,
65485,
95,
65489,
42,
81,
65497,
80,
45,
65527,
65487,
25,
65450,
18,
70,
65481,
65471,
20,
72,
29,
47,
52,
1,
65532,
127,
65473,
65531,
31,
65431,
65513,
65455,
48,
25,
65440,
65533,
102,
44,
65488,
65513,
65509,
58,
25,
9,
65520,
65361,
65380,
32,
111,
65501,
5,
65461,
65391,
2,
86,
65475,
29,
65466,
65409,
65376,
65368,
65449,
65338,
65433,
65495,
65401,
65399,
65410,
65459,
65320,
65482,
65370,
65345,
65430,
65418,
65401,
65402,
65405,
65518,
65416,
65449,
8,
65532,
65510,
65392,
65472,
65244,
65488,
46,
114,
54,
65445,
65395,
159,
154,
52,
71,
156,
184,
65516,
34,
65328,
65459,
65501,
13,
65397,
86,
65489,
65504,
65532,
65497,
65373,
65527,
65284,
65470,
111,
65512,
11,
83,
65460,
79,
65481,
81,
116,
65493,
44,
65535,
23,
142,
65513,
48,
74,
224,
191,
64,
65483,
10,
71,
142,
145,
68,
65480,
199,
169,
161,
65526,
195,
65436,
65507,
62,
69,
39,
23,
65505,
65281,
65399,
31,
0,
65508,
65524,
12,
65511,
65516,
65473,
65469,
65468,
65482,
65485,
2,
26,
65405,
65486,
55,
87,
50,
65527,
2,
77,
73,
86,
70,
65506,
65423,
98,
65526,
64,
79,
4,
65306,
65461,
65390,
66,
65513,
65364,
20,
65469,
65462,
65457,
65488,
65495,
89,
65383,
65532,
95,
65506,
75,
86,
65491,
221,
173,
330,
227,
199,
65470,
18,
65521,
253,
65533,
68,
103,
11,
65488,
95,
145,
65458,
50,
65521,
65510,
86,
76,
108,
119,
34,
65513,
65508,
42,
8,
50,
90,
66,
2,
30,
38,
42,
65520,
164,
65532,
96,
47,
36,
65496,
146,
79,
65504,
65456,
27,
65435,
30,
27,
65514,
65472,
180,
285,
65414,
65506,
173,
134,
184,
65516,
65533,
65426,
65513,
9,
181,
196,
124,
65432,
65534,
65531,
52,
53,
65454,
65486,
65343,
65484,
65477,
65504,
65378,
65299,
65410,
188,
65443,
94,
65385,
65430,
106,
138,
65450,
2,
225,
128,
65505,
65533,
65299,
65529,
65495,
65410,
65458,
33,
65445,
65468,
65471,
65507,
65493,
132,
39,
97,
99,
125,
110,
76,
65499,
138,
61,
65457,
29,
159,
65520,
65447,
65487,
65383,
35,
56,
115,
178,
67,
100,
233,
191,
160,
152,
65530,
86,
120,
88,
207,
65527,
77,
65533,
40,
19,
84,
104,
181,
131,
65422,
14,
116,
65428,
44,
131,
114,
164,
259,
19,
107,
222,
223,
137,
182,
47,
23,
65459,
65492,
87,
52,
65473,
65478,
65469,
65494,
65391,
59,
106,
65503,
65497,
6,
58,
65495,
65453,
44,
65504,
2,
65516,
50,
65520,
65298,
65467,
65409,
65488,
3,
65410,
65357,
65394,
65417,
65502,
148,
5,
72,
65494,
65489,
154,
8,
24,
56,
0,
8,
315,
100,
116,
65509,
65312,
65459,
75,
65528,
41,
65455,
65385,
65461,
65490,
78,
65395,
65506,
21,
4,
104,
65482,
65527,
65457,
24,
87,
63,
249,
14,
18,
60,
137,
260,
263,
99,
120,
65535,
32,
63,
220,
92,
65534,
70,
41,
84,
199,
70,
65500,
65392,
65414,
99,
282,
35,
1,
129,
1,
65527,
264,
73,
77,
65515,
65503,
85,
22,
65423,
101,
87,
65440,
11,
65478,
65480,
65445,
172,
65526,
65517,
65481,
65395,
65420,
65492,
65447,
65290,
65518,
65334,
65409,
65388,
65369,
65363,
45,
65427,
65381,
65399,
65406,
21,
65474,
65492,
65478,
65385,
65461,
65455,
65396,
65362,
65491,
15,
5,
65436,
69,
52,
65507,
90,
65525,
65326,
43,
65,
24,
91,
65429,
65395,
65534,
141,
65425,
36,
65384,
65482,
65449,
65478,
63,
65495,
65460,
44,
100,
65472,
18,
13,
65484,
65331,
176,
117,
65479,
108,
167,
72,
188,
65511,
100,
117,
125,
65508,
60,
65482,
113,
24,
229,
192,
90,
133,
60,
65524,
136,
97,
48,
140,
65490,
103,
77,
65522,
94,
97,
111,
243,
225,
240,
65444,
65451,
37,
65507,
40,
65,
72,
65532,
73,
52,
65507,
65452,
52,
65492,
65428,
65471,
22,
8,
18,
25,
43,
47,
27,
51,
46,
65439,
45,
65449,
65473,
65527,
65443,
65525,
65510,
58,
65444,
65460,
65465,
65485,
193,
146,
65503,
24,
65409,
28,
30,
65449,
65529,
37,
65462,
100,
65472,
65453,
10,
65463,
151,
107,
59,
108,
7,
65439,
66,
65516,
65489,
65517,
65525,
65352,
13,
65511,
14,
65463,
58,
65531,
65490,
176,
22,
65520,
65519,
65495,
15,
147,
71,
184,
77,
65509,
146,
28,
65466,
37,
65500,
44,
65481,
65432,
65383,
65419,
65162,
65353,
65324,
65255,
65351,
65369,
65353,
65517,
65299,
65441,
30,
61,
68,
65387,
112,
65509,
65492,
65395,
65514,
65338,
65308,
65386,
65418,
65429,
65475,
65385,
65279,
65294,
65303,
65395,
65383,
65355,
33,
65385,
65484,
65359,
20,
65376,
175,
65513,
65351,
65355,
65443,
65460,
65486,
65416,
12,
65414,
65502,
169,
65470,
65503,
62,
61,
66,
6,
11,
74,
24,
6,
6,
65450,
84,
22,
65500,
99,
65535,
70,
94,
65386,
65516,
65509,
56,
40,
89,
39,
65527,
65522,
42,
25,
28,
61,
65389,
56,
65455,
65496,
98,
210,
140,
65531,
65489,
186,
65356,
65401,
70,
146,
69,
128,
65360,
56,
93,
198,
38,
150,
65428,
65466,
131,
125,
216,
16,
220,
46,
286,
41,
42,
143,
178,
167,
87,
166,
149,
97,
136,
122,
65515,
65522,
20,
65417,
29,
122,
100,
65479,
65535,
101,
79,
52,
76,
49,
36,
101,
1,
65491,
65533,
65433,
195,
65483,
10,
65409,
65488,
3,
173,
65509,
92,
65468,
65432,
65488,
65462,
65498,
65427,
65447,
50,
65531,
65471,
65421,
8,
86,
65501,
71,
65,
41,
86,
70,
26,
69,
73,
65526,
67,
74,
65490,
91,
65477,
68,
26,
65528,
65415,
65473,
56,
65530,
50,
65451,
65533,
65532,
95,
140,
65364,
65325,
65474,
65412,
65470,
65368,
65476,
65462,
65383,
65494,
65384,
65476,
65321,
65422,
65333,
65423,
65439,
65532,
21,
26,
65528,
92,
23,
65386,
65350,
65506,
42,
95,
65497,
6,
65124,
65163,
65277,
65455,
65453,
92,
65392,
25,
65515,
100,
157,
65491,
65351,
65417,
65408,
32,
65505,
65415,
65186,
65322,
65432,
65476,
65388,
65267,
65290,
65275,
65451,
65403,
65453,
65361,
65423,
65439,
65523,
65485,
65449,
65439,
65508,
65471,
106,
73,
65501,
148,
236,
139,
18,
72,
115,
158,
214,
105,
38,
67,
188,
188,
1,
31,
51,
244,
67,
8,
65389,
65429,
4,
65346,
31,
55,
65406,
65350,
23,
65535,
65488,
65510,
65484,
61,
47,
85,
65398,
65475,
237,
148,
24,
65492,
202,
236,
141,
27,
43,
89,
65528,
129,
153,
216,
200,
117,
230,
435,
179,
191,
187,
30,
173,
219,
176,
65496,
69,
112,
352,
425,
339,
315,
176,
295,
524,
418,
65529,
64,
3,
40,
65448,
65517,
50,
104,
79,
2,
54,
47,
160,
65530,
65535,
13,
6,
69,
65505,
65432,
65372,
65434,
61,
65491,
65530,
24,
65521,
65414,
65489,
65434,
55,
65513,
65515,
65440,
65437,
65526,
16,
152,
65493,
65360,
65454,
38,
112,
82,
65491,
132,
54,
267,
29,
134,
139,
160,
189,
221,
65474,
111,
49,
118,
109,
55,
36,
181,
127,
139,
65529,
124,
65393,
65415,
44,
17,
9,
65508,
