memory_initialization_radix=10;
memory_initialization_vector =
398,
137,
65511,
98,
136,
371,
111,
87,
65371,
65417,
88,
131,
136,
65523,
99,
65367,
65501,
65464,
65503,
11,
65461,
65393,
65501,
65441,
28,
65315,
65453,
20,
65473,
65408,
147,
11,
36,
47,
65504,
92,
142,
70,
65513,
16,
65420,
65466,
65480,
209,
216,
83,
86,
159,
60,
65524,
65467,
65490,
56,
40,
62,
65518,
65394,
65404,
48,
65497,
65434,
20,
65453,
65472,
65425,
65435,
176,
71,
63,
80,
65462,
65392,
123,
90,
70,
65529,
51,
98,
65507,
25,
110,
47,
65485,
11,
65470,
65424,
65394,
84,
65305,
65421,
65535,
65372,
65476,
65500,
65308,
65531,
65391,
99,
65457,
65521,
65400,
65402,
65535,
33,
62,
81,
65435,
65453,
65363,
65530,
65450,
65425,
65455,
162,
59,
165,
75,
65484,
143,
35,
38,
65462,
65452,
65421,
65396,
9,
108,
157,
147,
81,
136,
64,
35,
123,
264,
65530,
172,
119,
8,
27,
45,
81,
65499,
65439,
65447,
65525,
65472,
65,
79,
79,
71,
53,
40,
65509,
6,
65494,
65452,
57,
65445,
65504,
29,
82,
65528,
65493,
65452,
65488,
72,
55,
18,
65481,
73,
65446,
9,
1,
65508,
65514,
14,
24,
75,
57,
162,
26,
65390,
65504,
65449,
117,
143,
65435,
65463,
4,
65474,
76,
38,
65365,
65440,
65312,
65460,
38,
65532,
65512,
17,
41,
129,
53,
14,
65532,
126,
76,
65432,
51,
219,
65520,
274,
73,
30,
56,
65451,
33,
190,
189,
40,
65445,
65361,
65523,
209,
307,
245,
12,
65452,
65403,
65307,
65334,
9,
65413,
136,
6,
27,
65289,
65374,
34,
104,
24,
147,
31,
65422,
65422,
65470,
87,
90,
65437,
65386,
65515,
65531,
56,
48,
89,
129,
18,
65501,
41,
173,
34,
107,
65514,
17,
151,
76,
87,
65533,
65433,
65471,
36,
65,
57,
21,
65486,
65514,
65483,
65440,
65406,
14,
65522,
65438,
65333,
65350,
65477,
65495,
86,
65402,
65496,
83,
126,
65511,
65496,
65467,
70,
69,
9,
102,
39,
65473,
20,
35,
145,
50,
81,
65472,
22,
65470,
1,
76,
61,
55,
63,
67,
14,
65518,
76,
116,
11,
65422,
65390,
65480,
65408,
4,
5,
6,
65402,
65447,
65414,
28,
65476,
65383,
65418,
65494,
65520,
37,
37,
65469,
65438,
65488,
32,
132,
65441,
65422,
65343,
65391,
62,
130,
65483,
65408,
65420,
65473,
110,
73,
134,
113,
220,
88,
245,
65480,
15,
65531,
17,
3,
22,
79,
65457,
65477,
14,
65456,
65454,
20,
65476,
65466,
65486,
65439,
65479,
65529,
65436,
70,
67,
65495,
65497,
15,
50,
74,
65435,
69,
65514,
65530,
65528,
2,
65468,
33,
65456,
65490,
78,
171,
36,
67,
65492,
65460,
59,
227,
114,
74,
48,
132,
110,
217,
191,
81,
65518,
92,
117,
23,
104,
65484,
36,
65477,
65499,
70,
60,
65458,
65371,
65413,
65406,
65376,
65371,
65428,
65523,
69,
65502,
65503,
26,
106,
129,
42,
65424,
34,
65397,
65469,
65480,
65517,
65410,
25,
65463,
86,
65462,
65373,
65363,
65529,
65473,
65377,
65531,
65494,
65346,
65407,
65392,
65353,
92,
65466,
65332,
65454,
48,
125,
68,
438,
220,
169,
438,
315,
365,
261,
16,
24,
65488,
67,
45,
279,
158,
264,
323,
114,
50,
129,
141,
100,
208,
77,
65441,
65477,
65455,
149,
65505,
65212,
65398,
65475,
65505,
65109,
65176,
65237,
65292,
65511,
65515,
25,
25,
65517,
124,
65511,
65508,
3,
25,
10,
114,
65526,
65500,
65518,
134,
138,
113,
65497,
31,
59,
65452,
65460,
93,
65451,
46,
65465,
65454,
153,
75,
56,
60,
27,
58,
44,
98,
265,
57,
42,
35,
11,
65511,
123,
83,
65442,
18,
65449,
65414,
44,
87,
31,
65408,
65497,
65510,
36,
109,
65462,
65444,
7,
54,
61,
65528,
65472,
65464,
30,
65470,
50,
65429,
65502,
65450,
65465,
8,
65486,
9,
65482,
64,
65443,
65500,
65496,
13,
22,
4,
17,
65532,
65533,
65454,
76,
13,
65504,
16,
16,
19,
25,
40,
32,
65515,
65505,
61,
60,
65493,
69,
65471,
17,
65393,
91,
65509,
65521,
65490,
349,
126,
333,
368,
356,
350,
97,
65409,
65375,
65398,
65493,
65441,
87,
72,
151,
109,
65389,
65451,
35,
129,
166,
264,
224,
65282,
31,
83,
156,
65507,
65251,
65316,
65307,
65403,
65071,
65060,
65367,
65272,
267,
65240,
65034,
65340,
65456,
109,
87,
65529,
65431,
65355,
65530,
202,
65375,
65322,
65166,
65448,
65522,
65412,
192,
65338,
65277,
65447,
65285,
41,
100,
65331,
65381,
65427,
181,
258,
278,
110,
204,
128,
270,
422,
375,
92,
89,
60,
30,
466,
107,
90,
65433,
65440,
65458,
280,
65522,
65474,
65398,
65319,
65390,
65417,
81,
65497,
65445,
65266,
65286,
65454,
65501,
65448,
65466,
126,
65471,
65453,
126,
65529,
68,
81,
65470,
100,
65397,
34,
179,
65520,
27,
65527,
34,
92,
232,
192,
20,
88,
176,
146,
30,
161,
81,
65525,
65426,
135,
26,
110,
116,
65519,
65521,
65515,
6,
65451,
50,
65358,
65314,
65406,
65448,
65439,
99,
65471,
65278,
65468,
26,
65473,
65200,
65103,
91,
65415,
65411,
65426,
65507,
65302,
121,
125,
63,
149,
272,
182,
14,
92,
228,
141,
148,
65441,
65532,
56,
65440,
65356,
39,
65466,
65419,
85,
65491,
100,
48,
65505,
65445,
65465,
65281,
65207,
65535,
65500,
65239,
65314,
65361,
65290,
65342,
65311,
65394,
5,
208,
50,
65514,
54,
62,
65530,
180,
205,
288,
30,
65522,
63,
160,
229,
234,
74,
65486,
65461,
227,
46,
388,
65442,
65205,
65405,
65326,
65347,
65351,
65381,
65339,
65421,
65306,
65354,
65274,
65484,
65477,
194,
56,
17,
88,
120,
20,
110,
84,
275,
151,
178,
51,
65371,
77,
158,
120,
65465,
65398,
65511,
65362,
72,
141,
122,
65366,
65517,
65527,
65349,
65352,
65232,
65484,
43,
80,
137,
69,
65408,
225,
11,
29,
81,
9,
65428,
88,
65438,
65468,
65469,
2,
14,
261,
194,
124,
15,
34,
85,
65495,
225,
177,
176,
145,
65484,
65392,
168,
2,
190,
121,
65412,
65187,
65432,
65371,
65434,
65510,
65361,
65359,
50,
15,
65499,
65486,
65477,
65319,
17,
68,
103,
184,
65356,
65288,
65121,
65527,
36,
17,
65283,
65315,
65453,
65409,
178,
125,
65396,
15,
65346,
65293,
65468,
65446,
234,
65501,
65505,
20,
65501,
65491,
29,
163,
63,
7,
65458,
65524,
65393,
133,
94,
65478,
65428,
65274,
65416,
65518,
65534,
65431,
32,
35,
65419,
67,
65518,
65450,
65396,
12,
37,
51,
65288,
65270,
65217,
65310,
106,
163,
65515,
65399,
65260,
65344,
26,
125,
22,
65358,
65326,
65414,
65370,
102,
65401,
65316,
65392,
65323,
65481,
145,
65460,
65466,
116,
103,
21,
214,
32,
65445,
65468,
65510,
137,
75,
65468,
57,
15,
72,
65534,
45,
65521,
65488,
44,
65495,
38,
65524,
92,
65527,
28,
28,
65475,
65501,
75,
65437,
5,
65475,
39,
55,
56,
65501,
45,
65466,
20,
65466,
65487,
61,
65510,
65466,
54,
65508,
180,
129,
174,
88,
65348,
65478,
168,
241,
74,
13,
27,
65437,
47,
218,
189,
63,
62,
65481,
52,
89,
4,
65484,
74,
65405,
65447,
52,
5,
21,
65453,
65396,
65362,
65453,
65430,
65432,
65426,
2,
46,
47,
72,
65500,
34,
65479,
65525,
43,
65479,
36,
37,
65460,
40,
65510,
65435,
65497,
76,
48,
44,
80,
65,
2,
12,
71,
42,
65440,
65518,
65535,
86,
65465,
46,
46,
65459,
53,
93,
63,
65404,
65465,
65500,
65531,
176,
104,
1,
65511,
65495,
65464,
42,
155,
76,
65450,
64,
113,
45,
11,
37,
65450,
65374,
63,
65454,
161,
127,
35,
65496,
98,
26,
65466,
4,
65360,
65461,
65446,
65472,
65436,
44,
65455,
47,
65493,
65510,
65521,
48,
65477,
65509,
65535,
8,
4,
32,
65502,
87,
83,
68,
65487,
65517,
65504,
72,
34,
65534,
65527,
65534,
65497,
61,
65531,
65524,
3,
65480,
65448,
65467,
22,
65522,
65397,
65515,
65445,
65352,
65339,
65400,
65449,
65456,
175,
197,
125,
65455,
65368,
65491,
14,
65458,
65411,
65454,
160,
65493,
89,
65434,
65432,
158,
66,
275,
256,
101,
230,
65492,
65535,
211,
210,
160,
3,
65399,
8,
6,
65453,
65348,
100,
175,
29,
65384,
65396,
65467,
65451,
7,
37,
65457,
65486,
16,
32,
65321,
13,
65473,
65474,
65386,
65400,
65436,
65476,
65515,
65312,
65475,
65423,
4,
65427,
65424,
65313,
65420,
31,
53,
153,
65421,
65468,
65329,
65223,
65509,
98,
58,
198,
162,
30,
61,
319,
65503,
65527,
65456,
65457,
65517,
123,
65525,
65475,
65330,
65477,
31,
153,
37,
65385,
65401,
65344,
70,
396,
97,
10,
141,
65444,
25,
215,
89,
26,
65485,
65393,
65357,
129,
252,
264,
103,
65399,
65390,
135,
82,
205,
148,
65471,
27,
84,
65400,
65329,
149,
65518,
65503,
65419,
65434,
65375,
65347,
65292,
65400,
65490,
65376,
65467,
65443,
65430,
65470,
65355,
65498,
197,
65520,
72,
65461,
65475,
65382,
335,
220,
269,
65526,
65462,
65469,
20,
81,
65473,
49,
65452,
20,
15,
12,
54,
65500,
65465,
64,
84,
49,
136,
18,
65443,
28,
227,
211,
65374,
65392,
65455,
69,
124,
58,
65525,
36,
65525,
65438,
58,
39,
90,
65451,
21,
20,
109,
65451,
65520,
8,
30,
65535,
81,
32,
65488,
45,
79,
17,
75,
49,
65480,
37,
65476,
65425,
65488,
8,
65418,
65437,
118,
227,
43,
67,
181,
122,
163,
65501,
65481,
65444,
12,
65532,
65373,
99,
55,
182,
152,
227,
0,
65369,
65332,
65495,
65523,
5,
65474,
65347,
65372,
65203,
65345,
65407,
65428,
40,
37,
65515,
65388,
42,
65521,
65470,
65443,
65517,
75,
65491,
65477,
65485,
88,
60,
64,
16,
85,
80,
6,
22,
6,
65499,
8,
65451,
51,
65499,
65486,
65512,
89,
93,
81,
40,
65534,
0,
65515,
79,
65474,
65459,
28,
65439,
65482,
65531,
86,
29,
61,
65486,
65420,
24,
177,
25,
65531,
54,
65511,
180,
48,
3,
132,
92,
65492,
10,
42,
65520,
65467,
111,
15,
9,
11,
65448,
4,
65484,
65383,
65346,
65468,
65489,
14,
44,
65528,
65424,
65316,
65464,
52,
23,
65467,
65306,
65217,
65376,
65374,
65374,
65291,
65254,
65288,
45,
65412,
65246,
65362,
65273,
1,
123,
65424,
65383,
65444,
65423,
65522,
95,
73,
4,
20,
92,
296,
181,
209,
103,
65317,
65495,
65507,
65517,
65481,
99,
65191,
65425,
137,
4,
65476,
188,
65218,
65462,
65530,
65499,
90,
17,
65430,
65475,
65478,
10,
104,
65445,
54,
65437,
65515,
111,
353,
65401,
10,
9,
128,
140,
65534,
62,
382,
65390,
65178,
65418,
65423,
219,
197,
53,
65183,
65320,
65497,
266,
357,
65385,
65253,
65396,
65393,
88,
109,
65431,
65235,
65251,
65395,
1,
121,
65475,
65396,
63,
63,
65492,
296,
101,
105,
8,
100,
212,
65436,
65470,
61,
86,
65477,
68,
65470,
2,
65502,
41,
39,
69,
65521,
65455,
65501,
65495,
65511,
65511,
65454,
65483,
65494,
65457,
18,
65506,
65455,
24,
65497,
65506,
65459,
56,
65493,
1,
65476,
58,
65517,
56,
65473,
65517,
65493,
147,
20,
44,
65469,
65459,
39,
212,
85,
103,
95,
65524,
21,
65429,
65514,
65443,
81,
75,
187,
65432,
65224,
65525,
117,
219,
16,
149,
61,
65488,
16,
72,
34,
158,
65518,
65404,
249,
98,
98,
134,
168,
290,
37,
52,
218,
116,
170,
185,
65407,
71,
65478,
65448,
65388,
65302,
65500,
65396,
65325,
65337,
65383,
65348,
65423,
65354,
65363,
52,
16,
65342,
66,
65431,
65480,
65516,
65394,
65460,
65534,
65511,
20,
15,
65511,
205,
157,
80,
65453,
65456,
65531,
19,
74,
52,
65496,
39,
13,
44,
65417,
65529,
42,
65504,
53,
60,
89,
53,
65444,
65496,
22,
91,
164,
65528,
65503,
65392,
65300,
65527,
39,
65494,
33,
65516,
5,
65488,
39,
65487,
65434,
1,
65466,
42,
61,
65491,
65388,
46,
83,
65469,
65516,
65520,
65462,
65530,
65515,
65486,
65471,
65510,
31,
65404,
65422,
29,
65467,
65418,
65489,
65468,
65488,
65496,
221,
125,
101,
65447,
30,
293,
151,
65483,
65337,
65401,
8,
211,
228,
29,
65424,
65259,
65306,
64,
68,
53,
2,
65368,
65403,
78,
42,
65419,
65490,
65384,
65460,
204,
62,
39,
65466,
53,
171,
243,
65490,
18,
86,
142,
122,
65364,
65532,
12,
65424,
1,
3,
65379,
65444,
79,
106,
131,
154,
65368,
65438,
191,
221,
327,
165,
65266,
65323,
65341,
65480,
65461,
69,
65355,
65176,
65515,
65282,
65360,
65510,
65422,
65458,
65432,
65508,
10,
36,
65477,
54,
63,
65503,
65450,
30,
22,
25,
70,
2,
68,
18,
65444,
61,
74,
65476,
51,
43,
65525,
65530,
141,
65490,
76,
65517,
65518,
51,
23,
28,
31,
72,
80,
6,
25,
95,
7,
102,
45,
65467,
65517,
152,
128,
17,
44,
37,
65434,
65489,
65419,
6,
65404,
65390,
12,
76,
65517,
51,
65508,
65502,
65531,
65406,
12,
65490,
65462,
65508,
60,
7,
65481,
65512,
65456,
65378,
65423,
65449,
65483,
65457,
65461,
15,
1,
74,
54,
18,
55,
101,
52,
65479,
65491,
65445,
65446,
65527,
19,
41,
65361,
108,
65515,
50,
65522,
23,
65507,
43,
65488,
65473,
65501,
65494,
65528,
24,
15,
244,
82,
267,
244,
122,
65509,
162,
136,
265,
336,
253,
65436,
296,
203,
27,
72,
126,
65421,
177,
140,
55,
65326,
65418,
65481,
2,
65451,
65394,
65531,
65271,
65291,
71,
65511,
65363,
65229,
65152,
65295,
65493,
65521,
65519,
111,
83,
18,
65490,
65483,
160,
35,
65482,
65503,
48,
203,
124,
66,
144,
39,
65505,
126,
32,
36,
12,
0,
31,
12,
65474,
65471,
65518,
35,
65239,
65493,
65315,
65388,
65499,
74,
65385,
54,
145,
88,
33,
65399,
65508,
40,
156,
182,
109,
22,
65418,
127,
51,
65519,
50,
107,
65496,
65504,
65535,
65504,
63,
34,
65433,
3,
60,
65496,
126,
33,
65520,
191,
65487,
41,
65508,
65411,
14,
65483,
5,
65447,
13,
38,
22,
65481,
65422,
65491,
110,
45,
59,
59,
65516,
29,
99,
115,
96,
65492,
65441,
65510,
61,
65472,
43,
65496,
65434,
65384,
65363,
65502,
65499,
65512,
65531,
65515,
65423,
65405,
65107,
65435,
65375,
65462,
65360,
65021,
65500,
104,
65453,
36,
63,
65298,
65477,
119,
125,
127,
221,
83,
65407,
245,
296,
205,
117,
65460,
65303,
65450,
140,
55,
97,
65504,
65322,
110,
122,
9,
102,
65165,
65501,
10,
116,
117,
179,
409,
65367,
65465,
6,
65488,
65459,
341,
65260,
65243,
65414,
41,
99,
162,
65424,
65400,
58,
65428,
65388,
52,
65441,
65385,
74,
65470,
186,
65522,
65344,
65446,
65535,
63,
65508,
191,
65501,
65513,
28,
65473,
65379,
65375,
65374,
40,
304,
130,
65533,
65527,
65504,
65472,
65442,
65490,
65401,
65426,
197,
67,
65390,
65368,
65497,
65352,
221,
254,
49,
58,
327,
65503,
2,
169,
364,
307,
12,
65427,
167,
39,
98,
178,
102,
65312,
19,
65514,
65406,
65385,
65504,
65305,
65489,
235,
295,
232,
246,
65386,
65427,
103,
119,
230,
236,
65257,
65268,
65453,
65531,
40,
65457,
65237,
65251,
65328,
65236,
65334,
65479,
65419,
65425,
65502,
65524,
65463,
65504,
27,
15,
37,
83,
65487,
18,
37,
55,
65498,
65357,
65503,
87,
65532,
43,
51,
21,
37,
125,
65429,
65526,
7,
65463,
117,
17,
65479,
65529,
70,
65502,
65508,
65435,
15,
65462,
117,
103,
111,
0,
65377,
65390,
65413,
65532,
87,
65498,
9,
65317,
65348,
65464,
65480,
65344,
115,
65292,
16,
65432,
65521,
112,
83,
65348,
29,
166,
65383,
65517,
191,
65277,
65431,
65500,
45,
152,
5,
283,
65445,
65254,
65388,
65474,
184,
65529,
65347,
65279,
65307,
65387,
11,
65486,
65338,
65363,
65230,
65163,
38,
72,
65450,
11,
26,
65404,
79,
75,
65527,
53,
76,
65409,
136,
319,
87,
119,
188,
262,
291,
65452,
65477,
28,
18,
65446,
40,
65373,
27,
180,
2,
70,
15,
65430,
65392,
13,
65387,
65529,
166,
26,
65479,
65495,
65518,
65524,
134,
65483,
5,
53,
85,
65485,
65455,
24,
28,
12,
16,
65377,
65324,
11,
65391,
65175,
65185,
65499,
65522,
27,
65404,
65170,
65147,
65344,
6,
65371,
65297,
65285,
65191,
65381,
65513,
40,
65461,
65474,
65352,
65491,
65439,
106,
65499,
43,
40,
168,
69,
142,
143,
123,
12,
217,
165,
65519,
153,
148,
102,
219,
152,
65395,
22,
116,
65520,
176,
179,
65332,
65506,
65531,
65511,
46,
65490,
65440,
65373,
65509,
65467,
65477,
65305,
65430,
65464,
65397,
65489,
21,
65287,
65533,
65421,
30,
65508,
65350,
88,
65388,
65492,
65459,
43,
3,
65504,
65465,
65438,
65498,
45,
70,
38,
65505,
65531,
40,
83,
113,
138,
58,
65482,
65534,
65509,
108,
134,
65462,
86,
65513,
65525,
108,
139,
83,
216,
111,
139,
149,
22,
410,
65482,
65354,
65478,
65458,
207,
213,
65441,
65247,
65386,
65484,
193,
206,
65530,
65341,
65334,
43,
65489,
7,
28,
65425,
65302,
65272,
65527,
65523,
89,
65450,
65,
65496,
77,
163,
51,
158,
148,
124,
299,
0,
66,
45,
65522,
65508,
218,
129,
65527,
67,
65460,
73,
137,
53,
65484,
65484,
9,
149,
73,
27,
65529,
65495,
47,
65532,
65474,
65463,
69,
125,
49,
65501,
65449,
65526,
65448,
65460,
65431,
65292,
65509,
9,
65305,
65186,
65243,
65280,
65448,
210,
65505,
65330,
65407,
65505,
84,
230,
65407,
65466,
65372,
65453,
65502,
327,
10,
65423,
65288,
65512,
65427,
259,
166,
162,
149,
65484,
65486,
443,
159,
212,
197,
65449,
65457,
65232,
65473,
181,
21,
65527,
65423,
65485,
105,
135,
149,
96,
65445,
65525,
65480,
115,
32,
163,
207,
65405,
65481,
224,
199,
227,
153,
65496,
182,
80,
199,
214,
65504,
65516,
130,
96,
65482,
65496,
65253,
259,
57,
180,
65465,
65355,
65353,
285,
225,
168,
201,
220,
65515,
303,
65501,
65396,
65456,
11,
65518,
231,
18,
69,
65271,
65493,
77,
277,
198,
104,
65478,
65458,
65507,
240,
127,
9,
79,
65490,
81,
65486,
65502,
76,
65468,
65511,
65438,
65465,
65515,
62,
65443,
88,
65475,
65523,
40,
65444,
52,
65480,
65508,
65436,
65532,
69,
21,
65518,
65485,
28,
65447,
69,
63,
65506,
46,
36,
65495,
65496,
65502,
16,
65520,
64,
65474,
65298,
65339,
64,
94,
95,
65440,
65408,
65460,
65452,
27,
91,
65290,
39,
65490,
65432,
65485,
116,
65446,
38,
188,
65479,
2,
219,
89,
188,
65513,
65524,
0,
56,
25,
75,
65510,
25,
65445,
148,
92,
29,
65404,
53,
207,
65,
5,
35,
65378,
65416,
129,
65465,
65397,
65520,
110,
65,
160,
65472,
30,
8,
101,
73,
3,
142,
74,
215,
70,
65453,
65491,
77,
65491,
65335,
65343,
65294,
65496,
65281,
65314,
65416,
65340,
65399,
65370,
65287,
65320,
65218,
65331,
65324,
65515,
65487,
123,
77,
65525,
101,
125,
65471,
133,
160,
151,
239,
44,
65411,
65450,
223,
7,
175,
65372,
65427,
51,
11,
65479,
157,
65443,
204,
65477,
4,
65392,
65327,
65284,
188,
102,
4,
65505,
9,
65505,
146,
44,
5,
65527,
22,
87,
65514,
89,
67,
137,
83,
65468,
32,
77,
39,
65383,
65492,
65460,
0,
24,
65377,
65279,
65338,
65390,
65481,
65500,
65487,
65493,
10,
65486,
0,
65522,
65470,
8,
28,
65475,
65523,
5,
59,
65488,
65480,
65455,
65504,
51,
67,
45,
25,
62,
65511,
65517,
65496,
65462,
90,
65481,
63,
77,
7,
66,
65450,
60,
65433,
84,
89,
152,
65511,
65339,
65502,
100,
124,
216,
93,
14,
109,
80,
63,
73,
79,
29,
47,
177,
65528,
65,
119,
65534,
65529,
65498,
65456,
12,
43,
65429,
65327,
65318,
65358,
65462,
65474,
65296,
65367,
65410,
22,
65355,
65345,
65190,
71,
66,
65299,
65518,
35,
58,
155,
218,
61,
10,
135,
170,
6,
113,
169,
113,
212,
119,
65479,
70,
44,
65432,
75,
156,
65433,
123,
145,
119,
78,
65457,
65475,
65442,
10,
36,
122,
161,
65442,
65516,
51,
65524,
12,
65527,
15,
65415,
65484,
65435,
65480,
51,
65487,
65475,
65506,
67,
65524,
65477,
65454,
67,
29,
75,
11,
14,
76,
65495,
65501,
100,
65465,
65506,
65176,
65336,
65447,
65442,
33,
65135,
65444,
65486,
65483,
65420,
65405,
65367,
65389,
85,
132,
154,
143,
28,
12,
47,
33,
171,
63,
65498,
65533,
142,
355,
203,
135,
65415,
65344,
256,
152,
96,
114,
65191,
140,
65495,
39,
91,
65513,
104,
276,
103,
65453,
65319,
58,
65535,
85,
65489,
65442,
65485,
65509,
65527,
134,
65374,
21,
1,
65482,
65294,
71,
65,
65504,
65351,
65307,
65375,
65529,
101,
65507,
65340,
65384,
65531,
65486,
86,
81,
177,
124,
65405,
65515,
33,
190,
137,
134,
65521,
20,
84,
65434,
129,
65,
39,
65528,
82,
65477,
49,
122,
65532,
65535,
65426,
65509,
65534,
66,
91,
65400,
122,
0,
95,
37,
16,
65213,
7,
158,
112,
76,
65150,
65408,
7,
89,
191,
42,
65512,
65427,
113,
65502,
152,
235,
65452,
41,
43,
52,
123,
104,
65516,
65424,
65483,
17,
51,
62,
65367,
65449,
22,
4,
65488,
65335,
65312,
65494,
65246,
65380,
47,
65515,
65535,
121,
73,
195,
102,
56,
65378,
89,
153,
121,
139,
292,
71,
46,
131,
182,
65436,
73,
65465,
65513,
65535,
65515,
38,
65388,
65365,
65447,
65361,
65100,
65195,
65300,
65333,
65465,
65484,
65456,
45,
65481,
65469,
65530,
65513,
65478,
39,
15,
49,
65521,
65535,
65439,
65501,
65482,
33,
65502,
65500,
19,
3,
65494,
31,
65479,
65513,
65464,
65518,
74,
50,
65471,
65451,
30,
3,
86,
65461,
65444,
82,
65500,
65444,
15,
14,
65424,
45,
65529,
22,
44,
65466,
65504,
65511,
13,
65482,
65514,
65522,
65491,
65454,
23,
65520,
7,
38,
65451,
67,
65491,
65490,
59,
65514,
65497,
114,
7,
51,
65500,
51,
52,
65440,
65502,
65467,
65458,
65492,
65494,
65441,
65527,
27,
45,
48,
65494,
65486,
65491,
65451,
1,
65383,
65525,
65447,
65441,
65340,
65446,
65454,
65507,
65403,
65400,
65414,
15,
32,
65337,
65405,
65498,
65419,
137,
30,
65184,
65276,
65312,
65302,
65381,
65369,
65383,
65331,
65178,
65323,
65268,
65451,
65273,
65494,
47,
65417,
85,
65506,
65487,
65523,
13,
227,
342,
119,
65500,
27,
228,
357,
270,
78,
65416,
65420,
30,
82,
323,
124,
259,
65470,
65318,
65318,
65476,
140,
82,
65424,
65360,
65299,
65503,
12,
96,
65499,
65379,
14,
65454,
65425,
132,
32,
65269,
65466,
65367,
65427,
61,
59,
65485,
65440,
65474,
65509,
142,
65360,
75,
65534,
21,
122,
65447,
65427,
18,
65374,
65500,
65291,
233,
170,
65505,
65443,
93,
65379,
25,
186,
65467,
47,
147,
38,
21,
65522,
169,
100,
39,
65470,
24,
186,
100,
65526,
65513,
65445,
8,
65524,
65493,
65416,
65310,
65507,
146,
65319,
65369,
65418,
65375,
65427,
56,
65493,
29,
65461,
65434,
65416,
65389,
65499,
65360,
65524,
65498,
19,
139,
65425,
138,
65432,
65431,
122,
156,
23,
144,
65506,
65500,
38,
131,
8,
65524,
65438,
65476,
65396,
8,
1,
58,
65436,
65514,
100,
65461,
71,
179,
103,
142,
62,
163,
120,
124,
140,
66,
94,
136,
65437,
65491,
65400,
65478,
55,
82,
65476,
65496,
65439,
65442,
65495,
4,
57,
65410,
5,
65413,
65391,
65389,
65440,
14,
69,
72,
77,
65329,
65493,
87,
65382,
65403,
199,
65412,
65493,
76,
65431,
65403,
65524,
65416,
65510,
65471,
98,
204,
247,
0,
65497,
34,
116,
139,
274,
65455,
65515,
65518,
65,
179,
160,
65457,
240,
47,
17,
62,
65397,
65199,
72,
65483,
53,
10,
65457,
65249,
65373,
26,
131,
65425,
65442,
65233,
65433,
37,
109,
16,
79,
65420,
65471,
65484,
65495,
82,
65497,
65258,
65529,
132,
4,
65431,
65462,
65321,
65400,
65275,
65317,
0,
65307,
65474,
65416,
65432,
65459,
65361,
65317,
55,
65364,
44,
65,
65335,
65418,
156,
65331,
65485,
153,
65526,
58,
166,
144,
65486,
65532,
212,
24,
189,
292,
412,
370,
172,
25,
93,
134,
91,
35,
65425,
65481,
117,
227,
419,
229,
80,
13,
65488,
65455,
35,
65480,
35,
47,
65500,
53,
65318,
65449,
82,
65,
65488,
26,
2,
85,
65442,
40,
65394,
65527,
65528,
65503,
65378,
65530,
65402,
10,
23,
138,
12,
65463,
65325,
113,
27,
194,
206,
28,
65209,
65373,
99,
155,
19,
4,
65339,
65351,
65470,
65447,
65413,
64,
65492,
65390,
65483,
65314,
141,
65534,
65446,
65482,
162,
181,
82,
57,
65431,
65451,
65199,
65354,
65521,
161,
134,
86,
65506,
65507,
54,
65425,
238,
65,
65472,
26,
107,
120,
185,
144,
3,
55,
146,
125,
11,
227,
106,
65501,
154,
65469,
113,
130,
65401,
65450,
65434,
65477,
65531,
26,
111,
11,
65517,
65491,
1,
65418,
65419,
65517,
65472,
65450,
65515,
6,
65386,
65464,
65456,
65307,
49,
48,
65476,
65424,
65286,
65432,
65493,
65469,
65395,
65462,
65435,
65457,
65487,
65394,
65432,
65480,
77,
203,
65311,
65434,
65474,
65346,
65332,
65172,
105,
65474,
65427,
65479,
65491,
65414,
65446,
76,
186,
138,
209,
14,
65523,
135,
171,
49,
38,
0,
65500,
52,
246,
107,
65419,
65520,
15,
82,
114,
108,
161,
65496,
65,
57,
65493,
65400,
65483,
54,
80,
65533,
65463,
12,
61,
168,
129,
65531,
65523,
65393,
65464,
58,
65525,
65504,
14,
65310,
65419,
8,
65407,
65424,
65482,
57,
65507,
65493,
158,
65524,
2,
65477,
65519,
65399,
65501,
61,
65503,
65473,
41,
65465,
65457,
65513,
65470,
65526,
65453,
91,
65480,
29,
24,
65521,
65496,
71,
65527,
65446,
65471,
8,
65490,
65466,
77,
65498,
65436,
2,
72,
86,
65490,
31,
60,
65531,
4,
63,
316,
29,
28,
7,
66,
271,
65447,
65404,
65315,
65437,
65363,
83,
65335,
65389,
65481,
21,
65337,
65276,
65464,
65319,
65535,
67,
65373,
65232,
65412,
65431,
65426,
118,
12,
65406,
65487,
8,
65394,
65461,
65464,
29,
65223,
65324,
65303,
65334,
65509,
65321,
65319,
65362,
65343,
65380,
65269,
65350,
65285,
65284,
18,
65325,
65498,
65350,
41,
65440,
65351,
65530,
65517,
199,
68,
63,
114,
100,
329,
312,
65506,
91,
308,
300,
542,
495,
109,
33,
173,
89,
100,
47,
11,
105,
554,
249,
188,
65478,
123,
203,
65370,
65514,
65506,
154,
200,
9,
65471,
65353,
65349,
65379,
171,
19,
65471,
12,
65442,
65444,
42,
30,
65468,
65535,
65267,
65280,
65535,
65532,
65453,
65468,
65465,
126,
66,
28,
65405,
65334,
65434,
57,
49,
1,
65493,
8,
65518,
25,
67,
65520,
65483,
65467,
65514,
65524,
5,
65490,
9,
65498,
65533,
164,
54,
72,
35,
36,
72,
168,
440,
47,
65371,
65454,
65495,
156,
214,
25,
65378,
65293,
49,
238,
171,
65519,
65457,
65305,
65383,
87,
46,
132,
65475,
65418,
65332,
11,
82,
65341,
65427,
65284,
65390,
7,
212,
144,
91,
144,
140,
297,
65447,
65370,
65316,
65349,
62,
37,
65377,
65422,
65375,
65342,
65472,
128,
65363,
65465,
65491,
65488,
65501,
43,
65506,
8,
65449,
11,
65469,
47,
31,
65493,
16,
8,
65519,
90,
65480,
65,
193,
67,
176,
47,
65460,
65440,
65432,
65506,
65533,
65433,
65,
65512,
65509,
31,
25,
37,
65467,
3,
5,
65461,
43,
65497,
65492,
65467,
10,
13,
0,
65534,
65510,
65524,
65478,
65530,
44,
57,
65479,
61,
65442,
65499,
65515,
65488,
45,
65474,
65465,
65463,
65412,
138,
152,
65422,
65460,
65406,
65400,
65501,
59,
65460,
65467,
65503,
65524,
65317,
20,
65447,
65434,
65436,
65295,
65484,
16,
65530,
65404,
1,
42,
147,
120,
87,
65438,
65416,
57,
134,
178,
47,
65485,
65431,
25,
133,
140,
65481,
65479,
65482,
95,
99,
106,
65514,
65372,
65308,
65446,
4,
25,
61,
65486,
65351,
47,
174,
11,
65383,
65474,
65328,
65485,
37,
9,
65432,
65485,
4,
107,
228,
65388,
37,
161,
65503,
65416,
65403,
65324,
65469,
8,
173,
72,
154,
65440,
171,
99,
65473,
67,
261,
22,
1,
65448,
65463,
183,
164,
65383,
87,
24,
65436,
64,
79,
65331,
65483,
49,
15,
135,
88,
86,
65521,
65449,
65435,
43,
21,
65303,
27,
119,
65434,
65396,
8,
65222,
65363,
60,
15,
65430,
65391,
65357,
65278,
65212,
65496,
203,
65526,
65470,
65513,
65440,
65352,
114,
100,
15,
102,
206,
118,
358,
193,
53,
16,
65507,
65520,
133,
178,
5,
65438,
65361,
65527,
65387,
159,
65400,
26,
65522,
65528,
206,
207,
65455,
65399,
65479,
65519,
65512,
65509,
34,
65427,
65486,
65459,
65463,
15,
52,
65514,
90,
29,
7,
55,
197,
65445,
65351,
65419,
47,
30,
60,
65521,
65394,
65428,
65479,
100,
169,
65529,
65496,
38,
123,
65418,
31,
0,
65298,
65397,
65377,
65445,
65511,
72,
65428,
65432,
65369,
65430,
65501,
65464,
65495,
65418,
65453,
97,
