memory_initialization_radix=10;
memory_initialization_vector =
65484,
65513,
65518,
9,
65528,
65516,
65508,
139,
173,
87,
95,
217,
162,
65487,
65485,
65411,
65488,
50,
1,
65345,
65456,
65486,
20,
134,
159,
65418,
65516,
65480,
99,
65509,
58,
44,
5,
79,
65524,
65,
164,
121,
192,
118,
73,
71,
65529,
65509,
65373,
13,
28,
65409,
13,
65274,
65316,
65440,
65334,
65455,
65515,
65288,
65220,
65316,
65359,
157,
66,
65410,
65309,
65414,
65346,
65476,
197,
145,
182,
21,
65489,
65446,
133,
65414,
65395,
65433,
65434,
6,
106,
65447,
65468,
65398,
65429,
89,
250,
65475,
65275,
65386,
76,
73,
80,
65517,
65384,
65493,
29,
69,
123,
65474,
65442,
65521,
74,
159,
65499,
165,
65432,
65399,
115,
165,
81,
182,
150,
226,
184,
62,
65,
106,
65303,
65441,
4,
125,
65411,
65524,
65479,
6,
65269,
65312,
65473,
51,
13,
65491,
65306,
65389,
18,
65473,
65489,
66,
65514,
65422,
116,
98,
107,
168,
1,
34,
37,
65478,
88,
65468,
65486,
8,
6,
38,
16,
24,
65529,
47,
65522,
44,
65509,
65471,
65522,
73,
65504,
65491,
89,
65503,
74,
65511,
65452,
65443,
71,
65471,
65496,
65497,
65522,
48,
65519,
65470,
65497,
16,
65468,
13,
19,
16,
76,
25,
55,
65412,
65304,
65326,
65497,
9,
65535,
65517,
65519,
65527,
65497,
65526,
162,
65519,
65458,
10,
11,
64,
12,
97,
27,
27,
107,
39,
65519,
81,
44,
150,
82,
58,
169,
28,
65520,
65466,
65457,
65397,
108,
65470,
65364,
65292,
18,
34,
123,
65422,
65255,
65144,
65507,
167,
27,
65389,
65309,
65280,
34,
172,
65,
65502,
65414,
65333,
102,
8,
36,
143,
230,
65500,
76,
65501,
65421,
99,
53,
143,
65506,
65452,
65511,
175,
59,
300,
202,
65492,
65453,
111,
131,
113,
65416,
65462,
65376,
5,
39,
35,
62,
65369,
58,
65457,
65503,
65513,
65519,
65420,
91,
51,
98,
65521,
49,
65432,
65457,
65501,
65459,
13,
65509,
8,
65489,
65397,
65470,
4,
65512,
65517,
65460,
65515,
65512,
49,
65398,
65402,
65475,
89,
65532,
65488,
65495,
65524,
4,
108,
19,
65457,
56,
81,
65461,
65438,
65505,
32,
65502,
45,
140,
15,
109,
42,
38,
65507,
116,
120,
114,
45,
60,
15,
67,
65467,
65466,
2,
53,
24,
97,
65430,
65404,
65449,
65493,
65468,
65509,
65369,
65394,
65485,
65365,
43,
136,
65492,
65456,
65502,
80,
25,
32,
38,
65522,
20,
39,
3,
24,
1,
65459,
65528,
65450,
16,
65521,
65497,
65466,
62,
65505,
65452,
65532,
65514,
64,
75,
65517,
26,
65529,
65504,
11,
65502,
90,
65443,
13,
65491,
65460,
81,
48,
6,
32,
86,
89,
198,
25,
84,
56,
236,
204,
93,
99,
20,
65463,
65510,
47,
69,
65518,
3,
8,
65502,
65432,
65420,
65471,
65497,
65480,
80,
57,
65531,
65470,
65452,
126,
65428,
65535,
49,
121,
65480,
3,
65494,
65458,
66,
4,
65333,
9,
119,
246,
357,
205,
65405,
57,
84,
214,
148,
119,
29,
15,
46,
65505,
65466,
65526,
65496,
65385,
65493,
47,
47,
50,
80,
65393,
65430,
65413,
65506,
65407,
65358,
65376,
65278,
65217,
65266,
65138,
65381,
65520,
65447,
8,
65422,
65473,
65459,
131,
96,
189,
227,
249,
147,
126,
272,
165,
65505,
356,
183,
65,
159,
47,
46,
289,
86,
65481,
65428,
137,
311,
45,
65391,
2,
65496,
65454,
65388,
65492,
23,
65465,
65517,
112,
78,
44,
72,
65465,
65521,
65477,
57,
120,
33,
65416,
65529,
33,
65450,
55,
65446,
62,
65477,
27,
36,
64,
81,
65501,
65411,
65473,
8,
65502,
65527,
65523,
65531,
52,
99,
18,
137,
65462,
4,
65438,
71,
109,
233,
71,
65522,
49,
88,
127,
119,
22,
34,
65440,
65428,
65524,
110,
65501,
41,
48,
53,
65518,
69,
65477,
9,
65528,
16,
0,
15,
27,
105,
22,
34,
93,
11,
65500,
65502,
65488,
65481,
65487,
65436,
45,
65514,
65381,
65450,
65509,
84,
69,
65525,
65453,
49,
65524,
42,
124,
65530,
65476,
47,
65496,
51,
92,
83,
90,
65529,
38,
35,
65196,
65365,
65353,
65347,
65381,
65434,
65443,
65292,
65517,
65470,
65465,
65505,
65475,
163,
63,
203,
76,
155,
84,
249,
65,
172,
233,
79,
108,
120,
268,
248,
416,
107,
65442,
42,
95,
466,
194,
65534,
65519,
37,
65496,
66,
65470,
226,
26,
65393,
65456,
65512,
65484,
65533,
71,
65440,
65486,
4,
65493,
48,
178,
65477,
63,
65528,
65501,
43,
38,
70,
25,
65478,
65509,
7,
64,
75,
65481,
65485,
65508,
30,
65401,
41,
65520,
65394,
65452,
6,
65400,
65388,
65432,
65433,
25,
73,
178,
156,
30,
65415,
65441,
198,
114,
65397,
65443,
65535,
65464,
145,
65522,
6,
65485,
65404,
117,
56,
55,
45,
65388,
65386,
65433,
65437,
22,
139,
253,
204,
177,
41,
69,
324,
234,
241,
40,
93,
65533,
33,
125,
65488,
65510,
42,
23,
37,
65414,
65477,
65503,
65489,
21,
65478,
65477,
0,
65455,
65393,
35,
95,
43,
140,
93,
65506,
8,
65466,
65498,
65355,
65472,
182,
65534,
324,
63,
148,
65531,
95,
65441,
331,
164,
320,
4,
65473,
87,
140,
78,
85,
32,
50,
65445,
9,
121,
24,
65459,
112,
66,
24,
65404,
65487,
65501,
159,
33,
22,
65499,
160,
97,
124,
184,
106,
117,
65418,
65518,
203,
65529,
65,
246,
70,
65462,
65338,
65454,
27,
218,
232,
65496,
65265,
30,
65534,
198,
46,
65401,
65370,
313,
26,
65463,
65442,
65443,
65527,
106,
99,
65477,
27,
121,
114,
65393,
6,
296,
65391,
61,
106,
65417,
109,
163,
151,
53,
65405,
65390,
86,
189,
291,
110,
65257,
65488,
227,
170,
216,
0,
65344,
144,
101,
65478,
60,
65533,
65457,
331,
1,
99,
121,
152,
90,
65514,
65477,
65415,
65472,
49,
87,
65434,
65450,
65514,
65465,
65399,
65340,
65375,
65348,
65434,
65447,
65406,
65526,
65449,
65441,
73,
65508,
65312,
3,
65522,
0,
65442,
65309,
65353,
65456,
65509,
2,
25,
65491,
144,
153,
98,
245,
111,
200,
61,
182,
12,
65532,
118,
107,
65449,
65519,
100,
153,
14,
5,
52,
65491,
19,
53,
101,
65507,
8,
67,
40,
80,
197,
65474,
65424,
67,
33,
129,
132,
216,
231,
20,
65528,
50,
275,
347,
64,
65470,
45,
226,
101,
116,
65422,
65459,
65389,
65474,
2,
65490,
65412,
65369,
65441,
65461,
65533,
4,
65431,
74,
65370,
9,
36,
6,
65423,
32,
65468,
115,
115,
80,
112,
99,
65458,
47,
48,
71,
25,
56,
65432,
143,
65525,
76,
76,
76,
8,
46,
65501,
94,
65400,
35,
84,
65494,
65437,
65513,
79,
77,
65491,
63,
58,
65524,
52,
65435,
86,
65511,
24,
25,
65475,
65459,
74,
65474,
14,
65454,
60,
10,
65466,
13,
25,
65503,
19,
45,
41,
65444,
82,
65526,
10,
65521,
82,
65453,
65491,
65524,
65526,
74,
65457,
78,
65503,
34,
65492,
65497,
149,
191,
118,
80,
97,
65528,
65,
94,
87,
135,
179,
1,
84,
86,
31,
20,
90,
65517,
3,
65466,
65442,
65415,
153,
56,
73,
12,
65437,
65463,
65480,
65433,
65494,
65448,
40,
65525,
65517,
65482,
65462,
65492,
65474,
65444,
65475,
65472,
66,
65505,
84,
83,
65455,
65470,
65514,
67,
65468,
12,
65513,
77,
58,
65520,
68,
65490,
65526,
65481,
65508,
65454,
27,
65472,
65503,
75,
65,
80,
65499,
65523,
65519,
74,
65489,
34,
32,
268,
36,
96,
47,
122,
140,
263,
83,
101,
29,
140,
136,
67,
65463,
65506,
65414,
21,
51,
65521,
65428,
31,
65430,
65528,
65399,
65532,
65448,
65497,
65495,
65450,
65490,
153,
15,
21,
79,
65503,
65487,
1,
51,
65457,
13,
18,
12,
65531,
65535,
75,
65533,
51,
62,
65532,
31,
82,
65514,
65522,
65530,
65479,
65523,
65472,
27,
65512,
65504,
51,
65460,
65510,
65489,
65485,
46,
65474,
65514,
15,
155,
65,
53,
131,
112,
26,
141,
40,
4,
5,
159,
78,
26,
65338,
65346,
65337,
48,
65501,
65354,
65189,
65410,
65499,
65448,
65427,
65328,
65483,
40,
56,
65337,
65447,
117,
130,
65526,
65364,
68,
96,
65499,
68,
65500,
28,
65433,
65466,
65495,
29,
47,
126,
46,
49,
88,
65468,
123,
78,
58,
65506,
25,
110,
65518,
36,
199,
106,
65429,
65500,
29,
65452,
85,
19,
9,
65411,
65529,
65422,
65445,
65389,
268,
281,
369,
297,
10,
65383,
17,
7,
19,
65494,
94,
65411,
17,
65330,
65300,
65276,
65432,
65394,
65530,
65421,
65357,
65282,
65321,
65517,
27,
65468,
65292,
65334,
65386,
194,
36,
142,
244,
65487,
126,
40,
65456,
65408,
65379,
65390,
65457,
65495,
65,
65514,
65447,
6,
140,
31,
65485,
65419,
65464,
65428,
139,
65469,
43,
65258,
65366,
65451,
65462,
44,
65521,
65404,
65481,
65428,
65456,
65451,
124,
8,
65525,
93,
118,
65494,
261,
127,
181,
76,
70,
95,
65510,
65387,
65494,
19,
28,
204,
65522,
65287,
65143,
65129,
65356,
65421,
65426,
65215,
65366,
65253,
65268,
65523,
65399,
65354,
65323,
65355,
65210,
65457,
65465,
65482,
65364,
65249,
65444,
3,
25,
28,
15,
65474,
84,
3,
31,
65476,
65409,
65364,
74,
8,
23,
9,
65459,
65356,
65504,
95,
83,
65458,
65463,
65482,
65521,
56,
149,
1,
65473,
65325,
65420,
54,
70,
57,
89,
65520,
65535,
80,
65460,
65376,
65445,
65269,
65456,
65384,
56,
65448,
121,
53,
53,
65372,
204,
93,
247,
64,
309,
283,
194,
263,
149,
161,
302,
168,
114,
28,
188,
58,
82,
103,
65426,
65521,
65408,
41,
65472,
65501,
92,
2,
17,
39,
30,
42,
65471,
65513,
54,
30,
65502,
65525,
65476,
36,
65508,
61,
40,
65486,
90,
65507,
27,
65513,
65440,
65463,
27,
65470,
65534,
65450,
82,
65506,
65461,
65,
89,
65443,
65453,
35,
56,
160,
35,
93,
65504,
65455,
31,
183,
306,
236,
306,
65524,
65487,
132,
32,
121,
124,
65512,
10,
11,
11,
3,
75,
23,
65488,
14,
65428,
43,
23,
65364,
65493,
65532,
8,
65517,
52,
65481,
24,
5,
65355,
65294,
65417,
238,
89,
65436,
65352,
65379,
65384,
143,
16,
65422,
65478,
65476,
65489,
134,
155,
65525,
65524,
63,
65465,
36,
26,
65527,
65510,
65457,
65510,
20,
78,
65472,
65514,
65397,
65486,
24,
2,
0,
65333,
54,
65408,
58,
147,
65515,
65497,
65429,
65388,
65517,
26,
65487,
65298,
65371,
65365,
65335,
65534,
65416,
30,
65507,
65217,
65483,
65394,
65484,
65491,
65357,
65426,
13,
18,
65335,
65172,
65277,
65507,
184,
65446,
99,
93,
70,
43,
65531,
19,
91,
65507,
60,
122,
65424,
124,
181,
172,
65495,
65513,
65280,
18,
65512,
65507,
41,
65506,
65467,
65534,
65456,
1,
65421,
107,
14,
65439,
138,
65465,
60,
170,
65395,
80,
34,
12,
81,
13,
65487,
70,
46,
12,
65499,
86,
65535,
65463,
51,
65443,
5,
58,
42,
7,
65469,
35,
65479,
32,
85,
49,
61,
65470,
39,
65456,
65450,
65465,
51,
92,
22,
1,
76,
31,
14,
60,
65472,
65515,
108,
65459,
105,
80,
58,
65349,
58,
65532,
65523,
73,
65378,
65442,
75,
34,
80,
73,
65358,
65433,
152,
65494,
65416,
10,
65344,
65450,
125,
65374,
23,
65521,
65517,
65521,
65514,
65417,
65390,
65372,
65521,
65346,
65521,
65453,
65409,
65525,
65425,
65501,
19,
198,
104,
65457,
65297,
65512,
252,
80,
65500,
45,
65387,
47,
168,
100,
30,
65484,
65498,
67,
82,
65485,
65420,
65323,
65441,
65351,
65510,
65363,
59,
65503,
65526,
65505,
16,
65525,
7,
65529,
65512,
65379,
61,
11,
168,
147,
114,
92,
62,
65513,
98,
65525,
102,
65516,
65472,
109,
24,
86,
37,
65526,
40,
65437,
97,
15,
5,
65525,
65499,
100,
53,
45,
82,
35,
65509,
32,
17,
2,
22,
65449,
65477,
65461,
65491,
65508,
65471,
51,
20,
75,
13,
65499,
65463,
65519,
65450,
5,
28,
43,
65475,
15,
30,
75,
39,
65505,
65532,
65509,
59,
65394,
65535,
65472,
65,
65509,
65471,
85,
124,
3,
92,
65425,
65527,
97,
65512,
63,
65522,
65388,
65486,
102,
65496,
65470,
65433,
65475,
90,
77,
25,
65534,
65482,
110,
65480,
57,
25,
65495,
9,
30,
65452,
65419,
65369,
90,
65393,
65487,
19,
53,
105,
359,
109,
44,
65515,
65442,
136,
245,
238,
65502,
65514,
80,
125,
65518,
63,
341,
82,
53,
65521,
171,
65522,
42,
65534,
19,
65485,
146,
113,
65470,
65426,
53,
81,
97,
22,
65511,
65495,
32,
65523,
50,
21,
65460,
40,
65484,
48,
77,
65453,
40,
65485,
65431,
89,
65482,
3,
65464,
53,
43,
104,
85,
50,
65511,
65451,
26,
65503,
10,
40,
5,
65514,
65472,
65443,
39,
65503,
65461,
56,
57,
65496,
100,
65493,
65489,
44,
77,
107,
86,
65468,
65471,
117,
65459,
10,
64,
65460,
65483,
6,
65421,
72,
97,
65482,
162,
137,
65504,
65514,
32,
38,
28,
137,
65446,
65529,
58,
40,
123,
167,
65330,
161,
157,
45,
98,
129,
40,
49,
106,
65474,
65498,
65380,
65403,
33,
65511,
65417,
65475,
65535,
12,
64,
65499,
65447,
65482,
65466,
65502,
74,
24,
99,
115,
33,
65502,
19,
65481,
65410,
65418,
65511,
65418,
54,
65522,
37,
67,
17,
65484,
65482,
55,
65533,
96,
175,
11,
65490,
52,
65518,
198,
203,
8,
45,
65351,
65365,
92,
214,
65437,
65473,
55,
80,
65513,
65506,
65498,
100,
96,
148,
94,
36,
8,
273,
350,
217,
260,
65494,
67,
79,
179,
111,
65470,
65399,
65517,
56,
65531,
65529,
65526,
65478,
65481,
65491,
65525,
65516,
65523,
65349,
65501,
65451,
65420,
65503,
22,
65526,
65413,
65428,
65400,
65422,
65489,
24,
65459,
65362,
65499,
2,
65462,
65465,
65535,
65,
65461,
65496,
65372,
65336,
65466,
65524,
39,
65535,
65488,
65429,
7,
92,
65496,
29,
65485,
65516,
50,
65451,
65486,
65462,
65514,
113,
24,
65502,
65411,
65419,
65403,
65492,
65428,
65484,
40,
65442,
65423,
65515,
78,
71,
93,
57,
115,
16,
65479,
103,
239,
170,
36,
101,
125,
129,
65529,
76,
72,
65498,
51,
52,
65453,
65525,
71,
65524,
260,
75,
84,
65496,
153,
248,
183,
128,
68,
65378,
65422,
231,
2,
200,
200,
74,
65519,
65521,
67,
174,
27,
198,
65532,
65515,
2,
65520,
27,
43,
65411,
65528,
138,
65466,
65383,
65329,
65507,
43,
65429,
13,
65447,
103,
65479,
65365,
26,
65396,
99,
40,
49,
65350,
65344,
65483,
65431,
65511,
6,
65394,
65411,
65465,
65379,
65347,
65332,
65464,
65472,
65512,
65497,
65364,
65485,
65466,
41,
65316,
65437,
65385,
29,
49,
168,
221,
100,
14,
200,
197,
41,
17,
65481,
65314,
65480,
299,
65395,
65293,
65232,
65309,
65271,
65485,
40,
65358,
65285,
65190,
65301,
161,
65434,
7,
65452,
65368,
65288,
38,
65514,
47,
32,
65253,
65404,
124,
65397,
65500,
65460,
65289,
65344,
11,
98,
135,
263,
217,
57,
120,
2,
159,
341,
229,
4,
149,
94,
177,
65459,
3,
169,
142,
103,
156,
140,
65493,
232,
88,
65375,
65446,
189,
211,
109,
2,
47,
54,
58,
22,
65531,
51,
65465,
126,
71,
65452,
65461,
65527,
5,
119,
104,
29,
32,
4,
82,
88,
65466,
65517,
65495,
65371,
65428,
40,
65467,
10,
27,
0,
65510,
81,
57,
97,
36,
74,
15,
65524,
22,
16,
65378,
65323,
58,
68,
28,
65437,
135,
65349,
65495,
65465,
65496,
21,
65530,
65399,
54,
65452,
65500,
25,
90,
65339,
65432,
65459,
65508,
65508,
88,
44,
155,
65479,
2,
66,
85,
65515,
65427,
61,
154,
173,
121,
24,
14,
61,
31,
65470,
78,
65509,
107,
65389,
65469,
65480,
65469,
65508,
19,
65367,
65431,
65411,
65468,
11,
65518,
65502,
65521,
65512,
97,
65458,
65445,
117,
13,
49,
35,
65437,
4,
65516,
65505,
65470,
107,
110,
65469,
65392,
65359,
65355,
65452,
27,
46,
65467,
65474,
65368,
3,
65520,
65419,
69,
114,
50,
65448,
65481,
65517,
10,
139,
5,
65476,
56,
4,
9,
74,
65490,
60,
51,
65467,
65308,
65416,
65505,
65417,
65470,
19,
65362,
65446,
24,
65358,
65485,
65507,
65450,
14,
65432,
12,
79,
185,
97,
187,
148,
100,
29,
49,
30,
163,
190,
66,
112,
65531,
72,
196,
57,
41,
180,
65456,
65479,
65434,
65405,
65291,
65403,
65493,
65405,
65513,
38,
65503,
140,
29,
65432,
65446,
65436,
65483,
77,
5,
65389,
65449,
65439,
65450,
160,
65527,
65524,
65483,
65384,
85,
130,
65403,
65385,
65352,
65362,
65406,
91,
2,
65456,
65394,
39,
65473,
6,
65446,
65426,
65503,
65473,
65533,
15,
56,
90,
35,
65479,
65516,
65365,
65518,
16,
62,
65517,
8,
65479,
65516,
65468,
13,
90,
65460,
2,
13,
65406,
47,
32,
101,
100,
65478,
65511,
30,
80,
65435,
65482,
65517,
65458,
89,
130,
65439,
65530,
147,
26,
65484,
65453,
139,
244,
112,
65288,
65376,
65374,
35,
149,
69,
64,
65467,
65411,
65484,
96,
1,
65501,
8,
12,
97,
65488,
65419,
59,
9,
67,
7,
65419,
65457,
65429,
65431,
65468,
38,
38,
65464,
100,
76,
126,
117,
8,
17,
171,
63,
7,
65532,
27,
65528,
65507,
65528,
104,
151,
162,
73,
74,
53,
111,
51,
143,
140,
186,
121,
74,
23,
65480,
65443,
65324,
65233,
65132,
65315,
65521,
46,
65396,
65413,
65397,
65449,
65442,
168,
65402,
65339,
65261,
65401,
118,
94,
205,
62,
2,
65514,
31,
65426,
139,
197,
119,
88,
124,
82,
13,
65464,
65516,
94,
91,
65473,
65349,
65369,
65429,
98,
65456,
65290,
65445,
122,
110,
65260,
65292,
65474,
129,
55,
35,
20,
65329,
65500,
65509,
70,
40,
65469,
65423,
114,
47,
100,
65423,
65418,
107,
223,
231,
167,
125,
5,
111,
65481,
53,
65395,
65513,
65504,
11,
65493,
65328,
65348,
65309,
65301,
31,
65484,
65373,
65322,
65182,
65316,
12,
33,
65439,
65341,
65304,
65500,
186,
65388,
62,
58,
65431,
43,
65411,
37,
33,
65482,
65521,
87,
46,
65487,
92,
65527,
65456,
65468,
35,
5,
65461,
65467,
71,
65463,
35,
67,
65473,
65450,
65514,
2,
65471,
48,
86,
65476,
65481,
65479,
65521,
94,
34,
1,
13,
8,
53,
10,
150,
233,
212,
86,
34,
143,
65510,
65401,
65297,
65434,
65468,
41,
65408,
30,
36,
65469,
22,
120,
153,
65439,
65413,
65451,
65470,
115,
124,
65498,
65512,
65494,
107,
83,
220,
5,
133,
37,
27,
65472,
65460,
65403,
63,
65464,
65246,
65454,
65409,
65462,
65426,
65484,
65368,
65425,
65446,
19,
65438,
65431,
65474,
50,
106,
16,
65502,
65437,
11,
66,
49,
37,
27,
25,
90,
14,
15,
124,
37,
37,
65441,
46,
65497,
65370,
65419,
65503,
88,
52,
186,
235,
65398,
65463,
4,
65495,
328,
402,
404,
72,
65455,
65396,
281,
242,
443,
83,
65366,
28,
92,
282,
196,
49,
65374,
162,
141,
105,
198,
62,
65456,
29,
125,
89,
65492,
65465,
65338,
98,
65495,
51,
65454,
65481,
65337,
28,
65527,
65495,
65452,
16,
4,
74,
86,
65534,
65520,
270,
147,
176,
47,
64,
25,
61,
254,
65511,
33,
159,
168,
81,
96,
65497,
65470,
71,
47,
65504,
77,
18,
65495,
65514,
65491,
26,
65526,
65505,
72,
69,
6,
25,
65478,
86,
65458,
65507,
65443,
66,
65483,
65444,
65531,
65441,
65463,
87,
19,
65492,
65502,
65527,
65468,
94,
18,
107,
289,
167,
44,
99,
90,
152,
177,
242,
243,
206,
110,
101,
79,
65521,
56,
42,
65507,
65452,
44,
65452,
65379,
45,
65533,
27,
29,
65507,
65493,
65428,
65383,
83,
1,
28,
88,
177,
14,
127,
18,
65517,
65425,
65412,
186,
65523,
64,
88,
178,
65507,
65465,
21,
135,
159,
194,
99,
65413,
65533,
5,
13,
103,
65512,
40,
65512,
92,
123,
107,
48,
15,
34,
60,
28,
65504,
66,
54,
65445,
45,
65488,
49,
65449,
65410,
70,
65444,
129,
171,
56,
65497,
33,
65450,
59,
65510,
71,
65449,
65533,
65432,
65495,
65504,
27,
55,
65478,
65534,
92,
65450,
126,
65526,
65470,
65509,
65468,
94,
65495,
77,
179,
72,
65494,
65461,
56,
175,
107,
65515,
65411,
65339,
65389,
13,
65528,
43,
89,
65465,
65350,
65382,
2,
65530,
137,
228,
77,
65529,
55,
65350,
90,
157,
65473,
65475,
74,
37,
1,
65351,
65500,
31,
65452,
65516,
65415,
65380,
65452,
65316,
65406,
157,
65506,
19,
33,
65330,
0,
254,
173,
158,
223,
39,
2,
251,
169,
65473,
147,
254,
44,
65502,
65511,
65524,
74,
204,
65403,
65515,
49,
1,
65432,
89,
84,
65453,
65432,
65530,
56,
65476,
65500,
65473,
83,
118,
160,
33,
65408,
18,
65365,
65505,
65502,
65345,
65386,
65376,
65474,
29,
65479,
65493,
65415,
65470,
65447,
42,
65427,
65518,
112,
65400,
65473,
65408,
68,
82,
157,
65510,
65379,
65428,
117,
208,
13,
65431,
65373,
65383,
120,
9,
8,
65445,
65476,
65529,
18,
12,
65454,
1,
36,
12,
43,
100,
65419,
6,
65493,
65452,
65411,
145,
65514,
65467,
38,
65514,
1,
23,
51,
29,
65492,
65460,
65384,
65414,
65323,
65412,
65428,
4,
65357,
65447,
65388,
65485,
42,
65526,
65497,
65437,
65417,
261,
114,
65297,
65477,
69,
37,
65495,
65515,
65453,
161,
103,
65438,
65440,
110,
113,
165,
65388,
65529,
3,
7,
7,
14,
81,
83,
86,
65527,
65511,
3,
70,
65476,
70,
65456,
65476,
12,
65527,
81,
19,
11,
65450,
65483,
65449,
65524,
65505,
89,
15,
65505,
65534,
65534,
15,
65478,
65499,
94,
8,
29,
30,
65484,
27,
65495,
107,
51,
65512,
27,
65478,
49,
25,
65485,
43,
65492,
65525,
65484,
107,
65423,
15,
37,
65468,
65499,
43,
65475,
65487,
65480,
24,
62,
62,
65518,
65470,
65532,
65531,
38,
128,
65434,
12,
65426,
65480,
65524,
65401,
65531,
111,
21,
85,
65506,
79,
65423,
65474,
77,
75,
162,
65449,
65454,
17,
65479,
40,
56,
65518,
65423,
65522,
48,
65528,
65532,
65495,
60,
65471,
54,
65525,
23,
65380,
65531,
65507,
65360,
65490,
64,
141,
161,
65429,
65469,
65407,
65354,
55,
49,
113,
190,
114,
17,
65424,
56,
120,
363,
477,
174,
65249,
65446,
143,
318,
243,
65513,
65367,
435,
204,
65384,
65533,
65421,
102,
26,
126,
18,
65523,
65447,
65531,
65494,
1,
116,
123,
76,
118,
57,
65422,
65443,
65480,
197,
303,
32,
65487,
65440,
65451,
181,
262,
201,
69,
36,
65523,
19,
105,
25,
65515,
65450,
59,
121,
65402,
154,
17,
114,
65533,
65408,
65483,
136,
6,
6,
121,
65434,
65503,
65451,
100,
248,
161,
65493,
65417,
65531,
12,
8,
1,
77,
151,
35,
25,
65514,
65525,
73,
99,
50,
65527,
29,
81,
65519,
65525,
65498,
65363,
65505,
65447,
65479,
23,
55,
65371,
65301,
65284,
65390,
6,
17,
65462,
65507,
65472,
16,
213,
154,
152,
161,
86,
197,
29,
193,
95,
146,
83,
59,
207,
65504,
172,
173,
19,
65524,
65428,
142,
87,
96,
65523,
34,
65380,
75,
65526,
26,
71,
15,
65489,
65394,
65352,
65435,
65504,
65480,
65401,
65524,
65525,
65346,
65435,
65386,
23,
49,
2,
65474,
65382,
65526,
172,
65451,
65502,
65526,
65480,
172,
79,
65533,
65382,
65486,
135,
104,
121,
65408,
65448,
65523,
65452,
65496,
129,
65524,
65449,
65505,
65397,
65337,
65401,
208,
6,
93,
43,
65330,
65287,
65534,
2,
71,
65478,
65449,
65334,
247,
65465,
15,
17,
65475,
65400,
65516,
65516,
65423,
65290,
65490,
65480,
65497,
65295,
34,
65369,
65535,
65453,
81,
5,
65511,
65359,
65480,
130,
77,
94,
65524,
56,
168,
65506,
68,
65490,
53,
65512,
25,
65487,
99,
65523,
38,
65410,
79,
65504,
340,
194,
202,
70,
332,
140,
221,
65512,
65339,
65354,
42,
35,
20,
65407,
65401,
65303,
65333,
65430,
147,
65384,
65448,
65494,
65341,
65485,
65371,
9,
65441,
65448,
65426,
65521,
75,
65485,
65419,
65331,
65398,
13,
82,
65450,
65421,
65528,
77,
65457,
51,
65482,
35,
65518,
48,
66,
114,
65350,
65299,
65347,
65486,
65509,
65440,
65340,
65211,
65406,
28,
54,
65412,
65485,
65423,
65367,
62,
65488,
65534,
12,
54,
65352,
65508,
24,
65471,
87,
65504,
74,
69,
43,
111,
59,
132,
56,
184,
27,
65352,
65524,
46,
10,
65527,
26,
65341,
65464,
65529,
65515,
65515,
65466,
65496,
65495,
146,
65425,
65481,
65217,
67,
65484,
65421,
65342,
65363,
65488,
59,
121,
159,
210,
78,
65534,
65533,
157,
74,
127,
65393,
65390,
65470,
159,
268,
142,
65301,
65382,
65455,
334,
345,
342,
65521,
65332,
66,
108,
221,
203,
86,
65369,
76,
140,
219,
269,
29,
26,
65521,
37,
14,
14,
65401,
23,
42,
83,
96,
157,
45,
65524,
65501,
65498,
117,
46,
204,
48,
65516,
65423,
65528,
65503,
108,
132,
65476,
65462,
31,
65502,
17,
75,
65431,
65360,
65520,
16,
65522,
65353,
121,
101,
65,
65417,
65503,
60,
4,
67,
111,
3,
65382,
65416,
26,
29,
150,
177,
18,
65476,
65465,
49,
151,
212,
65529,
65474,
30,
65478,
65510,
21,
65471,
65472,
27,
70,
65478,
65382,
44,
65534,
65450,
46,
108,
124,
141,
47,
65469,
154,
75,
91,
92,
65520,
58,
221,
213,
221,
65442,
65490,
65407,
130,
174,
78,
65340,
65473,
113,
71,
65464,
65484,
65465,
65489,
53,
65521,
127,
38,
68,
45,
65488,
65483,
68,
45,
65452,
65528,
23,
69,
65523,
65486,
65505,
67,
27,
65453,
42,
76,
74,
65500,
41,
65441,
65519,
65457,
65486,
65461,
65479,
65505,
30,
22,
65486,
65511,
65505,
8,
65523,
65488,
13,
57,
65276,
65348,
65331,
65496,
65486,
88,
65406,
65372,
65328,
65443,
65262,
65499,
129,
65499,
65412,
65344,
65448,
410,
156,
79,
38,
120,
65506,
139,
65451,
65532,
144,
194,
114,
77,
65415,
65455,
65518,
58,
65441,
78,
155,
201,
32,
184,
162,
217,
284,
210,
91,
8,
65412,
148,
65417,
65486,
18,
65455,
65414,
65450,
38,
65475,
36,
23,
65419,
65276,
65355,
65479,
65512,
87,
65347,
65188,
135,
65524,
65318,
65274,
65372,
34,
12,
65461,
70,
65522,
102,
110,
65478,
65473,
11,
134,
166,
65529,
65477,
65417,
65243,
65273,
65413,
65,
65419,
65302,
65324,
65094,
65451,
102,
54,
65513,
65305,
65199,
65422,
99,
65372,
65508,
89,
65364,
65419,
65510,
67,
65455,
65470,
12,
65466,
48,
65502,
76,
24,
63,
65470,
43,
65504,
81,
192,
236,
16,
87,
65518,
115,
79,
220,
35,
7,
28,
77,
74,
86,
35,
51,
8,
65530,
65506,
104,
29,
18,
13,
65483,
145,
213,
61,
0,
21,
51,
77,
99,
140,
65510,
124,
24,
65514,
18,
100,
85,
91,
65391,
65365,
65424,
123,
252,
65533,
65456,
65426,
24,
115,
74,
65531,
65510,
43,
33,
65509,
24,
73,
61,
79,
65402,
65437,
65476,
65454,
65413,
75,
11,
65310,
65460,
65513,
103,
65483,
65525,
1,
65530,
109,
65502,
171,
247,
119,
65492,
62,
44,
43,
105,
9,
96,
34,
65535,
65405,
27,
49,
43,
72,
43,
41,
65479,
20,
15,
65517,
31,
40,
65438,
65433,
37,
65504,
65479,
65446,
65439,
65468,
49,
65492,
65524,
65464,
20,
71,
4,
65496,
65494,
65481,
65513,
69,
65459,
73,
64,
32,
17,
65454,
65490,
65485,
24,
21,
65487,
65340,
88,
65442,
65404,
65479,
65422,
65384,
65447,
18,
65410,
65429,
65377,
65534,
149,
71,
143,
65507,
58,
9,
255,
65,
51,
81,
82,
65528,
107,
73,
106,
65533,
112,
50,
65448,
65496,
16,
62,
80,
49,
65430,
22,
126,
207,
216,
28,
65492,
75,
77,
50,
92,
65386,
65361,
16,
65403,
65418,
65495,
65428,
16,
65510,
19,
23,
37,
80,
53,
48,
66,
65524,
22,
36,
65465,
102,
39,
137,
142,
65446,
65388,
50,
155,
308,
140,
65454,
65514,
51,
72,
77,
65435,
65528,
65405,
65444,
65295,
65426,
65355,
65454,
65345,
65449,
65518,
65423,
65455,
65410,
35,
252,
65411,
65301,
65410,
63,
51,
131,
65532,
169,
172,
257,
299,
142,
55,
65400,
65386,
65404,
81,
65498,
65481,
65406,
65441,
65338,
65489,
215,
65516,
65432,
65486,
65455,
62,
65471,
65518,
79,
65457,
65419,
65257,
84,
65340,
65388,
65334,
65289,
65420,
65418,
56,
65390,
17,
65472,
48,
65354,
23,
62,
65471,
25,
21,
65508,
143,
142,
59,
73,
69,
65530,
229,
342,
318,
124,
65524,
54,
100,
3,
114,
65458,
62,
65437,
65355,
65452,
133,
65465,
70,
129,
19,
29,
65491,
65510,
7,
39,
60,
268,
204,
65535,
60,
135,
17,
81,
0,
289,
170,
94,
9,
65500,
65450,
222,
199,
17,
4,
65454,
81,
65508,
3,
65513,
65517,
65505,
70,
65,
65480,
