memory_initialization_radix=10;
memory_initialization_vector =
65524,
65521,
65402,
65324,
65207,
65226,
140,
131,
65,
41,
73,
4,
179,
65489,
166,
237,
99,
65482,
176,
35,
70,
158,
104,
107,
65522,
65485,
29,
65452,
50,
93,
1,
54,
65498,
74,
19,
65479,
65403,
10,
65363,
65366,
65489,
65416,
55,
88,
45,
65535,
197,
33,
65517,
65411,
69,
193,
179,
65478,
65448,
65399,
68,
213,
65437,
65344,
65328,
65417,
65448,
65488,
65490,
41,
65440,
65486,
65374,
22,
28,
65463,
65452,
65514,
216,
60,
72,
65408,
65428,
65410,
187,
194,
92,
65348,
65504,
65453,
202,
223,
125,
2,
65494,
96,
79,
43,
183,
65433,
65442,
65431,
18,
65515,
164,
65526,
65433,
65527,
5,
65481,
65473,
24,
65485,
15,
65377,
117,
65447,
68,
65535,
145,
65489,
65478,
65428,
298,
65496,
65439,
65512,
65525,
65520,
50,
65509,
65472,
65466,
65484,
65282,
3,
65421,
65415,
65315,
65489,
65449,
88,
17,
65440,
0,
65509,
65410,
65484,
21,
6,
65532,
65516,
82,
79,
63,
8,
31,
65525,
52,
65443,
69,
65491,
82,
83,
65452,
65529,
65452,
65479,
65463,
65449,
65517,
73,
65454,
40,
65526,
65441,
65507,
65468,
65478,
65514,
65528,
89,
90,
65487,
65480,
65434,
65358,
65532,
38,
65341,
4,
57,
158,
226,
137,
65463,
65526,
115,
83,
213,
98,
65476,
65482,
18,
91,
84,
65497,
11,
65436,
46,
65465,
28,
40,
65482,
65443,
65435,
65483,
65339,
65470,
65484,
65435,
65341,
43,
132,
189,
153,
65520,
12,
133,
99,
216,
161,
74,
65503,
213,
224,
267,
39,
33,
7,
65520,
65522,
77,
65362,
65460,
7,
23,
65488,
65423,
65513,
65526,
65535,
65448,
36,
65469,
65497,
36,
30,
65496,
65345,
65189,
65258,
65484,
24,
65347,
65230,
65231,
65421,
83,
65471,
65319,
65505,
65451,
3,
65528,
65530,
65385,
65449,
65496,
65475,
104,
97,
72,
65520,
75,
53,
65452,
65522,
65485,
36,
65426,
65509,
65506,
65468,
65519,
70,
249,
179,
65501,
65530,
65529,
65484,
140,
76,
65450,
33,
111,
65529,
34,
82,
64,
65469,
123,
2,
65530,
36,
65513,
65513,
65464,
56,
4,
131,
41,
15,
65520,
65491,
77,
77,
65447,
9,
46,
65399,
65435,
65399,
65493,
65532,
55,
65518,
65513,
29,
65456,
65524,
22,
65502,
14,
65376,
7,
61,
25,
65382,
111,
65458,
18,
20,
65509,
65472,
132,
65531,
71,
45,
113,
3,
65525,
115,
60,
65474,
65448,
80,
65468,
65487,
11,
65467,
65532,
29,
67,
47,
65492,
65491,
0,
18,
65464,
73,
65457,
29,
52,
65442,
65516,
65510,
65480,
65458,
65519,
6,
76,
78,
65463,
65527,
20,
65528,
10,
27,
65448,
65517,
65496,
65381,
65280,
65381,
65452,
65533,
65420,
65515,
65295,
65411,
65411,
50,
65441,
65424,
65389,
65321,
65425,
65516,
65508,
1,
65511,
65476,
3,
65485,
48,
46,
10,
65470,
65407,
65496,
65485,
65498,
65531,
65513,
65530,
44,
65416,
65353,
65227,
65378,
25,
65508,
65420,
65314,
65469,
65410,
60,
65427,
65425,
25,
65409,
65419,
70,
65495,
65495,
65436,
65454,
65509,
65526,
65500,
1,
65357,
65369,
65435,
65513,
80,
117,
40,
77,
65422,
41,
65527,
71,
65362,
48,
65473,
65426,
65510,
211,
65424,
16,
65412,
111,
42,
375,
81,
55,
65399,
65498,
63,
332,
151,
65531,
90,
65441,
90,
83,
172,
65466,
65457,
65483,
65491,
65409,
29,
65372,
65467,
5,
73,
34,
65445,
65529,
36,
74,
65392,
65440,
143,
66,
3,
48,
65475,
65524,
24,
120,
175,
65508,
60,
65534,
34,
54,
60,
65523,
151,
127,
65,
10,
56,
46,
99,
70,
131,
65515,
126,
71,
65472,
56,
65426,
26,
65456,
65488,
45,
75,
65478,
26,
82,
109,
65512,
39,
31,
65498,
139,
65531,
78,
16,
31,
65464,
65477,
71,
47,
65489,
65442,
65420,
65494,
9,
65486,
65534,
65466,
26,
65488,
46,
65522,
65506,
65528,
65516,
65466,
65445,
72,
65509,
13,
10,
65460,
65484,
44,
65520,
104,
65494,
65464,
65478,
77,
65508,
47,
89,
65517,
65476,
65489,
2,
65517,
30,
77,
65453,
65476,
45,
65459,
65440,
65458,
65507,
65394,
65273,
65521,
374,
65443,
65495,
65486,
50,
49,
107,
65353,
198,
254,
304,
65442,
37,
65,
77,
94,
209,
227,
65528,
65,
2,
88,
27,
203,
65522,
65337,
65448,
70,
65433,
65518,
65411,
65411,
1,
213,
7,
65350,
65410,
65309,
187,
113,
65476,
65317,
65425,
65524,
61,
85,
65416,
65499,
22,
1,
165,
61,
136,
65522,
65504,
210,
108,
112,
165,
72,
65459,
65525,
175,
70,
65496,
113,
62,
40,
65531,
65382,
65283,
65265,
65302,
65310,
104,
65498,
117,
29,
23,
95,
77,
12,
50,
217,
94,
182,
42,
65438,
199,
141,
121,
131,
190,
86,
39,
65459,
151,
65468,
65492,
65428,
39,
167,
70,
65422,
65439,
65533,
63,
65408,
65286,
65321,
0,
65501,
65386,
65431,
65206,
65320,
16,
65496,
65361,
65355,
65423,
65438,
65496,
17,
65453,
65495,
65524,
65531,
65519,
14,
173,
93,
65516,
65527,
65501,
65523,
74,
65451,
65491,
65451,
65526,
242,
136,
199,
4,
229,
20,
171,
65495,
65445,
30,
105,
65529,
220,
112,
65326,
70,
65507,
67,
113,
238,
137,
82,
129,
7,
173,
188,
177,
61,
177,
28,
26,
114,
103,
65492,
66,
129,
165,
258,
494,
54,
221,
65436,
65492,
91,
139,
65532,
75,
65291,
104,
65525,
65317,
65412,
65486,
65535,
20,
65507,
94,
65451,
65472,
65321,
57,
230,
65520,
65534,
72,
65521,
65528,
68,
6,
65496,
71,
105,
165,
319,
112,
65282,
156,
65507,
65430,
65401,
65481,
65418,
65237,
65381,
65453,
2,
65449,
65360,
65428,
44,
65494,
65487,
65525,
65523,
65484,
50,
108,
234,
145,
33,
35,
154,
92,
38,
93,
65426,
65445,
65409,
65509,
57,
44,
65373,
123,
65512,
65516,
65456,
65377,
65364,
65503,
65374,
65307,
65410,
65238,
65381,
10,
65523,
65500,
65379,
65196,
42,
65466,
65449,
65496,
65290,
65402,
65530,
65520,
39,
65459,
65379,
65451,
65452,
147,
65482,
41,
65505,
325,
375,
187,
65463,
41,
160,
415,
122,
296,
65385,
256,
173,
89,
70,
15,
65494,
6,
111,
208,
16,
65512,
32,
65494,
183,
65518,
50,
103,
22,
65535,
38,
65443,
65491,
115,
65444,
65478,
65292,
65154,
65175,
65389,
43,
65491,
65290,
65267,
65190,
65528,
57,
6,
65199,
65283,
65378,
55,
137,
65494,
65456,
65363,
65147,
65504,
105,
91,
86,
65407,
83,
112,
98,
30,
119,
123,
65503,
26,
65473,
65515,
65269,
65187,
65282,
65458,
36,
65445,
65432,
65426,
65261,
20,
156,
65470,
65364,
65406,
65444,
56,
65511,
17,
65435,
65279,
65404,
65448,
62,
35,
65464,
65441,
32,
65492,
0,
52,
65529,
65527,
65463,
65500,
65470,
33,
65501,
65466,
65484,
65533,
77,
65,
13,
65493,
59,
65487,
65520,
33,
36,
65469,
65494,
49,
80,
65507,
65511,
55,
73,
65430,
67,
65468,
81,
47,
55,
47,
78,
65532,
50,
65475,
61,
65502,
65489,
65449,
65487,
65489,
65432,
65486,
9,
65463,
8,
65382,
65372,
65375,
65530,
65480,
65506,
65524,
32,
65465,
19,
30,
65489,
45,
65518,
65451,
0,
12,
76,
21,
52,
65499,
65395,
72,
65456,
15,
65506,
65473,
65513,
50,
29,
65509,
82,
65500,
65483,
65444,
65499,
65513,
65465,
1,
89,
65499,
65438,
10,
24,
2,
88,
65456,
91,
82,
42,
63,
89,
18,
79,
14,
47,
65448,
24,
65518,
12,
50,
65457,
65443,
65521,
132,
65352,
65340,
65201,
65492,
68,
65390,
65402,
65267,
65316,
48,
15,
65412,
65326,
65303,
65401,
24,
65535,
65506,
65415,
65402,
65307,
50,
88,
73,
144,
65449,
65533,
65,
20,
65441,
48,
47,
2,
59,
41,
65467,
51,
65463,
86,
65499,
65496,
36,
65443,
18,
4,
30,
65448,
65522,
65476,
15,
65516,
16,
65466,
68,
65434,
82,
65472,
65480,
74,
65479,
80,
55,
53,
13,
65510,
70,
35,
65442,
11,
67,
65465,
65487,
128,
91,
65511,
96,
5,
65517,
65523,
65444,
65378,
112,
65434,
65331,
65333,
65465,
42,
9,
65464,
65507,
65410,
111,
90,
77,
65417,
65421,
65411,
66,
45,
65478,
65485,
87,
65380,
74,
65529,
65463,
65457,
65518,
65472,
65453,
65457,
65348,
34,
65496,
65457,
28,
65417,
65497,
65459,
65531,
65534,
65399,
7,
22,
127,
67,
65498,
65416,
65416,
65482,
172,
113,
65504,
65506,
65438,
65530,
175,
102,
48,
10,
57,
65477,
65503,
65513,
65163,
65193,
65259,
65262,
241,
65517,
65457,
41,
273,
66,
239,
65456,
65431,
136,
263,
111,
67,
65516,
13,
55,
84,
65501,
65456,
65428,
65403,
81,
65396,
65522,
55,
19,
65411,
65526,
65462,
66,
65447,
65482,
78,
115,
65471,
80,
65526,
65495,
182,
148,
213,
65509,
43,
65485,
244,
279,
269,
38,
33,
10,
229,
233,
176,
65477,
65466,
65490,
8,
6,
65438,
65516,
65505,
28,
65486,
93,
50,
65491,
66,
65435,
65508,
65484,
65459,
66,
65411,
65387,
52,
18,
65513,
155,
65378,
65209,
65414,
72,
65532,
122,
84,
65514,
65404,
65360,
65498,
116,
65402,
65403,
65368,
65349,
28,
103,
65534,
65483,
65518,
181,
34,
65437,
65508,
65438,
65413,
65522,
36,
65458,
36,
65,
57,
75,
15,
63,
79,
65492,
85,
43,
65506,
65443,
65469,
80,
65523,
65529,
137,
73,
65522,
65448,
65436,
8,
65533,
0,
65436,
2,
65448,
65512,
65440,
40,
65363,
65454,
351,
65353,
148,
65493,
65533,
65422,
319,
65488,
219,
65441,
76,
73,
601,
198,
183,
65410,
65508,
213,
146,
170,
63,
65444,
65434,
65488,
74,
26,
65430,
65497,
65436,
35,
65444,
65521,
35,
7,
65454,
65507,
67,
65501,
65522,
65508,
65485,
65507,
65534,
50,
65513,
5,
71,
65518,
73,
65468,
65473,
65447,
5,
80,
6,
65433,
65478,
65438,
67,
81,
83,
67,
10,
65445,
65507,
65489,
65472,
65430,
17,
65454,
65533,
53,
65464,
65417,
65245,
65299,
78,
65466,
65434,
65385,
65318,
65440,
65487,
65470,
65505,
64,
65473,
65526,
9,
65453,
65484,
65,
65458,
31,
24,
41,
86,
126,
65469,
23,
65530,
65522,
106,
53,
20,
65456,
4,
65531,
65423,
52,
172,
65513,
7,
65527,
105,
147,
125,
57,
65455,
217,
338,
65526,
113,
65433,
11,
65532,
282,
264,
252,
65428,
93,
57,
90,
65379,
65474,
65429,
119,
84,
65450,
65477,
65512,
65415,
97,
65514,
66,
133,
65407,
65524,
65335,
65469,
73,
102,
65473,
3,
65213,
65363,
65251,
65370,
65488,
40,
65434,
210,
40,
65404,
65460,
65535,
8,
163,
188,
65498,
294,
51,
119,
65457,
227,
65481,
44,
9,
76,
31,
65221,
65137,
65112,
65248,
264,
23,
65405,
65459,
65304,
0,
283,
290,
65468,
103,
27,
65388,
90,
14,
183,
65492,
21,
159,
182,
69,
138,
40,
145,
65516,
1,
65443,
209,
13,
106,
21,
25,
64,
11,
24,
65499,
65,
13,
65529,
46,
65535,
65436,
65515,
29,
65440,
65502,
65512,
33,
28,
33,
29,
65453,
65461,
89,
65478,
65527,
18,
65529,
10,
8,
65506,
43,
65471,
65440,
22,
18,
65440,
14,
24,
65505,
65469,
42,
6,
65505,
65436,
65484,
65476,
125,
250,
11,
70,
65482,
65479,
65515,
193,
15,
92,
27,
65316,
65480,
52,
52,
65446,
18,
65508,
0,
22,
65406,
65479,
65453,
65417,
65452,
65529,
65519,
65368,
65473,
65458,
65265,
65304,
65453,
49,
101,
124,
28,
171,
138,
65486,
152,
285,
92,
174,
65488,
78,
79,
57,
65497,
140,
112,
108,
65487,
83,
65510,
20,
65527,
65417,
65508,
18,
37,
65456,
27,
65518,
69,
65446,
71,
65517,
40,
65512,
149,
18,
5,
65449,
36,
57,
70,
158,
65457,
66,
65510,
65507,
179,
65497,
57,
65479,
104,
33,
63,
58,
65424,
65519,
5,
65446,
65490,
7,
9,
65474,
65455,
42,
44,
65518,
74,
65437,
65445,
65463,
53,
21,
62,
65443,
67,
65503,
2,
65437,
68,
50,
29,
65491,
53,
65485,
52,
65447,
37,
65525,
65505,
46,
14,
65451,
65516,
87,
36,
73,
39,
65487,
135,
65527,
65480,
65374,
65372,
65342,
110,
112,
4,
65420,
134,
65355,
193,
183,
123,
14,
74,
65411,
115,
129,
236,
149,
91,
43,
159,
122,
47,
29,
143,
18,
109,
65489,
86,
26,
128,
149,
65455,
112,
65529,
318,
272,
199,
65530,
195,
90,
172,
65498,
39,
92,
249,
272,
148,
65497,
19,
13,
124,
279,
390,
81,
57,
65438,
124,
183,
113,
65514,
65479,
94,
65479,
65466,
65365,
65483,
65526,
65490,
65459,
41,
33,
65510,
65507,
69,
52,
65527,
27,
39,
65522,
65410,
11,
65518,
65471,
65484,
26,
65476,
65423,
39,
65529,
65484,
65443,
65439,
65458,
65434,
71,
65460,
65455,
35,
60,
16,
65510,
65501,
65472,
71,
65473,
31,
65528,
80,
65525,
97,
65452,
65531,
82,
63,
65498,
111,
40,
65474,
88,
65,
108,
65494,
65481,
65481,
65521,
65442,
95,
65522,
54,
55,
65464,
65534,
7,
61,
76,
15,
65468,
54,
65514,
65500,
16,
65438,
65397,
65282,
65406,
50,
98,
65186,
65154,
65170,
65433,
65454,
65506,
65073,
65178,
65313,
65410,
8,
65472,
65384,
65364,
65244,
65530,
47,
27,
65432,
65460,
65488,
44,
7,
65489,
75,
23,
100,
53,
65414,
6,
150,
65433,
118,
53,
12,
65464,
0,
65504,
88,
104,
65505,
65500,
267,
213,
160,
121,
82,
139,
159,
65,
6,
3,
35,
65534,
65478,
183,
116,
65427,
65501,
39,
65456,
65380,
65502,
65389,
65464,
65425,
50,
65414,
65233,
65458,
65429,
65417,
65495,
65351,
65261,
65402,
65434,
65464,
65459,
10,
65450,
26,
65526,
65473,
65480,
65474,
47,
65470,
3,
139,
29,
65535,
39,
65481,
31,
65442,
65534,
72,
69,
65433,
9,
111,
158,
30,
85,
281,
19,
55,
65434,
119,
65535,
101,
65451,
65468,
65448,
65512,
41,
61,
31,
65469,
65437,
65521,
7,
157,
65475,
65474,
65512,
91,
1,
65487,
51,
110,
73,
118,
48,
181,
30,
65458,
134,
65429,
65446,
110,
44,
4,
26,
69,
31,
65495,
81,
45,
56,
65526,
42,
39,
65520,
86,
65489,
65442,
7,
16,
15,
65519,
65422,
65464,
65497,
19,
34,
65532,
65524,
65474,
30,
64,
65355,
114,
92,
281,
286,
473,
65384,
114,
19,
65453,
65385,
242,
65357,
68,
71,
65285,
65417,
166,
65453,
117,
65510,
28,
61,
157,
65423,
2,
65378,
65523,
65496,
89,
65364,
65521,
50,
3,
65489,
65535,
122,
65516,
115,
76,
65227,
38,
65528,
71,
61,
188,
82,
65488,
65370,
25,
65392,
65504,
127,
65519,
43,
65512,
65499,
65460,
101,
43,
53,
65521,
184,
85,
183,
103,
148,
80,
219,
114,
341,
56,
57,
65465,
15,
65458,
65370,
160,
16,
65478,
90,
25,
65512,
144,
65460,
65230,
65353,
65478,
130,
218,
65454,
65528,
65266,
65314,
36,
157,
65408,
65401,
65261,
65486,
82,
65466,
65426,
51,
65478,
65436,
94,
65517,
65442,
37,
99,
115,
244,
65444,
65490,
151,
234,
65519,
74,
70,
174,
273,
379,
65529,
65510,
95,
65457,
101,
371,
195,
7,
94,
65458,
49,
99,
165,
16,
65491,
65522,
1,
65367,
91,
65402,
100,
65480,
23,
65415,
65497,
65440,
15,
65470,
95,
65508,
65451,
65413,
65525,
65,
13,
65458,
65400,
65341,
65520,
65465,
65431,
65473,
65429,
65324,
34,
62,
27,
65422,
65466,
65456,
65491,
22,
65522,
65492,
65433,
74,
65454,
65505,
65401,
167,
254,
75,
2,
4,
65428,
43,
167,
65531,
65460,
65385,
65508,
248,
141,
226,
65333,
65,
65526,
6,
70,
35,
65480,
65463,
146,
208,
128,
65469,
65493,
65484,
125,
22,
65475,
67,
65466,
193,
65496,
65280,
111,
65517,
65384,
254,
136,
193,
132,
151,
65505,
134,
157,
64,
68,
42,
65505,
181,
135,
105,
86,
144,
9,
155,
115,
29,
14,
110,
65476,
65448,
20,
65500,
14,
18,
10,
32,
85,
84,
245,
273,
123,
65453,
65486,
65524,
65492,
65486,
43,
28,
65505,
65432,
57,
79,
82,
65443,
65472,
65363,
65505,
65527,
37,
65512,
65426,
65489,
65485,
29,
65510,
23,
65428,
65390,
65428,
72,
65534,
159,
99,
65437,
65414,
13,
117,
103,
0,
65510,
12,
147,
30,
138,
20,
168,
36,
65451,
65452,
95,
45,
187,
164,
57,
65490,
169,
149,
134,
11,
56,
101,
46,
81,
65510,
6,
65477,
165,
60,
5,
131,
141,
65520,
54,
17,
65390,
7,
118,
65495,
65514,
65459,
65445,
35,
135,
39,
59,
52,
29,
7,
65521,
63,
102,
132,
155,
159,
65525,
0,
48,
28,
11,
164,
86,
12,
65454,
182,
78,
34,
65502,
98,
220,
49,
110,
65390,
65535,
20,
42,
95,
65502,
65507,
65381,
65507,
116,
49,
1,
65532,
19,
65527,
57,
65498,
18,
65489,
65509,
16,
131,
98,
95,
86,
143,
135,
158,
143,
65520,
65398,
65150,
65108,
65315,
207,
160,
50,
65521,
65530,
65400,
156,
135,
75,
60,
1,
65410,
19,
41,
42,
135,
22,
65,
140,
64,
2,
65396,
194,
65469,
79,
64,
10,
109,
65461,
65516,
66,
71,
65502,
8,
32,
65529,
65508,
65479,
42,
48,
1,
65514,
107,
65530,
65488,
111,
65455,
65489,
61,
65462,
146,
126,
65512,
65501,
65452,
118,
110,
101,
65417,
18,
65478,
66,
65482,
65386,
65442,
70,
65426,
30,
75,
166,
81,
15,
183,
65534,
235,
380,
330,
207,
76,
65441,
65471,
246,
233,
16,
65488,
65258,
65159,
65452,
65430,
65439,
65423,
65289,
65129,
65362,
124,
65401,
65470,
65397,
65316,
65411,
95,
65496,
37,
65508,
210,
285,
264,
411,
65438,
76,
42,
156,
65494,
213,
65367,
17,
28,
65466,
72,
99,
65508,
6,
65507,
65493,
16,
90,
65409,
65429,
65465,
65526,
65433,
6,
65360,
65410,
65493,
65401,
100,
65516,
65403,
65481,
65325,
65230,
72,
65511,
72,
2,
65460,
65478,
82,
174,
3,
65496,
65517,
341,
232,
20,
10,
39,
18,
65410,
247,
65512,
65337,
65495,
65492,
65527,
131,
37,
65323,
65439,
65499,
65507,
65509,
65511,
76,
65471,
65484,
72,
65,
65454,
28,
42,
65507,
65453,
25,
50,
65494,
65450,
45,
65502,
51,
77,
76,
81,
43,
12,
87,
65479,
60,
37,
65471,
51,
7,
65524,
21,
65463,
65525,
37,
65464,
19,
65523,
51,
65429,
120,
65426,
65402,
64,
117,
225,
185,
33,
42,
65498,
27,
65,
196,
65491,
65406,
65442,
0,
65513,
65519,
65376,
65416,
65514,
65407,
65396,
53,
65405,
65449,
8,
40,
65391,
65455,
65444,
65483,
65435,
70,
34,
65436,
38,
65497,
36,
65262,
65524,
65375,
65417,
27,
41,
99,
270,
191,
71,
258,
65459,
65535,
264,
316,
65529,
71,
80,
24,
68,
148,
65448,
65466,
65391,
65352,
65344,
65476,
65398,
65500,
25,
87,
366,
510,
215,
221,
65400,
123,
65484,
54,
65453,
50,
65400,
76,
31,
65324,
65447,
65470,
65497,
5,
36,
3,
65492,
65510,
70,
106,
111,
95,
23,
58,
61,
37,
142,
29,
72,
84,
5,
60,
65521,
37,
148,
269,
65484,
104,
252,
319,
303,
48,
160,
204,
324,
346,
253,
65520,
65478,
80,
225,
260,
122,
20,
24,
65469,
173,
65,
159,
65468,
65421,
57,
25,
65387,
65408,
65515,
56,
65516,
65476,
65,
22,
65490,
65512,
34,
65472,
29,
65498,
46,
65494,
48,
65493,
32,
65525,
86,
71,
88,
65517,
65461,
65518,
91,
5,
65505,
59,
38,
30,
65528,
65450,
65465,
65468,
85,
65502,
65495,
6,
65498,
65421,
65345,
65345,
65381,
65453,
96,
65410,
65436,
65285,
65445,
65535,
65465,
65403,
65313,
65348,
65416,
65446,
65531,
65470,
65461,
65415,
65500,
45,
21,
65501,
65493,
65511,
83,
65451,
65452,
43,
130,
21,
65455,
48,
173,
48,
65519,
76,
198,
10,
65483,
65430,
66,
65473,
22,
65518,
65,
65499,
65354,
65405,
65431,
47,
65468,
61,
46,
65488,
65478,
64,
6,
87,
119,
65522,
124,
0,
155,
190,
29,
76,
156,
65528,
73,
65493,
65518,
26,
34,
65437,
65470,
65471,
32,
9,
65514,
50,
65469,
65528,
34,
65519,
65469,
22,
65455,
2,
65486,
53,
65478,
65479,
43,
42,
65525,
65494,
65486,
45,
69,
65499,
65533,
81,
72,
65488,
229,
210,
420,
186,
425,
65397,
56,
120,
65431,
65381,
255,
65453,
65514,
17,
65393,
71,
65413,
22,
105,
65508,
65418,
65462,
106,
65483,
65471,
65494,
65463,
65483,
98,
2,
65394,
65485,
65400,
65493,
141,
65493,
65463,
4,
65407,
151,
65482,
75,
34,
354,
116,
182,
51,
157,
38,
541,
389,
255,
28,
65449,
135,
65496,
65466,
85,
65510,
26,
65513,
65522,
65484,
65372,
65455,
65438,
65494,
65408,
65474,
65504,
65422,
128,
65451,
80,
24,
24,
87,
65528,
65437,
65334,
65471,
65456,
62,
56,
76,
25,
133,
147,
178,
107,
130,
65535,
23,
104,
171,
1,
49,
84,
65528,
65521,
114,
114,
123,
75,
66,
74,
127,
65348,
65508,
138,
65533,
132,
202,
65401,
65527,
65402,
65466,
65518,
163,
65463,
65406,
65338,
65430,
65513,
210,
65442,
16,
65390,
65420,
65330,
97,
65481,
18,
65439,
65521,
12,
49,
65472,
60,
65489,
65436,
62,
65447,
65401,
65395,
58,
38,
161,
178,
65488,
65296,
65515,
65366,
65510,
90,
88,
111,
57,
41,
108,
114,
80,
106,
186,
31,
65470,
131,
65416,
65342,
65478,
69,
65429,
65365,
65489,
65475,
65353,
0,
65313,
65515,
88,
58,
65464,
22,
87,
18,
65451,
65477,
33,
65489,
65465,
65482,
65511,
5,
3,
65485,
65509,
6,
8,
65514,
35,
10,
65513,
65447,
65504,
65470,
11,
65524,
15,
65479,
65463,
51,
66,
68,
89,
65442,
67,
65508,
65531,
111,
65500,
20,
65490,
47,
65456,
60,
65529,
52,
65532,
60,
65461,
25,
34,
16,
65483,
12,
65422,
65435,
35,
65470,
73,
54,
5,
65523,
65510,
66,
65521,
65484,
65481,
65461,
65481,
46,
0,
12,
65426,
65517,
65411,
65449,
56,
65403,
65488,
65429,
65364,
65469,
74,
33,
65436,
65448,
65467,
63,
65472,
102,
38,
65523,
65502,
65457,
65514,
8,
65498,
65396,
65407,
65421,
53,
65501,
32,
65425,
65525,
65495,
109,
337,
262,
268,
155,
50,
5,
65521,
65479,
65479,
65533,
65481,
65333,
65406,
65319,
65296,
65454,
65480,
65512,
25,
65520,
65489,
65525,
65407,
65532,
198,
49,
65484,
150,
162,
79,
156,
233,
175,
40,
65,
65417,
65509,
65485,
65223,
65250,
65248,
65495,
65522,
2,
65498,
65360,
65413,
26,
65522,
65440,
65451,
65513,
65318,
65464,
65486,
50,
39,
65499,
65286,
12,
137,
48,
65463,
87,
4,
25,
65457,
114,
147,
65515,
65476,
65408,
137,
65469,
122,
282,
127,
65478,
123,
226,
35,
123,
127,
50,
161,
162,
50,
51,
46,
65,
45,
258,
66,
177,
65462,
65521,
65431,
25,
158,
65514,
9,
65531,
65500,
65443,
44,
65452,
32,
65483,
65445,
65516,
147,
287,
149,
65479,
65488,
146,
65,
111,
169,
82,
77,
215,
431,
87,
23,
91,
26,
173,
65,
79,
65484,
5,
65329,
65384,
65420,
65497,
65479,
65479,
65474,
65376,
65468,
65377,
65523,
65390,
65503,
33,
65488,
65518,
58,
56,
65411,
17,
58,
42,
65515,
103,
29,
39,
220,
214,
187,
65397,
8,
79,
38,
80,
105,
65450,
65394,
59,
43,
53,
65516,
65525,
65493,
65438,
65474,
65449,
4,
59,
36,
4,
86,
65322,
65409,
65531,
31,
65436,
65380,
65532,
65499,
37,
65403,
65450,
65235,
65424,
103,
50,
65425,
13,
65518,
65465,
65532,
84,
74,
65472,
65410,
65451,
92,
32,
64,
25,
7,
65527,
65418,
65438,
65339,
200,
396,
411,
193,
65330,
65364,
172,
423,
225,
4,
65368,
65466,
297,
196,
86,
136,
19,
65412,
42,
50,
0,
65410,
43,
62,
66,
24,
65398,
65334,
48,
46,
12,
65496,
65514,
65364,
30,
65529,
65495,
4,
65362,
15,
65473,
63,
65471,
65266,
65430,
15,
65300,
65415,
65215,
65208,
65391,
31,
65455,
65530,
65271,
65224,
65341,
65527,
65464,
65480,
65249,
65219,
65440,
66,
65464,
65477,
17,
41,
65452,
65505,
65458,
65511,
65485,
65518,
101,
65527,
65495,
65532,
65450,
126,
18,
65528,
65482,
65409,
65478,
73,
316,
136,
85,
65522,
65412,
41,
139,
41,
50,
65518,
82,
14,
113,
65533,
65467,
65444,
65437,
49,
54,
65524,
45,
65498,
208,
160,
65429,
65513,
68,
110,
141,
236,
21,
65443,
65477,
91,
63,
71,
121,
65419,
65529,
65372,
65242,
65406,
75,
32,
125,
65491,
65506,
32,
65502,
6,
212,
156,
129,
25,
114,
44,
65488,
124,
55,
65342,
65531,
76,
83,
65411,
6,
65365,
65433,
65433,
42,
65518,
65235,
65224,
65463,
39,
65509,
65412,
65397,
65438,
65439,
40,
65508,
65493,
65455,
169,
65490,
99,
71,
65401,
192,
5,
65526,
65454,
65488,
65532,
47,
65513,
65465,
65499,
65504,
65374,
65426,
65353,
65421,
65529,
65516,
65434,
18,
65456,
33,
3,
3,
70,
45,
65439,
76,
65461,
104,
89,
73,
16,
65368,
65437,
47,
71,
80,
65495,
47,
65478,
65429,
182,
44,
29,
136,
101,
49,
22,
13,
99,
65498,
22,
65481,
65496,
65524,
65350,
65489,
65450,
106,
65483,
65,
60,
65470,
65472,
70,
65520,
57,
81,
68,
65524,
65492,
2,
65501,
11,
65472,
24,
65,
15,
65507,
65487,
65444,
0,
0,
65490,
65477,
65431,
65305,
65488,
65454,
31,
65280,
65414,
65319,
65362,
14,
65393,
65460,
65407,
65248,
65485,
65481,
65521,
40,
95,
87,
65497,
90,
65423,
65522,
65495,
65520,
5,
49,
65502,
38,
65494,
65494,
65483,
65484,
76,
2,
84,
65494,
31,
65464,
65435,
43,
65484,
65458,
44,
41,
46,
65484,
65490,
30,
9,
17,
65446,
65519,
9,
65456,
65458,
65462,
32,
51,
57,
65526,
62,
27,
65479,
65243,
65459,
32,
65484,
65376,
65397,
130,
75,
233,
65470,
65517,
65446,
222,
81,
55,
225,
65509,
33,
182,
94,
28,
70,
65509,
116,
65520,
20,
65516,
65419,
52,
65465,
65356,
65417,
116,
65441,
155,
114,
63,
65526,
65364,
65510,
40,
130,
79,
65521,
65479,
65472,
65529,
65494,
65438,
65222,
65342,
65527,
30,
65460,
65264,
65318,
65489,
65509,
38,
99,
65405,
65318,
13,
83,
87,
8,
199,
14,
69,
126,
65368,
65379,
49,
65511,
51,
65418,
65517,
77,
152,
173,
46,
324,
104,
65385,
178,
451,
242,
229,
107,
48,
6,
31,
275,
112,
65454,
24,
130,
167,
32,
10,
65509,
65531,
4,
62,
65431,
65479,
65489,
7,
74,
44,
65472,
65482,
65498,
138,
57,
28,
14,
7,
40,
132,
65513,
65535,
65494,
65526,
77,
147,
68,
65465,
65533,
45,
88,
105,
81,
65,
65514,
19,
87,
53,
91,
55,
65502,
65463,
65515,
65490,
65338,
65299,
65169,
65371,
234,
73,
27,
15,
43,
65372,
142,
283,
212,
132,
65486,
65425,
75,
142,
247,
103,
119,
65499,
122,
65518,
179,
81,
161,
31,
50,
18,
30,
83,
90,
10,
65507,
4,
137,
65488,
65348,
65469,
65446,
65403,
65346,
65411,
65504,
65456,
65468,
65485,
65372,
65410,
65449,
21,
85,
65499,
21,
126,
62,
65466,
29,
65530,
65496,
63,
76,
65474,
118,
20,
82,
65495,
65511,
65479,
62,
65495,
65446,
13,
13,
65515,
65525,
1,
65492,
58,
69,
63,
65442,
65518,
65525,
65457,
38,
65510,
65508,
65531,
17,
14,
65461,
65521,
65531,
65505,
29,
65466,
0,
65515,
34,
65479,
65478,
39,
15,
66,
65505,
65482,
11,
65362,
65422,
65446,
76,
65495,
65533,
65535,
65488,
65403,
65396,
65461,
167,
59,
98,
65418,
18,
17,
45,
65422,
65512,
65385,
7,
152,
3,
65475,
65320,
65394,
112,
104,
65486,
65483,
65423,
65502,
235,
151,
65442,
65215,
65160,
65319,
117,
155,
65491,
65471,
65,
65440,
142,
141,
160,
93,
89,
65495,
237,
3,
71,
194,
51,
27,
96,
160,
67,
25,
207,
190,
90,
65500,
62,
30,
28,
66,
100,
48,
65475,
6,
65347,
65445,
65473,
3,
65334,
65491,
65426,
65329,
65428,
9,
65218,
65380,
65521,
65382,
32,
65531,
65450,
354,
76,
75,
39,
141,
212,
168,
274,
144,
122,
105,
144,
75,
138,
91,
17,
65419,
78,
211,
65438,
65412,
40,
68,
138,
132,
101,
144,
65372,
65486,
173,
65423,
129,
104,
65473,
65492,
65425,
65405,
65438,
65,
63,
51,
65499,
65348,
65422,
14,
65532,
65490,
206,
65503,
107,
65415,
107,
137,
11,
65507,
65506,
65511,
24,
65468,
65417,
65446,
65394,
65399,
29,
115,
65526,
8,
65420,
65444,
29,
71,
65492,
90,
65455,
4,
158,
51,
93,
7,
65444,
65473,
65493,
41,
117,
65487,
65518,
65445,
65413,
65532,
65500,
65370,
65171,
65226,
14,
65530,
65507,
65416,
65388,
65376,
65496,
21,
65484,
65530,
6,
65346,
65517,
65498,
175,
35,
65514,
65283,
55,
98,
73,
65355,
65517,
65480,
65433,
137,
16,
3,
37,
65493,
