memory_initialization_radix=10;
memory_initialization_vector =
65300,
65412,
65430,
65522,
65457,
65526,
65398,
15,
68,
65528,
16,
65402,
65456,
178,
65405,
65509,
98,
20,
96,
147,
121,
65520,
3,
2,
142,
100,
90,
65524,
103,
177,
173,
101,
65493,
114,
120,
192,
65508,
73,
65514,
8,
65529,
65497,
34,
141,
59,
42,
65534,
40,
65474,
65470,
65397,
33,
14,
65531,
65257,
65420,
148,
160,
65439,
65409,
65319,
65475,
65466,
65522,
65442,
30,
65521,
65169,
65252,
65344,
65504,
65459,
76,
25,
24,
24,
14,
65455,
7,
32,
147,
165,
138,
47,
129,
65,
65398,
221,
98,
102,
25,
12,
9,
65509,
65502,
126,
65485,
4,
65422,
65494,
65479,
75,
122,
171,
38,
87,
65448,
11,
65525,
65311,
65396,
65432,
65480,
10,
97,
65446,
65473,
65350,
52,
65533,
46,
65436,
21,
133,
151,
65484,
65402,
103,
78,
74,
11,
65381,
65434,
65409,
65416,
65529,
65492,
65492,
65400,
65324,
65439,
65420,
65451,
125,
85,
65520,
65469,
17,
65461,
27,
3,
65500,
65437,
65492,
65464,
22,
23,
9,
65473,
65488,
37,
57,
27,
13,
65531,
65533,
65475,
63,
19,
65493,
65499,
2,
0,
83,
65452,
54,
65464,
65442,
65484,
55,
57,
0,
185,
223,
75,
40,
72,
222,
328,
315,
177,
269,
135,
245,
253,
481,
282,
126,
65525,
95,
223,
158,
78,
55,
143,
65491,
65361,
65410,
69,
110,
65487,
72,
74,
65526,
9,
167,
85,
157,
26,
65486,
65490,
159,
47,
210,
201,
169,
101,
65514,
117,
5,
65491,
216,
169,
144,
128,
65510,
75,
65496,
65476,
65508,
68,
65391,
65206,
65341,
65415,
129,
65508,
65450,
65435,
65530,
13,
65479,
72,
65227,
65245,
65387,
65492,
65441,
131,
65527,
65386,
65439,
65435,
65392,
18,
65480,
94,
65404,
138,
49,
49,
65496,
41,
65483,
51,
65507,
65530,
65529,
151,
65535,
41,
69,
65506,
65433,
65492,
65459,
65470,
65532,
65515,
132,
30,
18,
31,
43,
22,
95,
14,
65455,
65463,
25,
8,
65416,
65391,
65278,
65466,
65493,
65489,
65421,
65460,
0,
65483,
65468,
65492,
65396,
65420,
65437,
65514,
65434,
65427,
65526,
20,
65492,
65479,
20,
33,
126,
14,
181,
65514,
65518,
65484,
16,
78,
65518,
65412,
65449,
117,
99,
65461,
65523,
44,
65465,
112,
65534,
70,
76,
65524,
117,
15,
86,
14,
65461,
65407,
65467,
71,
9,
77,
58,
36,
65466,
65490,
65439,
65463,
50,
65463,
65444,
52,
65511,
65530,
65507,
65466,
53,
65466,
56,
65523,
4,
65438,
25,
65436,
65463,
65534,
65494,
65521,
12,
65506,
65457,
65513,
65514,
65534,
36,
65456,
65457,
65507,
65504,
1,
65507,
276,
65488,
65435,
65404,
105,
146,
125,
65427,
65361,
65503,
65499,
65458,
52,
31,
125,
29,
56,
128,
117,
72,
65478,
65468,
75,
177,
195,
58,
1,
65501,
39,
219,
0,
75,
116,
174,
84,
51,
65512,
65403,
65530,
54,
65450,
65441,
102,
64,
65445,
49,
65391,
65488,
65476,
65530,
65425,
65505,
65486,
65507,
152,
111,
65421,
65496,
65498,
65453,
9,
211,
259,
25,
65403,
39,
20,
3,
65514,
65530,
14,
65501,
65528,
65484,
44,
65524,
65390,
65360,
65383,
65407,
120,
65430,
37,
65413,
65344,
65334,
65251,
65353,
92,
33,
18,
65244,
65257,
65304,
65473,
63,
65476,
65327,
126,
65485,
65481,
65454,
32,
24,
65339,
65382,
65455,
79,
65291,
65494,
65449,
65500,
65438,
65361,
65472,
65375,
65400,
65408,
65314,
65486,
65427,
65259,
65440,
65223,
65320,
65508,
125,
65510,
65535,
65445,
65485,
65445,
65498,
45,
203,
65499,
5,
65434,
0,
10,
65494,
17,
65485,
65483,
65436,
65478,
65363,
65496,
65421,
65452,
65514,
65433,
69,
65430,
65465,
65415,
5,
65370,
65352,
65398,
60,
65420,
36,
105,
28,
65490,
65452,
65446,
65483,
65494,
60,
65505,
21,
65441,
65391,
100,
7,
65507,
23,
23,
135,
53,
65519,
111,
69,
111,
36,
87,
173,
65532,
49,
32,
101,
63,
141,
158,
65533,
175,
65486,
105,
72,
23,
126,
21,
86,
65531,
65493,
71,
45,
65522,
104,
116,
22,
135,
65477,
116,
65472,
65375,
65506,
65305,
65453,
65377,
65497,
65483,
13,
65510,
65535,
65380,
65503,
65429,
65407,
65313,
70,
65501,
80,
65453,
65498,
65322,
28,
65423,
65427,
65330,
180,
65517,
22,
19,
65507,
65402,
65277,
65385,
127,
39,
65218,
65385,
65384,
51,
65450,
65269,
65135,
65484,
134,
147,
55,
65349,
65400,
211,
29,
65533,
65457,
65272,
17,
25,
144,
65467,
65523,
78,
65519,
119,
96,
61,
10,
65422,
52,
252,
133,
189,
65526,
106,
65239,
65303,
65422,
20,
65218,
65126,
65343,
65479,
41,
191,
20,
65472,
65352,
65509,
21,
55,
50,
65440,
61,
78,
108,
65422,
65289,
65320,
61,
83,
46,
1,
65371,
65458,
100,
31,
97,
65452,
65519,
69,
343,
65502,
65331,
65492,
178,
251,
57,
65493,
65434,
65403,
153,
65438,
1,
8,
15,
65508,
158,
65530,
11,
65489,
65529,
65500,
66,
65,
248,
59,
65480,
4,
163,
239,
121,
111,
119,
68,
17,
4,
142,
33,
109,
108,
73,
138,
65446,
65433,
65480,
65485,
146,
58,
65445,
65436,
65314,
65342,
65344,
128,
65397,
65351,
65376,
54,
149,
120,
122,
92,
154,
33,
94,
194,
95,
172,
136,
145,
65534,
65503,
65477,
65490,
29,
77,
65493,
102,
65533,
65474,
65525,
23,
80,
113,
225,
52,
65491,
141,
65392,
28,
65511,
11,
65405,
65422,
133,
65505,
86,
141,
65436,
115,
116,
42,
65305,
128,
215,
314,
22,
65487,
65511,
65388,
65345,
65403,
65497,
79,
65491,
65303,
65323,
65390,
65453,
74,
65516,
65495,
19,
65291,
65401,
65522,
137,
87,
65415,
65519,
28,
65509,
124,
134,
63,
31,
171,
133,
65414,
121,
204,
219,
7,
58,
65514,
65528,
65467,
65512,
65530,
65429,
65509,
96,
65531,
67,
65493,
44,
65481,
118,
12,
211,
65411,
65494,
65514,
38,
65483,
172,
93,
104,
65530,
65481,
65467,
29,
78,
84,
65530,
65310,
65535,
22,
35,
65438,
269,
142,
108,
65311,
66,
154,
295,
50,
65500,
65520,
56,
83,
148,
65512,
110,
65486,
65517,
135,
89,
13,
60,
101,
205,
56,
64,
65531,
102,
90,
151,
46,
65523,
195,
35,
240,
167,
129,
65509,
65324,
65235,
65449,
65418,
65464,
65437,
65308,
65386,
65470,
65456,
65447,
65394,
65459,
3,
65340,
65517,
11,
103,
65532,
84,
43,
65398,
65413,
65527,
57,
231,
65533,
65321,
65484,
65517,
65520,
79,
65397,
74,
38,
65404,
65484,
65526,
65452,
65495,
65352,
65269,
65424,
39,
80,
65477,
65469,
65360,
7,
66,
78,
65507,
65446,
65484,
4,
26,
44,
65498,
65470,
65534,
105,
104,
129,
65505,
65469,
11,
65458,
65507,
65451,
65461,
158,
28,
45,
82,
7,
65441,
47,
22,
74,
65512,
65444,
65,
63,
83,
27,
37,
65530,
63,
65532,
73,
65485,
65504,
53,
57,
65484,
65494,
65441,
37,
65427,
53,
65444,
65503,
65473,
65462,
13,
30,
65516,
217,
130,
65397,
13,
164,
183,
187,
51,
65488,
65530,
134,
44,
112,
116,
122,
65508,
147,
78,
24,
167,
74,
10,
20,
131,
195,
120,
65512,
65446,
93,
86,
6,
218,
134,
244,
65528,
65509,
65475,
65508,
65510,
21,
53,
80,
65454,
68,
46,
64,
65499,
5,
65526,
65512,
65493,
65437,
65502,
65502,
65496,
65470,
59,
65463,
65469,
85,
65524,
65461,
75,
37,
65490,
59,
65506,
65525,
65438,
50,
65515,
84,
65512,
65292,
65310,
65260,
65412,
65369,
65487,
65397,
65407,
65445,
65530,
65382,
65377,
65525,
65473,
65341,
65443,
65488,
14,
65428,
65454,
65447,
65366,
65456,
86,
41,
102,
65442,
65334,
11,
65522,
65498,
65387,
65414,
65500,
32,
73,
27,
23,
65482,
81,
13,
65464,
65459,
65465,
65457,
65501,
65459,
65508,
1,
6,
65522,
10,
65449,
51,
0,
65461,
65510,
67,
65526,
65473,
79,
76,
65426,
65516,
15,
53,
65526,
92,
65506,
65503,
64,
65445,
65445,
64,
36,
34,
65495,
4,
65527,
65413,
9,
65390,
65433,
89,
248,
111,
146,
65489,
65449,
93,
51,
1,
158,
65495,
65469,
5,
22,
65474,
65531,
65534,
65474,
65439,
4,
65376,
45,
65527,
65501,
65390,
65476,
65532,
65437,
65481,
65413,
81,
28,
65425,
67,
65316,
65452,
65529,
65401,
65442,
65389,
65390,
65346,
156,
65391,
65447,
65406,
32,
33,
65490,
186,
137,
34,
21,
99,
32,
71,
65508,
40,
65501,
65466,
65441,
65430,
65415,
65435,
65451,
13,
65525,
58,
226,
164,
65518,
65412,
65520,
28,
230,
97,
112,
94,
65415,
93,
359,
209,
65508,
65525,
65387,
65251,
65331,
60,
65346,
65418,
65464,
65155,
65203,
65242,
65439,
40,
234,
184,
4,
65457,
65523,
37,
65515,
65449,
65414,
65529,
65531,
65487,
63,
65480,
95,
65461,
65464,
53,
65363,
81,
53,
65494,
20,
101,
2,
65442,
65406,
65501,
77,
59,
65465,
65329,
65352,
65518,
65535,
105,
65432,
65434,
65300,
65433,
65339,
65475,
73,
65406,
65433,
65398,
65451,
20,
107,
150,
86,
81,
65305,
65391,
8,
65444,
65476,
65504,
65494,
65340,
65433,
65453,
65460,
65504,
65454,
65415,
65532,
65335,
65469,
65430,
65355,
65477,
153,
14,
57,
86,
22,
104,
189,
209,
168,
98,
34,
14,
65515,
129,
65533,
84,
97,
128,
93,
18,
104,
65506,
24,
71,
62,
50,
65401,
65514,
42,
65515,
106,
102,
51,
65512,
81,
43,
277,
198,
30,
65443,
65511,
141,
37,
95,
24,
37,
97,
77,
144,
125,
65339,
75,
126,
189,
220,
65367,
65521,
43,
65508,
5,
94,
153,
65480,
65317,
185,
65524,
43,
321,
120,
213,
36,
65441,
65436,
18,
16,
65534,
20,
10,
28,
65444,
87,
65446,
65500,
65483,
11,
65535,
62,
62,
65499,
65438,
84,
4,
65452,
15,
65449,
65462,
65449,
65526,
65517,
65516,
65508,
65528,
65449,
2,
24,
65519,
65496,
33,
221,
65480,
65506,
12,
74,
196,
84,
65503,
65417,
65429,
65493,
65513,
65500,
10,
81,
65473,
58,
54,
49,
24,
65446,
12,
47,
21,
14,
65496,
0,
0,
65500,
175,
65526,
132,
100,
88,
22,
38,
65451,
82,
211,
149,
65407,
65425,
65415,
267,
172,
276,
157,
2,
79,
206,
332,
113,
65426,
65513,
12,
22,
217,
225,
44,
75,
42,
24,
213,
287,
236,
51,
65527,
113,
62,
238,
287,
121,
65227,
65185,
65480,
65465,
1,
65428,
65448,
65345,
65401,
107,
65457,
65479,
65525,
73,
191,
65460,
65447,
65459,
65501,
26,
27,
65362,
65484,
65483,
65495,
129,
77,
65499,
46,
65402,
65467,
234,
207,
65510,
65409,
65491,
65096,
65319,
65385,
58,
65361,
65254,
65379,
65492,
65492,
217,
8,
65410,
65475,
73,
65534,
61,
65405,
65471,
11,
247,
24,
65490,
65396,
49,
65519,
127,
103,
37,
65367,
21,
22,
93,
88,
65526,
12,
241,
72,
69,
17,
65458,
3,
65475,
65475,
65500,
70,
65491,
29,
0,
67,
65441,
65509,
65459,
54,
57,
64,
65446,
50,
65503,
58,
42,
8,
65492,
65501,
42,
65507,
65480,
71,
73,
65444,
65512,
65444,
18,
65486,
65467,
92,
45,
65422,
39,
45,
65443,
110,
12,
27,
76,
1,
65477,
65463,
14,
65460,
65456,
65493,
65522,
65417,
41,
65513,
65428,
65515,
65485,
65283,
65428,
7,
65447,
40,
65495,
65486,
65447,
15,
65439,
65358,
65279,
65252,
65414,
65397,
65264,
65260,
65512,
65517,
23,
65476,
65428,
65423,
65486,
65482,
65395,
133,
65419,
65512,
153,
36,
65360,
65245,
65461,
130,
63,
50,
65463,
22,
65487,
113,
60,
16,
65509,
65438,
122,
51,
64,
65487,
65519,
41,
79,
86,
43,
65449,
21,
101,
25,
65439,
65467,
65463,
65525,
21,
65535,
65443,
65506,
25,
44,
89,
65522,
65450,
65522,
65509,
71,
65427,
65474,
65418,
31,
47,
65513,
65425,
65415,
48,
154,
30,
65517,
139,
98,
15,
132,
128,
73,
114,
122,
126,
77,
65481,
54,
96,
104,
5,
88,
58,
103,
86,
7,
65504,
4,
27,
18,
106,
130,
130,
129,
98,
66,
65527,
45,
65319,
65469,
65515,
48,
65447,
65451,
65409,
100,
108,
110,
65497,
65423,
65440,
65462,
65466,
34,
65535,
65532,
39,
25,
235,
65532,
18,
43,
65493,
65519,
53,
143,
69,
108,
56,
67,
136,
119,
65510,
73,
317,
135,
3,
65373,
198,
168,
222,
75,
65452,
33,
189,
121,
149,
65526,
95,
21,
85,
98,
20,
65369,
65479,
127,
199,
46,
65475,
65410,
65522,
65461,
65490,
183,
65399,
131,
15,
60,
141,
95,
65468,
31,
65476,
65501,
65484,
22,
65472,
3,
65495,
65462,
78,
65494,
37,
65515,
112,
65478,
18,
38,
65456,
101,
77,
83,
65471,
83,
65486,
65503,
65504,
101,
57,
65485,
65493,
65453,
65458,
65479,
21,
65520,
65508,
56,
65505,
65478,
21,
25,
65450,
65365,
18,
4,
65504,
41,
23,
65501,
40,
2,
53,
50,
67,
95,
65502,
65411,
65507,
65533,
65462,
65496,
65523,
16,
49,
65509,
65460,
101,
68,
65521,
65507,
95,
64,
65393,
65418,
65525,
65517,
65450,
65338,
65287,
65376,
65501,
65470,
65446,
65293,
65222,
65484,
65376,
71,
65495,
65451,
27,
65494,
65531,
65393,
65416,
65517,
96,
115,
65500,
65365,
65448,
65388,
65503,
45,
65505,
69,
66,
39,
281,
11,
65477,
65459,
65534,
65528,
65471,
39,
65331,
66,
65389,
65474,
65293,
65150,
65360,
65436,
65423,
65526,
65382,
65396,
65348,
65292,
65317,
65306,
65439,
65370,
65488,
65414,
65408,
65437,
65326,
65354,
65295,
65349,
65464,
261,
108,
65320,
65400,
64,
104,
156,
65430,
65375,
65350,
65404,
5,
65489,
65480,
15,
65350,
45,
30,
94,
65437,
65530,
65430,
65490,
58,
146,
128,
182,
65431,
37,
44,
58,
65525,
10,
70,
65514,
23,
65489,
65494,
65509,
4,
60,
65526,
65446,
65375,
65512,
65424,
65490,
81,
65489,
65447,
65435,
65251,
65445,
65467,
65294,
65313,
65473,
65460,
65446,
65404,
65497,
65410,
65437,
41,
65515,
65516,
65482,
65479,
65498,
65430,
65372,
65523,
65472,
65508,
69,
65487,
65489,
84,
65520,
65451,
65494,
65462,
82,
33,
29,
65378,
65439,
65403,
74,
65502,
65485,
65496,
65497,
56,
57,
65489,
65504,
80,
65529,
34,
65455,
57,
65483,
88,
87,
20,
65475,
21,
144,
14,
87,
14,
45,
77,
69,
65461,
65411,
18,
36,
134,
125,
65484,
65489,
65407,
65520,
4,
29,
34,
65311,
65342,
95,
65468,
65526,
65513,
65422,
72,
65525,
39,
65334,
65514,
50,
97,
65445,
36,
65183,
65359,
65522,
28,
65451,
65461,
65466,
65475,
65383,
65333,
65353,
65404,
88,
19,
130,
65328,
65347,
65377,
70,
6,
69,
65441,
65518,
65373,
44,
312,
86,
65366,
65525,
49,
65504,
71,
84,
152,
3,
65526,
65467,
65367,
65423,
49,
65428,
65382,
65486,
65372,
65440,
97,
15,
65426,
65437,
53,
65501,
252,
65520,
65462,
65461,
65487,
75,
13,
65443,
65500,
4,
65499,
65410,
65513,
65453,
65457,
65472,
65413,
65488,
65405,
65386,
65493,
226,
94,
23,
65303,
185,
116,
196,
65516,
65473,
65476,
184,
29,
73,
65530,
29,
14,
229,
356,
30,
65425,
65482,
65409,
47,
72,
26,
65397,
65514,
65451,
49,
148,
123,
152,
65519,
65459,
12,
80,
94,
65534,
65519,
65500,
130,
99,
16,
65438,
16,
65476,
65406,
65444,
65419,
65533,
65534,
65422,
15,
65409,
65463,
65464,
65441,
87,
65505,
65403,
80,
194,
65499,
65498,
60,
57,
31,
65419,
65515,
65487,
4,
22,
65513,
97,
46,
24,
84,
136,
39,
65502,
65433,
65470,
65453,
140,
208,
134,
117,
143,
65489,
22,
159,
65520,
74,
65527,
103,
65477,
65473,
88,
7,
29,
173,
47,
74,
68,
65486,
61,
65491,
65371,
65524,
69,
94,
108,
65494,
115,
65456,
260,
151,
128,
188,
188,
65524,
217,
351,
310,
349,
155,
140,
165,
52,
167,
65,
154,
41,
63,
16,
7,
24,
174,
17,
44,
134,
65516,
100,
47,
88,
65464,
71,
143,
65505,
79,
78,
47,
122,
65448,
16,
108,
188,
56,
65525,
50,
65418,
65467,
65432,
29,
72,
65511,
65530,
65515,
65402,
65480,
65387,
65497,
65399,
65430,
65428,
65388,
65427,
65434,
65490,
4,
65384,
91,
358,
117,
65507,
65472,
65488,
120,
22,
112,
65494,
48,
65491,
153,
168,
179,
65289,
0,
15,
120,
162,
253,
65497,
65431,
78,
34,
58,
89,
59,
65366,
65510,
65482,
10,
22,
29,
12,
65450,
65355,
65486,
32,
65467,
65496,
65418,
65370,
65347,
65351,
65353,
65510,
65511,
40,
65440,
65236,
65392,
65394,
137,
67,
9,
65393,
28,
10,
58,
65450,
57,
65435,
55,
65509,
65499,
107,
51,
106,
65527,
39,
115,
97,
54,
109,
65507,
65515,
92,
65405,
65511,
65426,
65421,
65515,
65527,
65499,
65450,
65278,
65372,
65458,
65401,
65343,
65461,
65426,
65511,
65457,
65400,
65410,
65453,
19,
65466,
65402,
65372,
65458,
65484,
0,
65385,
65529,
65309,
65415,
65500,
120,
65416,
65294,
65420,
5,
6,
123,
65438,
65446,
5,
192,
65517,
65477,
40,
65532,
26,
86,
65487,
61,
87,
29,
169,
146,
100,
65534,
19,
168,
171,
192,
146,
12,
122,
168,
28,
65464,
110,
79,
65530,
68,
65518,
95,
135,
55,
10,
65490,
36,
65458,
65476,
122,
17,
58,
65509,
8,
104,
65518,
62,
54,
65484,
65487,
112,
120,
65462,
52,
63,
65524,
65429,
65532,
22,
67,
11,
228,
285,
117,
65484,
65497,
51,
305,
259,
263,
75,
32,
65483,
45,
32,
242,
166,
65374,
65415,
33,
104,
193,
65432,
11,
65358,
65259,
65346,
65379,
65534,
65390,
65448,
65259,
65279,
65256,
65384,
2,
65504,
57,
219,
65501,
65490,
65486,
176,
65501,
39,
65464,
65532,
68,
20,
65418,
65440,
65482,
65466,
65489,
99,
65454,
65457,
65380,
65479,
65355,
65366,
65394,
65490,
65486,
65415,
65400,
65356,
65425,
65436,
65452,
17,
65534,
44,
97,
80,
35,
5,
51,
57,
65530,
167,
134,
65506,
65520,
65448,
65392,
65516,
202,
77,
65457,
65323,
65301,
65456,
140,
65499,
65507,
65449,
65285,
65341,
65473,
31,
43,
65400,
65268,
65218,
65354,
65358,
65459,
65458,
19,
65481,
65459,
65526,
54,
65453,
65486,
67,
76,
65475,
35,
65440,
1,
69,
65505,
65530,
83,
46,
65437,
65508,
91,
65520,
7,
46,
65488,
56,
65460,
62,
65474,
65521,
65531,
65449,
46,
65508,
65491,
99,
129,
65530,
79,
81,
141,
47,
219,
227,
200,
154,
207,
11,
139,
290,
430,
323,
123,
65520,
27,
224,
119,
165,
177,
70,
51,
65516,
65522,
39,
62,
16,
169,
65477,
65496,
65506,
7,
65399,
65468,
37,
65419,
65523,
65361,
65461,
80,
306,
208,
103,
65524,
14,
65369,
65465,
209,
40,
7,
65388,
65510,
65473,
65494,
65471,
65410,
65280,
65390,
65490,
65513,
65409,
65475,
65455,
65186,
65287,
65325,
65463,
65514,
88,
44,
107,
11,
146,
33,
51,
65382,
65278,
69,
146,
85,
65484,
65384,
65465,
65300,
1,
65418,
35,
65522,
65420,
65522,
65487,
65508,
94,
196,
166,
160,
65471,
65515,
65498,
300,
307,
336,
115,
65468,
188,
268,
82,
136,
162,
65,
86,
175,
184,
76,
185,
40,
41,
68,
75,
225,
120,
198,
65418,
65495,
133,
153,
65471,
120,
65435,
65364,
65399,
65533,
113,
127,
100,
65306,
65272,
65417,
65527,
21,
65456,
17,
65495,
6,
65459,
20,
65436,
19,
65474,
33,
65495,
65490,
65470,
65520,
65,
58,
39,
65475,
65452,
65493,
14,
65467,
65454,
32,
3,
4,
43,
65474,
65501,
65534,
45,
24,
47,
65532,
46,
89,
257,
65474,
65295,
65461,
179,
265,
40,
65496,
65410,
65454,
106,
117,
4,
65463,
72,
100,
145,
58,
31,
65488,
65423,
82,
79,
156,
218,
65449,
65482,
30,
129,
128,
19,
66,
85,
140,
38,
65529,
51,
149,
43,
169,
129,
65477,
65495,
65411,
65452,
65379,
65412,
65433,
65407,
65472,
21,
65435,
65507,
44,
65332,
65380,
65409,
65490,
65502,
65531,
65481,
65330,
65439,
65504,
65506,
65475,
65411,
65325,
65422,
65496,
65442,
65505,
65433,
65424,
45,
39,
65480,
51,
3,
2,
9,
65457,
52,
65489,
65467,
32,
79,
26,
59,
65456,
13,
142,
65490,
31,
48,
65468,
44,
65453,
68,
29,
65503,
65487,
65465,
65467,
46,
46,
65489,
30,
21,
5,
162,
30,
66,
65473,
214,
85,
65452,
106,
36,
35,
114,
65447,
65417,
67,
65468,
65509,
4,
65437,
65409,
38,
65487,
65369,
65361,
28,
65414,
35,
31,
65357,
65355,
65456,
65505,
29,
65414,
65490,
33,
210,
101,
54,
65515,
77,
40,
88,
0,
88,
65521,
65496,
65313,
65479,
65299,
65522,
65507,
89,
65433,
65301,
65474,
65513,
18,
65489,
34,
134,
65450,
9,
65454,
65467,
65491,
35,
13,
61,
65471,
65525,
65387,
65530,
65532,
65446,
65457,
65479,
35,
65336,
65238,
65325,
65426,
65445,
65517,
65367,
65432,
65280,
65376,
65477,
65485,
65511,
65495,
65443,
65350,
65463,
65410,
36,
31,
65461,
65468,
0,
65511,
65469,
65428,
65414,
65415,
65422,
65457,
65504,
123,
65421,
76,
65477,
25,
65367,
65395,
65402,
65465,
22,
65471,
65333,
65189,
65210,
65346,
65499,
65368,
65291,
65324,
65512,
65383,
65400,
65393,
65382,
65519,
65417,
65363,
65391,
65414,
65381,
65482,
65480,
65315,
65399,
398,
328,
134,
44,
89,
21,
10,
26,
65500,
65290,
18,
65484,
65463,
65399,
65394,
65400,
65380,
65445,
9,
65190,
65197,
65377,
65463,
65394,
65291,
65213,
65389,
65305,
65357,
65505,
65426,
65128,
65287,
65178,
65407,
65456,
65496,
65479,
70,
65458,
37,
86,
57,
68,
65507,
53,
65521,
65511,
95,
47,
19,
65527,
65447,
91,
13,
65518,
17,
65518,
26,
29,
65508,
65529,
65443,
61,
65454,
56,
32,
95,
12,
40,
65516,
65509,
65425,
66,
79,
11,
65437,
65463,
65513,
65511,
59,
44,
65460,
23,
79,
107,
65425,
72,
65464,
65454,
65508,
65497,
65500,
2,
34,
53,
48,
167,
65491,
88,
82,
14,
65496,
126,
57,
65527,
65531,
65502,
65370,
65484,
65475,
60,
65444,
65358,
65533,
21,
65476,
66,
65497,
65496,
65512,
28,
65501,
65403,
65445,
2,
83,
65502,
63,
65525,
162,
65517,
65444,
65494,
197,
102,
78,
54,
65493,
6,
65416,
13,
65498,
24,
65417,
65413,
120,
65497,
34,
65283,
65488,
65506,
65369,
121,
34,
113,
65462,
65357,
65440,
65529,
65454,
65439,
43,
5,
65379,
65503,
65448,
65454,
3,
182,
90,
65515,
65427,
65521,
57,
334,
153,
369,
65513,
65436,
65527,
106,
61,
99,
48,
65305,
65431,
65534,
70,
119,
8,
65329,
65475,
183,
65461,
131,
185,
65398,
155,
60,
43,
91,
97,
65521,
182,
310,
141,
17,
127,
11,
100,
205,
171,
63,
116,
88,
68,
32,
136,
65522,
65485,
58,
47,
93,
8,
65516,
61,
65506,
32,
10,
65462,
2,
143,
74,
65435,
65342,
65436,
65359,
65529,
4,
65388,
65359,
65483,
48,
65457,
17,
31,
65528,
65449,
65381,
65423,
65483,
65529,
142,
294,
43,
126,
65408,
65507,
71,
388,
247,
117,
11,
15,
154,
65519,
328,
65462,
3,
65515,
51,
117,
26,
65472,
65466,
65350,
65415,
65453,
4,
65466,
65344,
8,
18,
65451,
65461,
6,
65392,
20,
65524,
88,
29,
69,
65493,
65535,
28,
166,
93,
75,
65478,
65509,
18,
18,
115,
65522,
65453,
65383,
65399,
65440,
80,
65535,
65455,
65367,
65501,
65451,
65488,
15,
65530,
28,
65252,
65381,
65394,
65528,
65524,
3,
65429,
65441,
65419,
65432,
65447,
65531,
65445,
65336,
65383,
65369,
65407,
65465,
65493,
18,
65368,
40,
65366,
65397,
65390,
65483,
65384,
65485,
65414,
65454,
65482,
65,
42,
80,
65456,
65464,
61,
72,
65497,
65522,
65483,
95,
181,
255,
59,
65334,
42,
65501,
1,
109,
65520,
0,
0,
244,
252,
65460,
63,
65485,
54,
117,
65526,
65509,
65491,
65515,
13,
27,
65482,
65375,
65433,
65468,
65479,
65439,
65448,
48,
65532,
4,
65480,
65501,
65403,
128,
42,
35,
65514,
1,
37,
65526,
66,
60,
13,
65505,
317,
266,
222,
35,
65416,
65501,
176,
148,
179,
83,
65524,
94,
179,
65492,
56,
39,
65478,
45,
65497,
27,
65500,
65424,
65445,
51,
65517,
65387,
65478,
84,
74,
58,
65387,
65430,
65340,
65399,
28,
65488,
65490,
65467,
3,
84,
65443,
65516,
26,
65473,
45,
65404,
65,
65491,
65375,
65297,
65431,
83,
50,
65453,
65350,
65429,
65470,
36,
65480,
251,
149,
223,
138,
191,
262,
37,
23,
65433,
65412,
65380,
118,
106,
118,
65477,
65320,
65510,
65531,
18,
65508,
113,
65527,
22,
94,
174,
122,
114,
65533,
80,
104,
65444,
106,
123,
222,
86,
59,
65438,
65345,
9,
65470,
65439,
65494,
65460,
65312,
65404,
65511,
65479,
65481,
65435,
9,
65450,
65398,
95,
11,
65450,
65432,
1,
65438,
65388,
65408,
65470,
65511,
50,
81,
65313,
65527,
65430,
65439,
65500,
65511,
65404,
65508,
65519,
10,
65489,
65507,
65517,
65423,
65486,
36,
68,
65415,
65389,
65378,
138,
65391,
65450,
65299,
65386,
65412,
214,
41,
65383,
65485,
46,
65478,
65484,
141,
6,
14,
91,
18,
2,
1,
92,
14,
16,
42,
65506,
94,
65516,
77,
3,
65464,
99,
37,
13,
41,
85,
65494,
75,
118,
100,
77,
65397,
93,
5,
65535,
65344,
65478,
65480,
1,
15,
17,
124,
72,
53,
10,
65533,
3,
38,
65518,
71,
65440,
65423,
65442,
65496,
65407,
66,
26,
65368,
65419,
65423,
65443,
65467,
65488,
65266,
65385,
65379,
65369,
135,
65442,
65508,
65473,
65381,
47,
65499,
65451,
65516,
74,
75,
61,
65423,
65508,
65356,
46,
54,
15,
65527,
65501,
65457,
65515,
79,
65443,
65524,
43,
70,
65510,
65453,
65524,
65448,
35,
65510,
0,
65531,
65515,
27,
41,
65485,
65463,
65486,
65435,
35,
21,
86,
34,
61,
72,
65487,
65488,
65499,
65452,
78,
65516,
69,
65453,
65401,
73,
112,
22,
65381,
65335,
65385,
65471,
197,
235,
1,
65414,
142,
65521,
8,
49,
65416,
65390,
90,
33,
222,
65472,
65485,
65355,
65518,
74,
221,
65530,
147,
65369,
65458,
65486,
5,
65508,
203,
65483,
65284,
65420,
65535,
68,
65503,
3,
24,
65508,
65322,
65480,
65465,
60,
53,
112,
216,
38,
65325,
65376,
65429,
119,
65502,
65460,
92,
19,
152,
432,
48,
164,
29,
65485,
49,
304,
274,
295,
96,
65412,
75,
79,
65333,
65506,
65498,
21,
74,
65318,
65197,
65264,
65386,
65394,
65497,
65268,
65274,
65480,
65419,
65429,
65518,
65392,
65368,
65526,
65408,
65413,
73,
65387,
65294,
65248,
65476,
65464,
65463,
65350,
65314,
65320,
14,
65486,
23,
8,
65406,
67,
65532,
6,
65462,
33,
27,
8,
65453,
21,
65519,
10,
52,
65459,
16,
63,
65485,
65464,
20,
0,
65498,
65478,
15,
63,
65505,
113,
65511,
65477,
65475,
54,
72,
63,
103,
32,
65398,
37,
65512,
110,
91,
124,
65470,
143,
48,
216,
40,
97,
1,
164,
86,
270,
238,
143,
34,
88,
184,
120,
44,
74,
191,
138,
37,
40,
84,
169,
175,
182,
54,
50,
118,
167,
65378,
65427,
65422,
65434,
22,
65455,
65354,
65389,
90,
193,
44,
37,
65483,
154,
92,
65524,
65509,
65450,
100,
93,
65429,
65454,
65519,
65471,
65528,
149,
132,
215,
51,
65497,
46,
91,
104,
46,
44,
65435,
65473,
65423,
65483,
65463,
65445,
67,
65447,
65515,
65495,
21,
59,
94,
0,
65455,
65488,
45,
65518,
65452,
65526,
35,
65529,
65492,
65438,
64,
65452,
65494,
65456,
65436,
65522,
75,
10,
65463,
78,
65451,
6,
53,
65300,
64,
6,
134,
65382,
65319,
65437,
65522,
263,
102,
65374,
65330,
65490,
3,
17,
40,
65368,
65443,
66,
40,
258,
133,
65522,
65457,
65511,
65499,
220,
94,
177,
152,
65448,
65472,
124,
68,
136,
218,
65333,
65518,
65470,
67,
65513,
65492,
65515,
65446,
65501,
65389,
65339,
65439,
65516,
65533,
65533,
65433,
106,
103,
27,
163,
29,
65522,
31,
9,
62,
65510,
54,
12,
51,
73,
65508,
65494,
67,
65461,
65473,
67,
176,
65519,
65390,
21,
224,
359,
62,
65387,
65464,
31,
65486,
64,
24,
83,
51,
65476,
65456,
113,
141,
131,
65485,
65492,
65460,
146,
158,
170,
119,
11,
203,
200,
38,
65515,
184,
108,
65502,
65494,
65509,
65519,
157,
119,
65527,
138,
65494,
139,
112,
2,
136,
189,
200,
198,
160,
214,
64,
65443,
93,
109,
124,
26,
117,
61,
43,
78,
178,
51,
137,
57,
39,
172,
289,
276,
1,
89,
65449,
65379,
65414,
65477,
12,
65486,
65369,
65450,
65488,
65533,
65490,
73,
65432,
65406,
117,
65519,
65484,
14,
65529,
8,
65529,
65529,
65529,
22,
58,
190,
216,
188,
96,
65452,
65477,
82,
33,
74,
2,
70,
65502,
65467,
65508,
126,
65455,
65412,
65368,
31,
85,
178,
65483,
65455,
89,
138,
79,
202,
167,
9,
112,
124,
65512,
134,
147,
58,
128,
217,
168,
69,
192,
202,
209,
203,
202,
217,
261,
65468,
