memory_initialization_radix=10;
memory_initialization_vector =
65451,
65398,
65520,
180,
143,
65418,
65487,
101,
80,
144,
120,
65462,
116,
19,
89,
73,
5,
34,
173,
217,
145,
237,
86,
65535,
99,
155,
132,
180,
174,
38,
111,
172,
157,
63,
140,
13,
65523,
48,
65495,
65407,
65448,
65491,
56,
65309,
65441,
65491,
65329,
21,
65449,
65447,
65354,
38,
27,
7,
65458,
65392,
65515,
65531,
65503,
65436,
65441,
65492,
65369,
65441,
65497,
2,
65411,
65419,
65525,
65463,
65429,
92,
6,
31,
65460,
65505,
65495,
65526,
65482,
20,
26,
65500,
65410,
53,
65429,
65526,
65443,
65444,
65462,
8,
65456,
65431,
34,
65392,
65411,
65433,
53,
21,
27,
65523,
65408,
65497,
19,
65504,
65455,
81,
65438,
65477,
65456,
14,
65444,
65369,
65535,
65472,
65482,
65462,
65428,
65482,
34,
25,
16,
65465,
232,
55,
19,
65397,
37,
65516,
0,
152,
65475,
65534,
65364,
65436,
65494,
65455,
65531,
93,
65488,
65501,
4,
65469,
65501,
65400,
19,
72,
65472,
43,
83,
65501,
65486,
65523,
65430,
48,
6,
75,
78,
65533,
56,
72,
7,
65492,
65512,
51,
65441,
65439,
83,
65446,
65513,
65465,
65436,
65473,
33,
13,
65503,
65480,
58,
30,
65504,
29,
55,
65521,
65409,
65497,
44,
72,
36,
65318,
65451,
65481,
65438,
32,
65436,
65462,
65481,
65401,
65263,
65433,
90,
65359,
65285,
65219,
65400,
65493,
113,
65339,
65312,
65409,
65399,
9,
143,
59,
65480,
65479,
48,
67,
81,
65495,
6,
65472,
65479,
65467,
11,
65453,
65431,
123,
65531,
65298,
65477,
65455,
65485,
65483,
65401,
18,
65510,
65501,
65440,
65474,
65467,
65512,
65531,
99,
48,
65525,
65373,
65533,
31,
24,
34,
65444,
65487,
65461,
50,
162,
194,
181,
307,
23,
2,
53,
65514,
160,
103,
95,
65466,
93,
81,
36,
108,
9,
84,
104,
99,
83,
65469,
65491,
65489,
65388,
25,
65488,
14,
65501,
65437,
39,
65525,
65447,
65534,
65499,
68,
133,
123,
65524,
65491,
117,
2,
136,
106,
66,
65366,
40,
72,
64,
65517,
57,
203,
188,
65464,
65445,
31,
115,
80,
65491,
109,
8,
124,
33,
102,
76,
65445,
65439,
23,
112,
128,
2,
46,
68,
25,
14,
24,
19,
102,
89,
3,
65496,
65478,
40,
65489,
65421,
65449,
65511,
59,
55,
65526,
65510,
65463,
65499,
65283,
72,
101,
84,
65519,
65534,
65509,
65460,
65478,
65509,
51,
81,
65459,
43,
65467,
65457,
65492,
65452,
33,
65449,
65505,
65506,
56,
65515,
45,
65491,
65465,
65450,
71,
12,
65520,
83,
65535,
55,
65445,
65440,
65530,
65489,
37,
79,
20,
53,
63,
65449,
19,
20,
52,
65455,
79,
65503,
8,
65521,
113,
103,
13,
65463,
65443,
40,
53,
132,
65295,
65478,
65474,
65476,
65425,
14,
65483,
1,
65510,
3,
9,
65392,
68,
65513,
65437,
65369,
65365,
65500,
129,
19,
0,
65506,
65530,
65412,
65487,
65507,
124,
65457,
134,
140,
144,
126,
88,
58,
89,
141,
219,
76,
101,
68,
190,
53,
65535,
21,
89,
99,
108,
104,
83,
167,
5,
203,
42,
110,
46,
2,
65502,
15,
26,
72,
2,
65518,
30,
78,
53,
36,
65452,
82,
65464,
0,
38,
161,
52,
108,
267,
37,
162,
65533,
94,
34,
41,
65442,
143,
138,
65400,
69,
204,
30,
65533,
52,
65457,
65491,
132,
297,
146,
264,
151,
59,
122,
114,
65523,
89,
148,
56,
117,
104,
100,
90,
207,
63,
9,
76,
128,
65472,
186,
160,
65481,
250,
296,
348,
130,
12,
76,
100,
230,
239,
65533,
65456,
65508,
65532,
65533,
169,
65527,
101,
65520,
101,
65514,
76,
191,
65485,
119,
106,
20,
38,
110,
9,
65473,
64,
202,
133,
148,
65472,
26,
47,
197,
258,
162,
56,
114,
203,
35,
65499,
139,
74,
106,
81,
101,
65463,
13,
23,
65498,
65519,
7,
65534,
65409,
65526,
65481,
65437,
65520,
58,
65478,
65428,
41,
65513,
65514,
65464,
65417,
22,
69,
65514,
65396,
65494,
65437,
65508,
19,
65437,
65513,
65426,
37,
65405,
65450,
65490,
74,
34,
65466,
79,
65501,
34,
65528,
65481,
65374,
65518,
65480,
59,
129,
65411,
65434,
269,
234,
70,
65423,
65520,
65397,
172,
116,
74,
33,
14,
15,
95,
248,
33,
65534,
65453,
65448,
65469,
234,
176,
198,
272,
241,
196,
17,
65425,
65463,
65478,
91,
27,
97,
71,
48,
90,
85,
66,
127,
32,
381,
300,
6,
65528,
146,
244,
267,
352,
215,
22,
99,
246,
153,
331,
79,
48,
57,
87,
160,
76,
55,
82,
65535,
65524,
65451,
79,
127,
65514,
173,
167,
239,
60,
144,
6,
67,
247,
380,
283,
39,
157,
48,
150,
233,
236,
192,
126,
271,
294,
287,
269,
361,
191,
54,
104,
67,
133,
195,
17,
65443,
65446,
105,
48,
65465,
65496,
65379,
80,
97,
112,
43,
1,
65436,
65519,
65415,
65487,
65479,
6,
65489,
33,
184,
77,
47,
78,
65321,
65317,
65455,
65471,
65430,
65413,
65505,
65396,
65392,
65468,
65476,
65392,
82,
40,
73,
25,
50,
102,
27,
5,
45,
9,
65457,
6,
28,
65303,
65164,
65433,
65442,
65444,
100,
65461,
65062,
65181,
65237,
22,
14,
65433,
65253,
65424,
65176,
65439,
65530,
65451,
65442,
87,
102,
105,
65483,
65338,
65486,
65462,
65453,
65522,
65380,
65506,
78,
65481,
65413,
65379,
65378,
79,
59,
18,
65412,
65389,
65300,
65471,
65415,
65515,
65526,
65325,
65327,
65267,
35,
83,
65516,
65392,
3,
65406,
65378,
65410,
65350,
2,
65433,
65450,
38,
66,
111,
6,
65398,
30,
7,
110,
72,
11,
65437,
73,
100,
188,
19,
65530,
65535,
222,
15,
171,
82,
58,
65418,
65442,
152,
170,
83,
1,
49,
134,
27,
36,
42,
94,
65429,
65514,
65341,
65287,
65416,
32,
3,
65368,
11,
65480,
10,
65496,
65456,
65445,
65487,
65370,
65493,
65520,
45,
65529,
65280,
65269,
65305,
65486,
65442,
79,
65524,
65414,
65411,
65529,
65486,
43,
26,
39,
55,
45,
54,
65455,
86,
53,
65381,
92,
65347,
65532,
65457,
65282,
65243,
65522,
65533,
65260,
65286,
65449,
65422,
65439,
65482,
65375,
65094,
65040,
65234,
65294,
53,
65460,
65261,
65051,
65020,
65383,
54,
65518,
65416,
65399,
65385,
65467,
65421,
65534,
0,
8,
56,
82,
65513,
196,
231,
65534,
121,
4,
28,
270,
190,
103,
235,
39,
33,
49,
67,
185,
212,
175,
60,
147,
71,
157,
123,
133,
65413,
85,
65528,
18,
75,
65464,
65480,
223,
124,
65413,
129,
16,
53,
53,
65525,
46,
65474,
0,
45,
108,
126,
124,
14,
65470,
65474,
65481,
55,
205,
201,
106,
65524,
99,
100,
249,
27,
145,
65476,
99,
91,
65493,
65493,
45,
65468,
11,
65451,
65,
77,
65448,
4,
65452,
65455,
65509,
28,
65488,
46,
15,
20,
29,
65512,
9,
65524,
65465,
65523,
65495,
52,
65524,
65494,
65476,
60,
65431,
65469,
74,
65487,
65470,
65448,
77,
46,
65532,
65444,
65435,
167,
120,
65370,
65449,
65338,
1,
28,
65446,
21,
65500,
65412,
65453,
65473,
65531,
65326,
65494,
65474,
65512,
37,
65508,
65526,
65509,
65385,
65520,
27,
15,
65513,
65410,
11,
65470,
65470,
65480,
65410,
41,
65452,
65506,
65468,
50,
65476,
65448,
65516,
65496,
65436,
27,
37,
5,
65468,
65453,
54,
65452,
58,
65533,
65509,
65535,
10,
65458,
70,
65532,
65514,
65469,
65442,
47,
65473,
65442,
65477,
65465,
65456,
48,
17,
65455,
27,
39,
156,
65482,
65518,
65439,
67,
111,
186,
53,
112,
65506,
65474,
134,
187,
97,
65497,
65498,
105,
189,
91,
117,
91,
164,
38,
82,
154,
160,
65527,
101,
65472,
65,
58,
17,
63,
65502,
52,
65438,
65485,
65499,
65481,
38,
4,
65459,
39,
49,
40,
65481,
65513,
46,
36,
83,
65492,
16,
65495,
65447,
65436,
2,
65486,
56,
55,
33,
48,
65519,
65473,
34,
65490,
34,
65457,
44,
65477,
66,
15,
65445,
65279,
65415,
65488,
65473,
65476,
65491,
65412,
53,
91,
52,
65477,
7,
65512,
65525,
77,
65463,
9,
108,
65486,
65503,
65482,
31,
65425,
166,
30,
65531,
45,
65481,
65454,
65478,
74,
65481,
65523,
10,
86,
71,
69,
125,
65504,
37,
105,
155,
37,
152,
183,
65454,
86,
34,
122,
21,
65404,
97,
65456,
220,
49,
67,
137,
58,
34,
90,
190,
172,
65517,
79,
107,
65495,
7,
65533,
65492,
65498,
65451,
65510,
65470,
65370,
65480,
65462,
65454,
65454,
65314,
65287,
65403,
44,
65513,
65408,
70,
64,
65430,
65455,
216,
65454,
65335,
65325,
14,
65407,
171,
30,
8,
65352,
65519,
23,
65456,
65412,
65473,
65318,
65429,
65447,
54,
39,
65426,
3,
65464,
65456,
65434,
65525,
65470,
65393,
65458,
65453,
65510,
65389,
65523,
31,
65453,
65520,
65454,
14,
100,
65483,
65451,
65521,
62,
174,
65440,
65516,
78,
65456,
65518,
65480,
65490,
65525,
52,
65437,
65526,
65330,
65399,
65452,
65528,
65426,
65509,
81,
36,
124,
116,
65507,
65398,
96,
67,
303,
209,
0,
65339,
150,
60,
127,
229,
65370,
65410,
353,
115,
275,
161,
65505,
65424,
65396,
65491,
65478,
65448,
65479,
65486,
65439,
1,
65368,
65457,
65455,
65532,
65451,
68,
102,
65355,
65470,
65436,
65479,
65492,
65522,
11,
59,
30,
65438,
65516,
65488,
65491,
65527,
23,
65498,
65498,
65454,
65499,
65421,
65527,
65463,
65457,
32,
61,
65479,
65432,
65381,
18,
20,
65524,
65524,
65375,
113,
22,
165,
65365,
33,
62,
65436,
65257,
65244,
65234,
65412,
23,
65398,
65258,
65230,
65411,
65461,
65426,
14,
65502,
65368,
65446,
65412,
66,
65467,
26,
135,
53,
19,
65534,
31,
65491,
31,
41,
38,
78,
37,
65510,
2,
65528,
65474,
65497,
9,
65430,
65428,
2,
65511,
6,
65460,
65507,
46,
65434,
65535,
65502,
65501,
65458,
65526,
84,
65477,
38,
65438,
32,
40,
65504,
65506,
65469,
84,
154,
201,
34,
21,
65485,
22,
65506,
79,
49,
122,
65504,
8,
65461,
23,
84,
65535,
65464,
3,
86,
177,
21,
65510,
65386,
65343,
65490,
48,
146,
52,
59,
65519,
65444,
65387,
65414,
65437,
204,
100,
65412,
65424,
65526,
32,
92,
65488,
65394,
65215,
65227,
5,
65431,
65364,
65422,
65455,
65472,
65462,
65515,
65365,
65176,
65281,
4,
159,
65527,
65519,
65445,
65301,
65326,
23,
4,
65475,
65478,
78,
55,
76,
51,
65417,
65347,
65466,
149,
65534,
25,
126,
10,
65389,
75,
27,
65386,
183,
228,
396,
66,
85,
65346,
121,
287,
258,
363,
11,
29,
391,
237,
315,
395,
41,
65514,
16,
65504,
47,
65500,
65505,
40,
210,
34,
38,
165,
65489,
65370,
65529,
67,
40,
65523,
41,
26,
31,
163,
65496,
44,
65484,
328,
64,
48,
62,
65506,
0,
176,
143,
87,
76,
14,
103,
65535,
14,
101,
109,
90,
65505,
65495,
65482,
65520,
29,
83,
65508,
26,
65476,
29,
65459,
65457,
65523,
82,
58,
65521,
65510,
20,
56,
67,
30,
0,
41,
29,
37,
92,
76,
65468,
39,
65454,
65491,
41,
65508,
65442,
27,
65465,
38,
71,
84,
38,
65481,
65394,
65463,
65478,
65433,
65520,
65496,
110,
65467,
39,
62,
65524,
65403,
45,
65436,
66,
19,
24,
65501,
56,
65414,
65526,
65456,
65509,
37,
65445,
25,
65495,
65435,
65424,
65527,
57,
63,
65407,
65441,
65499,
161,
44,
65476,
65473,
295,
81,
65438,
131,
65527,
65524,
22,
289,
275,
137,
65438,
25,
307,
289,
207,
287,
65504,
96,
269,
217,
286,
262,
135,
72,
172,
20,
119,
65513,
71,
96,
65526,
175,
105,
47,
42,
34,
65508,
71,
65477,
0,
65452,
65523,
65528,
65352,
65424,
65471,
65503,
65438,
65430,
65383,
65455,
65506,
14,
72,
65525,
65454,
65449,
36,
65436,
61,
66,
65483,
58,
65458,
30,
53,
65430,
40,
65470,
11,
52,
65530,
65477,
65432,
51,
5,
13,
45,
65390,
65509,
29,
12,
65523,
65516,
65461,
65481,
65517,
9,
65440,
65492,
65472,
34,
65534,
65435,
65526,
65513,
65500,
82,
65516,
17,
65481,
2,
91,
28,
113,
118,
62,
65513,
67,
115,
303,
138,
30,
65514,
65532,
32,
67,
65529,
65528,
209,
54,
21,
151,
65509,
156,
230,
65470,
65518,
27,
65528,
30,
199,
273,
95,
123,
93,
196,
65443,
65446,
65518,
90,
65472,
65484,
65452,
65419,
39,
65454,
65299,
78,
12,
65392,
65317,
65295,
65449,
65456,
65500,
65287,
65099,
65001,
65229,
65326,
65449,
65265,
65181,
65150,
65231,
65335,
100,
65392,
65413,
65522,
30,
43,
39,
65488,
43,
65481,
65506,
65475,
6,
48,
65477,
65462,
65475,
65531,
65431,
63,
65524,
65474,
65439,
65513,
65453,
65488,
8,
65472,
65447,
83,
13,
65512,
65465,
65496,
65488,
26,
33,
10,
7,
30,
21,
65516,
35,
65451,
65497,
65471,
5,
65440,
65416,
65460,
5,
52,
65453,
65519,
61,
88,
65533,
115,
65510,
65514,
65486,
160,
128,
89,
29,
21,
65512,
74,
196,
124,
55,
100,
0,
29,
65506,
65476,
65530,
1,
65495,
65310,
65505,
187,
198,
65521,
65382,
102,
65458,
146,
64,
69,
65414,
65532,
207,
168,
123,
65450,
74,
1,
65531,
115,
74,
9,
65491,
65475,
65490,
117,
45,
65526,
65440,
65501,
40,
65534,
65514,
54,
65472,
114,
188,
43,
65489,
65497,
10,
65513,
19,
52,
28,
65421,
85,
65514,
2,
65481,
34,
45,
65522,
65496,
94,
61,
11,
65510,
68,
74,
18,
65398,
65415,
31,
16,
34,
32,
224,
111,
65394,
2,
69,
101,
226,
88,
65466,
48,
35,
65,
13,
31,
65499,
23,
65483,
65440,
81,
50,
115,
65418,
193,
94,
144,
94,
130,
65421,
67,
152,
142,
62,
12,
65478,
65463,
65532,
65452,
93,
65409,
13,
138,
99,
64,
61,
62,
138,
10,
61,
159,
65534,
97,
118,
4,
35,
77,
122,
174,
53,
3,
65421,
125,
52,
92,
65482,
65525,
31,
65471,
65509,
29,
5,
65528,
143,
30,
65470,
32,
66,
68,
65528,
65530,
21,
65454,
65445,
65472,
65452,
65420,
65443,
80,
65470,
65474,
65464,
65372,
65474,
67,
49,
65513,
65451,
65477,
65483,
65473,
63,
60,
38,
18,
137,
65479,
39,
47,
65513,
71,
65529,
65499,
77,
46,
65489,
65502,
65476,
65467,
65413,
65479,
65441,
65432,
65335,
65429,
65371,
3,
65233,
65233,
65392,
65362,
65475,
65380,
65121,
65080,
65392,
65365,
65449,
65439,
65257,
65320,
65346,
65215,
65527,
65314,
65290,
65288,
65362,
65446,
119,
65329,
77,
147,
259,
66,
143,
79,
65430,
126,
111,
65518,
70,
208,
148,
341,
113,
184,
65384,
188,
481,
244,
296,
153,
65507,
241,
396,
434,
199,
231,
82,
65497,
25,
65511,
65525,
65503,
65418,
65401,
65336,
65262,
65432,
65438,
144,
65448,
65515,
29,
20,
65386,
65467,
49,
257,
91,
284,
65491,
46,
171,
114,
159,
96,
65469,
65408,
79,
11,
51,
66,
6,
65438,
65412,
65382,
65301,
65446,
65411,
44,
65522,
65531,
65498,
15,
69,
65440,
65475,
65450,
79,
65515,
65424,
25,
65393,
65242,
6,
65432,
65387,
5,
65232,
65048,
65096,
65306,
65419,
65449,
65319,
65310,
65163,
65246,
65387,
150,
89,
65488,
121,
26,
98,
65481,
30,
65470,
65450,
65487,
65535,
65421,
48,
65432,
33,
65439,
40,
52,
65479,
65522,
65431,
26,
65466,
65525,
55,
148,
41,
4,
23,
37,
4,
160,
163,
123,
61,
67,
61,
65523,
65532,
15,
15,
65479,
65425,
2,
27,
65513,
18,
65495,
11,
65398,
65534,
78,
65488,
65500,
65458,
65375,
65420,
65513,
65524,
65429,
9,
154,
43,
65518,
65493,
65475,
65534,
8,
90,
65489,
65453,
65451,
62,
40,
65446,
65460,
19,
155,
65513,
65485,
65528,
224,
65524,
15,
65401,
65519,
65486,
4,
65432,
65463,
65385,
73,
34,
65496,
55,
3,
65405,
65420,
65381,
65471,
24,
28,
65385,
65439,
65482,
18,
148,
172,
65497,
65509,
65422,
65478,
85,
65506,
65445,
4,
65319,
65481,
65515,
65529,
65406,
72,
63,
20,
5,
74,
83,
215,
143,
56,
65534,
93,
65371,
65461,
65515,
65511,
65435,
75,
0,
127,
65435,
65508,
56,
65497,
65420,
98,
65461,
65450,
26,
22,
14,
65405,
50,
65407,
73,
65535,
65511,
121,
69,
65530,
2,
65529,
65505,
37,
65508,
65527,
65442,
162,
65349,
65328,
65407,
65434,
74,
155,
65422,
65355,
65270,
65357,
7,
4,
73,
39,
103,
18,
53,
85,
65516,
65454,
13,
65487,
65438,
103,
213,
68,
21,
180,
65431,
10,
327,
255,
257,
97,
52,
65379,
272,
245,
335,
98,
26,
65460,
287,
368,
164,
177,
104,
17,
144,
206,
112,
65520,
65438,
65504,
125,
41,
110,
57,
133,
65519,
105,
46,
132,
65512,
119,
35,
65512,
65534,
15,
112,
65514,
65525,
110,
14,
72,
48,
55,
109,
65456,
92,
19,
65519,
65520,
5,
65507,
65501,
39,
18,
65477,
22,
113,
65518,
95,
55,
65409,
65434,
29,
65516,
65533,
168,
65425,
37,
65478,
113,
65417,
65458,
65514,
124,
167,
65508,
119,
43,
136,
86,
157,
157,
121,
65529,
65475,
65532,
49,
140,
117,
67,
0,
65439,
65533,
28,
65533,
65443,
44,
65468,
65465,
65412,
65480,
22,
65494,
112,
65535,
32,
65442,
65506,
65534,
65500,
65380,
65462,
65455,
65441,
43,
46,
65418,
65401,
65488,
65369,
68,
65444,
56,
65473,
65506,
21,
65528,
30,
65526,
65484,
65198,
65345,
65492,
184,
65292,
65399,
65478,
65511,
65390,
14,
65467,
77,
65470,
123,
65383,
57,
65380,
65437,
65337,
89,
65387,
65437,
65304,
65349,
65415,
65449,
65476,
77,
65525,
65503,
65370,
65408,
65472,
19,
65399,
65523,
65292,
65344,
65411,
65532,
65413,
89,
65436,
65531,
65535,
65484,
128,
110,
127,
94,
19,
65398,
65513,
159,
159,
70,
65438,
65432,
17,
164,
75,
171,
65468,
65385,
65430,
65448,
65326,
65492,
65377,
63,
61,
136,
65479,
65474,
93,
3,
65402,
65472,
65421,
50,
65508,
112,
65352,
65373,
65345,
65440,
65509,
65511,
2,
65353,
65233,
65429,
65393,
45,
65487,
65453,
65405,
65341,
57,
65480,
65489,
65510,
65525,
65455,
65460,
65450,
65517,
27,
65463,
27,
65479,
82,
65445,
65462,
65529,
57,
49,
65453,
65452,
65516,
26,
85,
28,
46,
65453,
26,
65461,
65492,
74,
65530,
65532,
65534,
65493,
65467,
32,
65484,
65459,
37,
65511,
43,
65477,
65521,
65388,
65369,
65464,
65466,
71,
65420,
65371,
65458,
65319,
65282,
65379,
65389,
101,
65450,
65469,
65235,
65342,
6,
65401,
65344,
65189,
65409,
65468,
65452,
65439,
65475,
65457,
65313,
65406,
190,
65384,
65337,
65292,
65488,
38,
11,
47,
34,
65455,
65439,
38,
65490,
65508,
65478,
65412,
65422,
65520,
134,
65360,
65464,
65376,
65377,
23,
65525,
65495,
65331,
65411,
65444,
65411,
65,
15,
65408,
65382,
65530,
65531,
65531,
33,
65505,
15,
65469,
60,
65480,
65413,
65461,
65498,
65507,
73,
65421,
110,
143,
65506,
65393,
65530,
65440,
68,
116,
65527,
17,
65318,
65452,
15,
53,
65517,
65531,
65290,
65369,
65407,
121,
65484,
88,
65351,
65505,
65341,
65452,
89,
65530,
65411,
129,
116,
64,
77,
42,
36,
50,
65334,
65345,
65472,
65532,
71,
65516,
65180,
65291,
65090,
65176,
65236,
44,
65306,
64944,
64908,
65243,
65488,
46,
65356,
65203,
65083,
65200,
65452,
100,
15,
65529,
53,
80,
99,
65447,
65474,
58,
65465,
65457,
65459,
65528,
24,
4,
50,
65461,
65489,
68,
65499,
65524,
7,
65478,
65443,
21,
37,
65434,
78,
49,
65480,
71,
65506,
65448,
67,
77,
43,
65485,
47,
65533,
65478,
65491,
65509,
65299,
65507,
124,
44,
65497,
65529,
65378,
159,
22,
3,
65534,
65505,
65483,
9,
65473,
65460,
65444,
65531,
65470,
65515,
48,
59,
35,
24,
65363,
65469,
57,
117,
76,
65383,
65502,
65445,
65516,
65453,
65511,
65462,
59,
57,
187,
65462,
51,
158,
65525,
65406,
65454,
14,
65510,
125,
8,
65438,
65288,
65391,
65455,
65419,
57,
65417,
65082,
65362,
65331,
103,
74,
65414,
65287,
65340,
65320,
65394,
65457,
65504,
65470,
101,
15,
47,
47,
65406,
65478,
65495,
15,
22,
65484,
116,
103,
65440,
1,
65487,
65449,
54,
153,
179,
65503,
65489,
65515,
114,
65511,
1,
107,
55,
76,
86,
113,
4,
3,
30,
34,
65509,
65517,
112,
47,
65518,
147,
18,
10,
65248,
65397,
65447,
65453,
65334,
65416,
65412,
65323,
65446,
65397,
65273,
65211,
65369,
65317,
65420,
65506,
65440,
65006,
65056,
65357,
65419,
65467,
65382,
65451,
65302,
65418,
65258,
65466,
65371,
65273,
65349,
65379,
65403,
31,
208,
135,
157,
65453,
65487,
65453,
65378,
65444,
65512,
65,
110,
24,
65417,
65222,
65081,
65222,
24,
65451,
65355,
65412,
65202,
65443,
60,
65491,
93,
65509,
65494,
65531,
20,
65507,
65514,
2,
65509,
65516,
27,
105,
127,
185,
69,
192,
65514,
97,
220,
20,
191,
232,
53,
75,
119,
96,
66,
106,
40,
56,
243,
255,
275,
244,
138,
108,
106,
198,
262,
129,
65448,
65399,
65531,
65530,
65511,
54,
71,
65385,
65488,
65532,
65439,
65340,
65416,
18,
65426,
65,
65439,
65531,
69,
65447,
39,
65432,
43,
115,
65509,
65375,
65531,
18,
65510,
41,
65461,
65399,
27,
65504,
3,
81,
65516,
65440,
65478,
39,
65470,
65432,
65437,
65430,
65467,
65466,
65288,
65444,
65489,
65447,
65501,
65469,
65440,
65449,
65396,
6,
65337,
65472,
65489,
36,
65472,
65354,
65327,
65447,
12,
65500,
65419,
122,
65532,
65410,
65390,
65378,
68,
65534,
65500,
65475,
111,
68,
65379,
65521,
68,
65445,
65477,
65478,
6,
78,
85,
65487,
65451,
58,
89,
65445,
65466,
65509,
32,
76,
65451,
65529,
65498,
65500,
65535,
15,
65535,
41,
65497,
25,
65456,
65500,
65512,
71,
65526,
65482,
65499,
21,
65522,
65470,
37,
41,
65454,
10,
65452,
44,
65437,
69,
65494,
65492,
65529,
65488,
65469,
10,
65526,
65532,
65533,
14,
65508,
45,
50,
27,
65516,
22,
65512,
103,
65459,
65477,
65491,
65467,
10,
65466,
65512,
47,
65518,
36,
25,
61,
134,
81,
65502,
38,
141,
65430,
65501,
60,
8,
65510,
65520,
161,
16,
89,
65495,
65520,
99,
188,
83,
65503,
25,
37,
147,
65493,
65475,
60,
49,
15,
65507,
66,
65491,
77,
65460,
65449,
25,
33,
145,
84,
65488,
65303,
65528,
111,
65496,
65431,
36,
65486,
79,
74,
45,
65482,
65412,
12,
19,
65449,
44,
65490,
80,
30,
65513,
65475,
171,
187,
65482,
68,
65469,
65478,
19,
65483,
65448,
65456,
65468,
65467,
69,
115,
65478,
65401,
65522,
68,
54,
48,
65511,
65378,
65364,
12,
65440,
65459,
59,
65460,
187,
11,
14,
65520,
86,
65494,
65,
103,
148,
156,
65466,
50,
23,
19,
39,
80,
65406,
10,
133,
115,
28,
2,
12,
65469,
65523,
65496,
65502,
65498,
65466,
40,
65418,
65189,
65171,
65298,
65475,
65504,
65357,
65192,
65167,
65218,
65446,
65478,
65484,
65330,
65260,
65264,
65474,
65471,
65453,
40,
57,
52,
65514,
94,
65459,
65339,
65199,
65357,
65527,
131,
65423,
65515,
65327,
65397,
65409,
8,
65443,
65361,
65250,
65315,
65487,
65528,
65353,
65117,
65280,
65346,
65521,
171,
65460,
65278,
65247,
65365,
65437,
65515,
67,
65421,
65449,
65508,
45,
65497,
65507,
65462,
65497,
39,
24,
65471,
65375,
65452,
65348,
65480,
65446,
58,
65387,
65350,
65353,
23,
107,
12,
65395,
65416,
65343,
6,
65452,
30,
65445,
65447,
65422,
65374,
19,
5,
48,
19,
65453,
65495,
65530,
65524,
65448,
65383,
65524,
91,
8,
38,
65457,
65478,
77,
93,
79,
65501,
43,
81,
269,
169,
27,
28,
65528,
26,
312,
223,
117,
48,
65514,
65486,
272,
271,
26,
65442,
30,
65,
62,
23,
17,
28,
65407,
65456,
65438,
65299,
65508,
65509,
65324,
65504,
65487,
65422,
65519,
65498,
32,
65330,
65534,
65497,
14,
65398,
57,
42,
80,
61,
65398,
65528,
136,
103,
65508,
44,
30,
7,
52,
65433,
9,
65532,
65469,
65468,
65348,
65414,
65312,
65525,
65350,
65447,
65491,
65422,
65506,
65499,
65485,
65460,
65478,
142,
46,
65420,
65433,
117,
65439,
65428,
65414,
65371,
65425,
65505,
55,
54,
65527,
74,
65464,
32,
65512,
18,
65382,
65403,
65478,
35,
65528,
65469,
65391,
65475,
65435,
115,
26,
65475,
72,
65472,
65385,
65418,
148,
157,
188,
64,
65476,
65512,
70,
140,
152,
5,
65418,
65528,
46,
65501,
184,
120,
65439,
36,
65517,
76,
50,
65466,
65434,
75,
65514,
65486,
54,
40,
65472,
65429,
65423,
65448,
146,
65529,
5,
65420,
116,
65451,
65375,
65409,
52,
65457,
129,
71,
10,
118,
48,
65526,
163,
280,
159,
60,
179,
65,
65501,
65512,
58,
48,
65499,
65389,
166,
86,
50,
65531,
65495,
65472,
48,
47,
65298,
65496,
65432,
57,
174,
74,
65429,
122,
65388,
65482,
47,
24,
65438,
65525,
65459,
65437,
65462,
16,
74,
65503,
65490,
65479,
65509,
65,
31,
63,
15,
104,
208,
23,
65503,
84,
93,
156,
146,
6,
112,
14,
65476,
105,
126,
5,
65513,
65502,
69,
65523,
162,
72,
16,
9,
65495,
31,
128,
147,
197,
107,
149,
83,
24,
65499,
2,
65535,
45,
65478,
134,
65480,
65527,
15,
14,
65382,
65456,
65384,
65454,
65518,
65467,
65429,
65427,
65266,
65110,
65200,
65375,
65483,
65398,
65276,
65275,
65334,
19,
85,
65365,
65222,
65315,
65396,
65529,
65466,
65502,
65513,
65521,
65528,
65457,
65512,
35,
65528,
88,
231,
65470,
65494,
29,
36,
65481,
65429,
59,
95,
160,
65463,
28,
109,
65443,
65518,
65368,
36,
109,
29,
65479,
33,
19,
46,
67,
65515,
89,
65521,
65472,
24,
65457,
14,
55,
65447,
65490,
59,
65476,
25,
65517,
65491,
65533,
65443,
69,
49,
71,
69,
86,
65511,
1,
65424,
56,
65478,
65461,
65479,
65449,
65479,
83,
65460,
88,
65482,
65511,
65527,
65462,
32,
65,
38,
55,
38,
65512,
65461,
65387,
65504,
65497,
65481,
77,
122,
65498,
65522,
65420,
65399,
65526,
65511,
58,
179,
268,
52,
52,
65472,
33,
40,
128,
164,
65483,
51,
125,
102,
104,
21,
65534,
65451,
133,
100,
137,
40,
65434,
65461,
65478,
65378,
65508,
72,
65427,
65434,
65471,
65520,
104,
93,
109,
87,
75,
109,
169,
65491,
65520,
65422,
219,
87,
46,
48,
44,
65523,
120,
158,
212,
66,
65518,
65519,
65531,
46,
65510,
65429,
65515,
65392,
65429,
65533,
65500,
13,
20,
65515,
65479,
115,
65523,
112,
65395,
147,
65476,
50,
142,
115,
128,
107,
156,
151,
65495,
81,
65460,
58,
174,
154,
163,
253,
224,
65480,
65409,
65397,
65457,
93,
65421,
65535,
65508,
83,
92,
65523,
65491,
5,
27,
102,
84,
47,
48,
65531,
38,
65446,
65516,
12,
65493,
16,
43,
44,
65437,
86,
65507,
54,
37,
38,
122,
11,
65506,
33,
53,
67,
63,
65470,
65469,
37,
17,
65510,
190,
225,
65522,
65506,
65517,
65496,
59,
36,
65483,
65448,
17,
63,
47,
65426,
65529,
98,
94,
65435,
65458,
65448,
80,
203,
65451,
14,
2,
38,
39,
104,
209,
65505,
65527,
65515,
124,
65497,
65404,
65358,
65405,
65467,
65534,
65416,
223,
40,
65504,
72,
142,
75,
171,
249,
266,
65486,
75,
58,
26,
62,
82,
191,
65481,
65495,
123,
12,
13,
96,
65463,
18,
46,
65534,
28,
65517,
65450,
65534,
46,
168,
30,
65529,
65483,
65489,
101,
122,
84,
102,
38,
9,
65,
65535,
65464,
65525,
65490,
65426,
29,
65444,
65446,
45,
65468,
22,
31,
65518,
65471,
65476,
11,
65515,
65510,
79,
32,
53,
35,
44,
142,
62,
87,
65452,
93,
86,
65491,
65376,
65423,
65473,
43,
19,
5,
63,
100,
65503,
53,
65466,
65,
65508,
30,
65469,
86,
65524,
65464,
77,
65519,
0,
17,
10,
84,
85,
66,
36,
69,
65534,
211,
71,
115,
298,
77,
65515,
75,
233,
285,
119,
77,
133,
88,
65475,
215,
0,
65483,
232,
125,
87,
116,
50,
147,
99,
29,
46,
65521,
65405,
27,
44,
141,
65509,
77,
20,
28,
65449,
65433,
65477,
65437,
33,
23,
65368,
65479,
107,
83,
31,
121,
65436,
83,
65526,
132,
132,
81,
65411,
37,
131,
85,
65524,
30,
65405,
65524,
65482,
65455,
65495,
84,
65516,
65411,
65497,
34,
33,
139,
65458,
65395,
65405,
12,
27,
52,
65421,
65316,
65502,
65333,
65483,
65444,
65412,
119,
305,
218,
65514,
65337,
65501,
56,
144,
142,
305,
65415,
65404,
156,
243,
144,
233,
3,
105,
65394,
65415,
37,
65410,
65484,
65450,
27,
40,
127,
94,
65466,
65503,
238,
98,
21,
65529,
72,
145,
194,
34,
65330,
65486,
65524,
65516,
73,
158,
249,
172,
42,
31,
89,
106,
42,
65490,
88,
65458,
62,
20,
65518,
23,
55,
65499,
11,
65455,
110,
137,
65357,
65444,
65432,
2,
43,
104,
65447,
29,
17,
41,
65465,
65426,
74,
65503,
101,
65532,
116,
49,
154,
65450,
55,
65,
95,
88,
129,
45,
65528,
65441,
65427,
48,
33,
