memory_initialization_radix=10;
memory_initialization_vector =
160,
52,
65428,
65468,
65409,
105,
65494,
65470,
40,
65475,
65526,
0,
65453,
65412,
10,
210,
80,
65478,
65508,
23,
83,
101,
173,
11,
41,
65468,
65482,
18,
0,
57,
158,
191,
74,
192,
88,
155,
65446,
19,
65451,
65356,
65406,
65413,
21,
65473,
7,
65535,
65493,
65508,
65500,
65406,
65499,
42,
77,
19,
65488,
92,
167,
179,
4,
65535,
66,
65478,
65355,
65432,
65466,
65502,
23,
65532,
25,
6,
65369,
65391,
65473,
164,
144,
36,
12,
153,
98,
65439,
53,
65437,
65474,
151,
27,
65516,
65401,
65509,
65482,
209,
94,
6,
65388,
65444,
65452,
77,
104,
153,
65498,
104,
65525,
65464,
10,
133,
65502,
39,
10,
4,
139,
175,
124,
134,
59,
65367,
32,
261,
102,
79,
65512,
65343,
85,
65439,
47,
160,
35,
65403,
94,
65532,
65490,
65434,
65456,
65492,
65525,
65535,
9,
65358,
65438,
65478,
96,
113,
65526,
65390,
65320,
65444,
30,
65445,
65507,
3,
0,
20,
65455,
10,
65439,
11,
0,
75,
82,
55,
65477,
51,
26,
65468,
26,
41,
28,
65522,
28,
64,
65461,
91,
65515,
73,
65473,
65489,
65455,
18,
65468,
62,
65526,
8,
241,
277,
144,
144,
64,
183,
165,
212,
243,
143,
105,
74,
225,
293,
175,
285,
183,
107,
218,
181,
187,
128,
159,
182,
305,
262,
104,
159,
7,
202,
308,
233,
137,
103,
48,
58,
65514,
14,
5,
65335,
51,
82,
121,
0,
15,
65496,
19,
45,
124,
115,
65478,
65533,
60,
241,
108,
69,
65424,
65439,
65435,
186,
98,
14,
28,
56,
77,
91,
65530,
65524,
92,
54,
65526,
111,
153,
65518,
65342,
65455,
127,
34,
42,
77,
99,
65459,
71,
3,
65503,
81,
72,
65525,
19,
8,
28,
65479,
154,
119,
65448,
123,
8,
65494,
65512,
65491,
10,
164,
65449,
65444,
65497,
65524,
80,
78,
65348,
65348,
65501,
69,
65530,
65420,
65498,
65515,
65474,
65342,
65466,
65417,
65426,
65475,
65285,
65397,
65451,
65360,
65421,
65400,
65491,
65331,
65384,
65439,
26,
38,
65435,
65381,
29,
32,
43,
107,
39,
65493,
65447,
65497,
65516,
65401,
5,
14,
65535,
15,
65533,
65405,
65432,
65393,
65425,
42,
65501,
65451,
80,
65373,
65439,
65468,
65515,
65421,
65,
65417,
65534,
65509,
65437,
65333,
65450,
65453,
65525,
65521,
55,
65511,
65408,
12,
65521,
54,
45,
65471,
65479,
65469,
67,
65477,
70,
37,
25,
65472,
14,
65,
29,
65531,
10,
41,
55,
12,
18,
69,
65529,
65486,
45,
65519,
80,
65526,
26,
35,
65490,
65500,
65450,
85,
75,
10,
46,
65444,
150,
65498,
65317,
65210,
65516,
278,
247,
62,
39,
65400,
65441,
159,
265,
253,
224,
164,
85,
62,
175,
144,
53,
118,
94,
172,
240,
133,
248,
318,
195,
139,
22,
54,
89,
106,
1,
75,
64,
48,
9,
112,
38,
65533,
65525,
65522,
65411,
65489,
65529,
65502,
65528,
65528,
8,
65431,
65394,
65464,
65450,
65478,
35,
65472,
65393,
65441,
64,
65498,
40,
65518,
65443,
29,
65499,
65459,
65464,
58,
24,
108,
109,
209,
233,
92,
199,
130,
65451,
101,
65433,
109,
6,
65535,
65417,
243,
65434,
136,
92,
65471,
6,
11,
96,
87,
77,
65436,
65499,
138,
48,
65488,
11,
65395,
65463,
23,
65525,
24,
30,
65496,
65419,
65421,
65331,
51,
65531,
65384,
65311,
65403,
65401,
65476,
65483,
65530,
65236,
65303,
65381,
65291,
65316,
65315,
65250,
65201,
65379,
65304,
65410,
65363,
65382,
65395,
65376,
65421,
65469,
65448,
65338,
65483,
65489,
65525,
48,
86,
65527,
91,
65387,
65399,
65499,
65316,
65382,
23,
3,
65454,
35,
22,
21,
65529,
65441,
65423,
65494,
65350,
85,
0,
54,
35,
23,
30,
65467,
65476,
63,
65531,
65496,
65518,
38,
65523,
66,
3,
65503,
43,
72,
65531,
94,
60,
73,
65517,
193,
58,
124,
124,
65450,
93,
65532,
86,
48,
125,
55,
131,
207,
88,
40,
123,
45,
119,
17,
212,
30,
106,
120,
129,
33,
60,
41,
73,
145,
52,
121,
41,
317,
354,
100,
146,
65494,
26,
123,
273,
38,
65479,
59,
114,
65477,
176,
65398,
65390,
65410,
145,
92,
48,
65489,
65522,
34,
68,
65500,
170,
131,
65355,
65413,
65404,
65473,
65516,
101,
65420,
65388,
65439,
65446,
107,
7,
65378,
65398,
65331,
65503,
65493,
65473,
33,
65439,
13,
65486,
17,
65388,
65336,
65215,
65254,
65448,
65484,
65510,
65361,
65412,
65397,
20,
65532,
65516,
8,
18,
17,
8,
79,
86,
65534,
65425,
65490,
18,
65523,
65501,
65317,
65283,
65508,
78,
65530,
27,
42,
65351,
22,
65375,
65432,
23,
65265,
65394,
65338,
65479,
135,
40,
0,
65483,
16,
65395,
65398,
54,
65434,
136,
96,
65485,
111,
152,
50,
158,
64,
65284,
65290,
31,
170,
204,
75,
11,
65459,
65453,
146,
359,
175,
181,
127,
105,
59,
279,
222,
257,
176,
50,
121,
245,
179,
357,
247,
167,
70,
48,
65527,
38,
121,
65526,
24,
23,
65460,
65476,
25,
65517,
10,
65490,
65414,
65395,
27,
63,
65508,
47,
110,
200,
237,
144,
253,
150,
19,
67,
161,
61,
3,
65485,
211,
111,
97,
275,
31,
65449,
62,
2,
4,
104,
8,
65495,
65535,
90,
185,
150,
43,
72,
60,
186,
68,
107,
65469,
246,
255,
177,
119,
188,
8,
164,
72,
11,
27,
76,
44,
13,
223,
112,
158,
193,
94,
65471,
65532,
65512,
65396,
116,
65472,
65497,
65354,
65305,
65420,
1,
48,
54,
35,
66,
65398,
7,
67,
19,
95,
65349,
65383,
65534,
100,
137,
83,
70,
65487,
65446,
31,
65510,
65513,
22,
0,
67,
46,
65503,
17,
65452,
65375,
24,
73,
65287,
65325,
65309,
30,
65478,
65424,
65400,
65324,
65394,
65515,
65261,
65471,
2,
65288,
65409,
65392,
65473,
65394,
65527,
65384,
65387,
65414,
65498,
65426,
65432,
65463,
65466,
65398,
65438,
65487,
24,
65429,
65456,
65407,
65400,
65426,
170,
103,
164,
95,
65393,
65446,
105,
149,
196,
254,
169,
38,
159,
337,
146,
275,
278,
60,
145,
245,
249,
30,
65422,
23,
63,
328,
329,
268,
249,
261,
65412,
44,
89,
102,
172,
32,
37,
10,
65401,
54,
1,
65364,
65295,
65477,
65486,
65529,
65521,
65532,
19,
65509,
16,
65527,
65422,
65289,
65403,
65289,
65505,
65473,
65444,
65410,
65515,
65433,
65504,
65425,
65412,
65307,
65346,
65390,
65420,
65516,
65430,
83,
65508,
114,
76,
65465,
5,
65276,
65379,
65501,
46,
3,
65529,
65526,
65470,
65413,
6,
47,
65500,
65396,
65368,
65415,
65439,
64,
29,
65459,
65472,
65453,
65381,
65475,
65406,
65427,
65451,
65447,
65337,
65446,
65528,
77,
16,
65495,
80,
34,
47,
65450,
65454,
65467,
65462,
65496,
65463,
65508,
19,
25,
68,
65466,
84,
65510,
65530,
65439,
23,
65494,
18,
26,
65508,
15,
65461,
65503,
73,
8,
4,
65462,
60,
65464,
65444,
11,
118,
158,
65392,
65360,
65528,
172,
254,
98,
65487,
65480,
31,
119,
259,
202,
152,
8,
178,
259,
200,
110,
202,
165,
18,
300,
247,
256,
219,
260,
261,
265,
65534,
59,
65520,
233,
149,
115,
35,
61,
65530,
65465,
65449,
65479,
57,
65476,
65505,
65503,
65447,
65438,
59,
63,
65494,
60,
65503,
24,
40,
65445,
65506,
65,
65461,
37,
63,
65448,
65480,
87,
71,
65496,
59,
5,
24,
65500,
10,
11,
1,
65506,
8,
65461,
65511,
65481,
65411,
65470,
109,
65464,
65411,
65453,
65480,
65463,
65528,
68,
37,
65357,
65501,
65432,
65408,
65396,
65513,
7,
65509,
65460,
65470,
9,
65427,
65497,
23,
65350,
65279,
65499,
65420,
65453,
65533,
81,
65466,
19,
65505,
39,
65517,
65504,
77,
65498,
65479,
16,
65475,
89,
65483,
65430,
65456,
15,
65517,
48,
65487,
66,
11,
65512,
65487,
68,
65516,
74,
65479,
65455,
65518,
15,
70,
8,
65507,
74,
65374,
65444,
65450,
65335,
65518,
65516,
43,
65494,
43,
19,
65525,
65440,
65472,
65435,
65407,
65378,
65441,
65516,
4,
65411,
65461,
65439,
65408,
47,
65504,
65379,
10,
110,
65449,
65446,
65,
1,
20,
1,
65318,
65515,
65527,
91,
10,
65523,
118,
67,
65473,
65463,
65438,
65483,
25,
65405,
65476,
65462,
65452,
65456,
27,
12,
65492,
73,
4,
65416,
65491,
65446,
65529,
65508,
120,
76,
83,
65527,
75,
32,
65437,
65459,
65498,
95,
65447,
65424,
65424,
65486,
48,
65497,
65510,
107,
81,
9,
51,
38,
65462,
1,
12,
195,
65502,
65399,
65511,
65474,
153,
236,
65421,
65286,
65486,
65401,
65201,
65450,
65212,
65476,
218,
65390,
65461,
65449,
65273,
65519,
256,
65501,
65262,
44,
28,
65524,
35,
31,
65533,
47,
65466,
65373,
116,
65326,
76,
61,
106,
65470,
160,
68,
65520,
65357,
5,
65491,
32,
17,
65262,
65237,
65448,
65413,
82,
30,
35,
31,
65482,
65474,
65380,
65361,
65234,
65431,
7,
65420,
65375,
65307,
53,
65277,
65319,
65212,
65526,
65215,
65349,
65231,
65422,
65351,
65430,
65170,
65110,
65254,
65295,
65514,
62,
65345,
65250,
65215,
65435,
65472,
66,
12,
65457,
112,
65306,
65485,
84,
69,
85,
126,
29,
47,
166,
147,
65534,
98,
65467,
65532,
143,
39,
20,
115,
156,
138,
44,
126,
65534,
95,
83,
99,
80,
85,
65531,
45,
0,
14,
104,
91,
127,
24,
30,
65532,
107,
75,
38,
108,
51,
93,
130,
107,
65489,
72,
65435,
264,
65487,
157,
203,
191,
64,
303,
54,
176,
65507,
65526,
65510,
72,
66,
122,
215,
168,
65472,
82,
136,
65529,
114,
57,
34,
65530,
65456,
66,
65442,
72,
65529,
65526,
65527,
65456,
10,
52,
30,
65482,
65446,
49,
65499,
65526,
85,
65488,
2,
37,
73,
81,
31,
0,
65473,
65521,
65481,
65493,
64,
65440,
65496,
82,
65523,
65478,
6,
65473,
143,
74,
65344,
65338,
65533,
47,
42,
22,
65456,
65516,
65526,
117,
39,
107,
8,
65497,
32,
149,
128,
65497,
149,
103,
65524,
116,
195,
101,
202,
77,
35,
124,
75,
92,
142,
124,
65523,
248,
65454,
109,
221,
320,
65449,
65387,
65468,
208,
119,
166,
65466,
65399,
13,
188,
191,
181,
211,
225,
65495,
65411,
58,
85,
59,
65379,
73,
173,
65459,
105,
238,
139,
65486,
82,
191,
0,
189,
132,
65379,
65421,
65447,
3,
53,
65356,
65412,
104,
279,
65353,
65439,
65315,
65455,
65489,
44,
65248,
65526,
65399,
65324,
65264,
65341,
65232,
65380,
1,
65494,
65519,
65387,
65370,
143,
56,
23,
68,
85,
65457,
96,
107,
65391,
87,
58,
171,
73,
65344,
65287,
65381,
65514,
65524,
65527,
209,
65213,
65477,
5,
130,
65419,
65182,
65269,
65322,
65473,
146,
65532,
65477,
65247,
65182,
65476,
65479,
65434,
65517,
65434,
65361,
65495,
65442,
65504,
124,
65465,
3,
91,
24,
65465,
8,
24,
5,
65449,
65443,
35,
65532,
65488,
65517,
65534,
5,
34,
65532,
65446,
65452,
65478,
43,
65535,
65528,
38,
65484,
92,
19,
65498,
65481,
65453,
65533,
65473,
59,
48,
65515,
65439,
65425,
65486,
65443,
65458,
65501,
67,
65498,
65519,
65425,
65476,
65387,
50,
65459,
65376,
65346,
65445,
26,
146,
51,
65416,
65504,
65507,
65394,
13,
110,
85,
65389,
35,
44,
25,
65431,
65530,
65526,
65515,
65498,
33,
69,
65489,
1,
12,
65453,
65343,
121,
82,
65457,
17,
65510,
65348,
65410,
65340,
65322,
65506,
65371,
65369,
65435,
65398,
65450,
33,
65327,
60,
65496,
65425,
65462,
59,
1,
138,
41,
20,
140,
57,
24,
27,
65511,
65486,
65432,
26,
65471,
13,
38,
65467,
65514,
65433,
8,
65529,
65486,
37,
60,
0,
65482,
39,
65531,
65468,
56,
63,
65492,
17,
65469,
43,
65451,
65490,
41,
65421,
65460,
65486,
65434,
65528,
65498,
21,
39,
3,
52,
19,
20,
56,
65517,
74,
65519,
30,
20,
65533,
130,
84,
84,
69,
14,
9,
5,
14,
127,
47,
113,
61,
104,
88,
81,
128,
91,
55,
109,
65515,
130,
109,
110,
65479,
65509,
49,
6,
65472,
2,
65515,
117,
93,
77,
65435,
102,
65367,
34,
95,
65512,
65532,
65338,
65415,
125,
26,
168,
34,
27,
65526,
28,
25,
65479,
65395,
65475,
95,
65423,
65516,
65479,
65465,
65,
61,
89,
0,
65377,
65370,
32,
174,
125,
65525,
250,
245,
102,
241,
251,
66,
275,
114,
133,
202,
345,
40,
263,
29,
57,
56,
309,
368,
330,
326,
100,
65422,
65492,
121,
42,
229,
123,
65478,
65454,
78,
65462,
65469,
61,
65490,
64,
65505,
15,
65514,
65420,
37,
0,
65475,
54,
65501,
65506,
57,
65525,
18,
2,
65517,
65500,
17,
16,
65487,
2,
65481,
65495,
66,
39,
48,
24,
15,
82,
99,
65444,
65399,
65520,
106,
2,
65449,
9,
65504,
65482,
13,
65534,
65469,
65469,
67,
36,
0,
83,
65497,
65533,
0,
2,
65506,
65519,
71,
65447,
65423,
65446,
65421,
65495,
88,
65514,
127,
29,
93,
104,
65459,
89,
65357,
12,
119,
65385,
34,
55,
8,
65495,
54,
49,
19,
65513,
65372,
65465,
19,
65361,
65402,
65441,
65435,
55,
65535,
65345,
65413,
65525,
65495,
30,
65521,
65350,
65416,
65349,
65436,
65379,
65477,
117,
65488,
32,
65499,
65424,
65430,
8,
66,
65366,
65322,
191,
53,
65446,
65508,
65532,
65522,
2,
65474,
65491,
65518,
65531,
65520,
46,
65522,
65385,
21,
65469,
65500,
65426,
65507,
65477,
65394,
65521,
65401,
69,
65473,
65402,
331,
122,
65359,
65410,
133,
110,
205,
43,
65489,
65440,
53,
65490,
79,
171,
75,
102,
65490,
40,
102,
65469,
48,
65517,
100,
143,
143,
104,
86,
176,
65,
62,
12,
36,
29,
65514,
2,
216,
65362,
65296,
65406,
65514,
65518,
65416,
65394,
65415,
65456,
65436,
65480,
41,
65381,
65317,
65339,
65275,
65343,
65412,
65442,
65480,
65429,
65442,
65334,
65314,
65386,
65337,
65332,
65343,
65452,
65483,
65409,
12,
65453,
65370,
65409,
65476,
65472,
4,
65514,
65453,
65508,
96,
33,
65495,
65506,
65465,
65515,
65509,
47,
65485,
65472,
89,
119,
65507,
57,
150,
94,
25,
48,
65436,
65423,
65457,
65479,
65469,
65388,
62,
65508,
65457,
65485,
65474,
101,
41,
65386,
65462,
137,
94,
65483,
65409,
65533,
3,
38,
58,
65535,
65531,
200,
49,
219,
222,
78,
20,
31,
204,
123,
61,
149,
11,
65510,
185,
283,
5,
87,
69,
65425,
131,
65466,
65388,
65424,
65467,
65521,
65350,
28,
227,
163,
50,
65302,
65514,
65527,
65334,
65527,
80,
65256,
65322,
65352,
65290,
32,
65460,
65266,
65228,
65343,
65279,
65142,
65525,
65285,
65293,
65292,
65206,
65342,
65442,
65310,
65422,
134,
65498,
56,
203,
65363,
65463,
65427,
65441,
16,
65372,
3,
65474,
65527,
65450,
65435,
65256,
65422,
65200,
65179,
65364,
65381,
65182,
6,
65239,
65065,
65391,
65444,
65305,
65450,
65508,
65363,
65408,
92,
65369,
44,
45,
65477,
65500,
65335,
65410,
130,
65529,
65324,
65297,
65327,
65455,
70,
144,
28,
36,
71,
65450,
283,
278,
289,
173,
78,
158,
168,
300,
65508,
90,
235,
254,
225,
365,
326,
299,
351,
65523,
83,
65525,
26,
98,
200,
14,
65507,
26,
43,
98,
5,
12,
65517,
65479,
15,
65511,
65430,
10,
65518,
99,
65447,
13,
7,
65472,
65458,
65518,
22,
65527,
65448,
65463,
7,
65496,
65491,
80,
65526,
65443,
65516,
65430,
65463,
65391,
65410,
65495,
94,
65455,
65389,
65350,
65474,
160,
190,
90,
65525,
210,
82,
135,
25,
114,
13,
6,
65437,
377,
65522,
104,
65444,
65502,
65358,
68,
65476,
109,
65440,
65469,
65449,
65524,
65436,
65409,
65493,
1,
69,
90,
264,
144,
144,
46,
41,
83,
59,
229,
112,
207,
65507,
65494,
169,
309,
332,
189,
95,
169,
102,
183,
77,
168,
83,
30,
256,
136,
317,
84,
8,
71,
146,
128,
169,
218,
132,
167,
65367,
65362,
8,
161,
94,
65456,
65397,
26,
61,
161,
24,
65443,
65367,
65510,
49,
65416,
65428,
65408,
65371,
65439,
65504,
65388,
65479,
65433,
65491,
65399,
65372,
65453,
65410,
0,
48,
65507,
65393,
8,
103,
65359,
65504,
25,
101,
267,
50,
65458,
65509,
14,
94,
208,
41,
65500,
65300,
53,
48,
17,
65330,
65437,
65361,
65395,
65417,
65421,
65449,
65379,
65438,
65515,
65402,
58,
65482,
65375,
210,
135,
17,
65360,
65533,
65456,
64,
65400,
65305,
65513,
27,
65495,
65354,
65495,
65498,
65358,
65521,
65345,
65507,
65228,
65234,
65268,
7,
48,
65497,
65427,
65463,
65391,
65301,
22,
65459,
65500,
65364,
65353,
65512,
65403,
65480,
65458,
49,
39,
10,
65522,
65342,
65345,
65521,
86,
33,
65359,
65501,
65280,
65383,
65294,
65381,
65471,
65351,
65468,
65511,
65313,
65248,
65435,
65405,
65269,
65391,
65535,
65449,
65407,
65379,
65329,
65341,
65461,
65431,
65423,
65293,
65518,
65466,
65484,
65408,
65422,
71,
22,
35,
65469,
65478,
65489,
65504,
65416,
65475,
65411,
65486,
77,
65353,
0,
63,
95,
65499,
65408,
65391,
65460,
108,
35,
98,
65502,
15,
65358,
10,
51,
65521,
92,
167,
65519,
65530,
77,
159,
142,
65486,
134,
36,
38,
127,
15,
152,
36,
9,
14,
92,
69,
38,
173,
132,
123,
117,
65517,
65522,
11,
65404,
65471,
53,
65503,
39,
136,
196,
139,
65499,
40,
65527,
37,
65461,
52,
65483,
65527,
65509,
59,
65476,
65439,
37,
65381,
2,
65503,
65494,
65528,
65502,
65459,
65468,
65508,
206,
167,
65450,
65510,
65454,
65243,
65334,
6,
65437,
65378,
76,
65527,
65520,
65532,
65320,
65438,
250,
216,
94,
140,
65488,
65461,
65428,
65431,
94,
31,
24,
65297,
17,
114,
65457,
14,
47,
65375,
52,
65351,
65429,
65421,
6,
65316,
29,
65459,
65472,
65380,
65486,
88,
41,
65514,
65442,
65497,
1,
65491,
65304,
65392,
65416,
65430,
65389,
65336,
65366,
65331,
65300,
65291,
65291,
65521,
27,
65408,
65384,
65491,
65380,
65528,
32,
65392,
12,
3,
65461,
30,
201,
85,
58,
88,
5,
65491,
17,
57,
65354,
65392,
65498,
48,
65490,
65484,
65356,
65518,
65384,
65402,
53,
65464,
82,
65464,
65463,
65498,
65512,
55,
65454,
32,
65479,
65482,
65444,
63,
65489,
65520,
48,
80,
27,
61,
54,
65485,
65435,
65519,
43,
40,
65521,
65512,
4,
42,
25,
54,
65492,
65513,
74,
84,
172,
156,
164,
60,
22,
207,
164,
209,
198,
200,
65514,
65522,
316,
263,
203,
280,
172,
194,
258,
230,
190,
219,
144,
164,
236,
232,
346,
284,
173,
48,
257,
55,
188,
119,
59,
65533,
65508,
30,
2,
16,
65471,
69,
147,
165,
116,
227,
31,
65464,
67,
105,
65525,
105,
176,
65477,
69,
204,
65471,
157,
140,
94,
65480,
133,
65431,
65457,
65316,
65353,
65485,
65531,
65498,
65395,
65406,
65519,
57,
55,
82,
156,
65506,
93,
65480,
65438,
65,
115,
137,
1,
214,
88,
65528,
143,
241,
1,
46,
233,
65420,
65423,
38,
79,
37,
2,
88,
332,
134,
36,
65297,
65488,
65408,
65351,
115,
65452,
196,
112,
65397,
65307,
65289,
65500,
197,
73,
80,
95,
26,
65530,
200,
327,
365,
282,
65522,
230,
92,
297,
85,
143,
103,
49,
202,
225,
177,
147,
51,
94,
82,
105,
98,
20,
65535,
65496,
65457,
65466,
9,
65474,
65476,
65490,
34,
65487,
65456,
49,
65532,
4,
65516,
65505,
28,
65484,
65530,
63,
65463,
65478,
65524,
65430,
65508,
24,
55,
73,
65467,
22,
86,
3,
83,
65442,
43,
65517,
67,
65491,
136,
2,
65444,
65262,
20,
183,
195,
112,
65491,
65481,
65455,
87,
230,
91,
220,
172,
145,
67,
186,
151,
145,
147,
212,
98,
152,
206,
187,
297,
99,
146,
65474,
65494,
114,
154,
65484,
23,
65272,
65449,
65271,
65424,
65435,
65445,
65436,
65403,
65320,
65487,
65392,
50,
65282,
65414,
8,
65511,
65385,
65472,
65420,
65495,
140,
13,
65527,
65278,
65263,
65360,
65445,
65460,
65434,
65371,
65316,
65512,
65426,
65281,
65363,
65397,
3,
65466,
65455,
103,
63,
11,
65494,
65488,
65492,
38,
47,
65485,
11,
65404,
65447,
65527,
65487,
26,
59,
65503,
65473,
65424,
65477,
65501,
65459,
21,
65470,
65402,
65503,
65471,
65517,
28,
56,
65477,
11,
65451,
65369,
65421,
57,
201,
65494,
65448,
65508,
95,
46,
98,
69,
65495,
58,
169,
57,
27,
96,
65388,
65465,
65501,
65489,
65436,
65524,
65465,
65510,
65498,
65527,
139,
110,
65461,
65387,
65511,
65470,
65358,
65377,
65365,
65517,
65517,
65530,
65509,
65480,
65532,
65422,
65474,
65330,
65488,
96,
79,
65362,
48,
60,
316,
65531,
65497,
65485,
60,
65442,
65461,
62,
65430,
65477,
65479,
65461,
65382,
65343,
65489,
65491,
65408,
65473,
65431,
65400,
65359,
65457,
65398,
65305,
65515,
65432,
65509,
65352,
65259,
65526,
65323,
65503,
65386,
65391,
65275,
65334,
65236,
65411,
65260,
65345,
65336,
65391,
65219,
65239,
65403,
65353,
65413,
65336,
65265,
65473,
65506,
65402,
65399,
65534,
65374,
65487,
6,
65276,
65459,
65533,
65506,
65367,
65270,
65330,
65363,
65299,
65314,
0,
65438,
65337,
65339,
65313,
65338,
65445,
65354,
65430,
65444,
65317,
65465,
65514,
65357,
65348,
65234,
65239,
65437,
74,
65403,
65349,
65497,
65410,
65507,
65308,
65331,
65384,
65436,
80,
65337,
65292,
23,
65516,
102,
5,
65514,
6,
65457,
55,
119,
65435,
65479,
65487,
73,
196,
185,
65499,
65510,
65511,
65533,
65465,
117,
65483,
65371,
65406,
65237,
65472,
65522,
65498,
65507,
65330,
65501,
32,
86,
65506,
65464,
65489,
65463,
65472,
1,
65434,
65517,
76,
46,
62,
65496,
65520,
65477,
65490,
65464,
65444,
65450,
18,
65513,
65472,
10,
13,
6,
68,
65483,
67,
65479,
65490,
11,
65468,
41,
65463,
71,
65522,
22,
65533,
35,
13,
31,
65419,
65484,
65498,
65506,
65515,
65491,
65421,
65514,
65495,
65493,
65471,
64,
69,
65386,
65463,
65486,
65493,
65471,
65535,
65500,
65524,
87,
65451,
48,
65452,
16,
69,
65441,
64,
50,
11,
54,
26,
127,
119,
73,
6,
65485,
65459,
65516,
63,
65523,
65488,
65494,
35,
65415,
65528,
65428,
65498,
33,
65477,
71,
65502,
65468,
65410,
65480,
5,
35,
80,
75,
65473,
65429,
65502,
65501,
57,
65469,
44,
65424,
128,
122,
65405,
65357,
65430,
65386,
72,
65381,
65415,
65491,
65464,
65418,
27,
24,
65522,
65341,
65362,
65304,
65338,
65377,
65401,
65460,
65310,
65420,
65503,
99,
125,
2,
65389,
65517,
65459,
65330,
65524,
65501,
7,
129,
0,
65514,
65483,
97,
142,
9,
94,
65493,
26,
193,
65485,
52,
72,
169,
96,
65,
95,
5,
79,
90,
101,
31,
228,
80,
57,
175,
39,
86,
120,
135,
116,
245,
39,
176,
136,
65487,
65531,
65474,
65468,
65417,
183,
65457,
65489,
125,
65500,
65439,
71,
237,
342,
190,
157,
59,
79,
93,
91,
142,
52,
65485,
68,
97,
89,
142,
168,
65486,
26,
78,
65481,
125,
32,
65489,
26,
67,
192,
105,
65439,
65448,
21,
108,
135,
222,
87,
65433,
65515,
210,
119,
130,
65447,
65493,
153,
304,
39,
15,
235,
111,
179,
24,
65530,
65520,
55,
65497,
130,
24,
65502,
65410,
1,
65479,
65455,
65379,
65510,
65489,
65419,
65436,
65475,
4,
130,
94,
65526,
65496,
65531,
8,
24,
99,
27,
65531,
65458,
141,
67,
127,
66,
65506,
65525,
38,
2,
6,
65437,
65440,
65460,
65418,
65462,
65377,
65461,
65463,
65440,
65500,
65318,
4,
30,
65533,
65527,
144,
98,
65502,
63,
65360,
85,
65525,
65434,
65394,
65415,
65409,
4,
65440,
65506,
65470,
65488,
65530,
13,
14,
81,
78,
65503,
34,
70,
65453,
65480,
35,
65442,
91,
65382,
20,
84,
87,
122,
81,
43,
37,
70,
121,
35,
65473,
81,
101,
65385,
65377,
65436,
266,
65509,
26,
65416,
65370,
65383,
13,
65506,
23,
65386,
65395,
65523,
65474,
65431,
65466,
36,
44,
111,
18,
65431,
65510,
65522,
65522,
201,
65430,
65533,
65449,
49,
65467,
65366,
65467,
65459,
65467,
65503,
105,
65515,
65459,
149,
65376,
65523,
65437,
65494,
112,
65493,
65322,
65457,
65405,
65505,
22,
57,
205,
107,
65504,
65457,
19,
41,
65492,
65291,
65159,
65467,
55,
65515,
78,
65410,
32,
65468,
65502,
65515,
65414,
65445,
65445,
16,
115,
103,
65299,
65323,
65398,
65449,
124,
48,
65503,
35,
65322,
65514,
65510,
40,
65511,
17,
43,
55,
88,
86,
8,
65427,
75,
82,
132,
26,
65472,
65515,
65433,
65409,
40,
39,
65442,
29,
67,
152,
345,
65489,
65444,
65428,
65385,
65357,
150,
37,
65509,
65416,
65440,
65443,
65503,
65519,
130,
160,
57,
92,
214,
33,
22,
113,
65459,
65482,
65460,
65423,
52,
65533,
52,
65425,
15,
65413,
65258,
65501,
104,
94,
65408,
65358,
65309,
65328,
65428,
12,
122,
65430,
65334,
65364,
65463,
65337,
65350,
65481,
65379,
65482,
65386,
65360,
65483,
60,
121,
89,
65481,
65466,
51,
65476,
65439,
65463,
59,
65520,
65408,
65498,
65470,
65448,
65452,
65486,
65464,
65527,
65518,
65522,
65501,
65418,
65503,
36,
12,
65502,
66,
65479,
65535,
86,
7,
65474,
32,
72,
103,
65338,
65466,
99,
30,
38,
65417,
65525,
65444,
29,
65511,
66,
65452,
16,
52,
114,
22,
87,
65443,
65497,
65501,
14,
65528,
75,
65513,
65416,
77,
186,
136,
65482,
65453,
65424,
65414,
65425,
65370,
65508,
65492,
65398,
65478,
65483,
65500,
190,
65458,
65409,
65475,
16,
65453,
65499,
65477,
65512,
58,
65316,
38,
65495,
65283,
65503,
65456,
65378,
65422,
12,
48,
65449,
65387,
65416,
42,
38,
65482,
65497,
65343,
65467,
65490,
65373,
65457,
30,
15,
11,
1,
65507,
65515,
65524,
64,
65440,
65452,
65446,
4,
65488,
8,
18,
65444,
65483,
1,
27,
65464,
65452,
65461,
77,
69,
65443,
65,
52,
65511,
32,
65501,
83,
7,
65498,
26,
69,
65435,
36,
74,
306,
213,
98,
65433,
52,
99,
185,
290,
79,
55,
65393,
33,
65454,
32,
65519,
65484,
65477,
65423,
65399,
65490,
56,
65455,
65459,
65517,
65500,
65510,
65531,
33,
54,
133,
70,
15,
240,
143,
65333,
65412,
127,
188,
16,
65494,
65486,
65462,
65466,
65312,
65435,
65489,
41,
65445,
101,
65198,
65458,
65319,
65405,
65234,
65280,
65209,
65306,
65292,
65464,
65324,
52,
65469,
89,
90,
65492,
16,
65456,
65446,
7,
21,
2,
65527,
65383,
65259,
65366,
60,
31,
65407,
65373,
65407,
1,
65367,
31,
65413,
65313,
65310,
65289,
65396,
109,
61,
65371,
65395,
65491,
65434,
18,
65516,
65428,
65192,
65383,
65464,
65530,
65488,
62,
71,
65422,
47,
65502,
65497,
65446,
65532,
65499,
65499,
91,
80,
41,
65517,
25,
141,
65451,
65489,
4,
40,
95,
43,
75,
80,
10,
32,
65522,
65479,
23,
65470,
66,
69,
65527,
65530,
62,
20,
91,
64,
75,
65512,
146,
203,
57,
5,
65515,
198,
65534,
140,
75,
105,
35,
120,
24,
211,
291,
257,
99,
50,
59,
232,
200,
210,
145,
102,
63,
167,
230,
91,
91,
129,
162,
25,
229,
102,
100,
152,
65474,
65494,
58,
84,
65528,
65509,
65472,
97,
57,
29,
155,
132,
65496,
83,
43,
65326,
42,
65442,
64,
65535,
65499,
7,
65456,
3,
65471,
65504,
65511,
65529,
65531,
65446,
65459,
46,
65519,
10,
118,
65458,
94,
22,
65445,
62,
65493,
54,
65404,
65463,
65438,
19,
65477,
64,
65436,
65497,
65535,
11,
65521,
65479,
48,
65480,
65468,
65439,
1,
10,
65501,
65507,
65499,
65502,
53,
30,
110,
42,
21,
65473,
77,
65489,
7,
65513,
65496,
65522,
52,
65411,
65512,
65458,
40,
135,
65525,
65464,
65451,
65464,
125,
49,
65465,
65512,
65502,
65491,
1,
65534,
23,
55,
82,
65488,
65369,
67,
52,
23,
8,
42,
14,
65530,
43,
102,
90,
65382,
41,
119,
37,
65522,
65356,
65531,
65416,
65441,
65524,
90,
65302,
65452,
14,
65465,
65450,
65309,
4,
28,
65534,
37,
72,
48,
65471,
31,
65525,
13,
65473,
65534,
65535,
65517,
21,
40,
65515,
102,
86,
65495,
65425,
65417,
6,
137,
92,
9,
66,
67,
62,
199,
165,
65447,
9,
65499,
35,
166,
147,
177,
64,
65402,
7,
177,
64,
95,
130,
119,
52,
145,
65531,
100,
166,
65451,
16,
113,
34,
17,
41,
31,
104,
99,
49,
103,
212,
65531,
65425,
65440,
239,
161,
76,
9,
179,
64,
119,
65376,
65504,
48,
202,
121,
179,
184,
103,
201,
20,
244,
203,
190,
169,
346,
302,
120,
65490,
65535,
2,
115,
65490,
49,
65422,
31,
14,
65445,
65481,
27,
65502,
90,
65436,
4,
28,
65514,
22,
65425,
65368,
32,
64,
65491,
65506,
65492,
65414,
65500,
65433,
65432,
65448,
65486,
65430,
65370,
65467,
65490,
184,
178,
64,
65429,
65393,
107,
126,
65444,
25,
65533,
65394,
165,
62,
6,
47,
142,
103,
117,
190,
156,
16,
162,
33,
131,
187,
103,
101,
195,
111,
164,
149,
148,
218,
195,
120,
293,
