memory_initialization_radix=10;
memory_initialization_vector =
65474,
65429,
65316,
65513,
65338,
65398,
65420,
50,
65497,
94,
89,
58,
11,
135,
63,
104,
65487,
118,
83,
53,
143,
113,
212,
209,
102,
250,
179,
190,
126,
65487,
144,
64,
65512,
151,
38,
105,
77,
65510,
150,
65478,
79,
65415,
65506,
3,
65378,
65479,
65456,
65535,
154,
92,
90,
65401,
65470,
65534,
65496,
380,
294,
119,
65408,
65363,
65415,
164,
133,
65509,
65472,
65470,
65384,
15,
65439,
65278,
65407,
65453,
101,
65528,
44,
25,
1,
65455,
65457,
64,
65456,
79,
0,
41,
65410,
65432,
65382,
24,
59,
65508,
65368,
101,
76,
77,
65471,
65504,
65436,
65419,
65482,
65479,
65384,
65460,
65427,
65335,
65403,
65441,
65397,
37,
6,
65528,
91,
65353,
91,
105,
65520,
65483,
65524,
65468,
65419,
65453,
65481,
34,
115,
65370,
65367,
138,
128,
78,
65453,
65460,
65389,
65399,
65511,
65442,
85,
65343,
65504,
30,
73,
69,
64,
14,
65436,
27,
65522,
54,
37,
65473,
65465,
65460,
20,
65524,
65477,
37,
65498,
65513,
65484,
27,
65467,
83,
6,
32,
70,
65494,
4,
65480,
65528,
71,
42,
33,
31,
65478,
74,
65450,
65500,
38,
65434,
65499,
65462,
65496,
160,
65507,
20,
65471,
25,
65474,
65514,
24,
65533,
65515,
84,
65511,
33,
65398,
65506,
65475,
65388,
33,
65472,
65327,
65377,
65519,
65452,
65514,
85,
65522,
65514,
65396,
65471,
65476,
101,
90,
65472,
65523,
34,
50,
65445,
65482,
9,
65472,
47,
65380,
9,
65321,
65466,
65310,
65501,
65427,
65362,
65473,
185,
172,
65515,
65336,
65482,
128,
186,
274,
3,
65526,
65406,
1,
122,
229,
39,
65510,
65421,
65421,
65420,
65389,
65464,
65396,
65509,
65408,
65400,
65422,
65480,
55,
65386,
65470,
65514,
65530,
28,
65432,
65396,
65473,
65497,
65460,
65526,
65478,
65524,
139,
155,
153,
81,
78,
76,
65475,
9,
65532,
65479,
7,
65464,
17,
65535,
65497,
65530,
65476,
65412,
65491,
97,
65519,
96,
63,
65431,
65475,
65521,
65,
48,
39,
41,
41,
65506,
65496,
65520,
88,
17,
127,
26,
48,
73,
13,
65451,
7,
65535,
65448,
65451,
65459,
117,
138,
148,
65450,
65444,
65466,
39,
55,
114,
33,
65479,
58,
52,
65517,
65502,
65418,
65532,
65471,
0,
9,
65459,
65399,
65469,
65528,
65424,
65529,
6,
59,
68,
48,
65462,
65418,
90,
1,
32,
65535,
70,
65467,
65482,
65466,
5,
65485,
65490,
17,
65521,
32,
0,
65463,
7,
65506,
6,
36,
65462,
48,
65451,
65535,
21,
65467,
55,
66,
33,
65492,
43,
59,
39,
65502,
23,
65465,
34,
65505,
35,
1,
29,
60,
65,
58,
65474,
65513,
50,
112,
174,
114,
65505,
65453,
65418,
65443,
65498,
65443,
65413,
65417,
65513,
65470,
65369,
65419,
65380,
7,
65408,
65461,
65347,
26,
65343,
65456,
65438,
65485,
54,
42,
134,
65423,
65391,
7,
65376,
16,
65387,
65459,
42,
65506,
65445,
65398,
65415,
65504,
65401,
94,
65533,
65530,
1,
65501,
109,
65466,
65465,
142,
50,
76,
65513,
20,
268,
129,
95,
10,
65526,
176,
90,
238,
155,
120,
65448,
69,
56,
65532,
65464,
79,
65495,
65333,
65404,
65278,
65402,
65472,
72,
1,
93,
65457,
20,
36,
65506,
65,
44,
134,
195,
201,
134,
37,
146,
67,
65419,
65451,
223,
77,
59,
82,
38,
178,
47,
154,
232,
268,
200,
142,
54,
19,
65465,
88,
59,
139,
60,
185,
65500,
65480,
87,
76,
122,
65525,
42,
139,
151,
59,
65462,
220,
157,
25,
65529,
193,
65533,
68,
42,
117,
152,
62,
65455,
65431,
65489,
106,
92,
65485,
65527,
87,
7,
47,
65481,
85,
101,
83,
150,
89,
50,
34,
147,
73,
135,
112,
65505,
85,
65505,
32,
96,
231,
66,
65469,
94,
8,
104,
81,
162,
65484,
88,
75,
94,
65523,
82,
65462,
103,
23,
69,
10,
65501,
65475,
65434,
65518,
65519,
65517,
65495,
65445,
36,
65410,
20,
65474,
10,
56,
65418,
65483,
7,
65386,
65395,
65399,
56,
3,
65528,
65450,
7,
65392,
65417,
65529,
65507,
65483,
65392,
70,
17,
65350,
65504,
65459,
65435,
1,
94,
251,
2,
65417,
65420,
217,
183,
252,
39,
65426,
65510,
248,
240,
106,
65442,
65286,
65490,
67,
145,
30,
65288,
65411,
65377,
175,
125,
65498,
157,
259,
200,
195,
65478,
65420,
65479,
94,
104,
241,
220,
120,
65492,
65439,
65452,
138,
117,
244,
99,
56,
27,
192,
99,
244,
207,
18,
157,
115,
218,
65487,
46,
65473,
126,
322,
136,
65440,
65459,
3,
65523,
118,
65383,
65422,
65357,
65433,
65233,
65486,
83,
25,
163,
346,
128,
139,
64,
223,
88,
266,
87,
26,
60,
65534,
89,
234,
118,
286,
206,
69,
210,
49,
35,
48,
139,
65530,
81,
99,
125,
68,
71,
65498,
22,
78,
65443,
65529,
65487,
65397,
9,
65476,
65498,
65319,
65520,
65340,
65491,
65517,
65450,
65419,
65410,
65486,
65402,
65453,
65490,
65398,
65399,
65473,
40,
65528,
35,
65428,
65436,
65473,
2,
42,
65459,
65506,
103,
159,
144,
132,
174,
5,
65500,
79,
52,
65501,
27,
31,
4,
65353,
65401,
65391,
10,
7,
65516,
65282,
65056,
65226,
65303,
7,
65482,
65391,
65280,
65298,
65380,
65504,
104,
65491,
10,
20,
65462,
26,
54,
200,
100,
5,
80,
105,
65465,
65429,
118,
65454,
65531,
8,
65450,
65341,
65231,
65231,
65343,
65474,
65532,
65136,
64997,
65039,
65217,
65376,
65359,
65338,
65149,
65243,
65434,
65428,
65520,
65323,
65416,
65422,
65514,
65387,
3,
55,
0,
65504,
51,
26,
65454,
28,
24,
0,
142,
32,
65357,
65327,
65247,
65175,
65251,
65362,
65438,
65035,
65095,
65220,
65363,
65434,
65474,
65407,
65120,
65399,
34,
65354,
20,
65403,
65483,
65521,
127,
18,
65468,
75,
23,
105,
65477,
65426,
65506,
65337,
65316,
65293,
65440,
65506,
65370,
65381,
65454,
65483,
65428,
65489,
65450,
104,
11,
15,
65503,
90,
65389,
65442,
93,
65524,
25,
65453,
65509,
7,
65510,
65413,
65418,
65514,
212,
277,
65513,
65439,
65527,
121,
142,
79,
65452,
65500,
35,
65510,
104,
65347,
65450,
65349,
65529,
65515,
35,
65343,
65142,
65183,
65425,
65426,
65499,
65435,
65132,
65329,
65465,
65534,
238,
49,
65495,
44,
65477,
24,
65419,
65501,
54,
9,
65501,
43,
65466,
65522,
65511,
65486,
65461,
65405,
41,
87,
34,
65515,
2,
65392,
77,
234,
56,
71,
118,
19,
100,
106,
84,
119,
62,
88,
65423,
65518,
16,
93,
65,
42,
65476,
13,
65,
4,
65504,
27,
58,
119,
65535,
166,
65535,
44,
30,
195,
113,
49,
49,
52,
69,
223,
229,
120,
102,
212,
92,
96,
126,
65453,
111,
110,
73,
65524,
65499,
65481,
87,
75,
38,
65479,
85,
61,
1,
65469,
65447,
76,
48,
65480,
61,
65519,
65440,
65526,
65445,
65517,
65522,
64,
65497,
12,
43,
0,
65495,
9,
26,
65501,
65,
65522,
65505,
47,
58,
8,
65532,
63,
65492,
65444,
65455,
168,
66,
23,
41,
65522,
65363,
65478,
91,
65423,
65438,
65492,
65480,
65425,
65339,
65515,
65435,
65396,
65443,
65319,
65512,
41,
65515,
65385,
65486,
65369,
65452,
65484,
65447,
65505,
65462,
65417,
65454,
65489,
65420,
65504,
65474,
77,
65459,
54,
90,
65460,
65515,
0,
56,
65476,
31,
65528,
59,
25,
9,
65466,
65457,
65491,
36,
78,
65515,
65514,
65467,
65477,
21,
55,
66,
54,
60,
65477,
65469,
65492,
65443,
55,
65453,
32,
65375,
65449,
43,
73,
65462,
30,
6,
46,
47,
65445,
65323,
20,
65496,
105,
242,
5,
36,
65423,
77,
267,
79,
163,
44,
65504,
65410,
226,
65483,
0,
193,
65458,
76,
69,
149,
36,
25,
65530,
65440,
65455,
49,
65502,
74,
65500,
66,
39,
44,
33,
24,
65516,
22,
65455,
41,
65514,
65502,
4,
79,
65490,
17,
27,
65478,
25,
55,
65458,
72,
65458,
3,
65485,
43,
65516,
65479,
91,
74,
65501,
3,
12,
35,
146,
41,
65398,
65395,
65338,
65404,
65363,
65342,
65482,
65345,
65258,
65466,
65423,
65445,
65412,
65385,
65375,
2,
65425,
65442,
65502,
65393,
65416,
117,
65482,
65512,
20,
47,
12,
65379,
65408,
15,
90,
163,
165,
65535,
25,
28,
76,
65498,
118,
15,
65501,
8,
65496,
78,
97,
160,
49,
47,
82,
78,
80,
241,
144,
76,
110,
65454,
116,
83,
75,
59,
65508,
65449,
11,
61,
107,
2,
49,
54,
30,
8,
65531,
65465,
65457,
65500,
65236,
65173,
65365,
65370,
65512,
65534,
30,
116,
65448,
65398,
44,
87,
306,
259,
261,
74,
173,
65479,
45,
364,
65516,
65494,
10,
65422,
126,
65432,
65336,
65254,
39,
103,
65530,
65481,
35,
65532,
18,
65516,
36,
33,
65512,
65506,
65436,
65527,
65508,
151,
65518,
65445,
20,
65511,
356,
415,
92,
65456,
65441,
65367,
73,
176,
73,
65495,
65484,
65421,
65401,
65498,
65316,
24,
65360,
65486,
65521,
44,
130,
107,
19,
65377,
65375,
65490,
65457,
65373,
65306,
65500,
65447,
85,
89,
65535,
65324,
65466,
65448,
243,
190,
76,
41,
65485,
65372,
297,
169,
112,
65481,
65416,
65471,
65272,
65371,
65320,
65359,
49,
44,
47,
115,
65454,
65505,
9,
65438,
65396,
65393,
65532,
65436,
65489,
65506,
53,
168,
65516,
65533,
65454,
65410,
132,
80,
19,
2,
28,
65453,
65480,
65453,
65443,
65424,
36,
65458,
3,
49,
65521,
65523,
14,
65500,
65485,
104,
65368,
65437,
53,
65446,
5,
65523,
125,
65513,
11,
3,
12,
65526,
54,
106,
121,
65398,
65325,
24,
44,
65500,
65455,
65455,
65354,
9,
65472,
65452,
65518,
65519,
75,
78,
159,
100,
82,
17,
65473,
65531,
65533,
15,
49,
65535,
28,
65456,
66,
70,
65479,
65446,
2,
70,
28,
65488,
62,
63,
33,
7,
43,
65506,
60,
87,
65445,
65533,
66,
12,
61,
65449,
67,
65460,
65475,
87,
79,
39,
102,
65530,
65389,
22,
65443,
65522,
65455,
65435,
65412,
65411,
0,
65366,
65424,
17,
65505,
65460,
68,
65377,
65439,
8,
138,
65428,
65439,
65448,
65514,
65,
65531,
65441,
65404,
65451,
65388,
65511,
65458,
65418,
143,
169,
65447,
57,
85,
132,
71,
121,
65462,
14,
295,
40,
55,
24,
65364,
65528,
28,
119,
65490,
65481,
65274,
65370,
65437,
116,
114,
65436,
65347,
65420,
65531,
65456,
140,
65483,
65398,
65377,
65505,
105,
65494,
114,
134,
243,
98,
81,
65447,
15,
39,
181,
87,
42,
65447,
65381,
65346,
65388,
65357,
57,
65535,
65266,
65403,
65509,
65503,
213,
26,
65311,
14,
65529,
65516,
6,
15,
65450,
65355,
65374,
65442,
65488,
65495,
65360,
65520,
74,
65533,
73,
186,
189,
133,
239,
26,
65520,
65518,
68,
109,
73,
14,
194,
107,
113,
93,
120,
216,
223,
219,
124,
25,
65448,
62,
214,
197,
132,
169,
44,
123,
23,
3,
57,
65507,
65488,
65490,
29,
65511,
65465,
74,
51,
65471,
82,
21,
65475,
74,
33,
33,
5,
97,
65508,
65522,
65484,
47,
65446,
8,
65511,
65533,
65485,
71,
65443,
65453,
16,
31,
58,
19,
65,
65389,
65391,
65527,
65470,
65506,
65448,
65488,
65445,
35,
65499,
65465,
65447,
65477,
10,
12,
241,
173,
30,
65531,
65482,
65473,
224,
189,
65476,
65514,
65484,
65533,
212,
65517,
49,
65449,
65442,
65487,
65380,
65439,
65514,
65410,
65432,
65459,
65424,
65412,
65494,
78,
81,
40,
306,
100,
80,
72,
66,
31,
119,
65523,
111,
34,
15,
270,
94,
2,
63,
186,
61,
63,
65530,
127,
5,
81,
65525,
65445,
65520,
161,
11,
53,
65512,
65521,
49,
65438,
37,
50,
116,
139,
93,
95,
65511,
124,
65478,
18,
152,
59,
106,
86,
65501,
45,
128,
24,
3,
10,
52,
24,
95,
65486,
65442,
157,
21,
93,
28,
65512,
36,
9,
23,
51,
5,
48,
65520,
65510,
65434,
39,
41,
65513,
65484,
65494,
70,
65437,
65504,
65511,
41,
65463,
85,
99,
65445,
65474,
6,
65527,
23,
65461,
65487,
7,
7,
16,
65473,
1,
65496,
15,
65425,
65504,
65452,
65355,
50,
37,
65512,
6,
126,
67,
7,
43,
45,
90,
43,
65440,
54,
84,
162,
65477,
24,
65394,
109,
63,
344,
175,
65534,
58,
198,
326,
143,
163,
152,
142,
157,
137,
132,
128,
255,
176,
20,
65468,
65528,
60,
98,
18,
65384,
65362,
65509,
35,
7,
65435,
65386,
65516,
91,
276,
65318,
64985,
65089,
65179,
65350,
65493,
65437,
65080,
65263,
65257,
81,
83,
65516,
20,
48,
106,
65506,
78,
4,
86,
0,
65436,
65534,
39,
14,
65522,
65495,
65430,
65480,
65439,
17,
65399,
65472,
65507,
65459,
65447,
11,
15,
65401,
65482,
39,
65458,
65472,
65436,
5,
7,
65448,
65530,
65485,
32,
46,
65441,
26,
65520,
26,
65494,
65487,
77,
100,
65456,
65523,
66,
18,
0,
83,
107,
102,
65506,
65485,
81,
25,
24,
65527,
75,
65476,
65501,
65530,
65527,
81,
48,
65518,
15,
19,
2,
79,
65522,
65529,
58,
149,
65451,
65370,
65436,
65461,
65527,
65496,
65412,
65326,
97,
229,
47,
5,
65436,
65462,
65481,
81,
65472,
65494,
74,
65476,
65384,
65517,
207,
134,
65462,
92,
19,
85,
89,
65469,
10,
38,
50,
79,
116,
65433,
65369,
65372,
126,
65488,
65488,
65522,
65403,
30,
86,
62,
65503,
65532,
78,
249,
297,
251,
161,
65484,
94,
206,
383,
302,
109,
65477,
16,
215,
140,
238,
65502,
65436,
65485,
126,
37,
113,
38,
12,
34,
65528,
25,
65495,
65449,
57,
65391,
65362,
65363,
65464,
65455,
65400,
65533,
65494,
65483,
65489,
65503,
65441,
74,
20,
65502,
65516,
65514,
65517,
65506,
65511,
40,
185,
84,
65527,
65431,
65493,
65497,
65413,
15,
65475,
65462,
8,
65468,
65503,
30,
128,
15,
158,
65461,
65386,
65459,
86,
65484,
19,
108,
65459,
14,
113,
65513,
140,
13,
50,
6,
73,
19,
10,
65524,
89,
26,
65511,
65441,
3,
65518,
45,
23,
66,
80,
26,
65498,
65458,
65432,
49,
34,
57,
3,
12,
165,
65478,
41,
13,
61,
65495,
74,
55,
65468,
65452,
65482,
65526,
65435,
34,
94,
65529,
52,
65487,
65468,
65491,
65434,
65477,
94,
57,
96,
65455,
102,
120,
104,
31,
45,
65437,
65501,
65422,
32,
65496,
36,
65487,
20,
65338,
65447,
65465,
65470,
65334,
65453,
65384,
65307,
65231,
65265,
65318,
65366,
65440,
65220,
65435,
65283,
65255,
65495,
65454,
65467,
1,
65447,
65400,
106,
234,
65463,
51,
19,
118,
117,
240,
33,
199,
13,
65526,
65467,
65410,
65489,
65474,
65522,
73,
65480,
65380,
65482,
65443,
1,
92,
39,
65385,
65516,
65468,
255,
132,
54,
10,
59,
65439,
75,
8,
65355,
65532,
77,
65459,
65507,
65471,
65377,
65360,
65515,
65507,
65421,
65330,
33,
5,
132,
65499,
65508,
65521,
65306,
154,
357,
124,
44,
70,
65460,
65470,
94,
65404,
70,
51,
65375,
65276,
65288,
65272,
65361,
65427,
103,
179,
204,
14,
65486,
9,
69,
172,
65466,
65465,
65320,
65535,
148,
142,
65440,
65453,
19,
65517,
152,
65402,
65205,
65398,
65371,
65424,
120,
69,
65315,
65280,
65495,
65522,
14,
65428,
126,
212,
135,
155,
16,
7,
119,
61,
65513,
56,
43,
25,
65,
79,
65492,
12,
65535,
65488,
65470,
22,
65491,
58,
65458,
60,
65516,
65528,
66,
120,
65443,
141,
150,
121,
5,
121,
97,
67,
79,
15,
65496,
36,
65,
105,
65,
65396,
65484,
51,
65475,
65391,
42,
65498,
65369,
65530,
65494,
65408,
65314,
64,
65532,
65417,
65411,
65471,
65428,
1,
65520,
38,
65499,
65362,
65438,
65518,
17,
65463,
8,
65526,
65441,
65452,
38,
65507,
238,
72,
65466,
65475,
114,
42,
7,
65477,
65499,
65465,
117,
65535,
65418,
65516,
65468,
65451,
65391,
80,
36,
65471,
65369,
65509,
65487,
168,
65490,
12,
134,
8,
74,
171,
59,
65532,
62,
43,
65521,
90,
10,
58,
65515,
65391,
82,
1,
10,
0,
31,
142,
94,
99,
151,
65518,
121,
167,
243,
13,
119,
89,
124,
65480,
65530,
22,
83,
65457,
47,
65499,
65468,
0,
84,
140,
151,
65498,
65487,
65472,
134,
70,
65410,
39,
134,
85,
195,
65533,
81,
65527,
159,
310,
71,
65438,
65430,
65459,
49,
49,
4,
65479,
65434,
65454,
65508,
227,
59,
65494,
65510,
65383,
65526,
219,
117,
114,
50,
108,
72,
48,
8,
46,
65466,
59,
130,
65507,
35,
8,
65464,
163,
65508,
32,
139,
65524,
65504,
65523,
65496,
65504,
65488,
65411,
65426,
142,
112,
100,
143,
65415,
97,
65504,
240,
29,
52,
65518,
65440,
65395,
43,
75,
65499,
90,
65430,
65528,
169,
110,
35,
48,
65484,
65412,
59,
223,
65478,
65502,
65535,
65500,
45,
7,
65,
38,
65403,
65425,
65522,
104,
65533,
65514,
65446,
65533,
65483,
4,
65448,
65497,
100,
106,
55,
23,
65435,
65393,
65450,
80,
11,
65497,
65527,
210,
42,
117,
65503,
123,
65483,
181,
65502,
141,
65528,
152,
65497,
65488,
88,
38,
130,
105,
51,
65523,
294,
37,
60,
197,
65510,
16,
65516,
193,
155,
87,
65532,
65471,
65484,
39,
65463,
65417,
65449,
65505,
145,
61,
67,
10,
116,
65524,
133,
74,
140,
65507,
39,
101,
15,
26,
65470,
65452,
76,
65515,
65458,
66,
31,
56,
65468,
65446,
65452,
115,
65434,
74,
65527,
65522,
41,
65531,
65471,
65531,
92,
28,
65495,
21,
65527,
140,
68,
173,
223,
265,
96,
172,
98,
369,
199,
265,
129,
9,
65516,
65401,
175,
45,
65437,
65380,
65497,
65425,
65341,
65329,
65247,
65531,
65381,
65528,
76,
65510,
11,
65460,
65416,
65436,
96,
21,
65484,
4,
11,
65485,
65,
65525,
10,
65461,
65501,
18,
13,
65438,
65364,
65407,
65438,
65483,
65472,
5,
65453,
65377,
65400,
65531,
78,
65469,
4,
65389,
61,
28,
65506,
52,
65480,
65497,
65403,
65399,
65375,
65345,
65360,
65443,
65462,
4,
238,
165,
65470,
4,
65444,
154,
98,
214,
9,
65459,
65491,
178,
261,
279,
68,
65488,
65535,
65454,
65450,
65488,
65397,
102,
65493,
28,
65513,
65532,
65498,
74,
65468,
65438,
63,
65522,
53,
30,
13,
68,
10,
65483,
17,
65462,
65533,
65531,
65457,
65461,
99,
69,
65501,
59,
65493,
65464,
65464,
36,
3,
65497,
60,
4,
40,
65495,
23,
65447,
65530,
73,
5,
0,
65440,
65330,
65388,
65516,
65502,
65412,
65478,
15,
65401,
65366,
14,
65519,
65506,
65398,
65371,
65354,
13,
59,
21,
2,
65510,
65478,
65525,
65477,
63,
3,
6,
65535,
65389,
65463,
98,
65532,
36,
65511,
4,
65324,
65442,
65403,
65423,
65350,
65392,
65398,
0,
27,
2,
65464,
65504,
70,
20,
101,
50,
5,
19,
65511,
53,
184,
188,
142,
65482,
1,
65482,
65513,
65484,
13,
65421,
64,
98,
55,
191,
70,
65500,
102,
37,
86,
48,
107,
10,
39,
65416,
65292,
65185,
65188,
65334,
65506,
29,
65165,
64926,
65102,
65301,
65430,
45,
65380,
65042,
65057,
65484,
65320,
65504,
65430,
65514,
91,
182,
65443,
139,
46,
110,
33,
99,
65519,
80,
31,
65305,
65331,
65350,
65468,
147,
29,
116,
30,
34,
163,
52,
124,
196,
252,
65521,
65480,
65462,
131,
65508,
269,
22,
13,
65475,
88,
103,
157,
65378,
65510,
65485,
65460,
65529,
22,
65457,
65491,
88,
65520,
65529,
65446,
46,
65477,
65533,
65477,
65517,
65528,
65449,
65472,
65497,
65506,
47,
80,
56,
26,
70,
65471,
65446,
24,
65509,
65506,
10,
65483,
65491,
28,
65533,
65512,
65433,
68,
84,
72,
65368,
65424,
65449,
65419,
85,
12,
65482,
65464,
65431,
65453,
65438,
65453,
65467,
65456,
65476,
34,
65466,
65528,
65528,
65413,
65363,
65481,
58,
123,
65470,
28,
65457,
65386,
65366,
65535,
65451,
65415,
11,
65497,
65530,
80,
88,
46,
32,
65419,
65493,
65443,
58,
4,
52,
65490,
65490,
65492,
61,
55,
65491,
0,
65411,
65525,
65521,
65502,
65446,
65419,
65295,
65401,
65438,
58,
60,
65435,
65410,
69,
122,
57,
11,
65504,
65490,
71,
65511,
65495,
65522,
82,
65464,
65503,
65511,
65528,
65512,
65441,
65456,
67,
75,
40,
32,
65528,
33,
40,
62,
23,
27,
42,
63,
65443,
83,
65507,
6,
65491,
126,
65492,
113,
65500,
65509,
208,
78,
65472,
80,
65446,
65501,
65516,
65519,
91,
74,
64,
65444,
65437,
65509,
65387,
75,
65389,
71,
65281,
65428,
65239,
65473,
15,
65518,
65526,
65312,
65456,
65306,
65312,
66,
65507,
65460,
32,
65529,
65452,
25,
65500,
65416,
65530,
65335,
65352,
1,
153,
14,
145,
34,
15,
95,
113,
191,
182,
219,
107,
117,
173,
49,
80,
144,
57,
65451,
13,
25,
95,
25,
65450,
8,
107,
211,
127,
65424,
65428,
65528,
65519,
65472,
45,
16,
69,
79,
77,
135,
65515,
36,
116,
8,
49,
50,
102,
18,
65522,
65499,
65535,
213,
175,
178,
127,
26,
1,
20,
145,
113,
65515,
15,
65439,
27,
65532,
65510,
65419,
65452,
21,
11,
65510,
65500,
65415,
65496,
65495,
127,
75,
65531,
65350,
65491,
65500,
141,
182,
174,
65434,
65470,
216,
92,
65479,
108,
30,
65401,
93,
49,
64,
65483,
65414,
65358,
65464,
65476,
65444,
65404,
65406,
178,
54,
214,
13,
65504,
65519,
65481,
65374,
65503,
65340,
65184,
65471,
65491,
65421,
65480,
0,
65486,
82,
65512,
0,
160,
190,
143,
65418,
35,
83,
173,
205,
67,
71,
65517,
76,
82,
73,
65490,
135,
65478,
65466,
14,
3,
65504,
36,
37,
51,
5,
18,
65525,
65502,
65508,
65520,
65522,
65521,
4,
0,
65476,
65482,
88,
92,
20,
43,
65526,
65480,
97,
50,
65503,
42,
1,
38,
73,
65470,
77,
63,
65479,
65532,
65478,
23,
47,
65511,
63,
65445,
65531,
95,
65509,
65476,
65422,
32,
65471,
65483,
65495,
65534,
65458,
65453,
65415,
83,
65532,
2,
56,
65490,
65471,
47,
6,
65497,
65484,
65519,
65497,
65493,
16,
36,
30,
87,
50,
65512,
65437,
65472,
81,
17,
58,
65471,
65491,
23,
48,
23,
65519,
91,
39,
65454,
65516,
65527,
36,
60,
62,
121,
65468,
65507,
70,
65501,
4,
82,
51,
94,
65502,
51,
65506,
65529,
65518,
65503,
65479,
142,
65514,
43,
65482,
45,
214,
286,
301,
239,
65404,
65308,
65232,
65179,
65474,
65409,
65488,
65247,
65113,
65007,
65277,
51,
65516,
65396,
65058,
65051,
65419,
65361,
137,
65534,
2,
65456,
203,
65473,
65449,
65489,
65522,
159,
65367,
65374,
65530,
65458,
23,
40,
65500,
65460,
65528,
63,
68,
138,
65530,
65455,
22,
65507,
141,
147,
101,
117,
94,
94,
131,
17,
147,
7,
8,
65488,
3,
65453,
20,
65529,
18,
73,
47,
65504,
80,
65,
12,
65454,
65481,
65467,
23,
65495,
183,
62,
52,
65486,
3,
7,
108,
12,
65393,
65412,
65532,
65446,
88,
35,
65534,
6,
65465,
65499,
65438,
19,
17,
65503,
65443,
65434,
93,
65404,
106,
63,
18,
65475,
106,
65477,
65420,
65369,
20,
129,
109,
61,
111,
231,
35,
36,
194,
70,
205,
198,
160,
65453,
142,
55,
65502,
65520,
65483,
66,
65489,
78,
133,
81,
65498,
65454,
33,
96,
162,
65512,
23,
65487,
35,
65373,
65418,
65481,
65445,
65428,
155,
161,
82,
65422,
65460,
20,
45,
148,
98,
177,
30,
103,
65511,
96,
129,
119,
55,
40,
52,
65532,
65527,
65465,
65442,
42,
175,
65463,
65375,
65501,
107,
65507,
65458,
27,
65525,
19,
65489,
65464,
65495,
65513,
65353,
17,
65516,
65509,
89,
65421,
65473,
65437,
65485,
137,
65510,
65412,
65447,
65276,
65465,
65513,
111,
65535,
65440,
65440,
65520,
65429,
15,
52,
65514,
65446,
65528,
88,
65430,
65415,
65503,
15,
65492,
102,
26,
53,
53,
120,
65490,
65362,
102,
65460,
17,
66,
65499,
71,
65467,
65392,
65367,
65521,
16,
2,
65391,
65525,
65495,
65410,
107,
65455,
65503,
131,
38,
160,
68,
100,
65439,
65253,
65437,
65324,
10,
49,
65384,
65450,
65413,
50,
65487,
65445,
65432,
65434,
65495,
65419,
65514,
65450,
65363,
65513,
27,
65368,
65342,
65414,
65465,
24,
65396,
65479,
65397,
12,
37,
1,
65494,
65525,
65456,
26,
5,
65410,
65431,
65516,
65320,
65384,
65447,
65396,
133,
25,
65359,
65532,
65380,
72,
352,
174,
65529,
69,
8,
65462,
302,
119,
104,
65485,
65469,
65381,
65317,
65273,
65419,
65365,
13,
83,
85,
113,
128,
127,
65525,
21,
65458,
64,
65507,
65511,
13,
65372,
65487,
65447,
65526,
65353,
18,
65508,
65505,
65515,
29,
65472,
65438,
65427,
65463,
94,
233,
33,
0,
65370,
19,
65426,
65521,
65489,
65490,
65450,
93,
28,
65478,
65497,
65491,
17,
134,
48,
65,
65486,
65488,
65366,
124,
65246,
65411,
151,
65445,
65504,
11,
65523,
65418,
65467,
65388,
18,
21,
65411,
65531,
65417,
65437,
65507,
138,
117,
65512,
65398,
60,
155,
115,
65450,
2,
65506,
65514,
110,
94,
65450,
65452,
78,
23,
40,
118,
65526,
61,
57,
65531,
166,
202,
199,
133,
78,
76,
65523,
125,
67,
208,
95,
54,
65,
100,
52,
65534,
116,
129,
65,
52,
46,
65422,
65526,
20,
65507,
65528,
44,
47,
65523,
65428,
65490,
65411,
19,
65519,
65504,
31,
65392,
65450,
65362,
65364,
65451,
65495,
71,
65350,
63,
65373,
65405,
65492,
65502,
65420,
25,
65528,
65484,
65472,
65352,
65416,
63,
65454,
65493,
65396,
65508,
147,
414,
220,
63,
65399,
50,
65523,
60,
16,
46,
88,
150,
65434,
33,
118,
160,
72,
22,
52,
65507,
65474,
11,
132,
65,
145,
65518,
30,
65532,
65517,
65464,
65500,
64,
65458,
65469,
65455,
65471,
65503,
55,
41,
65532,
65483,
74,
58,
23,
65454,
30,
16,
19,
45,
65498,
27,
65437,
65513,
74,
65502,
65470,
65529,
43,
84,
65505,
85,
65434,
64,
65496,
65453,
65496,
65448,
65523,
26,
49,
122,
145,
25,
17,
65502,
119,
259,
309,
42,
73,
80,
97,
57,
64,
113,
119,
64,
39,
91,
88,
65260,
65363,
28,
50,
65502,
6,
25,
65496,
153,
65501,
139,
65523,
65394,
146,
156,
124,
82,
47,
65381,
65496,
65493,
65462,
25,
65385,
65387,
65387,
65490,
42,
42,
65372,
65298,
65354,
65416,
125,
65382,
65356,
65352,
65364,
65435,
65533,
112,
65432,
65430,
65298,
64,
65401,
65409,
65243,
34,
65448,
65497,
65477,
65362,
65302,
65316,
65465,
65273,
11,
61,
85,
293,
90,
132,
65461,
6,
301,
417,
402,
135,
10,
10,
280,
204,
285,
141,
114,
65486,
65425,
48,
65375,
65399,
59,
65474,
65460,
20,
65519,
17,
65511,
92,
95,
135,
120,
173,
39,
65483,
65506,
65435,
65419,
65391,
23,
16,
65435,
65439,
65385,
65429,
65501,
65535,
65460,
65453,
65456,
71,
65457,
80,
86,
75,
145,
103,
65474,
65456,
65470,
65332,
65504,
65528,
73,
65529,
65530,
65431,
10,
62,
95,
30,
65491,
65366,
65468,
65497,
135,
65502,
65512,
2,
26,
90,
71,
130,
53,
66,
58,
172,
166,
90,
65516,
179,
65527,
181,
163,
69,
65519,
65490,
107,
57,
43,
86,
65511,
95,
125,
65526,
65525,
65390,
65437,
65220,
65393,
65404,
65534,
65426,
65298,
65348,
65294,
26,
129,
7,
65435,
65437,
65410,
56,
61,
105,
65513,
65470,
57,
85,
147,
33,
21,
65457,
26,
65512,
65,
76,
26,
25,
65479,
65483,
3,
65526,
93,
30,
65427,
59,
65438,
65511,
65463,
65523,
70,
11,
65524,
83,
0,
65461,
65511,
65535,
65491,
48,
65516,
65479,
97,
65469,
65455,
82,
138,
124,
10,
20,
28,
99,
96,
82,
65468,
65508,
41,
67,
140,
132,
127,
71,
83,
60,
129,
155,
185,
45,
97,
56,
74,
95,
60,
91,
89,
65457,
65465,
65456,
65462,
65442,
99,
8,
65416,
65453,
65447,
65529,
65515,
65472,
53,
65436,
65450,
65,
80,
44,
4,
65431,
65408,
79,
143,
11,
59,
36,
84,
147,
194,
83,
65533,
65523,
65460,
88,
211,
252,
82,
170,
192,
72,
43,
48,
202,
76,
17,
94,
65515,
65356,
65527,
65477,
65358,
65504,
48,
65250,
65233,
65355,
65453,
65471,
65510,
65393,
65334,
65392,
65296,
65490,
25,
65323,
65453,
65469,
59,
87,
24,
65423,
65500,
65428,
65512,
15,
65447,
96,
69,
2,
10,
30,
303,
139,
72,
65351,
21,
65525,
113,
73,
60,
65530,
86,
1,
65470,
111,
54,
12,
5,
65461,
65412,
33,
65498,
65407,
65260,
65526,
65523,
65457,
65493,
65477,
65463,
65476,
65526,
65466,
74,
65404,
79,
65496,
59,
132,
210,
137,
202,
253,
65481,
65521,
7,
65313,
65416,
65431,
45,
16,
65417,
65327,
65350,
65481,
137,
2,
115,
106,
65472,
118,
116,
65499,
94,
96,
137,
65531,
65533,
65435,
66,
65450,
54,
65437,
65481,
65460,
65526,
65532,
65441,
31,
65443,
32,
37,
65526,
156,
1,
65441,
65414,
23,
96,
70,
37,
93,
65516,
150,
262,
148,
166,
34,
65461,
65430,
65497,
65444,
29,
122,
