memory_initialization_radix=10;
memory_initialization_vector =
260,
65455,
65250,
65343,
65421,
179,
190,
65473,
65470,
65512,
65406,
65466,
65522,
65482,
65475,
65460,
65413,
54,
65443,
65308,
65472,
65426,
65466,
26,
65309,
65297,
65448,
65468,
65417,
65485,
65305,
65508,
65491,
48,
65511,
36,
65423,
65421,
65470,
65340,
65224,
65519,
65494,
65340,
65477,
65243,
65497,
65429,
65476,
52,
57,
65403,
65415,
65489,
2,
66,
63,
65370,
34,
65501,
65403,
1,
67,
198,
65492,
65454,
65492,
27,
38,
16,
48,
65351,
437,
202,
65310,
65331,
65431,
417,
267,
156,
65527,
65222,
65222,
247,
89,
65479,
65363,
65399,
65363,
65534,
210,
65440,
175,
65530,
66,
27,
155,
57,
51,
98,
65428,
142,
191,
125,
65532,
65471,
65507,
106,
65088,
65452,
42,
65435,
65473,
65008,
65364,
65380,
65364,
65394,
65474,
65200,
65399,
25,
24,
65467,
45,
65378,
65321,
65515,
65468,
52,
125,
65193,
65319,
65531,
65469,
65470,
15,
65134,
65136,
65477,
65408,
65279,
65355,
65095,
65472,
65491,
89,
65526,
65489,
13,
35,
0,
65473,
9,
65454,
65504,
65522,
18,
65495,
65474,
65487,
65523,
55,
65463,
65515,
65498,
50,
65485,
6,
65470,
65483,
65462,
37,
65519,
54,
65470,
36,
11,
65507,
65446,
217,
65232,
65128,
65177,
65270,
65476,
33,
65287,
65140,
65283,
65228,
65470,
65528,
65404,
65247,
65342,
65302,
65477,
146,
65485,
65465,
177,
65434,
65505,
88,
65466,
65427,
104,
48,
6,
173,
65534,
9,
65514,
65420,
65530,
65455,
65445,
26,
65493,
65515,
65488,
65439,
65530,
199,
143,
65511,
81,
65307,
65454,
36,
107,
65447,
105,
65381,
65390,
84,
65501,
119,
252,
65484,
65466,
68,
94,
90,
107,
65502,
65452,
35,
65400,
42,
47,
65337,
91,
93,
25,
108,
65498,
65495,
115,
19,
155,
158,
65526,
65488,
168,
15,
26,
52,
65473,
65489,
72,
189,
110,
79,
48,
65502,
101,
95,
130,
23,
37,
65229,
65444,
51,
87,
65493,
65392,
65208,
143,
190,
125,
172,
65481,
65363,
4,
153,
81,
18,
65526,
65423,
65533,
125,
71,
108,
63,
65465,
105,
65475,
65434,
65388,
65496,
65399,
12,
65518,
65513,
65298,
65422,
114,
24,
65495,
65361,
65498,
65520,
65447,
61,
65394,
65534,
65511,
78,
13,
65516,
65387,
65458,
65447,
85,
55,
1,
65420,
65417,
65451,
202,
85,
65434,
65481,
65516,
45,
212,
69,
111,
65533,
65488,
157,
172,
59,
54,
93,
61,
106,
119,
2,
65504,
65483,
65476,
9,
65525,
38,
49,
65493,
75,
32,
65480,
69,
65438,
21,
4,
65526,
27,
74,
65450,
65490,
65462,
65495,
65470,
65490,
65484,
67,
65493,
40,
35,
37,
65487,
9,
65501,
81,
11,
65175,
65400,
65498,
152,
104,
65447,
65466,
179,
205,
239,
236,
65430,
99,
92,
192,
56,
166,
65516,
73,
25,
132,
65530,
25,
36,
93,
67,
50,
126,
51,
127,
65373,
65441,
151,
113,
65358,
65491,
125,
17,
25,
65366,
54,
200,
65493,
65529,
138,
183,
281,
99,
63,
218,
190,
191,
141,
83,
34,
108,
65481,
65490,
91,
233,
53,
119,
38,
65484,
65510,
23,
48,
193,
345,
202,
116,
64,
539,
65425,
206,
280,
225,
221,
59,
65530,
65485,
41,
65432,
180,
60,
47,
186,
259,
142,
79,
116,
243,
160,
0,
64,
65370,
65420,
32,
65303,
65071,
65340,
65523,
65269,
65421,
65342,
65389,
65309,
65514,
65450,
132,
265,
50,
110,
195,
39,
74,
230,
72,
40,
62,
65450,
112,
94,
60,
13,
114,
0,
65525,
130,
65402,
65470,
138,
65408,
65496,
65527,
65488,
65505,
235,
65453,
88,
90,
84,
231,
295,
221,
65445,
65340,
65,
39,
65525,
53,
4,
65519,
37,
32,
65365,
48,
65450,
65438,
65523,
52,
65428,
36,
71,
65363,
44,
65,
10,
65334,
65518,
65519,
65452,
5,
65412,
65353,
65331,
65391,
15,
18,
65421,
9,
65393,
65400,
65450,
65500,
65434,
75,
65508,
65442,
83,
65490,
65526,
65498,
44,
65381,
65426,
27,
62,
138,
91,
65508,
45,
16,
4,
33,
65488,
123,
114,
10,
0,
21,
65469,
28,
33,
65492,
65456,
286,
74,
169,
306,
65497,
426,
232,
65495,
65456,
3,
65393,
247,
85,
173,
50,
7,
174,
105,
22,
83,
91,
118,
204,
65401,
65388,
65361,
65441,
65382,
65394,
46,
65433,
65385,
65520,
65328,
65413,
65406,
417,
65165,
65040,
65135,
65251,
142,
187,
65162,
65228,
65342,
65395,
65412,
29,
65312,
65228,
65451,
65294,
65422,
138,
65270,
65391,
65284,
65415,
65474,
101,
65424,
65512,
79,
65337,
0,
211,
21,
65441,
53,
83,
304,
439,
65471,
65391,
65435,
65261,
95,
222,
48,
65367,
65480,
65189,
65241,
96,
65348,
65261,
65328,
65305,
65377,
65388,
65426,
65347,
65224,
65333,
65176,
65261,
65500,
65470,
65388,
65499,
65426,
65398,
65466,
139,
185,
131,
65486,
65018,
65349,
65470,
113,
157,
65308,
65342,
71,
249,
353,
222,
65445,
76,
365,
112,
25,
237,
65506,
155,
68,
156,
125,
142,
65443,
65507,
171,
77,
65525,
132,
7,
65378,
65389,
14,
65533,
65406,
65352,
65205,
68,
270,
138,
50,
65351,
116,
93,
92,
157,
53,
26,
400,
156,
65,
214,
111,
36,
533,
13,
65534,
65317,
46,
54,
489,
363,
65518,
65406,
134,
148,
141,
117,
232,
197,
152,
16,
65207,
108,
62,
23,
93,
65504,
65312,
65416,
1,
60,
86,
37,
65286,
65461,
65464,
39,
15,
65476,
65456,
73,
89,
100,
65410,
65241,
65462,
65516,
175,
47,
61,
65298,
65309,
65313,
65264,
65406,
65408,
65248,
65327,
65466,
109,
174,
239,
37,
6,
65510,
84,
65460,
43,
34,
65472,
65354,
65316,
65324,
1,
51,
143,
165,
226,
150,
1,
67,
186,
94,
150,
64,
100,
153,
1,
180,
103,
65510,
74,
9,
6,
21,
16,
67,
80,
70,
5,
138,
65522,
65438,
99,
65449,
65467,
65506,
110,
65,
84,
70,
65380,
65443,
65404,
65491,
83,
110,
6,
3,
15,
187,
65402,
65500,
65414,
65455,
65387,
65463,
65458,
3,
65330,
273,
136,
260,
124,
65521,
30,
65487,
256,
189,
178,
65525,
130,
145,
17,
84,
78,
65515,
45,
131,
65534,
231,
65496,
65380,
65515,
7,
65397,
57,
112,
65420,
65394,
65387,
112,
32,
139,
65485,
65444,
65373,
65137,
65131,
65226,
65331,
5,
65324,
43,
86,
119,
65144,
95,
5,
81,
65504,
140,
65211,
65415,
219,
126,
13,
78,
65361,
65452,
125,
93,
65466,
65465,
65466,
65488,
88,
65490,
65452,
65323,
65407,
203,
65338,
64908,
65051,
65204,
65255,
70,
65436,
65188,
65102,
65403,
65343,
41,
65351,
65204,
65193,
65280,
65261,
65431,
65416,
65331,
65407,
65514,
65422,
65436,
65450,
65492,
65528,
65447,
65290,
64,
41,
65433,
5,
65396,
65493,
65443,
73,
65501,
65497,
53,
72,
65450,
65495,
58,
65510,
57,
75,
65462,
65,
65517,
47,
2,
8,
20,
65496,
65503,
48,
27,
65472,
65501,
51,
65449,
65501,
39,
12,
65454,
65443,
80,
65519,
65492,
65509,
65299,
65497,
37,
101,
123,
65403,
65531,
47,
273,
224,
91,
65528,
178,
201,
330,
210,
154,
131,
104,
87,
199,
38,
91,
181,
98,
33,
65413,
118,
171,
155,
65472,
65434,
18,
8,
65493,
65508,
10,
50,
65511,
91,
65477,
65470,
65499,
65513,
65500,
56,
65470,
66,
65528,
65444,
65439,
65465,
65441,
22,
82,
65472,
49,
65491,
25,
65511,
65456,
76,
65527,
65492,
65479,
65453,
80,
23,
25,
43,
65484,
65465,
65328,
65454,
65393,
65336,
65371,
65268,
17,
82,
55,
65380,
65460,
65055,
123,
32,
15,
112,
51,
65247,
65480,
179,
77,
2,
65493,
65372,
65528,
41,
127,
51,
13,
65222,
65344,
22,
65374,
65357,
65345,
65356,
65433,
65516,
65511,
65479,
6,
2,
2,
65494,
9,
65483,
9,
100,
65457,
73,
45,
65510,
27,
65481,
65495,
26,
9,
65450,
65494,
65444,
65475,
65480,
65466,
8,
65461,
55,
58,
65445,
21,
65465,
32,
65454,
65478,
65519,
92,
65516,
59,
65491,
65522,
184,
65458,
212,
99,
65531,
65470,
65523,
31,
65346,
65453,
37,
74,
65359,
10,
65458,
65480,
65409,
80,
110,
28,
186,
65482,
65423,
160,
101,
65450,
65399,
65439,
65470,
180,
132,
284,
15,
28,
322,
23,
87,
194,
168,
276,
169,
40,
64,
299,
208,
194,
65478,
57,
61,
65531,
65521,
65527,
187,
246,
26,
79,
65475,
65516,
183,
466,
200,
219,
262,
323,
194,
27,
65395,
65450,
65176,
65118,
65337,
65359,
65377,
65455,
65287,
65382,
65185,
65371,
65328,
65455,
65311,
65458,
65390,
65451,
62,
65412,
65314,
31,
48,
65423,
65324,
65495,
37,
28,
65362,
15,
65470,
29,
65438,
65432,
65253,
96,
69,
65530,
108,
65394,
15,
59,
65499,
118,
65496,
65,
55,
150,
181,
113,
65507,
19,
47,
65434,
26,
12,
3,
65455,
65401,
92,
64,
74,
65499,
65498,
65485,
99,
65474,
65532,
65501,
65461,
94,
65304,
65325,
28,
83,
104,
65331,
65415,
167,
74,
101,
199,
65131,
65325,
65531,
65497,
175,
65478,
65294,
65377,
138,
65369,
65423,
100,
65472,
65404,
207,
64,
73,
12,
65435,
65355,
65466,
65377,
65318,
65431,
65456,
65436,
65482,
65497,
113,
4,
65472,
12,
65340,
65423,
90,
25,
65444,
64,
65492,
1,
65457,
65514,
9,
56,
65507,
84,
70,
96,
65448,
45,
51,
42,
41,
83,
65495,
65419,
26,
49,
65528,
66,
65511,
514,
217,
65516,
136,
276,
390,
232,
195,
65472,
100,
135,
141,
65516,
41,
65521,
123,
297,
199,
104,
38,
176,
65519,
38,
209,
229,
57,
133,
65378,
65400,
236,
45,
30,
171,
108,
65446,
135,
27,
8,
65481,
65518,
65519,
65530,
2,
65532,
72,
65491,
72,
49,
11,
65535,
65529,
65494,
65506,
65531,
52,
56,
5,
6,
15,
19,
40,
65436,
58,
65496,
65459,
65492,
65448,
80,
65532,
65452,
65461,
82,
65246,
65331,
65467,
167,
275,
71,
65423,
120,
215,
286,
282,
77,
27,
68,
136,
203,
298,
90,
13,
263,
106,
119,
55,
95,
16,
146,
92,
88,
50,
132,
65398,
228,
192,
65510,
65479,
54,
628,
46,
65333,
65424,
65535,
189,
369,
160,
65342,
65453,
65359,
47,
102,
65419,
65347,
65499,
65418,
65453,
180,
65293,
65432,
65318,
65292,
8,
364,
65486,
32,
65535,
19,
94,
718,
197,
108,
282,
274,
533,
65503,
38,
80,
65501,
63,
65419,
24,
65517,
163,
106,
65375,
65337,
65527,
0,
65346,
65328,
65316,
65167,
65513,
65514,
65463,
65467,
65361,
65351,
65533,
198,
436,
324,
65447,
65458,
244,
93,
11,
96,
193,
158,
346,
65193,
64938,
64973,
65235,
3,
259,
65092,
65027,
65030,
65267,
65436,
124,
65351,
65174,
65305,
65347,
65489,
65466,
65341,
65176,
65360,
79,
65387,
65321,
65193,
65414,
65465,
7,
65391,
65420,
65457,
65303,
65440,
65412,
65379,
65531,
23,
65531,
65442,
32,
65518,
65448,
65524,
106,
65510,
87,
65450,
65463,
89,
65482,
31,
65534,
74,
62,
49,
65460,
67,
65494,
65458,
65444,
65534,
65501,
65493,
65476,
30,
65474,
65508,
65485,
25,
59,
65489,
65531,
65403,
65505,
121,
65522,
65312,
18,
65464,
65380,
0,
65460,
34,
65430,
65497,
65469,
65417,
81,
64,
5,
65525,
16,
65417,
65422,
65463,
65497,
23,
65521,
97,
24,
2,
65473,
4,
65525,
69,
65428,
65519,
306,
65509,
65433,
157,
65467,
65443,
88,
42,
143,
148,
65332,
65201,
65,
40,
65333,
65521,
65319,
65157,
65472,
65471,
65430,
65480,
65327,
65276,
65338,
33,
52,
65489,
65441,
65365,
65427,
65498,
77,
145,
114,
22,
56,
17,
3,
65523,
66,
24,
65490,
65402,
65391,
65527,
52,
65531,
65500,
65439,
65450,
43,
65409,
65476,
65532,
65446,
65447,
65487,
65495,
65421,
65465,
9,
19,
65455,
65472,
65474,
65476,
65467,
65500,
65409,
65533,
65491,
65456,
65398,
65379,
65423,
34,
3,
41,
65456,
65477,
65461,
21,
144,
7,
65401,
65496,
65422,
65527,
169,
65480,
65479,
65430,
11,
182,
87,
57,
65522,
65520,
74,
4,
78,
125,
38,
65472,
25,
90,
76,
346,
30,
65364,
65333,
65339,
215,
117,
65380,
65243,
65234,
65259,
52,
118,
65523,
65418,
65424,
65369,
148,
100,
99,
65479,
65433,
65413,
59,
25,
65444,
65339,
65389,
65365,
65525,
65334,
65504,
65494,
65346,
65478,
8,
65480,
163,
259,
38,
275,
65380,
173,
107,
65462,
65521,
46,
54,
244,
6,
69,
65528,
65447,
65443,
275,
136,
128,
39,
65493,
65402,
68,
133,
9,
65520,
95,
65523,
65454,
41,
173,
216,
65521,
65236,
65534,
65469,
65487,
16,
82,
14,
65514,
33,
13,
96,
65460,
37,
65431,
48,
65496,
32,
65515,
65527,
65523,
83,
65431,
52,
65473,
39,
29,
65487,
65508,
72,
65434,
8,
65439,
65454,
71,
5,
65529,
29,
65517,
106,
150,
121,
65498,
65450,
65476,
65501,
144,
125,
65526,
68,
65458,
44,
54,
126,
57,
65476,
65488,
80,
105,
65445,
65461,
65430,
8,
65479,
53,
65421,
65523,
65445,
55,
109,
102,
65433,
65535,
64,
65129,
65319,
65209,
65261,
65450,
65059,
65314,
10,
65503,
65481,
22,
65163,
65487,
65491,
33,
65335,
65413,
65100,
65287,
209,
65522,
65423,
118,
65301,
65320,
65510,
65472,
65413,
20,
65348,
65331,
65371,
65439,
65488,
65362,
65302,
130,
65481,
65518,
188,
138,
162,
114,
15,
24,
65483,
96,
0,
65504,
65390,
199,
287,
127,
64,
65473,
93,
46,
21,
186,
65514,
65438,
65304,
65297,
65364,
65342,
65508,
65392,
65493,
65475,
65333,
65407,
65302,
65232,
65472,
193,
214,
185,
65435,
65427,
282,
424,
483,
361,
65478,
23,
186,
255,
353,
282,
65483,
65465,
183,
109,
141,
95,
173,
47,
156,
72,
65466,
111,
74,
65316,
103,
184,
172,
65444,
62,
65205,
103,
226,
85,
82,
65429,
65419,
155,
105,
114,
65486,
98,
65431,
6,
103,
133,
158,
184,
65440,
65528,
13,
65403,
65531,
65480,
65418,
65458,
65449,
47,
65487,
65527,
41,
65482,
67,
10,
14,
65515,
34,
34,
65482,
22,
50,
167,
135,
65502,
65462,
51,
68,
65532,
65,
65508,
65462,
65432,
65478,
65431,
65475,
65495,
17,
31,
6,
59,
65528,
65443,
65520,
65485,
65451,
65513,
69,
5,
8,
65486,
65492,
13,
65134,
215,
355,
123,
150,
30,
29,
171,
142,
246,
162,
26,
65499,
233,
154,
201,
55,
65474,
65506,
65516,
65359,
100,
65382,
65290,
65514,
81,
65399,
1,
85,
65218,
65212,
65337,
65352,
65380,
65421,
65214,
65330,
87,
184,
101,
70,
44,
65492,
41,
80,
138,
65458,
65496,
65301,
65488,
62,
65446,
65535,
65460,
65373,
65475,
13,
65520,
65423,
85,
65503,
65504,
113,
191,
65449,
228,
55,
65534,
149,
261,
333,
204,
65386,
65306,
65408,
65469,
65503,
65117,
65434,
94,
65359,
65421,
65389,
65283,
65516,
65360,
65448,
65532,
65480,
65230,
65465,
65384,
65226,
65295,
65390,
65131,
65393,
76,
2,
200,
53,
65130,
65532,
65492,
65406,
65434,
65264,
65126,
300,
207,
260,
280,
264,
266,
212,
65387,
100,
65533,
83,
438,
293,
125,
38,
186,
132,
223,
386,
334,
67,
0,
193,
131,
423,
181,
65400,
42,
196,
105,
30,
56,
155,
62,
65452,
65518,
65513,
65493,
65415,
65469,
65401,
54,
35,
65506,
65528,
65446,
65529,
22,
104,
65459,
65504,
65521,
30,
65326,
65491,
19,
60,
24,
33,
65397,
65483,
65503,
65513,
65528,
35,
65450,
3,
65481,
14,
65532,
65503,
65424,
113,
301,
446,
351,
258,
486,
65488,
45,
346,
414,
188,
495,
65326,
65375,
65455,
25,
188,
366,
65495,
65445,
150,
31,
18,
449,
65342,
65413,
126,
63,
19,
420,
65367,
65340,
65503,
77,
216,
225,
221,
65197,
65079,
65085,
65250,
6,
107,
65282,
65171,
65331,
65418,
65445,
23,
65484,
65386,
65361,
65349,
24,
173,
65415,
31,
65465,
65316,
65369,
56,
65512,
65535,
65475,
2,
65463,
65494,
27,
65466,
57,
7,
65415,
65205,
65521,
42,
29,
14,
65474,
65319,
65519,
65366,
65494,
65409,
105,
65231,
65368,
65394,
65525,
65403,
53,
65283,
65461,
65458,
65507,
65495,
65459,
65403,
65415,
65455,
65510,
65384,
65495,
105,
65465,
65483,
65497,
47,
65533,
431,
65456,
65151,
65163,
65299,
97,
299,
65398,
65179,
65203,
65232,
211,
33,
65171,
65175,
65172,
65168,
205,
96,
65350,
65348,
65479,
65334,
136,
226,
65461,
65421,
65527,
65418,
17,
424,
127,
65444,
65534,
183,
300,
65456,
101,
214,
65511,
32,
65398,
65422,
76,
122,
206,
65442,
65514,
65432,
65521,
65505,
165,
65533,
65270,
65523,
65452,
19,
65519,
65338,
65421,
172,
87,
65489,
65215,
65446,
65485,
60,
160,
65472,
100,
234,
269,
65261,
51,
195,
65489,
65533,
65416,
65392,
161,
129,
65517,
51,
115,
65519,
141,
16,
65483,
65495,
34,
65456,
65498,
17,
65367,
65470,
65450,
4,
66,
65501,
4,
65500,
43,
20,
65499,
60,
65508,
18,
65455,
551,
65264,
64909,
64869,
65236,
132,
223,
65356,
65246,
65202,
65510,
41,
263,
65432,
65446,
65394,
14,
59,
60,
65463,
65493,
65374,
65417,
65423,
65368,
65511,
76,
91,
26,
65497,
65476,
65508,
65458,
65496,
65524,
100,
108,
65402,
65389,
65476,
65477,
54,
65404,
65349,
65248,
65416,
65440,
34,
65449,
65427,
65518,
65469,
65498,
45,
65456,
65516,
65481,
65496,
65484,
65424,
65429,
65385,
7,
65528,
65503,
31,
65457,
8,
65525,
65530,
65499,
65484,
65199,
65218,
65213,
65200,
65071,
65003,
65237,
65256,
65430,
65445,
65325,
65382,
65366,
65281,
65443,
65364,
65403,
65443,
65447,
65311,
65298,
65316,
65444,
65151,
65531,
112,
155,
244,
150,
65099,
218,
105,
65430,
4,
65371,
65290,
65213,
211,
398,
226,
274,
65340,
65344,
255,
27,
126,
34,
65391,
65283,
163,
82,
80,
61,
65382,
65277,
21,
65511,
58,
65427,
65300,
65207,
65482,
9,
65469,
65514,
65219,
65245,
65226,
65333,
65317,
65306,
65162,
22,
65478,
65475,
65498,
65404,
65418,
25,
15,
78,
15,
65469,
65417,
65524,
75,
65431,
65382,
65525,
168,
65514,
65499,
45,
30,
114,
126,
65515,
77,
65451,
10,
95,
3,
65286,
11,
65425,
37,
65509,
65498,
14,
65483,
65458,
15,
53,
16,
65442,
65533,
20,
38,
7,
65535,
65458,
65492,
67,
46,
62,
65534,
65443,
65511,
65443,
11,
65474,
65456,
65472,
30,
65435,
65429,
65530,
52,
54,
66,
62,
43,
48,
60,
21,
65374,
65207,
65156,
65265,
65281,
65502,
65208,
65216,
65376,
65282,
65321,
65499,
65298,
65295,
65358,
65460,
16,
105,
65348,
65348,
56,
65420,
65408,
133,
65439,
76,
154,
65513,
65355,
65466,
65386,
65459,
65377,
65258,
65123,
331,
40,
65401,
65353,
65474,
120,
68,
65183,
65296,
65247,
65388,
65471,
65402,
65302,
65489,
65229,
65254,
65494,
65513,
65517,
86,
65503,
32,
65535,
65425,
65508,
65414,
65505,
65414,
65521,
7,
65468,
65294,
65432,
65473,
65473,
65153,
211,
131,
74,
83,
65477,
65423,
83,
261,
119,
72,
404,
65430,
65478,
65308,
65462,
65535,
146,
65391,
123,
158,
65495,
65523,
65439,
65438,
65486,
65468,
15,
65481,
65335,
65250,
65195,
65246,
65317,
65456,
65274,
461,
32,
65486,
6,
65397,
112,
153,
65416,
65378,
65412,
65456,
41,
153,
65390,
65529,
65380,
65332,
65518,
113,
167,
109,
65523,
65534,
75,
216,
96,
37,
65524,
99,
15,
266,
44,
65517,
65452,
65505,
65465,
65452,
65451,
65519,
64,
65472,
65442,
65481,
56,
70,
65430,
71,
65462,
65495,
80,
1,
65502,
65518,
65521,
12,
65468,
52,
65441,
65458,
65494,
65463,
74,
1,
65523,
65529,
55,
45,
46,
65496,
56,
73,
65503,
65206,
65412,
65433,
69,
65521,
65226,
65377,
68,
234,
204,
54,
65398,
113,
104,
153,
83,
65525,
65509,
55,
164,
207,
70,
125,
65491,
65521,
75,
162,
96,
61,
65348,
65158,
65415,
65492,
65431,
65332,
65324,
65346,
201,
65493,
17,
65517,
58,
65517,
122,
77,
23,
63,
209,
77,
65430,
65526,
18,
65501,
40,
39,
64,
65488,
15,
65468,
55,
155,
65525,
65431,
65508,
65505,
65494,
48,
165,
65514,
11,
65488,
65521,
100,
65455,
37,
84,
44,
65500,
65502,
79,
9,
70,
44,
65448,
65499,
65456,
65530,
47,
65518,
65495,
57,
15,
48,
60,
7,
80,
103,
42,
26,
1,
73,
80,
65468,
65516,
65449,
19,
13,
80,
65384,
96,
17,
40,
74,
39,
65530,
217,
200,
50,
190,
159,
65453,
65520,
45,
72,
65430,
65470,
65262,
65396,
65426,
65491,
19,
65205,
65256,
11,
65453,
65527,
65469,
65241,
65328,
65351,
65284,
65298,
65179,
65100,
121,
221,
100,
41,
10,
93,
65500,
65432,
65418,
65417,
65483,
69,
65420,
72,
71,
65395,
65513,
65443,
65416,
65429,
65348,
65378,
65472,
65493,
65474,
65508,
65310,
65285,
65312,
65510,
65488,
65502,
65497,
65453,
65425,
65525,
65334,
71,
225,
384,
261,
50,
65495,
129,
68,
8,
109,
72,
65477,
113,
295,
233,
162,
65468,
65495,
65521,
65518,
65409,
65458,
74,
65509,
65488,
65457,
65523,
65454,
127,
65535,
148,
1,
65505,
117,
126,
65233,
89,
301,
294,
367,
65340,
65376,
164,
198,
207,
127,
65494,
65451,
157,
112,
165,
151,
65496,
65344,
65433,
65476,
65410,
139,
65422,
65290,
65299,
65413,
65504,
65283,
65394,
65303,
65381,
65430,
65302,
65372,
65284,
65284,
65312,
65371,
148,
211,
65356,
65459,
65501,
10,
65404,
31,
65504,
65494,
65521,
28,
170,
132,
91,
65405,
206,
147,
219,
3,
65404,
65415,
65468,
65473,
65439,
65432,
65381,
65279,
65432,
65493,
65334,
65322,
65458,
0,
65500,
65534,
65476,
2,
65485,
65528,
65450,
3,
29,
23,
65482,
12,
65466,
54,
65482,
56,
81,
59,
65459,
65527,
50,
65511,
60,
65444,
43,
65528,
16,
65463,
65470,
67,
2,
15,
44,
65534,
65493,
65527,
65460,
11,
65481,
65507,
65509,
8,
65480,
47,
61,
14,
65517,
51,
65488,
65445,
11,
67,
17,
65491,
65420,
6,
71,
44,
65512,
54,
65449,
65477,
65430,
65535,
68,
64,
65503,
6,
65477,
65524,
61,
288,
121,
185,
187,
278,
347,
65526,
65517,
65510,
143,
260,
219,
65455,
0,
103,
18,
206,
87,
32,
65437,
65459,
13,
106,
273,
65529,
19,
65391,
93,
147,
221,
65409,
65416,
98,
120,
238,
125,
10,
89,
52,
65417,
65500,
74,
100,
65436,
233,
65485,
119,
256,
65476,
65345,
65413,
65474,
65423,
22,
29,
58,
84,
36,
65498,
123,
65495,
65528,
65516,
65469,
65481,
65459,
65510,
65483,
65289,
65333,
65367,
58,
718,
65428,
64895,
64877,
65310,
314,
430,
65359,
65116,
65081,
65382,
65501,
257,
65365,
65309,
65293,
65501,
65526,
305,
65435,
45,
65445,
66,
117,
261,
48,
30,
67,
146,
60,
240,
35,
65503,
56,
22,
88,
68,
65535,
109,
69,
104,
65430,
96,
65411,
17,
71,
210,
65474,
67,
65527,
76,
34,
83,
65515,
74,
275,
65515,
5,
134,
65441,
225,
104,
4,
65499,
22,
65436,
65494,
26,
150,
15,
0,
65431,
399,
65357,
65152,
65195,
65215,
197,
223,
65278,
65135,
65043,
65080,
65464,
8,
65240,
65124,
65190,
65288,
65504,
126,
65425,
65474,
49,
20,
65528,
237,
65472,
65367,
44,
65499,
54,
491,
31,
21,
270,
65517,
116,
137,
14,
65408,
65367,
8,
68,
42,
65334,
65302,
65308,
6,
65385,
65474,
65400,
65477,
65214,
65432,
65456,
65425,
125,
65496,
65518,
37,
65510,
65495,
65439,
65389,
77,
42,
50,
65525,
65502,
65526,
65501,
51,
65486,
65355,
65372,
65533,
80,
65488,
65341,
65363,
65511,
65463,
5,
65339,
65437,
22,
99,
65504,
65508,
2,
65350,
45,
122,
65419,
65411,
29,
65370,
65514,
92,
42,
1,
65373,
65527,
65488,
65471,
22,
65427,
65533,
11,
246,
327,
380,
209,
350,
561,
65373,
15,
191,
197,
133,
404,
65237,
40,
12,
183,
101,
80,
65304,
65256,
65530,
177,
65396,
227,
65448,
65362,
59,
10,
65510,
263,
161,
65392,
65519,
86,
205,
267,
65421,
65339,
65248,
65471,
65508,
65342,
57,
65418,
65429,
65454,
65480,
65477,
65459,
65496,
65468,
65533,
65443,
65432,
65467,
65419,
65456,
65417,
65401,
65400,
65504,
160,
65437,
81,
65399,
65369,
204,
65513,
65394,
65461,
65321,
65491,
65345,
65530,
65526,
48,
65461,
65376,
5,
131,
246,
78,
65461,
65443,
65528,
34,
170,
151,
65426,
65443,
65334,
65373,
65312,
65384,
65521,
65523,
65461,
9,
137,
65441,
65447,
74,
65339,
65393,
65380,
65416,
65442,
29,
65432,
59,
223,
19,
65502,
65505,
9,
83,
185,
362,
177,
126,
65340,
111,
350,
215,
77,
22,
69,
65495,
62,
91,
65500,
256,
251,
252,
193,
65529,
58,
318,
208,
169,
383,
78,
196,
265,
65277,
65215,
65229,
65409,
65444,
65058,
65309,
65274,
65415,
65291,
65373,
65069,
65460,
65351,
65232,
65204,
65401,
65133,
65308,
65435,
65467,
128,
48,
65319,
65290,
21,
65485,
36,
65490,
65151,
65307,
65398,
65411,
65225,
65380,
65064,
163,
179,
228,
148,
41,
73,
107,
101,
314,
199,
199,
149,
157,
65525,
76,
270,
237,
65492,
94,
52,
64,
65483,
65462,
78,
173,
156,
98,
65354,
67,
99,
227,
298,
364,
276,
397,
414,
42,
117,
65465,
65491,
65504,
6,
28,
17,
65481,
19,
15,
86,
65494,
65500,
65521,
31,
65469,
65455,
65400,
22,
9,
65480,
65475,
65514,
65513,
65506,
65471,
72,
35,
65496,
1,
65431,
65410,
65492,
65478,
82,
65374,
65261,
65333,
65217,
65330,
65070,
65300,
65466,
65408,
65373,
65490,
65194,
65515,
65499,
65436,
65375,
65173,
65238,
65394,
85,
65391,
65440,
65484,
65349,
65304,
65420,
65515,
26,
65340,
65296,
65350,
65374,
65403,
65417,
65403,
65332,
57,
36,
65448,
2,
65496,
87,
65487,
29,
42,
53,
49,
62,
65443,
49,
65519,
65519,
65457,
65498,
31,
9,
65506,
11,
62,
65533,
65493,
65529,
65484,
65,
65518,
0,
54,
80,
17,
23,
7,
37,
565,
264,
65505,
13,
65483,
343,
199,
106,
65356,
65336,
65180,
170,
6,
65486,
65531,
65283,
65269,
65513,
101,
65477,
65418,
65460,
65485,
65530,
195,
65449,
65412,
65499,
0,
89,
358,
118,
84,
214,
164,
268,
11,
65514,
65314,
65352,
65460,
65512,
65510,
26,
65415,
65475,
22,
97,
3,
65535,
65531,
109,
65477,
65441,
90,
65303,
65416,
65484,
65523,
55,
230,
6,
65380,
65532,
107,
155,
155,
163,
140,
40,
180,
91,
65126,
65347,
65436,
102,
269,
65214,
65248,
65481,
47,
24,
18,
65356,
65384,
19,
65494,
42,
189,
171,
65308,
65360,
0,
65314,
65296,
65532,
65347,
47,
9,
65402,
65360,
65517,
65347,
65399,
65326,
65396,
65472,
65484,
16,
65443,
3,
65437,
65506,
4,
65516,
65432,
65420,
65477,
65421,
46,
47,
65456,
65367,
65427,
65501,
44,
98,
65461,
65520,
65525,
65394,
65505,
0,
65393,
65533,
65372,
65472,
65443,
65446,
65463,
53,
9,
104,
65535,
325,
65370,
65028,
65109,
65212,
198,
129,
65349,
65330,
65173,
65374,
23,
4,
65489,
65361,
65462,
65403,
125,
65487,
65508,
65,
65477,
65379,
86,
65481,
65521,
139,
81,
65488,
23,
65384,
65387,
65502,
12,
65474,
113,
136,
65499,
23,
48,
53,
85,
68,
65376,
65203,
65292,
65285,
65449,
65505,
65298,
65237,
65209,
65202,
65433,
119,
65453,
65500,
9,
65380,
65533,
41,
65498,
30,
65525,
65414,
65489,
97,
44,
65438,
65501,
19,
65504,
65452,
40,
65459,
63,
54,
65436,
14,
65522,
65519,
65524,
52,
54,
12,
65466,
65467,
66,
65528,
116,
65474,
47,
65496,
50,
65507,
65522,
65469,
65532,
65507,
105,
65504,
65534,
65494,
61,
65445,
5,
65409,
65480,
497,
30,
65378,
65437,
65511,
523,
401,
65464,
65205,
65112,
65279,
231,
175,
65367,
65352,
65281,
65524,
91,
373,
65366,
65381,
65507,
65456,
185,
446,
97,
70,
65463,
100,
229,
834,
243,
147,
187,
445,
634,
65523,
65399,
65310,
65319,
65420,
65358,
72,
65366,
65433,
65485,
65504,
9,
65476,
3,
29,
65485,
19,
26,
65312,
65502,
53,
65475,
76,
65495,
65398,
65420,
106,
121,
65488,
65472,
65087,
65392,
65522,
65416,
65458,
65364,
65166,
18,
247,
101,
65474,
65156,
65352,
10,
423,
278,
65509,
65393,
208,
15,
198,
128,
222,
148,
140,
142,
54,
178,
65491,
63,
83,
137,
25,
97,
65499,
62,
100,
139,
65437,
28,
65465,
137,
54,
65423,
65383,
65421,
65291,
65500,
31,
65489,
85,
98,
65422,
6,
65487,
25,
65341,
65526,
65413,
65349,
113,
65328,
65518,
41,
65458,
0,
361,
53,
57,
121,
65445,
80,
294,
153,
167,
144,
65460,
65484,
42,
173,
42,
206,
179,
129,
65476,
65467,
65386,
65515,
28,
65458,
15,
65319,
65387,
65321,
65319,
65396,
65516,
108,
65504,
65525,
65476,
65410,
65469,
65428,
65341,
65403,
65468,
65485,
2,
65474,
65401,
65498,
65517,
67,
609,
65503,
64982,
64991,
65411,
255,
337,
65525,
65240,
65275,
65446,
123,
311,
65421,
65450,
65384,
65467,
65,
168,
65533,
65514,
65493,
64,
46,
213,
65381,
65494,
28,
65504,
33,
119,
97,
65460,
36,
65481,
44,
