memory_initialization_radix=10;
memory_initialization_vector =
65480,
65408,
65465,
65,
314,
65426,
91,
364,
183,
228,
113,
105,
50,
176,
183,
214,
110,
106,
236,
124,
415,
294,
170,
212,
14,
113,
159,
191,
18,
84,
94,
212,
211,
102,
214,
1,
158,
65466,
65502,
44,
27,
65485,
152,
68,
95,
65366,
61,
51,
117,
65207,
65256,
65361,
41,
20,
214,
65256,
65090,
65306,
65467,
65291,
65515,
65403,
65389,
65379,
65496,
3,
139,
65510,
64,
122,
65351,
65423,
65493,
121,
146,
135,
65438,
65379,
65336,
76,
26,
205,
40,
65394,
65435,
65433,
65479,
65483,
65499,
65381,
65498,
65481,
65513,
65477,
52,
65492,
65474,
65474,
65487,
65342,
65525,
65521,
65371,
65459,
65508,
65465,
43,
28,
10,
65425,
65330,
65349,
65430,
172,
17,
65222,
64966,
65211,
65240,
65522,
65437,
65286,
65235,
65115,
65330,
65365,
137,
65279,
65282,
65284,
65266,
65429,
65468,
65309,
65504,
65365,
65416,
65360,
158,
9,
65486,
65483,
65315,
65370,
65463,
21,
18,
65441,
33,
76,
3,
67,
26,
13,
39,
21,
65453,
65525,
65484,
65479,
65522,
1,
65510,
72,
65529,
65535,
65500,
8,
31,
46,
65447,
65525,
7,
65472,
65445,
65521,
16,
38,
65,
65467,
65389,
65432,
65517,
65482,
12,
65261,
65528,
65300,
65296,
65366,
65356,
65369,
65506,
65313,
65133,
65373,
65440,
65391,
27,
65310,
65364,
65213,
98,
65434,
65527,
65489,
65367,
65382,
65508,
65486,
15,
65519,
65347,
65358,
65441,
65218,
159,
60,
122,
65505,
65526,
65487,
143,
2,
99,
65466,
65488,
65344,
51,
41,
65392,
65227,
65285,
8,
65416,
65407,
65399,
65199,
65495,
52,
32,
65505,
65286,
65363,
5,
105,
16,
69,
2,
65401,
65324,
34,
43,
65499,
65340,
65400,
65511,
24,
76,
65528,
65467,
65453,
65532,
65458,
65519,
65488,
65533,
65534,
65475,
65463,
47,
37,
15,
65407,
55,
65470,
65480,
54,
65478,
65514,
6,
65467,
36,
65454,
65532,
65529,
65428,
73,
63,
110,
103,
65466,
65499,
250,
114,
46,
65394,
93,
66,
179,
63,
32,
65411,
65500,
65519,
67,
113,
56,
65519,
65463,
65427,
59,
132,
70,
73,
65471,
111,
188,
8,
65486,
65500,
40,
65512,
100,
58,
128,
65515,
16,
76,
166,
112,
194,
104,
35,
65470,
65498,
173,
65501,
104,
5,
180,
65501,
146,
65465,
65360,
65310,
138,
92,
133,
65404,
65525,
65463,
46,
17,
144,
72,
71,
127,
65418,
28,
65496,
66,
65435,
78,
65452,
65472,
65492,
1,
65452,
65498,
65434,
65518,
45,
65464,
65449,
61,
65463,
65477,
79,
28,
65451,
7,
65462,
65517,
65456,
65451,
65493,
65445,
65533,
20,
81,
65531,
46,
65533,
65516,
65474,
65321,
65504,
65393,
65504,
65436,
65252,
65463,
65486,
65455,
15,
65528,
65434,
65408,
65519,
15,
65386,
65478,
65442,
65442,
65533,
65496,
65514,
94,
30,
65530,
65484,
65440,
65510,
65468,
65398,
65495,
65446,
65462,
65509,
33,
65317,
29,
65522,
65316,
65503,
65387,
65413,
85,
65534,
65453,
153,
146,
3,
65517,
84,
326,
183,
89,
85,
17,
129,
142,
303,
41,
71,
105,
31,
65490,
68,
62,
65517,
119,
22,
15,
21,
65518,
65363,
65453,
65304,
65385,
65268,
65164,
65049,
65499,
23,
65440,
126,
65513,
65457,
36,
356,
139,
319,
65508,
194,
181,
525,
456,
285,
164,
212,
65495,
300,
399,
349,
444,
321,
65321,
118,
94,
50,
177,
65364,
136,
99,
42,
16,
75,
179,
65486,
204,
260,
129,
16,
127,
64,
59,
222,
279,
189,
81,
125,
118,
159,
185,
64,
10,
24,
113,
155,
53,
126,
71,
39,
138,
249,
56,
77,
219,
170,
65450,
65421,
65505,
68,
92,
31,
52,
65475,
65390,
65511,
65483,
65334,
26,
196,
163,
65434,
65392,
65395,
27,
65500,
83,
65445,
65485,
65478,
65478,
65420,
65504,
65409,
65409,
22,
65470,
65469,
65533,
11,
65427,
65467,
65486,
65437,
65514,
65532,
65407,
65494,
39,
11,
65507,
65459,
65461,
25,
65475,
65371,
65452,
65410,
65457,
65498,
65367,
65510,
65490,
65451,
65519,
65530,
65491,
65478,
65496,
17,
65530,
65475,
65432,
65401,
65473,
65403,
7,
65363,
40,
65418,
65183,
65094,
65037,
65527,
65492,
65236,
65462,
65359,
65447,
65255,
379,
239,
479,
93,
251,
78,
200,
508,
526,
175,
65471,
65420,
256,
557,
619,
251,
50,
2,
79,
188,
117,
193,
65501,
67,
126,
7,
131,
269,
331,
23,
239,
55,
4,
37,
185,
65446,
66,
264,
315,
35,
65438,
65416,
89,
306,
176,
68,
191,
65489,
203,
57,
2,
154,
123,
65479,
65481,
123,
65446,
3,
65509,
38,
65509,
65358,
65401,
65496,
65355,
65512,
172,
154,
131,
247,
78,
65458,
45,
139,
355,
62,
65365,
65508,
18,
220,
387,
17,
65363,
65520,
116,
202,
160,
12,
65436,
65521,
65467,
48,
176,
113,
65262,
65438,
65463,
65351,
65345,
65485,
65247,
1,
65387,
65500,
65463,
65461,
65480,
65452,
65432,
65407,
65369,
28,
65510,
72,
0,
65509,
65518,
83,
65477,
65418,
26,
65483,
60,
65528,
65410,
65482,
65526,
65404,
65455,
65374,
65343,
133,
3,
65482,
65512,
65396,
63,
247,
104,
123,
111,
28,
53,
48,
331,
198,
264,
238,
46,
113,
271,
240,
321,
131,
109,
242,
194,
227,
242,
65,
169,
151,
65529,
57,
257,
29,
352,
65392,
71,
67,
65471,
15,
65533,
65304,
65241,
65340,
65303,
65366,
65400,
65376,
65337,
65453,
65486,
65327,
65231,
65356,
65444,
256,
140,
49,
65412,
101,
65478,
65490,
65394,
65342,
65329,
220,
22,
65436,
65337,
65442,
65447,
65424,
65503,
14,
142,
164,
30,
65426,
65301,
65351,
65387,
65348,
65314,
65352,
92,
65529,
142,
65432,
65307,
65413,
111,
293,
288,
142,
65493,
163,
55,
120,
190,
65463,
13,
65403,
65444,
65420,
65418,
31,
65384,
65482,
105,
149,
192,
65525,
252,
65512,
65502,
65420,
65521,
13,
65464,
31,
65383,
65384,
65264,
65473,
65510,
65493,
65139,
65148,
65268,
65512,
65477,
65438,
65343,
65321,
65243,
65408,
65397,
20,
40,
65393,
65497,
65301,
10,
6,
44,
65365,
65458,
14,
65304,
65418,
65376,
65307,
65390,
65322,
9,
65350,
88,
214,
65441,
65420,
66,
65343,
282,
174,
65418,
65352,
119,
65440,
152,
217,
65534,
65423,
100,
65489,
0,
65508,
65396,
65488,
191,
103,
65506,
65342,
65518,
65519,
65524,
65492,
65459,
65397,
27,
65513,
65410,
65400,
13,
163,
65512,
65413,
65332,
65461,
39,
56,
147,
17,
65472,
65399,
238,
123,
161,
25,
65483,
1,
40,
65441,
35,
4,
21,
19,
65506,
65488,
65382,
39,
65380,
68,
65419,
65450,
65511,
99,
65481,
65245,
34,
100,
53,
65514,
65357,
65398,
65281,
65505,
38,
10,
65332,
65336,
65511,
65473,
195,
32,
65362,
65422,
65483,
65415,
181,
30,
65346,
65505,
76,
65511,
55,
68,
18,
65531,
70,
65507,
65468,
28,
65520,
65514,
2,
19,
65528,
51,
27,
57,
65445,
65529,
65475,
65456,
65495,
65501,
65467,
3,
10,
65471,
47,
1,
84,
65449,
65457,
65514,
65473,
65384,
41,
15,
22,
65414,
65343,
25,
65430,
3,
65487,
65532,
65461,
90,
65505,
65487,
65419,
65508,
84,
65500,
76,
65452,
65459,
135,
65495,
7,
65535,
5,
65483,
65408,
65399,
65387,
65461,
65455,
65382,
65472,
65433,
93,
30,
71,
65512,
65534,
65510,
65451,
35,
65518,
65515,
69,
51,
65489,
65512,
65524,
20,
65520,
65458,
65497,
29,
65482,
35,
87,
65462,
65502,
88,
53,
53,
33,
65455,
65508,
65493,
62,
65443,
37,
17,
65,
65477,
65375,
1,
65475,
65465,
42,
65475,
65504,
65367,
64,
65490,
65535,
1,
185,
65454,
65515,
38,
19,
104,
106,
237,
65467,
65423,
65484,
235,
128,
91,
65446,
65448,
65475,
40,
65511,
65506,
65478,
65506,
57,
40,
65454,
18,
65485,
66,
71,
65454,
11,
84,
65518,
65436,
65498,
51,
65527,
65512,
65508,
65532,
65501,
65491,
0,
65486,
64,
53,
65491,
65526,
65518,
65466,
65494,
65481,
33,
65495,
65,
30,
65474,
65531,
65405,
99,
65519,
130,
65494,
8,
21,
65480,
65495,
65497,
65445,
65476,
13,
65199,
65291,
65286,
65388,
65402,
78,
65177,
65347,
65367,
33,
65510,
67,
65373,
65356,
65485,
65353,
65,
118,
40,
65476,
74,
10,
129,
220,
3,
65487,
82,
65506,
26,
65529,
48,
31,
65422,
131,
133,
65406,
184,
251,
126,
102,
75,
65419,
188,
73,
79,
65504,
39,
65516,
65449,
7,
65399,
65417,
65404,
20,
65388,
65453,
65393,
65394,
78,
171,
65389,
65438,
65524,
58,
105,
158,
65511,
65349,
65119,
156,
56,
102,
65473,
65182,
65240,
65504,
60,
296,
65288,
65060,
64991,
65477,
65451,
73,
65500,
65318,
65359,
180,
61,
170,
88,
113,
189,
65270,
65161,
65520,
65431,
77,
52,
92,
65445,
136,
245,
128,
65439,
90,
65473,
177,
20,
16,
65459,
13,
65516,
113,
65287,
65248,
65306,
65439,
65344,
97,
65298,
65181,
65292,
65500,
22,
151,
32,
65521,
166,
65308,
65232,
87,
86,
175,
114,
90,
130,
126,
65516,
65501,
65341,
65362,
3,
62,
65161,
65101,
65025,
65277,
65407,
65428,
65038,
65147,
65113,
65287,
132,
76,
65299,
65168,
65035,
65320,
65476,
24,
65500,
65421,
129,
65425,
65529,
65505,
65393,
65434,
65516,
107,
25,
65510,
65474,
65430,
65409,
65500,
65501,
65486,
65422,
65318,
65316,
65431,
5,
65396,
65475,
65353,
65281,
43,
65496,
29,
6,
65445,
65436,
65463,
53,
100,
65522,
65410,
65476,
6,
65523,
137,
65487,
115,
65485,
65517,
65174,
65361,
25,
273,
281,
74,
65474,
65392,
301,
343,
431,
68,
134,
1,
506,
385,
220,
109,
65481,
65339,
13,
20,
65380,
65516,
65508,
65410,
65455,
51,
65437,
16,
65386,
72,
65434,
65434,
65519,
65492,
77,
66,
26,
65487,
76,
65503,
9,
65509,
14,
65471,
65509,
65462,
65503,
65456,
65451,
78,
65486,
85,
65470,
65454,
65454,
65508,
65474,
65441,
65458,
65531,
46,
42,
21,
65482,
35,
55,
48,
65357,
65515,
39,
65409,
106,
65514,
65484,
45,
51,
65505,
23,
65484,
38,
65503,
13,
86,
65481,
52,
14,
47,
65523,
109,
65460,
48,
65407,
65481,
65463,
65358,
65471,
65453,
65514,
65423,
65508,
65436,
65477,
65526,
72,
65522,
65383,
65389,
65517,
65514,
65379,
72,
39,
65435,
65282,
65411,
65424,
65496,
65438,
65498,
65282,
65265,
65467,
65359,
65395,
97,
65531,
65446,
65359,
65254,
65413,
65502,
65307,
65222,
65507,
65425,
65501,
44,
65409,
291,
152,
51,
88,
150,
65301,
65338,
65418,
65331,
65328,
46,
65214,
65355,
65365,
65392,
65262,
65223,
65446,
65196,
159,
49,
65446,
65430,
65317,
65283,
65377,
65390,
65388,
65412,
65503,
65344,
35,
65532,
147,
128,
121,
52,
65456,
65514,
171,
65515,
65465,
146,
86,
149,
392,
108,
1,
291,
390,
224,
168,
65531,
48,
54,
181,
267,
281,
104,
106,
320,
196,
237,
67,
137,
87,
7,
65510,
136,
232,
108,
65490,
2,
49,
65526,
65507,
75,
52,
65504,
65451,
61,
86,
14,
65508,
15,
65522,
65504,
32,
65459,
65472,
22,
65510,
45,
65439,
65495,
65504,
78,
41,
10,
21,
42,
65458,
55,
92,
65514,
65460,
65498,
65419,
50,
74,
65418,
65404,
38,
65516,
65435,
65475,
85,
58,
65395,
65467,
2,
52,
65302,
65412,
65400,
65431,
51,
65469,
65276,
65461,
65489,
90,
25,
65458,
65490,
29,
129,
65505,
65473,
65499,
65414,
44,
142,
65517,
65516,
65478,
65483,
65495,
65378,
65360,
108,
13,
54,
65483,
29,
65495,
54,
127,
48,
65398,
26,
65371,
65377,
16,
246,
96,
65357,
65464,
65473,
65534,
65507,
65418,
65504,
65495,
65432,
83,
158,
68,
65296,
65457,
7,
65474,
22,
202,
65476,
59,
51,
251,
202,
170,
66,
109,
160,
251,
161,
149,
61,
127,
307,
153,
87,
65501,
109,
52,
87,
36,
29,
65463,
29,
65437,
65533,
65458,
30,
18,
173,
65521,
60,
65479,
65451,
65459,
65534,
35,
38,
44,
56,
3,
46,
65526,
14,
65492,
61,
65490,
65417,
65528,
65428,
65444,
23,
15,
50,
21,
65463,
65463,
65519,
65447,
35,
65481,
58,
91,
65508,
48,
65483,
121,
65450,
30,
137,
164,
53,
65531,
230,
167,
144,
289,
286,
199,
179,
242,
136,
24,
138,
101,
271,
373,
105,
262,
219,
68,
52,
167,
133,
51,
146,
47,
122,
192,
65,
120,
65532,
65463,
65368,
65417,
65255,
65298,
65092,
65359,
65,
65504,
65309,
65391,
65387,
38,
99,
298,
56,
65411,
65450,
65478,
172,
154,
162,
65434,
65505,
65478,
135,
204,
398,
275,
36,
65460,
55,
31,
65448,
25,
65473,
65470,
65454,
7,
65441,
21,
65456,
65450,
15,
65494,
65505,
65473,
65466,
7,
65470,
16,
3,
65484,
65440,
65517,
65528,
65444,
65473,
65430,
7,
65511,
65469,
26,
65409,
65477,
65431,
65482,
49,
65458,
19,
65507,
64,
65441,
65490,
1,
65485,
65480,
51,
65477,
137,
65487,
80,
15,
65466,
65528,
5,
35,
150,
65454,
65510,
65448,
65486,
65496,
19,
45,
170,
65518,
69,
15,
17,
110,
144,
14,
51,
103,
65418,
65491,
65500,
65449,
31,
65268,
65507,
65465,
3,
65436,
123,
65426,
53,
153,
65437,
65437,
65355,
65392,
106,
65491,
65428,
65379,
65422,
53,
65529,
68,
65501,
65392,
50,
0,
1,
29,
65486,
38,
65428,
50,
65524,
93,
4,
65504,
65460,
65469,
65525,
65461,
65377,
30,
195,
230,
234,
130,
65446,
74,
314,
316,
82,
65505,
21,
97,
299,
41,
15,
62,
65438,
65499,
178,
179,
302,
161,
121,
65429,
87,
76,
83,
65534,
65440,
25,
16,
58,
27,
65514,
65349,
65526,
65455,
6,
65469,
49,
65408,
65419,
74,
22,
65491,
3,
65515,
65436,
235,
28,
122,
170,
65444,
65517,
102,
65475,
46,
65488,
65373,
65529,
65466,
64,
65468,
65529,
65475,
113,
47,
214,
50,
65450,
233,
41,
2,
216,
169,
60,
0,
100,
78,
19,
65515,
65457,
26,
158,
69,
65453,
107,
3,
116,
41,
181,
50,
81,
157,
262,
26,
65521,
112,
19,
32,
120,
77,
65498,
65442,
65531,
48,
65501,
17,
17,
29,
65532,
52,
65513,
65515,
86,
217,
233,
8,
62,
65415,
75,
206,
138,
3,
26,
65508,
66,
45,
97,
93,
65505,
4,
65523,
65453,
65493,
65529,
89,
31,
123,
65519,
65516,
65466,
78,
65446,
65411,
12,
65497,
65287,
35,
65495,
65471,
44,
65294,
65446,
21,
65332,
57,
62,
65515,
43,
65388,
176,
65452,
2,
35,
65411,
65417,
145,
32,
65449,
65467,
65438,
32,
89,
143,
13,
184,
425,
169,
65501,
65401,
53,
104,
142,
0,
65436,
65412,
120,
245,
56,
63,
65447,
35,
43,
124,
57,
135,
57,
65346,
65441,
65272,
65373,
36,
65378,
65473,
107,
50,
142,
277,
66,
95,
65517,
65524,
65367,
203,
72,
65451,
65345,
65291,
65384,
83,
65475,
65077,
65148,
65084,
65363,
65420,
65480,
64999,
65025,
64980,
6,
65452,
65462,
65385,
65248,
65319,
65389,
65385,
99,
65459,
65441,
65486,
58,
111,
65345,
65403,
65504,
65194,
65392,
65223,
65427,
173,
74,
327,
65533,
65511,
65435,
382,
91,
161,
14,
19,
65384,
109,
213,
168,
126,
59,
65487,
294,
563,
482,
284,
148,
65425,
221,
378,
212,
80,
65460,
65494,
66,
65427,
65478,
65519,
65490,
37,
65481,
84,
65509,
65486,
65508,
46,
65465,
17,
65414,
65468,
65502,
18,
65438,
65478,
65461,
65435,
65524,
65521,
59,
78,
107,
65450,
13,
11,
114,
62,
31,
70,
65462,
65389,
65535,
161,
339,
243,
65360,
65337,
61,
34,
65498,
177,
50,
43,
65340,
65389,
71,
85,
112,
65418,
65436,
65376,
65306,
65462,
28,
65531,
65465,
65433,
65269,
65378,
65496,
65360,
65455,
25,
48,
78,
101,
0,
65389,
65487,
65499,
12,
65510,
195,
115,
65445,
65466,
103,
203,
82,
65515,
65496,
65506,
150,
100,
88,
65465,
21,
65399,
81,
239,
35,
65456,
65453,
77,
65481,
65532,
65522,
65482,
65325,
65474,
65379,
65293,
65482,
65476,
18,
65417,
65400,
64,
65369,
65249,
65433,
65436,
65384,
65524,
65449,
65390,
65432,
65404,
65435,
65515,
13,
65267,
65316,
65246,
65327,
65415,
9,
65414,
65427,
65453,
65365,
65495,
65526,
65369,
65483,
65511,
65470,
22,
65506,
65446,
41,
209,
65529,
96,
65481,
78,
60,
86,
173,
77,
93,
280,
46,
65498,
65485,
127,
128,
11,
151,
197,
46,
34,
126,
65,
122,
25,
162,
188,
65344,
65533,
64,
70,
80,
75,
105,
143,
162,
96,
20,
65404,
100,
65487,
65497,
41,
74,
114,
65520,
65392,
65373,
108,
65369,
65466,
65423,
65518,
65455,
65426,
65396,
0,
65444,
65453,
65468,
65460,
65416,
65531,
89,
65357,
65397,
15,
72,
185,
93,
137,
107,
62,
48,
345,
65488,
82,
80,
175,
110,
166,
131,
49,
107,
97,
126,
9,
131,
33,
65488,
122,
65502,
175,
142,
47,
37,
52,
132,
190,
33,
145,
117,
94,
69,
141,
232,
142,
25,
65528,
187,
65431,
39,
153,
195,
184,
312,
11,
185,
113,
258,
266,
116,
36,
24,
159,
401,
211,
222,
238,
106,
190,
116,
193,
186,
127,
65474,
65,
245,
122,
156,
65526,
65480,
65521,
65528,
8,
65393,
65328,
65423,
65459,
65491,
65520,
81,
63,
65499,
16,
57,
53,
11,
65440,
33,
65535,
75,
114,
16,
17,
27,
73,
88,
203,
76,
65506,
65515,
65532,
65428,
65521,
65528,
119,
65431,
65303,
88,
65452,
65492,
65495,
80,
65389,
65362,
65224,
80,
65400,
77,
65269,
65234,
65263,
65441,
65444,
85,
65291,
65132,
65068,
65491,
65407,
65475,
34,
65427,
65457,
65474,
66,
90,
65476,
65288,
4,
65361,
125,
65510,
65434,
65285,
65363,
65464,
35,
65533,
65437,
65253,
65414,
65302,
65332,
65307,
65426,
65469,
65376,
65419,
65361,
65331,
65289,
65423,
65426,
65342,
65375,
65447,
65299,
65437,
65527,
65431,
65426,
65535,
65443,
65516,
65477,
65342,
89,
27,
65388,
248,
178,
75,
362,
247,
182,
65513,
157,
214,
21,
289,
65519,
65524,
65333,
65453,
76,
195,
76,
65478,
65200,
65497,
154,
65,
8,
65495,
65377,
25,
235,
180,
145,
65532,
191,
65353,
65400,
65469,
57,
65518,
38,
65481,
65444,
76,
65479,
65439,
65517,
62,
65481,
62,
9,
19,
36,
34,
5,
65464,
72,
65498,
65509,
79,
2,
7,
71,
55,
77,
10,
65475,
65458,
55,
40,
65464,
65530,
32,
65381,
65329,
65487,
65431,
33,
65278,
65331,
65201,
65317,
65316,
65415,
65415,
65490,
65232,
65264,
65306,
65500,
65498,
65443,
65373,
65221,
65067,
65450,
65292,
4,
65396,
65312,
65276,
65335,
65295,
151,
65356,
65348,
65281,
65275,
65235,
65513,
65454,
65445,
65485,
65313,
65215,
65457,
65268,
65480,
65426,
65460,
65414,
9,
75,
65502,
65456,
65262,
65448,
65372,
65455,
65445,
65522,
65310,
65334,
65534,
65465,
84,
149,
84,
112,
65399,
65366,
47,
33,
65368,
65327,
65395,
65491,
65445,
65373,
65456,
65360,
65360,
65216,
65289,
65423,
65359,
65397,
65383,
144,
72,
286,
65442,
65473,
65306,
319,
308,
322,
2,
65411,
65426,
124,
297,
251,
65453,
65424,
65502,
65465,
65477,
65498,
65497,
158,
38,
65500,
204,
97,
41,
65340,
207,
107,
191,
175,
37,
65523,
268,
122,
65440,
65446,
65402,
36,
189,
145,
65516,
65528,
222,
112,
161,
248,
163,
137,
36,
94,
34,
80,
226,
108,
65496,
65464,
65509,
9,
65466,
65478,
83,
65465,
68,
65486,
65464,
13,
65513,
82,
65491,
65481,
65482,
65495,
65465,
65493,
65506,
65534,
65494,
2,
65497,
65454,
20,
65455,
65535,
34,
65524,
75,
65523,
65531,
56,
71,
65533,
13,
65383,
65467,
65382,
65435,
65431,
65282,
3,
65396,
65449,
65495,
65520,
65462,
65481,
6,
65441,
65341,
21,
65423,
65507,
90,
65523,
60,
125,
65489,
65517,
65485,
65462,
65506,
65494,
65461,
65405,
65483,
65506,
65423,
65476,
65511,
128,
84,
40,
122,
65454,
227,
141,
48,
247,
94,
119,
20,
173,
208,
180,
255,
89,
31,
47,
176,
157,
151,
112,
145,
94,
110,
262,
127,
102,
108,
182,
166,
193,
208,
65523,
197,
65479,
21,
65526,
28,
78,
65470,
27,
65474,
10,
45,
65520,
28,
41,
65501,
60,
7,
50,
65472,
47,
65487,
65495,
40,
65526,
109,
65469,
65499,
19,
40,
7,
162,
65519,
65511,
111,
119,
33,
29,
37,
21,
65450,
163,
77,
160,
65505,
65374,
65339,
65374,
65444,
65437,
65294,
12,
65530,
65360,
65445,
65326,
65371,
65367,
5,
101,
65419,
65388,
43,
65369,
65294,
65526,
65473,
65438,
142,
110,
65463,
65338,
65143,
75,
120,
97,
28,
65405,
155,
33,
144,
196,
185,
175,
280,
65469,
94,
280,
204,
206,
135,
15,
65435,
211,
298,
159,
49,
101,
65472,
130,
62,
88,
65476,
65343,
65352,
65463,
129,
65311,
65377,
136,
172,
57,
137,
65478,
120,
153,
42,
181,
194,
108,
99,
207,
119,
96,
247,
16,
151,
103,
162,
111,
14,
152,
91,
154,
98,
145,
44,
25,
9,
152,
111,
52,
65519,
35,
91,
69,
17,
78,
24,
65424,
65524,
65514,
67,
65401,
125,
65527,
65471,
65470,
65446,
65521,
65445,
5,
65464,
65391,
65291,
65495,
65443,
65433,
65366,
65401,
65467,
79,
65338,
65465,
65418,
45,
65488,
65390,
65486,
1,
65535,
46,
65431,
65269,
65402,
65392,
65391,
65360,
65524,
65435,
65416,
65445,
40,
65465,
93,
29,
65417,
65519,
65355,
80,
210,
236,
65420,
65289,
65219,
65364,
85,
129,
16,
123,
90,
268,
65505,
21,
149,
77,
108,
65293,
65475,
65482,
65526,
65504,
56,
16,
82,
14,
87,
65531,
65462,
65471,
6,
65520,
65457,
65470,
81,
52,
0,
31,
65458,
65445,
48,
5,
17,
65513,
65526,
65465,
65523,
65486,
44,
65490,
65464,
43,
50,
65478,
29,
90,
48,
35,
8,
88,
65469,
65443,
65523,
69,
65,
65406,
65414,
65470,
65478,
76,
65521,
65443,
65509,
30,
65483,
57,
36,
65531,
5,
65475,
0,
4,
27,
42,
65515,
65416,
65432,
65519,
105,
65511,
150,
65523,
65490,
123,
65522,
65462,
65493,
100,
11,
27,
80,
59,
65519,
65451,
197,
138,
19,
65501,
65503,
65513,
70,
65488,
65520,
65434,
65419,
65514,
48,
65528,
65479,
65478,
65421,
65503,
77,
65520,
65409,
29,
65473,
118,
65453,
65529,
59,
139,
65461,
65289,
65343,
65295,
65224,
65463,
65369,
47,
84,
339,
65464,
65408,
65300,
24,
234,
266,
89,
65466,
65311,
65466,
27,
10,
65381,
65333,
4,
65511,
65420,
2,
65533,
238,
65305,
93,
65490,
64,
127,
65241,
65508,
305,
288,
195,
190,
65303,
65383,
65525,
93,
236,
65499,
65345,
65456,
65513,
248,
125,
51,
65429,
65484,
65479,
65473,
17,
65514,
65405,
65406,
65457,
119,
65503,
42,
65284,
128,
4,
65517,
38,
89,
29,
246,
92,
32,
98,
65437,
37,
30,
252,
194,
26,
12,
123,
139,
173,
138,
88,
65491,
172,
87,
201,
168,
135,
145,
49,
63,
18,
213,
65513,
65392,
65437,
96,
65506,
65465,
60,
65270,
65417,
65446,
65412,
77,
6,
49,
65336,
65509,
65480,
65474,
8,
65476,
10,
65386,
65492,
65467,
65391,
65399,
65392,
16,
32,
150,
3,
65487,
65340,
8,
65482,
99,
65474,
65436,
65512,
65529,
65476,
65498,
83,
13,
65390,
67,
65524,
110,
65407,
27,
65476,
65532,
65358,
65504,
65316,
65387,
65534,
65520,
65468,
65347,
65390,
65470,
65474,
17,
65477,
65463,
65362,
37,
61,
80,
65513,
51,
115,
65449,
65435,
65516,
65525,
49,
65461,
65465,
70,
65443,
24,
87,
65328,
65411,
82,
28,
65504,
5,
65507,
65517,
65366,
84,
65291,
65466,
65473,
65467,
65258,
52,
65523,
65505,
65480,
65466,
65139,
143,
65528,
65449,
65510,
65506,
65380,
65390,
65468,
221,
208,
65507,
11,
65449,
65534,
18,
98,
65382,
65370,
65327,
65519,
65452,
65474,
65316,
65395,
65257,
65535,
65507,
65461,
65455,
139,
65515,
65417,
65450,
65332,
141,
65422,
65410,
65511,
65403,
65464,
65506,
65517,
65481,
41,
65516,
84,
0,
268,
65340,
65388,
65281,
65280,
65382,
65426,
65464,
65149,
65054,
65022,
65414,
65472,
65503,
65065,
65141,
65096,
65381,
65397,
65475,
65304,
65102,
65143,
65342,
65339,
79,
65503,
65270,
65505,
65373,
65359,
48,
65516,
65427,
121,
86,
30,
253,
65479,
15,
65469,
65491,
23,
148,
65259,
65209,
65332,
65532,
21,
65517,
65226,
65164,
65089,
65478,
65427,
65484,
65403,
65306,
65356,
65449,
65364,
120,
58,
62,
36,
65379,
3,
2,
382,
198,
87,
34,
201,
65525,
4,
65487,
53,
64,
3,
65294,
65460,
120,
65462,
87,
138,
65277,
65511,
65408,
65462,
65516,
222,
22,
65316,
65370,
65094,
65367,
65434,
65472,
65437,
65532,
65430,
62,
108,
65403,
65339,
65362,
65327,
65392,
65516,
179,
65252,
65380,
1,
65403,
65320,
65520,
69,
42,
12,
65496,
65482,
65468,
94,
180,
252,
65501,
65510,
65384,
49,
265,
255,
65467,
65489,
3,
1,
65465,
65479,
23,
65523,
147,
65480,
38,
19,
26,
27,
98,
47,
119,
263,
73,
76,
65407,
213,
302,
99,
66,
40,
65444,
246,
171,
84,
65489,
43,
65499,
18,
1,
65505,
65490,
65495,
65418,
65518,
65504,
80,
65518,
53,
28,
137,
65473,
34,
65457,
69,
65493,
65495,
85,
95,
65409,
21,
65477,
112,
59,
167,
87,
13,
65428,
72,
65,
90,
65518,
65411,
65521,
65514,
101,
97,
22,
65342,
4,
65516,
65487,
65401,
65413,
14,
74,
65421,
65387,
65377,
65387,
65440,
65512,
65339,
52,
140,
153,
94,
65515,
128,
130,
157,
82,
65453,
54,
65460,
80,
25,
65482,
65356,
65273,
65473,
65447,
72,
25,
65363,
39,
65471,
65492,
29,
52,
85,
65511,
52,
65474,
65504,
83,
65490,
65444,
65515,
76,
51,
65470,
0,
65528,
65526,
65475,
9,
65531,
62,
65522,
65505,
67,
83,
82,
71,
66,
65530,
63,
30,
65482,
65438,
0,
65482,
38,
65438,
65523,
65502,
65395,
36,
65529,
65465,
65367,
65275,
65395,
87,
4,
111,
65369,
65474,
65148,
65462,
33,
202,
65343,
55,
65233,
65407,
65450,
142,
65475,
65499,
65404,
65472,
126,
65485,
81,
65523,
65300,
65266,
65523,
65448,
65506,
28,
65302,
176,
42,
104,
65531,
320,
65477,
113,
17,
65328,
65483,
10,
39,
65352,
65383,
65384,
65458,
48,
65467,
65223,
65461,
65457,
27,
91,
65435,
65396,
65352,
65152,
65230,
65267,
23,
65433,
65284,
65364,
65513,
65490,
65448,
65281,
57,
65511,
65484,
10,
387,
179,
59,
65407,
65499,
65532,
141,
65528,
65510,
65196,
65385,
229,
273,
65451,
65269,
65136,
65463,
227,
65510,
90,
6,
65388,
17,
65484,
197,
127,
167,
65518,
65512,
131,
72,
65485,
65493,
65528,
120,
15,
65447,
65465,
50,
89,
172,
65521,
65485,
177,
217,
150,
101,
107,
65528,
149,
381,
196,
65524,
134,
65520,
261,
192,
64,
43,
115,
65475,
54,
81,
26,
65469,
94,
12,
65504,
65529,
203,
52,
65417,
24,
267,
106,
195,
49,
143,
217,
77,
123,
87,
100,
29,
214,
65,
239,
101,
308,
190,
104,
53,
202,
127,
137,
58,
65497,
94,
51,
35,
120,
65524,
65332,
11,
65504,
56,
65529,
65289,
65324,
65406,
65337,
65512,
32,
65441,
65321,
65499,
65454,
95,
65504,
65445,
133,
7,
65519,
135,
47,
65371,
201,
65428,
65444,
65534,
21,
37,
65416,
65422,
65446,
65520,
9,
65365,
22,
30,
14,
65489,
65455,
65533,
14,
65410,
65411,
65385,
65433,
65514,
65494,
59,
28,
65458,
20,
85,
90,
45,
46,
65489,
65430,
21,
86,
32,
65509,
65445,
75,
8,
65456,
22,
29,
65495,
65527,
65485,
65454,
65493,
100,
47,
128,
60,
5,
37,
78,
136,
75,
65464,
65354,
65522,
65533,
70,
59,
84,
65353,
78,
208,
13,
65466,
25,
32,
13,
65510,
65494,
20,
65488,
65379,
65458,
86,
67,
65457,
65479,
32,
65519,
65488,
100,
76,
237,
65468,
146,
79,
120,
145,
184,
249,
141,
297,
240,
111,
149,
281,
248,
242,
132,
209,
195,
194,
94,
154,
183,
147,
244,
110,
123,
154,
243,
114,
93,
65410,
74,
33,
65487,
68,
170,
65327,
47,
56,
65430,
145,
65509,
91,
65480,
31,
65376,
95,
65517,
258,
6,
136,
65355,
299,
185,
175,
165,
65525,
9,
52,
152,
226,
57,
24,
196,
207,
434,
39,
31,
270,
65473,
147,
24,
57,
65266,
65370,
65362,
65267,
137,
65356,
65296,
65493,
65452,
65301,
65391,
65471,
65158,
65367,
65445,
65508,
22,
65371,
65382,
65227,
65219,
65429,
65360,
49,
65382,
65440,
65221,
65527,
65338,
65467,
18,
65457,
65386,
85,
65501,
65411,
65334,
65354,
0,
65478,
11,
65307,
322,
89,
250,
125,
37,
65401,
206,
203,
322,
65385,
65374,
65482,
39,
65421,
65423,
65468,
65517,
65430,
24,
43,
65533,
65498,
65520,
65462,
94,
18,
27,
109,
65141,
65500,
121,
153,
179,
43,
65433,
65342,
3,
132,
182,
130,
65414,
65496,
147,
175,
95,
122,
65412,
65439,
65527,
103,
47,
65512,
65399,
65434,
65407,
115,
65528,
39,
65292,
