memory_initialization_radix=10;
memory_initialization_vector =
65298,
65267,
65314,
65132,
65185,
65441,
65533,
65312,
65204,
65134,
65476,
99,
75,
65507,
65264,
283,
512,
166,
93,
65337,
265,
507,
252,
175,
294,
185,
65455,
166,
65358,
65057,
164,
258,
792,
387,
151,
65325,
65350,
40,
377,
557,
112,
159,
338,
65310,
589,
435,
214,
394,
65348,
65347,
65368,
106,
201,
65510,
65476,
124,
148,
208,
72,
224,
113,
217,
295,
266,
65359,
123,
65465,
4,
40,
65255,
272,
65358,
33,
11,
65237,
513,
701,
65486,
31,
131,
215,
246,
65474,
104,
183,
180,
65379,
65386,
38,
65276,
31,
65120,
30,
65491,
65470,
65301,
65492,
65361,
65153,
8,
65501,
75,
290,
237,
104,
417,
77,
411,
275,
65444,
50,
65251,
65521,
240,
65401,
38,
65433,
65470,
65355,
106,
65108,
247,
215,
65262,
103,
962,
495,
362,
73,
368,
40,
65320,
64951,
65524,
65469,
110,
65450,
467,
242,
65510,
488,
216,
505,
11,
65256,
234,
65026,
65064,
118,
267,
450,
65484,
188,
85,
215,
187,
65181,
65415,
42,
148,
65293,
65181,
65424,
65490,
65453,
65014,
65008,
65406,
65298,
109,
65174,
98,
86,
65331,
134,
65185,
65171,
65238,
65028,
65224,
65308,
65176,
65206,
65306,
65329,
65249,
65419,
65466,
65368,
58,
251,
275,
65519,
268,
286,
116,
65450,
208,
111,
32,
65220,
65532,
58,
65525,
65233,
65532,
65505,
65527,
65268,
58,
131,
65509,
65463,
65356,
65426,
500,
191,
165,
17,
65529,
65301,
65319,
290,
65467,
308,
65213,
65243,
65393,
65234,
65223,
65209,
65489,
65192,
65379,
65209,
65137,
65382,
65441,
65329,
65477,
65441,
65534,
65458,
65246,
85,
65255,
65317,
15,
65379,
65376,
261,
31,
65456,
65338,
65298,
48,
65218,
65467,
65477,
65090,
65210,
65139,
65425,
65520,
65309,
65242,
65184,
65230,
65223,
65177,
65243,
65149,
46,
65245,
65463,
266,
533,
85,
65424,
287,
65433,
65490,
64885,
64840,
65130,
50,
61,
64830,
64865,
65243,
84,
102,
22,
100,
113,
65501,
45,
124,
65461,
70,
178,
65532,
65409,
65284,
65387,
65199,
65241,
64994,
64917,
65059,
65314,
65207,
65472,
65485,
65149,
13,
65465,
65490,
87,
65421,
65265,
65478,
238,
324,
65505,
52,
65355,
65281,
65389,
65306,
65345,
65169,
65330,
65413,
65432,
65067,
65199,
65293,
65442,
65516,
64990,
65148,
65288,
65417,
65377,
65406,
65054,
65102,
64953,
65144,
77,
64950,
65149,
65292,
65133,
15,
65324,
65285,
65363,
65425,
65310,
65316,
26,
65489,
65400,
65122,
65309,
65274,
65308,
65214,
65430,
2,
65514,
4,
310,
166,
65208,
65300,
65210,
65533,
65533,
65423,
65432,
65337,
65502,
201,
351,
65443,
65530,
65411,
65439,
65283,
43,
65524,
181,
65252,
115,
228,
65476,
250,
524,
402,
255,
96,
359,
65394,
65366,
17,
65411,
65470,
106,
65504,
65530,
10,
65249,
11,
137,
65265,
25,
65334,
65316,
65477,
65417,
65412,
65471,
65380,
29,
65469,
65116,
65329,
76,
65448,
65521,
65325,
65261,
65172,
65463,
65381,
65422,
65076,
65398,
65289,
65237,
65492,
65206,
65316,
65364,
52,
65531,
65400,
137,
122,
393,
58,
65237,
65440,
65435,
17,
373,
65006,
65482,
65465,
65410,
277,
425,
47,
65313,
65531,
110,
104,
34,
65497,
230,
65476,
65388,
65386,
329,
582,
768,
64,
139,
145,
65502,
65523,
65319,
65343,
65228,
65352,
0,
65396,
112,
65421,
65353,
65330,
65364,
33,
65282,
65411,
65263,
65222,
6,
117,
175,
255,
60,
140,
69,
65489,
65289,
65442,
351,
303,
190,
334,
65410,
65525,
162,
65492,
359,
65309,
65219,
65146,
65529,
65413,
64787,
66,
111,
87,
65088,
65524,
64949,
64486,
64350,
64689,
65025,
64804,
64907,
64828,
64870,
64947,
65341,
65219,
65241,
65109,
65312,
134,
49,
29,
65365,
65246,
65219,
65385,
65316,
65370,
65303,
85,
65361,
65247,
65366,
65407,
122,
65401,
65374,
7,
65212,
82,
65495,
65412,
33,
65171,
65168,
65323,
65263,
65418,
65519,
65326,
86,
65301,
65453,
65183,
65167,
65274,
65317,
65172,
65359,
65086,
65188,
65354,
65215,
65293,
65260,
65249,
65425,
65469,
65479,
65228,
65277,
65343,
65376,
100,
65454,
65341,
65319,
65038,
65256,
65349,
65463,
65322,
65322,
65206,
65288,
65302,
353,
187,
65486,
65249,
65306,
91,
315,
284,
64936,
64932,
65314,
65437,
298,
64938,
65379,
65312,
65252,
65220,
64915,
65015,
65201,
65229,
65333,
64954,
65185,
65501,
65327,
65142,
64929,
65312,
65175,
65244,
64769,
64747,
64774,
64936,
64768,
65032,
65156,
121,
65530,
182,
65531,
65268,
65254,
65287,
65440,
65310,
65207,
65533,
319,
325,
65401,
65406,
355,
362,
193,
16,
26,
65529,
65256,
65168,
65402,
407,
65298,
65241,
193,
522,
159,
65282,
65172,
65322,
18,
65139,
65058,
37,
322,
182,
64761,
65092,
14,
346,
111,
65263,
65285,
65163,
65509,
65241,
65467,
28,
20,
217,
323,
203,
470,
638,
567,
220,
424,
130,
139,
166,
65333,
141,
65399,
65274,
65345,
65428,
439,
43,
125,
230,
200,
65252,
64905,
65375,
65423,
65494,
168,
35,
173,
36,
65288,
83,
262,
450,
49,
65161,
174,
244,
319,
65174,
65099,
161,
46,
65384,
65271,
65515,
64816,
64699,
64951,
65061,
65119,
64908,
64922,
65193,
65081,
65341,
65058,
64865,
65429,
187,
323,
64878,
65101,
65206,
65325,
127,
64933,
64889,
65089,
65441,
93,
65512,
84,
65524,
68,
65459,
89,
501,
784,
558,
67,
65321,
65306,
65508,
55,
65288,
65113,
65239,
65233,
65139,
64994,
65068,
64896,
65285,
65132,
65232,
65066,
67,
254,
278,
115,
190,
89,
65066,
65022,
65274,
603,
374,
424,
424,
79,
234,
338,
788,
771,
656,
65299,
383,
501,
629,
104,
472,
1045,
513,
422,
65488,
284,
374,
65435,
65017,
65173,
64818,
64666,
64375,
64985,
65485,
64836,
65064,
65079,
65058,
65017,
65260,
65276,
65209,
65115,
65073,
65272,
65210,
41,
264,
148,
27,
65195,
65294,
65129,
65333,
65313,
64910,
65482,
65374,
65380,
65204,
65271,
11,
65376,
93,
65303,
65126,
65207,
65223,
48,
65177,
65250,
65509,
204,
199,
65223,
147,
55,
193,
113,
65188,
65382,
131,
13,
65400,
115,
98,
419,
153,
65134,
65424,
294,
443,
65253,
65160,
