memory_initialization_radix=10;
memory_initialization_vector =
65461,
10,
65428,
65380,
104,
65169,
65382,
65377,
65248,
65245,
65394,
65443,
65193,
65159,
65241,
65482,
65282,
76,
97,
18,
65457,
250,
431,
329,
388,
58,
249,
346,
65460,
13,
65261,
65447,
65297,
64978,
65350,
65345,
65148,
65048,
65282,
5,
65358,
65412,
65516,
249,
65522,
65313,
291,
206,
33,
65515,
48,
115,
90,
65243,
65524,
25,
24,
65390,
65340,
169,
65491,
65438,
65469,
65480,
65434,
34,
46,
65493,
65433,
65333,
65365,
65434,
65301,
64916,
65056,
65333,
236,
42,
113,
204,
65432,
18,
65488,
65361,
65191,
65340,
65353,
65308,
65254,
65236,
65316,
65160,
65236,
65250,
110,
65285,
65355,
65500,
65495,
65481,
65385,
65270,
65534,
65479,
140,
65254,
65356,
65346,
252,
87,
65036,
65515,
353,
398,
65408,
65039,
65515,
299,
121,
65052,
64894,
16,
65478,
65495,
65166,
65258,
7,
71,
65103,
65262,
109,
56,
32,
70,
218,
65320,
65221,
65389,
293,
131,
64971,
52,
427,
404,
49,
65247,
91,
502,
65489,
65091,
65509,
65373,
65382,
286,
46,
362,
239,
65415,
428,
62,
403,
65376,
65144,
365,
57,
122,
65446,
65308,
197,
65493,
105,
227,
515,
330,
157,
65418,
65499,
3,
65388,
127,
65506,
45,
65291,
65317,
125,
65384,
65380,
65253,
65459,
303,
65535,
66,
65442,
125,
101,
332,
195,
124,
427,
226,
61,
267,
292,
65507,
240,
60,
65412,
65513,
65346,
3,
65334,
149,
65379,
65338,
122,
205,
0,
65482,
65439,
65473,
13,
65427,
65452,
65309,
65381,
193,
194,
65385,
65445,
65528,
149,
65499,
65336,
65339,
65425,
59,
65275,
65364,
65488,
65364,
65291,
65416,
65327,
40,
45,
65266,
6,
65384,
65296,
65281,
65462,
129,
65535,
65454,
149,
65203,
65427,
65134,
65198,
193,
163,
65470,
65404,
65458,
65230,
220,
239,
65352,
65165,
65094,
65485,
65393,
65388,
65419,
65332,
65465,
269,
138,
65194,
65294,
357,
241,
134,
33,
291,
225,
340,
65331,
65409,
136,
134,
65487,
126,
15,
121,
380,
288,
721,
748,
708,
961,
538,
247,
245,
178,
440,
75,
65255,
65336,
65235,
65413,
65243,
65179,
65429,
65527,
149,
65061,
65525,
65421,
65502,
65468,
65193,
65246,
65368,
65285,
92,
65415,
65469,
65337,
65289,
65520,
65293,
17,
65447,
38,
57,
65448,
65395,
65362,
65501,
255,
190,
65491,
65512,
65425,
30,
65450,
65447,
65228,
65249,
65533,
65505,
297,
381,
406,
47,
65487,
65509,
65299,
65516,
118,
65282,
65024,
65124,
65394,
136,
19,
65235,
65469,
65217,
61,
65402,
65354,
65504,
65477,
65468,
65368,
65187,
65401,
65211,
65263,
65303,
65454,
65498,
65124,
65435,
65244,
65351,
65245,
65415,
65232,
65216,
65325,
65401,
65524,
135,
65489,
40,
116,
29,
47,
65448,
65438,
82,
148,
73,
34,
65441,
80,
65523,
121,
202,
16,
264,
65455,
121,
63,
16,
6,
116,
65340,
65468,
65,
65416,
65460,
64987,
1,
172,
224,
20,
65380,
65404,
65461,
65399,
74,
65261,
65449,
17,
65316,
65342,
65470,
65445,
65256,
65242,
65270,
65447,
65414,
3,
65394,
65471,
65415,
65408,
65077,
64983,
65224,
121,
196,
65322,
65350,
65388,
123,
94,
109,
58,
65087,
65494,
262,
265,
135,
65199,
65279,
64973,
64995,
64963,
64740,
64562,
64727,
64993,
65176,
65141,
65043,
170,
546,
528,
65322,
65091,
195,
665,
482,
64967,
64923,
65516,
337,
87,
65006,
64660,
65028,
65277,
64694,
64587,
65484,
65455,
65428,
65421,
81,
140,
65523,
46,
177,
112,
202,
65532,
65435,
290,
105,
65406,
88,
65519,
125,
65534,
65213,
65182,
65423,
43,
125,
787,
660,
631,
396,
501,
166,
65504,
65516,
65410,
285,
88,
48,
202,
65492,
331,
212,
398,
459,
471,
437,
335,
213,
210,
8,
276,
12,
148,
40,
65465,
30,
65408,
65491,
65380,
65362,
65500,
65157,
65247,
65371,
27,
65535,
65185,
65518,
65174,
65215,
65194,
65221,
65195,
65272,
65500,
65399,
65434,
57,
58,
65498,
65526,
65527,
65389,
114,
65503,
65416,
100,
168,
65465,
65383,
65433,
28,
65466,
65514,
51,
65320,
127,
4,
65384,
152,
65364,
71,
63,
93,
145,
77,
189,
115,
65397,
65473,
57,
65435,
65445,
65445,
65446,
89,
253,
10,
259,
65471,
65222,
65467,
224,
400,
44,
42,
65381,
65525,
79,
65343,
7,
65500,
65378,
50,
65461,
67,
7,
4,
15,
65498,
119,
65358,
65383,
65394,
65441,
65529,
65219,
65477,
65421,
65262,
65166,
425,
355,
143,
5,
65295,
65296,
65426,
197,
65333,
65464,
65234,
65429,
65487,
65462,
65316,
65233,
65214,
65516,
65450,
65154,
65224,
65247,
65026,
65031,
65087,
82,
65413,
65186,
65149,
65399,
505,
291,
65324,
65238,
65334,
376,
65491,
64999,
65200,
65446,
70,
65217,
65261,
69,
65340,
65389,
65391,
136,
319,
4,
65010,
65136,
65149,
65361,
65313,
65017,
65205,
86,
296,
20,
65429,
228,
565,
421,
65436,
65509,
320,
227,
65207,
65322,
65369,
65413,
65047,
65158,
65242,
65346,
65310,
65266,
65382,
186,
65386,
65152,
65363,
29,
452,
65184,
65402,
103,
158,
65491,
154,
81,
434,
65441,
65152,
37,
448,
65507,
65031,
65069,
65475,
172,
383,
216,
577,
65416,
145,
65450,
261,
179,
303,
65409,
65428,
65296,
65236,
309,
8,
65504,
65420,
5,
415,
534,
65496,
65364,
172,
64914,
64986,
64953,
65197,
65432,
11,
42,
65443,
65436,
130,
302,
463,
667,
87,
93,
65461,
170,
65263,
65280,
65354,
65086,
65324,
64977,
65347,
65313,
422,
274,
388,
304,
65477,
65522,
179,
153,
65401,
65302,
65352,
65236,
65236,
65084,
62,
65514,
65448,
65179,
32,
80,
87,
19,
231,
574,
466,
540,
278,
337,
130,
494,
284,
571,
426,
65446,
28,
104,
212,
8,
65324,
170,
301,
169,
65467,
175,
172,
469,
381,
539,
108,
156,
126,
132,
179,
132,
486,
65460,
65415,
65242,
129,
459,
65380,
65455,
65410,
65432,
119,
122,
27,
187,
65362,
65430,
65435,
65464,
65363,
65203,
65528,
361,
129,
65289,
65396,
112,
183,
52,
65478,
44,
268,
70,
65317,
65514,
144,
454,
65114,
65122,
181,
466,
65507,
65106,
65252,
168,
82,
65167,
