memory_initialization_radix=10;
memory_initialization_vector =
65436,
64987,
65512,
65336,
65357,
141,
65407,
65085,
65408,
65155,
65284,
136,
65121,
65357,
65520,
110,
8,
64,
65459,
65330,
450,
65481,
50,
65431,
65481,
65377,
29,
162,
102,
170,
228,
60,
192,
65419,
65044,
72,
35,
350,
612,
246,
524,
65380,
420,
266,
501,
407,
530,
52,
387,
159,
100,
174,
414,
117,
65496,
107,
103,
65281,
64,
65312,
538,
439,
551,
180,
227,
352,
65347,
65443,
140,
224,
36,
65280,
92,
571,
680,
232,
332,
313,
65520,
65445,
406,
65529,
65398,
17,
269,
491,
65397,
65510,
147,
65428,
166,
49,
151,
163,
118,
12,
32,
37,
65211,
65500,
107,
102,
57,
655,
550,
243,
487,
228,
441,
60,
65466,
292,
450,
346,
465,
101,
96,
377,
184,
338,
301,
221,
251,
198,
379,
469,
814,
801,
152,
324,
65498,
65330,
65263,
404,
780,
20,
345,
65528,
136,
398,
229,
679,
429,
201,
253,
65326,
65488,
65429,
65488,
474,
183,
354,
275,
65495,
329,
65411,
65307,
65515,
97,
251,
65312,
65133,
65080,
65357,
65517,
64896,
65303,
23,
65281,
65410,
65193,
65186,
65491,
65198,
35,
65100,
65341,
65162,
65155,
65129,
65093,
65283,
65350,
65476,
98,
64981,
65147,
65273,
65313,
65411,
65295,
65269,
65374,
171,
65379,
320,
38,
65524,
116,
65176,
65316,
65322,
65363,
65270,
65278,
70,
65244,
65294,
65263,
105,
65513,
65333,
65349,
65299,
65238,
51,
65384,
65041,
65299,
65306,
438,
17,
65534,
48,
106,
65230,
65088,
65353,
65202,
64998,
65109,
65097,
65169,
65176,
65167,
65356,
65317,
65354,
65303,
65186,
65355,
65280,
65176,
65421,
65264,
65141,
65194,
65252,
65338,
65282,
65451,
65308,
65273,
65254,
65310,
65128,
65349,
65298,
69,
65533,
65308,
53,
65504,
4,
65309,
65281,
65052,
65035,
65304,
65134,
65279,
65052,
65118,
65060,
65393,
407,
366,
65312,
65372,
243,
65303,
65251,
65212,
65192,
65247,
65499,
65211,
65051,
64692,
65039,
65271,
65399,
65379,
65210,
65286,
65488,
145,
101,
65426,
65491,
120,
65224,
65072,
65138,
65417,
65457,
64991,
64940,
65293,
65194,
176,
65450,
65289,
173,
65479,
218,
65364,
65314,
65343,
65472,
54,
65409,
65494,
65082,
65502,
65501,
65471,
65154,
65233,
65405,
155,
65377,
65506,
65265,
65525,
65141,
65524,
216,
65519,
65531,
65057,
65092,
174,
247,
65364,
65448,
65299,
65420,
65484,
220,
160,
65415,
65212,
64948,
64989,
65408,
65276,
65390,
65292,
65283,
65408,
65517,
65468,
65390,
10,
65308,
65287,
65422,
65515,
65145,
65314,
124,
65351,
65296,
65491,
65471,
161,
65334,
186,
65514,
65508,
45,
65275,
65462,
65427,
37,
65200,
65480,
65406,
65460,
65485,
181,
155,
273,
174,
65127,
65152,
65376,
65341,
65146,
145,
84,
65524,
107,
333,
211,
20,
65535,
65523,
228,
3,
65352,
65192,
65443,
65363,
65390,
65525,
65309,
65244,
65181,
65201,
65354,
65336,
65235,
65456,
65504,
25,
64929,
65312,
31,
105,
65367,
65027,
65269,
65311,
65513,
65443,
65285,
65322,
65281,
65357,
22,
65263,
65483,
65269,
65433,
79,
65291,
65267,
65398,
65279,
290,
65476,
65390,
65259,
64864,
65263,
207,
229,
64586,
65449,
65330,
65328,
446,
72,
65126,
29,
162,
333,
912,
384,
475,
336,
372,
143,
65449,
65478,
424,
406,
79,
138,
65435,
326,
186,
65426,
65468,
65239,
65061,
65167,
65372,
65365,
65429,
65146,
102,
27,
396,
405,
294,
203,
304,
65112,
65526,
65250,
65261,
65170,
20,
65398,
65452,
168,
65367,
65228,
411,
393,
142,
65315,
698,
65492,
443,
132,
65198,
420,
65433,
744,
258,
65041,
347,
65476,
65402,
65293,
65427,
64934,
64661,
64616,
64716,
65044,
65113,
64814,
65270,
65095,
65097,
65280,
65077,
65100,
65302,
65154,
65455,
65175,
65146,
65317,
65059,
65255,
65357,
65501,
65296,
65422,
65323,
161,
65316,
65412,
65294,
51,
65364,
62,
389,
65410,
65239,
115,
65480,
96,
65242,
65358,
65518,
188,
238,
47,
65298,
65446,
65447,
65341,
65322,
65170,
65281,
65325,
65292,
65398,
65133,
65297,
65272,
65336,
65283,
65178,
65406,
65211,
65204,
65395,
10,
65289,
65406,
65347,
65419,
20,
20,
65388,
65293,
65208,
65211,
65439,
65491,
65532,
65209,
65436,
65386,
65375,
73,
64859,
65350,
65362,
65497,
165,
65330,
64970,
65133,
65381,
89,
58,
65153,
65323,
65275,
65077,
65282,
64928,
65114,
65101,
65192,
65122,
65075,
65352,
65433,
274,
65380,
65343,
48,
106,
65447,
65300,
65282,
65293,
13,
65272,
65262,
65410,
52,
65324,
65250,
65351,
65354,
16,
65312,
65399,
29,
65479,
65368,
65245,
65374,
65341,
65227,
34,
220,
172,
65478,
65357,
65397,
218,
65415,
65466,
759,
327,
22,
405,
327,
321,
65392,
64964,
65346,
318,
157,
65346,
65457,
172,
65295,
64909,
65248,
114,
65483,
65230,
65027,
65321,
65383,
65519,
65524,
65456,
65346,
65245,
65402,
82,
65293,
422,
110,
86,
289,
57,
65519,
65405,
65382,
65262,
64,
65302,
65468,
134,
65497,
65332,
65521,
65333,
108,
203,
65466,
65343,
65361,
161,
372,
205,
65434,
65514,
65491,
65145,
52,
226,
480,
229,
65509,
65494,
65359,
528,
65499,
65480,
348,
65531,
159,
65180,
65446,
65464,
65241,
65173,
65208,
65208,
65019,
65445,
65101,
65269,
65324,
64778,
24,
65416,
118,
127,
65048,
167,
321,
181,
139,
65094,
65255,
65095,
65462,
59,
65279,
65097,
65103,
65056,
65009,
346,
161,
279,
204,
65457,
65529,
65245,
65150,
65534,
65394,
65162,
65126,
65128,
65367,
65271,
65165,
65315,
65192,
65506,
65346,
65247,
346,
1176,
889,
340,
159,
65195,
65459,
65424,
551,
757,
105,
65334,
64881,
65478,
298,
158,
76,
271,
123,
65510,
350,
470,
100,
65227,
65400,
255,
184,
472,
251,
65488,
65497,
65252,
65147,
65397,
64935,
64796,
64796,
65036,
65382,
65119,
64937,
65089,
65279,
65158,
149,
11,
65276,
36,
65317,
124,
65432,
65494,
159,
538,
65440,
65193,
65326,
65207,
242,
359,
65451,
117,
65450,
66,
63,
357,
90,
65271,
238,
148,
65280,
65227,
67,
65342,
65105,
65261,
65138,
149,
316,
215,
60,
24,
310,
363,
54,
65372,
160,
249,
65394,
181,
43,
340,
211,
65142,
65427,
65445,
24,
276,
65291,
