memory_initialization_radix=10;
memory_initialization_vector =
65410,
65328,
65470,
68,
52,
271,
65400,
65427,
65227,
114,
414,
263,
65487,
41,
65438,
297,
378,
65450,
65190,
65399,
65355,
65477,
65211,
65336,
65441,
253,
785,
137,
59,
463,
232,
278,
831,
697,
65417,
65213,
73,
587,
700,
1024,
293,
64,
79,
356,
392,
240,
198,
358,
112,
223,
86,
65506,
65484,
101,
65311,
341,
65330,
185,
308,
65075,
916,
116,
37,
65430,
65252,
153,
627,
169,
111,
65496,
65450,
348,
123,
481,
580,
149,
65441,
65348,
65407,
79,
65510,
65432,
51,
42,
65276,
445,
352,
404,
65392,
97,
89,
216,
65511,
153,
57,
65026,
54,
65315,
206,
65386,
170,
65432,
150,
109,
65343,
65370,
426,
84,
65349,
64924,
65456,
339,
28,
160,
65303,
62,
374,
90,
209,
327,
451,
416,
232,
44,
160,
418,
65445,
51,
0,
58,
64688,
65182,
349,
151,
65479,
525,
611,
479,
116,
393,
91,
65428,
65237,
64847,
65258,
65293,
65153,
65263,
140,
152,
58,
131,
298,
65176,
65425,
65061,
65530,
293,
31,
185,
65221,
65434,
111,
328,
65526,
65160,
65417,
65361,
40,
65218,
65512,
40,
83,
158,
65314,
65286,
9,
65448,
65002,
65328,
65336,
65218,
65307,
64922,
65189,
65216,
65136,
65354,
65150,
65456,
92,
65412,
65217,
65404,
65276,
169,
65187,
65245,
65201,
65004,
236,
65395,
239,
284,
706,
65412,
65468,
115,
65360,
328,
65360,
1,
233,
58,
65378,
266,
260,
580,
65418,
62,
334,
342,
63,
218,
318,
65053,
65001,
65024,
65312,
65344,
65162,
65274,
65154,
65186,
65380,
65515,
65489,
65313,
65393,
65251,
64991,
65087,
65109,
65284,
65377,
65204,
65498,
65091,
65318,
65312,
65446,
65187,
65354,
65003,
65361,
65313,
50,
65485,
46,
65100,
65370,
265,
65494,
47,
65422,
65502,
65534,
65430,
22,
65522,
65294,
65461,
94,
65523,
65158,
187,
65332,
65111,
65443,
65180,
65147,
65012,
64681,
65025,
65299,
65086,
64963,
64873,
64910,
65492,
65428,
65513,
65343,
65374,
65392,
22,
65308,
65371,
65482,
65375,
310,
65161,
65049,
65301,
54,
65402,
65511,
156,
178,
85,
65409,
93,
410,
41,
65332,
195,
211,
122,
119,
201,
80,
381,
315,
197,
162,
65510,
65417,
65347,
65430,
65463,
65322,
65442,
107,
65462,
65527,
65397,
65260,
363,
120,
65212,
65317,
66,
100,
87,
65298,
65386,
65445,
65332,
65305,
65261,
65330,
65423,
65253,
65073,
65161,
65532,
65364,
65194,
65530,
65407,
65215,
65163,
65270,
65266,
65181,
65360,
65292,
64851,
64858,
65024,
65515,
65320,
65254,
145,
65310,
29,
65266,
47,
138,
276,
216,
65214,
65471,
222,
65256,
65479,
411,
258,
269,
65199,
65147,
65351,
274,
65453,
65189,
65333,
243,
61,
65491,
65361,
65499,
65526,
65367,
65520,
105,
65471,
65434,
65527,
65331,
65377,
123,
65388,
65275,
65504,
65210,
65480,
65455,
65494,
65308,
65251,
146,
149,
65416,
65306,
65467,
65421,
65169,
65033,
65116,
64948,
64992,
65152,
65002,
65108,
65105,
34,
65217,
65207,
65253,
65478,
30,
65208,
65340,
65248,
65286,
65477,
59,
65271,
65389,
59,
160,
243,
65475,
65252,
65290,
65511,
211,
178,
65301,
65327,
65406,
309,
66,
65512,
64970,
181,
559,
502,
371,
110,
265,
65345,
676,
1260,
426,
300,
386,
516,
204,
65414,
27,
65438,
65360,
180,
65465,
65414,
65154,
65358,
201,
185,
52,
65345,
65257,
65326,
221,
65219,
65297,
65421,
222,
236,
65227,
65180,
64911,
64867,
64889,
65156,
65370,
64988,
65396,
64904,
65467,
389,
65451,
65491,
65052,
362,
359,
525,
65315,
64755,
568,
417,
387,
65246,
64997,
65334,
65089,
64530,
64827,
65188,
64746,
64643,
64666,
64761,
65218,
65271,
65216,
65092,
64941,
65173,
65126,
65343,
89,
65204,
65209,
178,
361,
279,
76,
65355,
65404,
65282,
65380,
65439,
65359,
65485,
65467,
6,
65467,
51,
53,
225,
33,
194,
65342,
65496,
341,
65399,
631,
20,
65234,
120,
3,
65326,
65434,
65318,
65250,
65345,
65295,
65082,
65425,
65167,
65373,
65144,
65300,
65310,
65228,
65280,
65259,
65516,
65054,
65228,
65385,
65410,
31,
65105,
38,
102,
65390,
65149,
65507,
65298,
65121,
65094,
65088,
65429,
65395,
65231,
65250,
64940,
65402,
65512,
65509,
65214,
64969,
65440,
65303,
65481,
65334,
65417,
64979,
65259,
65374,
65292,
65450,
65020,
64978,
65040,
65068,
65348,
65103,
64842,
65254,
65125,
65381,
65408,
65337,
65366,
65465,
65264,
65260,
2,
65370,
65310,
65273,
65080,
65250,
33,
65067,
65104,
65524,
65512,
64985,
65408,
33,
65531,
65445,
65282,
65459,
65503,
34,
360,
219,
133,
69,
65441,
188,
164,
175,
65513,
65148,
267,
304,
145,
286,
65363,
65331,
352,
351,
163,
65197,
65325,
65282,
330,
343,
65083,
173,
58,
306,
165,
65265,
65272,
65381,
59,
65316,
65336,
65447,
65472,
162,
65456,
319,
65493,
529,
80,
942,
527,
55,
115,
65391,
438,
361,
65369,
117,
1,
134,
69,
145,
223,
167,
65416,
535,
65532,
62,
409,
134,
65445,
65429,
65469,
65484,
198,
93,
88,
96,
65313,
65279,
65314,
509,
65466,
65048,
65399,
263,
65186,
65437,
65309,
65202,
65366,
171,
63,
65393,
65338,
65201,
65213,
65082,
65166,
65276,
65004,
65005,
65220,
65408,
65427,
64911,
160,
115,
27,
65297,
65004,
150,
64997,
65,
179,
64787,
65338,
65404,
65506,
65341,
65269,
65363,
65340,
65138,
65322,
65306,
65465,
65497,
65169,
65237,
64957,
65022,
65163,
65403,
65230,
65324,
65016,
64989,
65006,
65093,
65189,
65181,
65381,
65489,
65147,
65307,
65255,
148,
244,
425,
250,
65251,
65116,
65497,
228,
561,
369,
65433,
65467,
836,
197,
445,
387,
55,
330,
65479,
65523,
65322,
65351,
65262,
232,
65515,
65041,
64851,
64947,
65274,
64765,
64333,
64923,
65482,
64993,
64779,
64860,
65215,
65095,
65487,
65294,
140,
65257,
67,
65521,
65376,
65425,
65483,
65319,
342,
65435,
65360,
65510,
88,
300,
65388,
65171,
130,
102,
1,
65398,
65488,
278,
177,
17,
77,
65517,
178,
116,
65366,
50,
191,
68,
65468,
65273,
65151,
65387,
307,
65243,
65251,
65105,
344,
21,
9,
65512,
195,
121,
53,
65454,
65477,
329,
165,
65309,
65231,
65326,
34,
65324,
65311,
65527,
