memory_initialization_radix=10;
memory_initialization_vector =
65206,
65181,
65260,
65419,
0,
65474,
65375,
65370,
65230,
65356,
65291,
65303,
65112,
65202,
65194,
231,
4,
65308,
65371,
65425,
123,
35,
51,
68,
65463,
343,
3,
65507,
65467,
65101,
265,
168,
407,
120,
65453,
75,
65533,
65384,
716,
905,
705,
562,
65422,
65428,
333,
459,
570,
161,
65331,
294,
333,
69,
565,
462,
90,
188,
456,
228,
228,
66,
66,
238,
65480,
89,
194,
65023,
65073,
65329,
65281,
65360,
488,
65369,
56,
65419,
65416,
251,
72,
65313,
108,
65315,
223,
65195,
65450,
65282,
65228,
65387,
65311,
65331,
65520,
65446,
65514,
65442,
56,
65419,
65111,
124,
65440,
65359,
65494,
65477,
65390,
291,
582,
196,
21,
139,
399,
754,
242,
40,
65426,
111,
351,
65535,
65420,
28,
65464,
65435,
65426,
65447,
65524,
171,
429,
65296,
65244,
680,
338,
216,
433,
327,
65170,
65061,
65484,
212,
173,
379,
1078,
864,
235,
65535,
367,
562,
537,
196,
65333,
402,
65243,
65448,
409,
961,
65352,
65285,
65377,
109,
120,
65174,
64935,
65405,
236,
357,
65281,
65265,
65265,
65237,
65328,
65252,
65308,
65343,
65359,
65258,
65239,
65400,
65440,
65487,
65235,
83,
204,
103,
12,
65526,
43,
65383,
65484,
7,
65510,
65460,
65427,
65468,
65317,
65363,
364,
152,
65410,
176,
65354,
65353,
50,
133,
65486,
36,
65395,
65241,
7,
65124,
65302,
65321,
65412,
65341,
65529,
65128,
117,
65522,
101,
5,
65456,
65497,
23,
65450,
65425,
65495,
65223,
65415,
94,
65472,
65483,
65344,
65318,
65524,
65459,
65291,
28,
20,
65420,
65483,
65311,
65439,
42,
65456,
45,
65489,
65302,
65363,
65350,
65426,
65402,
65442,
65297,
65295,
65355,
7,
25,
104,
65427,
136,
65178,
65229,
65325,
35,
65360,
65398,
65400,
65507,
65485,
65469,
65338,
65296,
65458,
65315,
65361,
65337,
65278,
65327,
174,
65113,
65171,
65169,
65324,
65313,
65471,
133,
65182,
65104,
64746,
64902,
65164,
65323,
65221,
64977,
65236,
65461,
65285,
65507,
65368,
65331,
70,
69,
65426,
65434,
65376,
65402,
65404,
65231,
65215,
65369,
65170,
65517,
65356,
65391,
3,
65148,
65520,
65326,
65165,
8,
65239,
65506,
65249,
57,
118,
65411,
65384,
65480,
185,
65483,
87,
65440,
95,
198,
213,
283,
65411,
108,
65477,
65534,
65524,
65268,
65119,
60,
65423,
65509,
65306,
65272,
65406,
29,
65196,
65412,
65274,
65278,
65137,
65167,
65248,
65527,
65404,
65298,
65242,
12,
134,
65479,
22,
65385,
65352,
65505,
65519,
65288,
65463,
65494,
65256,
65343,
26,
65419,
4,
334,
396,
354,
232,
65426,
65198,
65283,
65135,
65265,
65483,
65295,
65320,
65275,
65371,
420,
376,
118,
1,
65374,
65283,
145,
240,
65394,
65143,
25,
14,
65341,
80,
65502,
67,
170,
160,
65525,
338,
17,
65346,
65384,
188,
65408,
111,
65387,
65430,
50,
65459,
65301,
65478,
65370,
42,
65306,
65349,
72,
65453,
145,
65290,
40,
29,
65297,
65242,
65447,
65484,
65388,
65371,
65516,
72,
65382,
65499,
65416,
65307,
65410,
65527,
65331,
64,
65255,
65500,
65470,
203,
70,
69,
104,
65190,
237,
574,
170,
65415,
65302,
65362,
399,
196,
65131,
65223,
65147,
65204,
258,
415,
65382,
65332,
65302,
384,
220,
65529,
65408,
65267,
234,
402,
74,
534,
552,
533,
65365,
65360,
219,
7,
147,
65464,
70,
135,
65411,
52,
244,
202,
65465,
105,
65278,
59,
251,
97,
65248,
65134,
65390,
563,
576,
584,
573,
5,
408,
294,
387,
204,
65404,
807,
444,
698,
293,
175,
649,
253,
361,
292,
65444,
4,
389,
413,
48,
65330,
65419,
65361,
65454,
65218,
65497,
65371,
65338,
65224,
65060,
65213,
65189,
65532,
65404,
65372,
65361,
65511,
65345,
65472,
65359,
7,
428,
256,
28,
129,
65531,
65321,
65306,
40,
65379,
65390,
65418,
26,
65418,
112,
19,
65487,
65515,
65403,
65352,
65527,
65420,
65446,
65219,
65492,
65382,
65113,
65403,
65235,
65440,
65331,
37,
207,
65393,
15,
65399,
45,
65240,
65221,
2,
73,
65484,
65395,
65479,
65333,
21,
65530,
65221,
65382,
24,
65472,
65358,
65329,
36,
65485,
65446,
65258,
65435,
107,
65527,
65496,
65297,
65534,
122,
144,
180,
65467,
65489,
199,
236,
219,
65305,
65506,
406,
359,
411,
65084,
65255,
65311,
62,
142,
198,
460,
252,
336,
347,
65305,
65440,
65333,
53,
65439,
65087,
65180,
65075,
65409,
65428,
64927,
65164,
65246,
65181,
65117,
64866,
65025,
65032,
65024,
64889,
65421,
164,
66,
223,
65513,
65079,
65459,
33,
65386,
65312,
65179,
65501,
12,
66,
65252,
65508,
89,
65417,
65340,
65238,
65432,
65344,
65091,
65068,
65213,
138,
65217,
65311,
2,
370,
65324,
65448,
65154,
65086,
65514,
65370,
138,
188,
65356,
65225,
65243,
65398,
37,
65444,
65463,
8,
65459,
65228,
65419,
65404,
65268,
172,
65510,
65501,
404,
65502,
125,
273,
443,
65515,
65485,
44,
65375,
65526,
65382,
97,
65530,
131,
381,
278,
68,
374,
220,
126,
519,
65356,
65493,
100,
65394,
65338,
191,
367,
353,
49,
65176,
387,
308,
315,
65528,
65277,
330,
65235,
65164,
65198,
65281,
396,
65446,
65015,
65150,
65342,
65294,
32,
305,
75,
140,
3,
53,
65283,
65442,
65414,
65258,
65497,
65463,
421,
550,
65402,
65450,
92,
272,
163,
65276,
24,
37,
213,
55,
341,
317,
213,
209,
65457,
68,
346,
354,
486,
65484,
65240,
65284,
65365,
65312,
65523,
65234,
65259,
65236,
65381,
65434,
65309,
36,
65474,
129,
65497,
65529,
65178,
65118,
65508,
219,
165,
65447,
65309,
65132,
65350,
517,
65444,
101,
138,
179,
86,
409,
500,
530,
65502,
153,
65394,
108,
28,
95,
548,
762,
853,
575,
130,
132,
65381,
163,
182,
146,
65104,
65018,
65441,
151,
65459,
65300,
65177,
65400,
65401,
65345,
65530,
45,
65227,
65504,
65370,
65114,
65242,
65273,
65265,
65355,
65451,
65218,
65380,
65473,
65470,
65220,
65124,
65373,
65427,
65339,
65138,
65064,
65182,
65268,
65348,
65503,
65389,
65254,
65456,
65314,
65326,
65474,
130,
450,
333,
65419,
8,
349,
95,
65372,
65326,
65503,
65525,
65194,
65227,
62,
65449,
252,
65288,
65140,
31,
65509,
93,
65270,
65152,
