memory_initialization_radix=10;
memory_initialization_vector =
362,
139,
142,
65350,
49,
228,
65366,
65516,
65283,
65266,
65502,
65439,
81,
65327,
65316,
65522,
509,
0,
203,
65247,
132,
555,
295,
368,
65245,
107,
345,
65336,
19,
284,
233,
215,
65208,
65063,
65415,
65233,
166,
318,
65409,
65270,
64970,
131,
544,
431,
65470,
65098,
65314,
65286,
65276,
114,
65387,
65439,
65217,
65390,
111,
285,
107,
90,
53,
114,
65253,
65497,
35,
214,
148,
35,
65531,
100,
268,
190,
65398,
65334,
65391,
103,
65395,
345,
183,
108,
65332,
69,
327,
435,
65261,
57,
161,
68,
102,
65290,
9,
65306,
98,
79,
65529,
65500,
65418,
65206,
29,
65352,
0,
210,
65533,
65426,
8,
65440,
65524,
316,
65527,
65442,
65482,
65182,
306,
429,
65473,
2,
65327,
65488,
279,
91,
65111,
65008,
306,
314,
438,
65371,
64949,
65463,
65162,
65174,
65124,
65334,
65530,
10,
65500,
286,
65472,
53,
113,
249,
510,
65356,
484,
737,
203,
65223,
65034,
367,
373,
65158,
64842,
65128,
14,
65257,
266,
122,
65475,
65342,
65079,
152,
19,
85,
141,
65130,
65468,
65436,
65485,
594,
65365,
120,
19,
65529,
637,
330,
419,
204,
309,
87,
65532,
341,
547,
375,
65438,
65459,
106,
183,
839,
65212,
65509,
65334,
65340,
382,
65165,
65473,
53,
65505,
65497,
198,
65350,
170,
154,
113,
458,
336,
65408,
65163,
65530,
334,
167,
65359,
61,
221,
88,
70,
65318,
287,
214,
71,
90,
65465,
65505,
341,
268,
65417,
204,
142,
130,
65450,
12,
65338,
57,
65528,
65455,
121,
65357,
65375,
65443,
70,
46,
65325,
65309,
65200,
11,
65299,
65348,
65388,
65435,
41,
65335,
65367,
65415,
65430,
206,
433,
265,
253,
72,
65318,
65534,
65431,
65149,
65344,
65150,
65392,
133,
65515,
65424,
65312,
65310,
383,
236,
65337,
65279,
65495,
202,
7,
65271,
408,
1,
65409,
229,
246,
297,
372,
126,
65465,
59,
489,
230,
65228,
65445,
94,
308,
340,
171,
171,
107,
96,
463,
783,
646,
77,
383,
65515,
65482,
65358,
100,
72,
65437,
65508,
99,
272,
65365,
65396,
245,
65440,
65499,
100,
166,
657,
86,
50,
65463,
173,
212,
65487,
36,
78,
135,
65494,
65389,
56,
87,
65515,
65431,
65289,
47,
232,
50,
65460,
202,
281,
164,
65128,
65478,
225,
65516,
65332,
65048,
65125,
65403,
65166,
147,
195,
215,
20,
65260,
65273,
65071,
65389,
65257,
65208,
65389,
65407,
65105,
65393,
65402,
65188,
17,
65400,
65281,
65261,
65445,
34,
65479,
44,
65237,
65486,
409,
378,
65400,
65488,
65460,
34,
65499,
65488,
65451,
65292,
65487,
65326,
24,
200,
33,
65491,
19,
198,
65476,
25,
61,
65380,
65275,
65173,
65305,
65272,
80,
65398,
111,
143,
65393,
13,
269,
1,
65527,
2,
134,
211,
59,
160,
65433,
60,
83,
144,
65299,
65338,
65535,
65266,
23,
65414,
157,
164,
65273,
65359,
65491,
122,
156,
149,
65330,
10,
65419,
65201,
65237,
65457,
65325,
65477,
65380,
65363,
65008,
65280,
65241,
65406,
65237,
65061,
1258,
252,
65202,
65033,
65101,
322,
487,
188,
65422,
65119,
65431,
65522,
186,
421,
14,
65070,
65237,
55,
358,
273,
65246,
65135,
65161,
65039,
65126,
103,
405,
65412,
65159,
65412,
415,
509,
262,
65313,
65144,
650,
670,
283,
65328,
65201,
65462,
335,
217,
65365,
65137,
64914,
64817,
65365,
65129,
65296,
65444,
65443,
65476,
65443,
65416,
65515,
188,
124,
260,
65014,
65456,
10,
144,
86,
65513,
262,
239,
80,
119,
65264,
360,
153,
58,
402,
65366,
290,
17,
83,
65414,
311,
230,
229,
91,
65415,
1,
238,
436,
244,
231,
280,
276,
89,
324,
319,
374,
22,
116,
65345,
45,
62,
65515,
65523,
54,
65346,
65280,
65399,
65169,
65357,
65205,
64987,
65270,
65143,
65150,
65361,
65109,
65238,
65365,
65081,
65271,
64880,
65242,
65382,
65050,
65453,
65140,
65356,
187,
140,
65355,
65260,
65329,
46,
65417,
52,
65348,
152,
65524,
80,
65307,
49,
96,
65403,
65430,
127,
65450,
7,
65471,
197,
40,
65218,
65295,
65419,
26,
101,
65440,
136,
116,
41,
65479,
67,
42,
0,
65260,
65249,
65515,
38,
61,
92,
65134,
65225,
116,
182,
164,
89,
187,
65478,
36,
10,
148,
538,
65347,
65320,
65380,
65428,
271,
65443,
65199,
65444,
73,
12,
65271,
65385,
48,
65394,
65251,
65437,
9,
16,
65404,
65277,
65400,
65505,
65476,
65212,
65193,
65452,
65522,
65400,
65268,
65265,
65217,
65417,
65409,
65408,
65066,
65359,
65099,
65095,
65238,
65239,
65518,
65105,
65141,
65286,
65404,
418,
65517,
65297,
238,
387,
399,
65208,
65004,
227,
362,
493,
65362,
65175,
65355,
65426,
391,
587,
547,
323,
65404,
41,
204,
599,
639,
335,
65295,
9,
54,
64,
65183,
214,
482,
316,
131,
65335,
354,
486,
65473,
65199,
65374,
92,
320,
65090,
65164,
64991,
65513,
65327,
65436,
59,
65321,
65378,
65420,
178,
668,
519,
65344,
65499,
134,
462,
362,
65277,
331,
8,
65477,
65390,
65412,
234,
65445,
65135,
65342,
65302,
3,
65137,
65381,
65503,
136,
61,
342,
65497,
4,
65512,
65243,
65460,
304,
127,
65449,
65210,
65218,
339,
188,
68,
167,
65364,
65519,
384,
234,
152,
65513,
181,
509,
65444,
65252,
64898,
65051,
65132,
65464,
184,
50,
65370,
65279,
289,
378,
36,
326,
209,
21,
65429,
65243,
65364,
65401,
65056,
65111,
65196,
65089,
65225,
65444,
65485,
438,
140,
65495,
65474,
30,
65489,
65385,
351,
65312,
65327,
65189,
65402,
351,
4,
119,
65245,
65376,
58,
356,
664,
592,
65444,
65246,
65330,
137,
234,
59,
620,
65397,
65396,
65296,
65199,
106,
65458,
65343,
65356,
65286,
65357,
65441,
65334,
310,
129,
65424,
392,
303,
384,
434,
65413,
600,
187,
65498,
94,
218,
312,
58,
65419,
16,
89,
474,
65466,
65158,
65407,
65390,
361,
269,
262,
311,
25,
58,
83,
364,
234,
423,
65478,
65474,
65326,
65405,
65268,
245,
65480,
68,
65506,
65519,
65356,
65311,
452,
277,
171,
63,
99,
110,
65369,
65290,
114,
458,
65466,
65152,
65038,
