memory_initialization_radix=10;
memory_initialization_vector =
210,
143,
405,
164,
95,
359,
65309,
65340,
133,
248,
65426,
39,
65388,
86,
65324,
231,
253,
65529,
65347,
65266,
65352,
65262,
65348,
65336,
65438,
65529,
237,
201,
214,
765,
236,
105,
445,
235,
65365,
68,
50,
356,
58,
65530,
320,
65427,
241,
15,
65320,
65496,
65262,
324,
211,
136,
7,
293,
65342,
65308,
65454,
65442,
65261,
104,
20,
34,
81,
18,
65321,
109,
65231,
65390,
65462,
65341,
65438,
65363,
343,
187,
264,
392,
277,
193,
148,
25,
65527,
65409,
96,
81,
433,
106,
210,
732,
260,
65347,
102,
163,
327,
65428,
65530,
65451,
59,
65331,
26,
117,
65395,
65492,
65428,
65516,
293,
111,
281,
65494,
164,
380,
86,
113,
65520,
350,
472,
65462,
65255,
343,
442,
243,
156,
65354,
403,
493,
343,
111,
98,
65437,
65246,
65375,
65050,
23,
65243,
65219,
65186,
270,
75,
547,
651,
2,
65488,
31,
65467,
301,
65443,
55,
65356,
65251,
65328,
65515,
65446,
129,
65249,
65320,
65181,
74,
148,
147,
65528,
65244,
65303,
33,
65145,
65271,
65418,
65535,
65445,
65182,
65158,
17,
77,
65499,
65482,
65482,
65142,
65172,
65310,
65462,
65166,
65479,
65413,
186,
65224,
65316,
65304,
65339,
221,
65022,
65175,
65353,
327,
483,
200,
65462,
65279,
190,
516,
46,
65321,
65512,
138,
65276,
168,
297,
2,
105,
498,
22,
47,
65415,
65311,
65467,
65285,
153,
76,
101,
97,
218,
115,
147,
203,
470,
65490,
65518,
42,
65454,
258,
65336,
65288,
65331,
65180,
65304,
65126,
65189,
65369,
65305,
65126,
65339,
65106,
65388,
65287,
65168,
65297,
65288,
65231,
65445,
65334,
65297,
65180,
65313,
65080,
65288,
65340,
178,
65308,
261,
93,
65463,
55,
276,
127,
61,
65166,
65329,
65149,
65362,
105,
65322,
65465,
65256,
65405,
65368,
16,
65446,
65370,
65521,
65437,
45,
65210,
65178,
65024,
65138,
65236,
65307,
65151,
64819,
65276,
65517,
65197,
64992,
65136,
65089,
5,
65152,
65305,
65222,
65341,
65396,
102,
65338,
65310,
65369,
65462,
64874,
65003,
65140,
316,
303,
47,
74,
134,
145,
388,
65520,
269,
65496,
169,
219,
65343,
65499,
86,
339,
65398,
65458,
399,
341,
516,
8,
251,
62,
65177,
65122,
9,
88,
73,
157,
38,
65242,
65283,
65468,
65357,
65389,
22,
65492,
280,
221,
214,
65448,
65401,
65400,
213,
45,
65353,
65313,
65336,
65357,
65380,
65452,
65313,
65504,
65484,
127,
25,
65374,
156,
65474,
65360,
18,
65390,
65263,
65271,
65248,
136,
65355,
65237,
65270,
65471,
65415,
332,
65525,
187,
65491,
366,
64,
35,
244,
65433,
24,
65402,
65377,
138,
171,
65223,
65080,
65498,
73,
65193,
65419,
87,
408,
346,
20,
65382,
228,
48,
65411,
58,
65533,
65506,
65516,
22,
65476,
166,
11,
65243,
65400,
65478,
65507,
65467,
65420,
65459,
20,
17,
57,
65374,
40,
38,
65084,
65059,
64935,
65236,
65156,
65514,
65360,
65351,
65221,
65444,
65455,
65382,
29,
65386,
36,
75,
65390,
65221,
65175,
65260,
65307,
113,
65201,
65123,
65318,
65271,
65482,
60,
65004,
64927,
64978,
65468,
65117,
65467,
65441,
65392,
65255,
65313,
65453,
50,
365,
288,
392,
238,
136,
247,
323,
352,
420,
183,
65436,
103,
164,
93,
117,
29,
65499,
65247,
65251,
65296,
65106,
65314,
65401,
65524,
29,
188,
65508,
65345,
135,
249,
180,
507,
327,
595,
306,
65313,
65307,
65195,
65455,
65528,
65317,
65443,
65396,
65432,
65259,
65330,
429,
100,
353,
38,
278,
65523,
559,
208,
56,
422,
431,
606,
594,
70,
274,
64908,
65185,
65177,
65464,
65440,
64997,
65152,
65186,
65409,
65272,
65155,
65213,
64859,
64933,
65340,
65313,
33,
145,
65272,
282,
343,
135,
291,
449,
43,
83,
65308,
65294,
65435,
65440,
65220,
65471,
65490,
65420,
65265,
65461,
65490,
65355,
80,
65213,
88,
65509,
425,
12,
65407,
46,
65490,
65315,
65422,
65436,
65325,
65351,
65333,
65487,
65304,
110,
107,
61,
65268,
65352,
65429,
70,
65398,
65376,
65535,
65365,
65468,
65534,
65362,
65390,
65352,
65346,
65244,
65440,
65429,
65494,
65313,
65466,
65328,
65444,
65280,
65108,
65454,
65490,
65444,
65497,
65475,
65236,
65272,
73,
39,
65449,
65527,
65147,
65260,
65334,
21,
2,
65405,
65258,
64988,
65001,
65115,
65435,
65251,
65385,
65468,
65181,
65240,
65415,
111,
65377,
65361,
65320,
65241,
2,
65363,
113,
65448,
65309,
65272,
65234,
65529,
65448,
175,
73,
65372,
65357,
65349,
119,
65372,
65533,
65232,
65204,
119,
104,
6,
22,
155,
65507,
162,
65365,
65458,
65447,
65061,
65445,
65326,
145,
65518,
320,
89,
65165,
65460,
96,
356,
65432,
65014,
190,
65361,
65368,
65376,
64954,
172,
65470,
311,
250,
65409,
65177,
65379,
65163,
22,
164,
296,
36,
65291,
65354,
125,
312,
268,
16,
65531,
65410,
65352,
65470,
65382,
65078,
65128,
65397,
65524,
65472,
65529,
61,
332,
93,
0,
193,
76,
7,
65392,
57,
230,
65519,
112,
112,
65251,
65426,
6,
131,
65475,
65309,
65496,
203,
105,
245,
65287,
65216,
87,
65314,
151,
87,
65458,
296,
65351,
65357,
283,
345,
65355,
130,
65464,
65133,
37,
65291,
329,
279,
65345,
408,
745,
549,
444,
65462,
330,
58,
30,
12,
65240,
65208,
36,
118,
300,
65141,
64764,
64917,
64865,
65249,
65123,
65083,
65218,
65136,
65317,
65433,
65289,
65241,
13,
65445,
224,
167,
102,
68,
133,
65280,
65233,
65161,
65174,
65359,
117,
206,
307,
65437,
0,
136,
216,
300,
210,
65358,
28,
65486,
65496,
65470,
408,
88,
65458,
105,
72,
65393,
65395,
65149,
65131,
65051,
14,
45,
65117,
65105,
64925,
65391,
65221,
64899,
64908,
65215,
65393,
65148,
64775,
65013,
64894,
65303,
65393,
65070,
65130,
65416,
65457,
65075,
65279,
57,
65404,
65140,
125,
65384,
65243,
65295,
543,
499,
4,
111,
65515,
520,
272,
228,
65469,
144,
269,
65513,
65511,
65504,
115,
208,
65505,
201,
179,
65441,
65508,
65373,
65245,
65281,
65513,
27,
66,
65312,
40,
65269,
65287,
65529,
23,
23,
282,
59,
230,
36,
89,
548,
17,
296,
133,
350,
144,
65532,
