memory_initialization_radix=10;
memory_initialization_vector =
533,
344,
132,
152,
573,
65535,
65344,
65473,
65388,
65288,
0,
65425,
65329,
65504,
65333,
47,
78,
65242,
65346,
65304,
105,
65453,
65259,
65322,
65392,
252,
283,
377,
576,
739,
125,
172,
32,
65346,
107,
469,
353,
347,
65502,
65448,
360,
212,
50,
123,
58,
24,
65114,
22,
442,
639,
249,
65396,
58,
161,
65429,
82,
65370,
65514,
65360,
142,
142,
124,
322,
89,
266,
595,
521,
512,
577,
385,
65384,
346,
83,
316,
65522,
361,
271,
276,
142,
74,
593,
30,
76,
65052,
65407,
168,
65483,
82,
50,
19,
104,
65496,
127,
72,
151,
142,
65360,
129,
47,
65341,
10,
232,
217,
39,
652,
43,
192,
94,
65482,
375,
65284,
23,
215,
65323,
122,
19,
122,
233,
65533,
65479,
65532,
103,
65437,
65471,
90,
65336,
346,
469,
103,
117,
481,
547,
724,
275,
263,
65432,
65478,
264,
65370,
282,
65506,
65278,
234,
534,
410,
290,
65508,
384,
246,
193,
65319,
65379,
65022,
65005,
65273,
64944,
65239,
65171,
65379,
65350,
64958,
65231,
65359,
81,
203,
65303,
65385,
65374,
65374,
65249,
102,
65518,
419,
166,
20,
198,
146,
65500,
65454,
65209,
65439,
65351,
237,
422,
419,
65201,
65414,
65369,
190,
244,
65498,
65399,
116,
65405,
65295,
140,
0,
65481,
146,
65403,
65472,
65220,
65361,
26,
65388,
65443,
7,
41,
20,
65401,
65341,
29,
342,
416,
75,
65470,
65290,
65347,
32,
65533,
0,
65383,
65299,
65444,
61,
65329,
65161,
65358,
65324,
65048,
65110,
65199,
65342,
65133,
65292,
65394,
15,
65317,
65228,
65086,
65329,
65312,
65365,
65356,
65221,
65060,
65186,
65215,
65224,
65248,
65419,
208,
65436,
65478,
65297,
64857,
65068,
65021,
65510,
65511,
65526,
373,
461,
295,
59,
373,
381,
93,
295,
65350,
65250,
64939,
65343,
65348,
65307,
65401,
65267,
65015,
65218,
65378,
65399,
65473,
65011,
64907,
65445,
15,
65213,
65156,
65184,
65279,
156,
46,
65256,
65286,
65403,
65371,
72,
60,
247,
65386,
197,
65405,
65396,
65182,
65267,
65413,
65310,
65040,
65240,
65171,
20,
3,
102,
50,
230,
451,
32,
349,
532,
142,
65366,
110,
339,
34,
43,
66,
25,
65384,
24,
65276,
65317,
65191,
65048,
65085,
65292,
65317,
65172,
169,
32,
65297,
65267,
65249,
26,
390,
151,
65500,
24,
337,
130,
518,
286,
97,
124,
271,
60,
88,
188,
346,
423,
118,
32,
33,
65249,
65417,
214,
96,
65381,
65266,
65281,
65440,
65192,
65252,
65109,
65047,
64998,
320,
260,
65452,
65421,
65177,
65380,
65359,
65354,
45,
65434,
192,
65347,
65475,
65402,
65447,
264,
216,
100,
295,
213,
65478,
65339,
86,
65455,
65404,
21,
145,
65463,
146,
65314,
135,
330,
83,
115,
94,
65364,
65301,
65489,
21,
65532,
311,
65521,
65422,
65465,
255,
65410,
65341,
65206,
65269,
65506,
65394,
65194,
65200,
52,
51,
65313,
160,
66,
76,
156,
65434,
65520,
65323,
39,
65319,
65449,
65478,
65249,
65417,
65109,
65390,
65394,
65198,
65082,
65246,
64,
65511,
65483,
65362,
65320,
65159,
65188,
65414,
65221,
65109,
65339,
65373,
65512,
237,
65515,
65299,
65416,
101,
145,
229,
65516,
65361,
65516,
65392,
236,
65477,
65477,
65156,
65279,
65233,
65345,
65380,
71,
65079,
150,
257,
91,
65317,
65358,
177,
493,
615,
597,
416,
455,
65272,
65372,
65346,
65408,
103,
65241,
65128,
65131,
65362,
65251,
31,
52,
65424,
65276,
65083,
143,
156,
65354,
65283,
65199,
65298,
54,
40,
65441,
65368,
151,
65500,
219,
65391,
65085,
65008,
64996,
65133,
65190,
114,
65020,
64964,
64698,
64784,
65263,
65333,
65376,
126,
15,
65485,
261,
261,
285,
469,
430,
65397,
65309,
122,
152,
146,
197,
42,
65469,
65433,
49,
65411,
65324,
65509,
65432,
65311,
65392,
65460,
3,
143,
65393,
65326,
181,
65265,
65401,
65472,
65192,
113,
84,
152,
28,
65333,
65506,
65366,
65530,
65041,
65310,
65527,
65291,
65326,
65308,
65328,
65503,
65465,
65358,
65332,
65239,
65323,
36,
65345,
65233,
65328,
65476,
65508,
13,
65372,
65471,
65174,
65386,
65402,
65443,
49,
65395,
65198,
65213,
65290,
65369,
65306,
65499,
132,
65222,
65284,
65266,
65535,
65499,
65327,
65280,
65318,
65442,
65255,
65387,
64818,
64883,
64981,
65066,
65053,
65386,
65054,
65350,
65475,
65208,
65230,
65047,
65315,
65227,
65175,
65399,
65396,
65487,
155,
65319,
65497,
65494,
249,
39,
65333,
145,
65467,
65131,
65278,
65121,
65371,
65388,
65247,
65289,
65492,
65307,
98,
65244,
65200,
65354,
65478,
94,
151,
65469,
129,
65295,
189,
231,
102,
65284,
124,
198,
97,
65397,
65148,
65213,
65290,
65525,
181,
82,
474,
89,
65392,
65430,
343,
78,
65486,
171,
420,
65300,
65070,
65519,
389,
475,
374,
65484,
65366,
65495,
65469,
253,
65320,
100,
65512,
574,
424,
65500,
65445,
628,
546,
417,
65458,
65242,
65237,
65327,
65226,
3,
65264,
65328,
65421,
65176,
28,
110,
212,
245,
65422,
221,
65468,
101,
65470,
81,
65529,
90,
88,
51,
65441,
65339,
65151,
176,
329,
65395,
65488,
65185,
65375,
65120,
65232,
65311,
65406,
65482,
152,
62,
65333,
412,
425,
431,
65516,
65425,
65461,
65533,
136,
36,
65202,
65180,
65427,
3,
65513,
65322,
65354,
65112,
65342,
65296,
64929,
65023,
64990,
65050,
65183,
65304,
65299,
65534,
89,
42,
392,
463,
415,
450,
555,
65216,
65223,
65052,
65329,
65320,
65240,
65485,
65314,
65400,
65209,
65412,
278,
1219,
618,
146,
125,
65475,
626,
756,
39,
415,
14,
242,
65434,
65412,
105,
65426,
65194,
65360,
65341,
49,
65439,
65032,
64956,
65510,
65286,
65017,
65045,
65444,
246,
64666,
64770,
65111,
65112,
65398,
64945,
64670,
64839,
65196,
65533,
64919,
65423,
65257,
65447,
65488,
630,
592,
509,
108,
127,
69,
302,
194,
65476,
65480,
65481,
65362,
65468,
43,
301,
89,
110,
76,
170,
399,
586,
619,
571,
65440,
64,
299,
294,
287,
217,
476,
65362,
65053,
65165,
65242,
65483,
60,
65267,
65380,
65313,
65475,
65430,
105,
280,
269,
65449,
337,
257,
277,
386,
65480,
280,
433,
371,
565,
132,
