memory_initialization_radix=10;
memory_initialization_vector =
144,
65502,
65521,
65381,
65447,
248,
174,
110,
49,
65482,
117,
312,
136,
10,
78,
273,
204,
232,
7,
47,
30,
37,
65486,
65420,
65469,
64992,
64964,
64962,
65005,
64934,
65017,
64927,
65291,
65195,
64984,
65070,
65130,
65125,
65274,
65086,
65026,
65191,
65176,
65058,
65323,
65155,
65208,
64923,
64984,
64844,
65519,
6,
65413,
65477,
65500,
10,
65411,
65216,
5,
65252,
65382,
65195,
65436,
65329,
65172,
62,
65213,
65311,
65214,
65498,
65501,
131,
168,
65458,
111,
65406,
33,
42,
17,
65253,
299,
172,
18,
65409,
65319,
267,
14,
207,
207,
130,
276,
247,
275,
195,
158,
175,
542,
311,
72,
136,
65276,
65397,
19,
39,
65445,
59,
66,
68,
65340,
65477,
47,
65357,
1,
65449,
65426,
65456,
65453,
43,
129,
132,
65504,
6,
65264,
65213,
64,
30,
39,
65456,
59,
65335,
65268,
65312,
65534,
65257,
65145,
0,
68,
135,
65417,
65522,
28,
65520,
1,
65491,
71,
65322,
65143,
102,
145,
65492,
65366,
65326,
65416,
5,
65364,
65076,
65339,
65490,
46,
65292,
65282,
65372,
65115,
65241,
65211,
65244,
65147,
65092,
65313,
65220,
65199,
65190,
65310,
65390,
65311,
65443,
65398,
65422,
65483,
65460,
65429,
65394,
150,
53,
65485,
45,
65393,
60,
78,
65319,
115,
134,
65499,
65520,
65497,
65426,
252,
65450,
65516,
65385,
65528,
65437,
65428,
65360,
65207,
65456,
65487,
105,
31,
65185,
162,
65442,
65410,
65313,
65326,
167,
65387,
65343,
65173,
65267,
65182,
65510,
65387,
65277,
65257,
252,
539,
512,
281,
242,
92,
102,
330,
92,
224,
149,
198,
531,
378,
244,
459,
368,
479,
217,
503,
330,
128,
114,
407,
425,
291,
67,
256,
50,
23,
91,
165,
257,
23,
65420,
275,
65508,
37,
65497,
65521,
65506,
65434,
80,
194,
248,
65423,
65491,
161,
144,
65425,
65365,
65271,
65497,
65275,
65341,
65398,
65192,
65026,
65349,
65204,
65477,
65290,
65395,
65260,
65262,
65400,
65320,
65480,
65397,
65108,
65441,
65414,
65322,
65291,
65009,
65440,
65485,
65453,
65486,
65175,
107,
65387,
65483,
65287,
65119,
26,
65445,
65453,
65332,
65220,
65531,
65420,
65423,
65491,
25,
20,
183,
65164,
65286,
65455,
65286,
31,
142,
4,
203,
65188,
58,
39,
97,
157,
65525,
65433,
65363,
55,
75,
65511,
65339,
65247,
65225,
65309,
112,
267,
189,
65528,
65432,
65315,
65453,
65451,
65112,
65169,
30,
65397,
65340,
65487,
65413,
65390,
107,
65533,
65455,
75,
65432,
1,
65420,
8,
65518,
65485,
65455,
129,
159,
44,
302,
172,
368,
322,
308,
293,
439,
63,
167,
281,
362,
495,
109,
121,
271,
116,
172,
127,
227,
65417,
221,
127,
364,
263,
282,
46,
65453,
65341,
65303,
65501,
29,
65436,
65391,
30,
65314,
65484,
65438,
69,
65278,
65452,
65357,
14,
135,
65421,
65315,
65367,
120,
65445,
65468,
65359,
204,
228,
95,
165,
65415,
109,
76,
247,
275,
118,
211,
129,
131,
41,
60,
374,
106,
410,
309,
455,
421,
388,
187,
176,
488,
65400,
27,
31,
258,
65531,
65492,
56,
65456,
65456,
65469,
67,
166,
65247,
65520,
65514,
292,
65420,
65229,
65189,
65293,
14,
65464,
301,
65485,
88,
65366,
65531,
65310,
65161,
65125,
62,
65368,
65086,
65172,
65450,
132,
65309,
65139,
65090,
65294,
65425,
65209,
65032,
65417,
65266,
65485,
65377,
65318,
65441,
65415,
65258,
65139,
65211,
65431,
65136,
65514,
65368,
65147,
65167,
64934,
56,
65421,
65346,
65228,
65035,
216,
152,
126,
65202,
65253,
105,
113,
65309,
65421,
65291,
124,
65506,
65466,
65430,
65250,
19,
2,
65311,
65438,
65087,
65457,
52,
65298,
65279,
65406,
65331,
65410,
65406,
2,
44,
54,
51,
65334,
65246,
65279,
438,
238,
470,
147,
138,
535,
712,
502,
163,
492,
540,
397,
173,
462,
259,
741,
512,
423,
416,
530,
696,
753,
370,
510,
540,
173,
241,
61,
65375,
87,
81,
203,
58,
65502,
65484,
259,
65474,
236,
107,
230,
88,
23,
128,
181,
115,
32,
48,
65440,
65486,
76,
65322,
139,
16,
65,
65471,
118,
65425,
134,
65461,
191,
65415,
65177,
65437,
147,
212,
65105,
65361,
65080,
65400,
65495,
65480,
65145,
65189,
65177,
65261,
65458,
144,
242,
203,
65535,
92,
274,
108,
209,
20,
254,
100,
348,
209,
65392,
30,
245,
161,
65530,
65501,
367,
250,
248,
182,
389,
65449,
214,
77,
170,
104,
65448,
162,
161,
36,
65528,
65457,
65504,
319,
177,
78,
211,
454,
237,
148,
53,
229,
345,
93,
307,
212,
64984,
65285,
65399,
90,
65478,
65264,
65256,
48,
65402,
65332,
65316,
65069,
50,
65316,
65363,
65309,
65321,
65062,
65079,
65331,
65516,
65388,
65483,
65136,
65373,
180,
65501,
231,
65395,
65383,
138,
65466,
73,
24,
65413,
169,
65486,
65519,
65378,
143,
65475,
127,
65413,
74,
153,
65489,
144,
65524,
65489,
87,
65445,
65400,
65397,
65419,
65497,
55,
65402,
65414,
65461,
65067,
65421,
120,
65328,
65343,
65419,
94,
97,
65504,
65133,
65222,
65429,
65460,
65493,
65340,
65445,
65323,
65282,
65497,
65483,
65438,
65304,
65233,
65374,
65453,
131,
65136,
65288,
71,
65504,
159,
65015,
65403,
55,
65524,
65092,
65318,
65256,
65514,
65492,
65209,
518,
373,
498,
595,
65528,
151,
178,
275,
310,
207,
139,
65500,
171,
298,
114,
290,
1,
89,
51,
75,
216,
47,
453,
240,
357,
65274,
65310,
65051,
64993,
65045,
65219,
64996,
65034,
64974,
65044,
65282,
65013,
65067,
65212,
64863,
64895,
65081,
65226,
65010,
65273,
65200,
65189,
64968,
65134,
64835,
65461,
65388,
65406,
65351,
65261,
19,
65519,
65204,
65141,
65324,
176,
65319,
65311,
65174,
65079,
65505,
65360,
65198,
65285,
65441,
65436,
65513,
65359,
65452,
65457,
64949,
64999,
65101,
65146,
65202,
65373,
65285,
65236,
65002,
65125,
65312,
65193,
65394,
65093,
64978,
65249,
65111,
65398,
65350,
65221,
65320,
65316,
65281,
65030,
65011,
65441,
56,
197,
65514,
65421,
219,
166,
108,
67,
28,
65484,
111,
65291,
65418,
65154,
65514,
65278,
65324,
65066,
65358,
138,
65530,
65219,
65363,
65390,
