memory_initialization_radix=10;
memory_initialization_vector =
64763,
64757,
64759,
64815,
64949,
64914,
64898,
65054,
65216,
65143,
65376,
65346,
65435,
65279,
65335,
65444,
65460,
65406,
65333,
65470,
65235,
65203,
65162,
65493,
65369,
77,
65421,
64960,
64935,
65210,
65512,
65478,
64959,
64816,
65366,
67,
220,
65326,
65031,
67,
116,
351,
65302,
65173,
65395,
65390,
65288,
65120,
65097,
65531,
65453,
606,
262,
905,
204,
22,
65527,
155,
119,
65340,
106,
65245,
65061,
64863,
64821,
65527,
65282,
65256,
65086,
65444,
369,
226,
47,
347,
743,
65051,
64974,
65025,
65123,
64895,
64934,
65029,
65258,
65236,
65027,
65346,
65408,
39,
65219,
65232,
129,
253,
62,
65489,
65252,
288,
231,
65532,
65469,
65418,
65337,
129,
239,
65514,
65104,
65133,
8,
112,
65366,
65191,
65509,
65282,
65112,
65305,
65143,
65275,
65329,
65333,
65206,
65279,
65490,
65484,
8,
65171,
64822,
65098,
65191,
65464,
88,
65312,
64946,
65142,
65149,
65090,
65161,
65321,
30,
65331,
64944,
65262,
65448,
65289,
65085,
65203,
65325,
65214,
64947,
64892,
65396,
292,
65162,
64886,
65267,
247,
361,
65192,
65237,
65141,
65310,
19,
65256,
65314,
65223,
65314,
65392,
65442,
65480,
14,
65383,
98,
65481,
65194,
65425,
65439,
65368,
65523,
65274,
65440,
539,
85,
251,
122,
53,
65469,
301,
392,
65423,
372,
40,
175,
148,
98,
106,
105,
39,
116,
205,
65303,
426,
364,
65420,
65268,
65531,
12,
65204,
65371,
65525,
65491,
65329,
65249,
65312,
65516,
65431,
65201,
65211,
65152,
65348,
17,
65416,
65214,
65071,
65248,
65431,
65369,
65174,
65320,
65287,
126,
66,
65476,
65271,
65407,
73,
65446,
65526,
65264,
65412,
65319,
65316,
65232,
65367,
65182,
65263,
65461,
65274,
65050,
65235,
65079,
65178,
65393,
64854,
65113,
65471,
65277,
65051,
65356,
13,
4,
65191,
65110,
65335,
65261,
65315,
65219,
65290,
65530,
65435,
65496,
65420,
41,
65509,
278,
65505,
65270,
65503,
65377,
65090,
64871,
65163,
65297,
65315,
65359,
65167,
65034,
65239,
196,
65523,
65221,
65444,
65388,
254,
57,
65472,
65470,
65349,
171,
65522,
65267,
65154,
65191,
65516,
65456,
65452,
65243,
65470,
65408,
65278,
30,
65501,
65415,
65496,
65374,
65414,
65014,
65192,
65381,
65283,
65233,
64986,
106,
65535,
65467,
65240,
65190,
136,
65493,
453,
161,
821,
509,
65170,
205,
292,
285,
493,
65310,
65529,
32,
76,
65501,
65,
128,
39,
65452,
61,
274,
175,
118,
65419,
633,
64937,
64773,
64860,
64799,
64714,
65124,
64759,
64987,
65050,
65128,
65454,
115,
385,
517,
53,
243,
367,
467,
492,
356,
65512,
183,
219,
65510,
52,
65005,
64943,
65312,
65223,
65294,
65405,
65236,
65213,
65346,
65034,
65338,
65194,
65524,
65369,
65294,
65169,
65354,
65461,
65163,
64975,
65056,
64996,
65402,
65147,
65126,
65304,
65263,
65504,
65427,
65484,
65324,
65228,
65533,
65287,
65419,
65301,
65467,
65327,
4,
65277,
2,
12,
65428,
200,
68,
10,
143,
305,
312,
364,
65249,
65165,
65026,
64821,
64909,
65093,
65132,
64988,
65222,
65422,
65466,
65223,
189,
106,
216,
65507,
30,
150,
99,
412,
65510,
65502,
132,
2,
226,
65053,
64875,
272,
546,
253,
65028,
64877,
65129,
411,
600,
65159,
64782,
64944,
65348,
249,
65120,
65126,
65091,
64981,
65320,
65094,
65051,
65066,
64878,
65454,
65457,
358,
275,
410,
65396,
49,
65379,
65199,
65396,
65480,
65481,
65122,
65000,
65067,
65412,
104,
119,
255,
9,
206,
33,
806,
616,
547,
385,
29,
491,
233,
620,
39,
65472,
65480,
65376,
49,
65169,
200,
128,
359,
65268,
65269,
243,
339,
35,
65256,
93,
65342,
141,
344,
65508,
297,
65436,
65304,
65463,
65308,
65094,
65491,
65461,
65450,
65414,
65465,
159,
65358,
65323,
7,
65327,
211,
28,
65386,
65427,
65465,
112,
170,
37,
51,
182,
65256,
65237,
65115,
65155,
65253,
65381,
65379,
65080,
65273,
65407,
65400,
65223,
65272,
65335,
29,
64,
65273,
65394,
65271,
0,
10,
65358,
65329,
65212,
115,
812,
569,
137,
65372,
344,
125,
248,
65270,
65381,
163,
151,
65419,
65352,
65384,
311,
139,
65305,
65406,
65508,
179,
309,
85,
259,
145,
277,
65270,
136,
253,
129,
694,
65054,
132,
10,
398,
714,
65225,
65150,
65213,
159,
576,
65168,
65090,
65238,
65491,
83,
65349,
65294,
65171,
65460,
65274,
829,
923,
1111,
395,
212,
165,
271,
195,
26,
65419,
49,
4,
104,
76,
56,
65278,
65381,
65346,
65511,
65467,
278,
157,
229,
51,
237,
65036,
566,
1245,
942,
324,
65315,
65534,
657,
127,
65277,
65054,
65424,
65510,
65366,
64983,
65167,
65117,
65059,
64805,
64644,
65504,
65470,
65218,
64981,
64783,
65330,
65100,
65146,
65093,
30,
176,
65486,
190,
65241,
64909,
9,
83,
83,
65387,
65063,
36,
2,
65322,
65288,
65191,
220,
93,
65401,
65369,
65232,
65115,
65277,
65340,
65187,
65025,
65474,
65194,
65247,
65397,
64919,
65179,
65296,
65087,
65365,
54,
65131,
65410,
94,
445,
405,
65312,
30,
65535,
90,
38,
94,
246,
65359,
65041,
65170,
425,
509,
88,
65140,
65457,
239,
235,
65047,
65048,
65250,
482,
330,
64870,
65159,
65166,
485,
57,
64940,
65498,
62,
324,
250,
134,
239,
312,
395,
65351,
63,
201,
407,
65306,
60,
255,
65505,
101,
398,
65466,
55,
251,
13,
233,
65476,
479,
355,
65322,
179,
31,
366,
65443,
65354,
65347,
65021,
64959,
65046,
65172,
65156,
65010,
65193,
65080,
65270,
65530,
22,
68,
160,
523,
413,
159,
427,
65496,
492,
162,
65058,
65066,
65360,
105,
59,
65448,
65180,
65339,
91,
65516,
87,
65056,
65375,
65336,
65331,
65422,
65108,
65148,
65234,
93,
77,
65274,
65389,
29,
65412,
65241,
9,
367,
65458,
65188,
65160,
65427,
26,
65196,
65445,
82,
65424,
28,
65296,
162,
65377,
65367,
65261,
65380,
22,
102,
65523,
65482,
65429,
65225,
65320,
65282,
65162,
65500,
65124,
65295,
65320,
65476,
65459,
65305,
65421,
65350,
65272,
65329,
65419,
65319,
65449,
65284,
65395,
12,
4,
65340,
65133,
65381,
65374,
150,
718,
489,
198,
65345,
305,
457,
65433,
65079,
16,
72,
65475,
65050,
65016,
65480,
65534,
64996,
64911,
65102,
270,
65484,
64979,
65229,
65491,
