memory_initialization_radix=10;
memory_initialization_vector =
65320,
65420,
65477,
65191,
65437,
65212,
65208,
65215,
65133,
65199,
65171,
65218,
65236,
65397,
65411,
65384,
110,
227,
154,
65463,
65488,
122,
774,
792,
60,
132,
143,
64946,
64795,
65036,
65224,
70,
65483,
65084,
64642,
65056,
65414,
213,
65486,
65114,
64911,
65120,
65373,
44,
28,
65290,
65204,
65294,
65293,
65187,
308,
183,
15,
65252,
65532,
65481,
185,
33,
65241,
65496,
65338,
65525,
65464,
42,
7,
65160,
65255,
65041,
65061,
65202,
64972,
64771,
64747,
64878,
64944,
64968,
64965,
65079,
65284,
65369,
65081,
65081,
65051,
65212,
65020,
65191,
65454,
65272,
65186,
65081,
78,
65350,
65139,
65179,
65310,
65351,
65490,
65436,
65425,
65278,
65473,
65305,
65211,
65391,
65012,
65341,
12,
65433,
65419,
65098,
65177,
170,
12,
65350,
65202,
65226,
328,
217,
65475,
65219,
64950,
128,
311,
86,
65006,
65358,
65485,
87,
65197,
65104,
65249,
65371,
65271,
65440,
60,
65080,
65174,
65456,
65423,
65401,
65377,
76,
23,
65379,
64981,
65048,
65400,
65433,
65114,
64925,
65533,
21,
65409,
925,
383,
71,
65187,
65236,
234,
240,
272,
65301,
65088,
65323,
101,
803,
65388,
65525,
65212,
65419,
410,
828,
336,
236,
643,
74,
6,
65446,
65348,
404,
65387,
79,
65492,
190,
501,
65419,
5,
65243,
65286,
100,
465,
95,
65344,
65492,
77,
511,
98,
106,
27,
407,
65513,
172,
249,
145,
65315,
65518,
312,
375,
65424,
175,
65284,
49,
65411,
65452,
83,
65409,
65452,
65299,
65374,
65394,
65391,
65253,
65079,
65090,
65507,
76,
184,
85,
65169,
65490,
65517,
65500,
65342,
65304,
65329,
65402,
33,
95,
65509,
65420,
65192,
65297,
65244,
14,
65200,
12,
65315,
65356,
65445,
65479,
65202,
55,
65416,
241,
777,
64,
65220,
65441,
65159,
65433,
65369,
65203,
65359,
65213,
64860,
65399,
65139,
65116,
65310,
65044,
65151,
64923,
65353,
65090,
65169,
160,
370,
265,
506,
706,
306,
55,
95,
15,
642,
194,
65351,
65527,
65312,
65426,
780,
65501,
264,
90,
246,
627,
480,
796,
760,
926,
564,
118,
262,
212,
374,
73,
65241,
65437,
10,
128,
94,
65267,
65169,
65075,
65233,
65452,
65353,
65142,
65247,
65426,
65128,
64921,
64904,
65031,
65108,
65124,
65163,
65482,
65387,
13,
129,
182,
65432,
86,
65361,
161,
78,
96,
65446,
65219,
32,
65407,
65289,
65227,
65168,
65477,
65067,
64970,
64952,
64968,
65455,
113,
261,
65534,
65405,
65503,
65327,
65073,
65111,
65387,
65507,
65427,
65235,
65177,
65328,
65483,
65188,
65241,
65285,
65309,
284,
31,
65484,
65485,
65455,
65096,
65217,
65428,
65166,
65106,
65098,
65150,
65443,
65270,
65332,
65132,
65142,
65525,
65418,
65209,
65217,
65359,
65226,
65134,
65257,
170,
65491,
65354,
65393,
65167,
57,
65426,
65293,
83,
65534,
461,
198,
135,
111,
480,
90,
370,
52,
96,
135,
235,
65533,
65370,
65383,
464,
65264,
65318,
65367,
65297,
65515,
64913,
65348,
208,
202,
65143,
65003,
65400,
237,
188,
65462,
65095,
65495,
65236,
65351,
65423,
65260,
65274,
65323,
65391,
65058,
65200,
65,
65287,
65273,
65497,
256,
409,
65242,
64923,
64748,
65462,
606,
813,
189,
65445,
65239,
73,
667,
979,
491,
64493,
64771,
65309,
65502,
169,
64771,
64499,
64402,
64501,
64648,
64911,
65136,
65335,
65082,
64503,
65326,
432,
478,
327,
64639,
65413,
764,
673,
284,
65059,
64674,
65431,
93,
65431,
64824,
64401,
64631,
64837,
65217,
64974,
65391,
65426,
74,
65514,
65278,
91,
65475,
88,
18,
72,
65453,
47,
65251,
65492,
65511,
65524,
65212,
65494,
222,
7,
65327,
65264,
65315,
65441,
65422,
518,
289,
444,
295,
1063,
223,
392,
65394,
65529,
489,
351,
211,
65487,
194,
531,
352,
584,
362,
402,
482,
280,
65393,
65507,
65423,
230,
65353,
65310,
65471,
65297,
65355,
65345,
65449,
65305,
65464,
65270,
65390,
65267,
65417,
23,
65331,
65366,
65257,
65203,
65210,
65254,
65383,
65223,
65319,
65254,
65494,
65473,
36,
65408,
67,
65345,
65462,
65397,
36,
7,
65479,
65381,
65512,
77,
21,
40,
114,
65338,
65471,
65350,
65524,
65438,
65475,
65481,
65439,
182,
68,
65454,
65476,
64,
65353,
77,
65403,
65301,
71,
65526,
23,
242,
65532,
43,
65450,
68,
529,
392,
190,
10,
65488,
65527,
124,
373,
506,
65454,
1,
13,
65346,
65512,
65315,
65528,
105,
125,
21,
117,
65392,
65471,
25,
65498,
65392,
65370,
65299,
65475,
65338,
64936,
65016,
65255,
65238,
64985,
65288,
53,
305,
105,
65294,
65418,
51,
155,
65390,
65289,
65290,
65251,
65374,
65522,
65456,
64995,
65098,
65112,
65016,
65236,
65307,
64910,
64505,
64790,
64992,
36,
65368,
65168,
65368,
65521,
206,
272,
65229,
64777,
65496,
650,
185,
65293,
64956,
65163,
40,
65396,
209,
65382,
65173,
65131,
65382,
65384,
65360,
256,
65169,
65083,
65033,
65043,
65065,
65123,
65284,
65449,
65341,
65501,
65313,
65461,
65429,
65367,
22,
65258,
75,
65441,
65146,
65122,
65033,
65164,
6,
65230,
65189,
65291,
65338,
65492,
156,
145,
65286,
65336,
65130,
65388,
65486,
65387,
65251,
64985,
64785,
65224,
134,
65510,
65234,
64963,
64995,
53,
65331,
65299,
65108,
64966,
263,
397,
328,
317,
97,
164,
65454,
65214,
411,
435,
160,
50,
65396,
65456,
248,
259,
288,
65442,
65306,
284,
391,
405,
418,
46,
481,
201,
65335,
65083,
65104,
65314,
674,
297,
14,
65425,
23,
119,
150,
62,
65530,
342,
64982,
65369,
65330,
65343,
65396,
65073,
64970,
65153,
65113,
65187,
36,
38,
65301,
65359,
65288,
65398,
65411,
65158,
65372,
3,
65308,
65364,
65158,
64753,
65185,
244,
47,
87,
65343,
65494,
230,
490,
443,
597,
364,
525,
287,
831,
443,
808,
21,
212,
353,
275,
527,
97,
16,
477,
471,
65342,
606,
65534,
387,
434,
65337,
957,
38,
369,
2,
65440,
65282,
65210,
65407,
65427,
619,
65141,
65223,
64808,
65011,
228,
65276,
8,
65053,
65028,
65218,
160,
65272,
65164,
65169,
65083,
65346,
65027,
65128,
64866,
65101,
211,
21,
65232,
65202,
65292,
52,
65310,
65276,
65484,
65238,
65464,
65443,
65391,
65392,
65301,
65468,
65140,
65245,
65269,
65101,
65279,
65033,
64958,
65112,
64861,
