memory_initialization_radix=10;
memory_initialization_vector =
143,
118,
65478,
65453,
65517,
276,
216,
40,
65534,
211,
149,
297,
411,
420,
93,
287,
457,
305,
233,
210,
65459,
309,
130,
115,
65477,
64699,
64787,
64982,
64828,
64751,
64915,
64954,
65178,
65283,
65138,
65114,
65276,
64817,
64959,
65100,
64988,
65087,
65040,
65000,
64985,
64581,
64745,
64621,
64344,
64684,
65181,
65483,
65284,
65394,
65227,
18,
65416,
65487,
65372,
65236,
65352,
65155,
65040,
64987,
65014,
65471,
65480,
65477,
65509,
32,
87,
65443,
65497,
262,
302,
272,
239,
65476,
65120,
65252,
119,
65443,
65414,
65404,
65339,
60,
302,
340,
246,
65440,
141,
392,
202,
465,
340,
145,
405,
457,
199,
101,
65093,
45,
72,
65273,
65195,
65502,
65503,
144,
65345,
65469,
105,
65122,
94,
65277,
65336,
32,
65519,
262,
65421,
72,
7,
90,
84,
65386,
284,
112,
67,
42,
100,
65427,
65420,
65535,
29,
65354,
65497,
134,
340,
17,
65177,
65412,
272,
110,
65513,
9,
242,
65308,
65108,
37,
65432,
5,
65005,
65395,
50,
91,
65494,
65182,
65088,
65405,
65481,
65333,
64868,
65267,
65298,
118,
65360,
64867,
65082,
64915,
54,
55,
65233,
65105,
65074,
65165,
49,
65390,
65306,
65474,
69,
65486,
65301,
65329,
6,
65495,
65374,
65411,
65394,
157,
65406,
65497,
43,
65513,
45,
65382,
27,
65528,
217,
65340,
65478,
65257,
65269,
65241,
65451,
65527,
65258,
65526,
18,
65366,
65387,
65211,
228,
65519,
147,
65305,
65266,
65402,
65486,
90,
65105,
65172,
65052,
65382,
65421,
65177,
65258,
603,
590,
197,
373,
676,
363,
597,
327,
147,
480,
318,
261,
621,
448,
541,
618,
380,
668,
606,
507,
248,
457,
511,
415,
180,
517,
543,
427,
336,
169,
216,
632,
400,
76,
32,
327,
588,
305,
182,
126,
65480,
65471,
132,
128,
174,
40,
14,
65411,
65445,
65503,
65179,
65252,
65431,
72,
219,
65188,
65078,
65038,
64859,
65249,
65185,
65051,
65187,
65139,
65388,
65491,
65299,
65210,
65201,
65220,
65462,
65266,
65292,
65193,
64985,
65360,
65280,
65434,
65152,
65101,
56,
65405,
65315,
65032,
64922,
65481,
68,
65251,
65477,
65309,
39,
65240,
65336,
65502,
88,
65315,
65333,
65249,
65429,
11,
65147,
65402,
40,
157,
354,
65308,
115,
177,
65528,
65503,
65473,
65360,
65334,
65337,
10,
65508,
107,
40,
65475,
65497,
138,
20,
159,
49,
271,
65196,
65327,
65317,
65232,
65078,
65341,
65294,
65449,
65143,
65266,
65123,
65151,
65521,
65460,
3,
65409,
65458,
65313,
65516,
65480,
28,
65458,
175,
65317,
12,
448,
378,
786,
545,
457,
447,
351,
254,
572,
453,
720,
562,
220,
107,
100,
410,
494,
743,
416,
297,
161,
533,
277,
111,
65491,
65432,
65346,
65448,
65434,
65361,
65317,
65319,
65394,
65416,
65458,
65494,
10,
65414,
65328,
65445,
65195,
65482,
10,
65285,
65316,
65361,
104,
65518,
65504,
65517,
300,
307,
82,
107,
287,
252,
0,
375,
65497,
65534,
328,
369,
319,
65487,
291,
486,
662,
358,
179,
562,
614,
562,
664,
276,
395,
71,
65513,
317,
37,
65321,
215,
65459,
101,
230,
65368,
67,
65445,
65367,
65432,
65136,
125,
116,
33,
65336,
65470,
17,
65524,
224,
112,
61,
65203,
65370,
65121,
65254,
65317,
65252,
65001,
65034,
64777,
65267,
107,
65144,
65240,
65167,
15,
65423,
65262,
65161,
65174,
65346,
65338,
65294,
65405,
65170,
65395,
65308,
65431,
65364,
65459,
65279,
65504,
65437,
65378,
65114,
65230,
65529,
248,
32,
65239,
65259,
66,
233,
65418,
65165,
65238,
139,
341,
217,
65477,
65255,
65436,
65452,
65182,
65250,
184,
65190,
65229,
65410,
65338,
65391,
65494,
65314,
65345,
65296,
65497,
65516,
65416,
65239,
65365,
282,
65327,
65346,
65200,
65025,
65008,
459,
370,
65521,
61,
439,
987,
778,
623,
470,
724,
469,
262,
789,
900,
965,
1041,
371,
823,
314,
776,
1091,
774,
899,
455,
1207,
171,
259,
194,
106,
268,
218,
65434,
195,
154,
326,
182,
270,
65463,
126,
65462,
281,
65450,
173,
11,
65361,
389,
166,
215,
202,
65431,
65361,
44,
84,
56,
125,
65356,
65428,
21,
141,
115,
65346,
65224,
65477,
49,
151,
65397,
65303,
64978,
65438,
65285,
65126,
65160,
65305,
65073,
65272,
121,
65508,
146,
219,
125,
65427,
181,
47,
306,
65342,
0,
136,
259,
65481,
65515,
415,
128,
65,
73,
65440,
372,
323,
348,
161,
290,
65232,
98,
112,
57,
263,
30,
266,
211,
65517,
225,
349,
215,
357,
65393,
262,
76,
344,
528,
415,
319,
370,
344,
65455,
398,
95,
65113,
65452,
56,
170,
166,
65176,
65095,
65358,
65343,
65374,
65108,
64886,
64984,
65283,
65431,
65319,
65181,
65159,
65170,
65143,
65535,
65422,
65386,
65236,
65052,
38,
179,
356,
0,
65467,
174,
65370,
65404,
65293,
65378,
133,
65291,
65275,
65414,
96,
65352,
206,
65509,
135,
232,
43,
65444,
65466,
157,
103,
65324,
65309,
65082,
65020,
65061,
177,
65477,
65199,
65212,
65177,
113,
200,
65363,
65282,
65321,
65404,
0,
65097,
65041,
65421,
65292,
65311,
65412,
65378,
65335,
65447,
65360,
65238,
65512,
65463,
65228,
65231,
103,
54,
148,
65040,
65350,
65470,
85,
139,
64973,
65137,
129,
157,
12,
64910,
65026,
65214,
65332,
65444,
381,
290,
324,
295,
405,
496,
190,
159,
65463,
249,
164,
125,
176,
332,
467,
401,
183,
109,
400,
514,
170,
274,
301,
191,
215,
64947,
64813,
64853,
64838,
64923,
65051,
64837,
64815,
64977,
64727,
64789,
64853,
64780,
64967,
64704,
64494,
64888,
65114,
64925,
64767,
64644,
64844,
64635,
64565,
64641,
65343,
65459,
65399,
65473,
65496,
65360,
65270,
65445,
65461,
65498,
65330,
65382,
65131,
65147,
65260,
65393,
65344,
65125,
65104,
98,
98,
65304,
65456,
147,
100,
64885,
64917,
64829,
64942,
64793,
65054,
64827,
65302,
64897,
64844,
65047,
65199,
65116,
64931,
64996,
65073,
65160,
65200,
65235,
65083,
65293,
65174,
65174,
64800,
65080,
65272,
65527,
179,
163,
65459,
1,
222,
65471,
65232,
65187,
65476,
65354,
65186,
65173,
65039,
65402,
65223,
65030,
64993,
65176,
140,
65182,
64871,
65125,
65329,
