memory_initialization_radix=10;
memory_initialization_vector =
65272,
65125,
65035,
65122,
65184,
65131,
65213,
65261,
65405,
65269,
65423,
65314,
65223,
65524,
65215,
139,
65524,
65250,
50,
65300,
65383,
12,
65382,
27,
65459,
65445,
7,
65426,
65469,
65470,
143,
236,
65458,
66,
65289,
65304,
65438,
65262,
298,
585,
346,
175,
71,
65268,
411,
78,
121,
65489,
65349,
169,
219,
379,
437,
212,
273,
311,
65491,
188,
208,
65314,
80,
65528,
65282,
65195,
65450,
65217,
65201,
65488,
65267,
65485,
304,
65498,
311,
328,
133,
50,
65352,
65186,
65379,
65475,
65460,
65351,
65319,
65311,
65460,
65304,
65281,
121,
65387,
65326,
12,
155,
130,
65411,
65515,
62,
98,
52,
65466,
65518,
65311,
65432,
119,
172,
65444,
65434,
264,
562,
208,
65317,
65443,
65528,
65525,
65477,
65456,
65286,
65494,
65378,
65240,
65417,
65461,
51,
180,
65338,
65204,
66,
65317,
110,
257,
181,
64965,
64951,
65518,
65508,
65212,
164,
709,
510,
65412,
70,
327,
327,
257,
6,
65486,
65337,
65140,
65267,
299,
596,
65221,
65192,
173,
339,
73,
65207,
65108,
65407,
65385,
120,
65358,
65381,
65444,
65207,
65453,
65300,
65335,
65301,
65434,
65418,
65259,
65258,
65478,
65345,
65415,
65,
65237,
142,
256,
65435,
183,
65416,
65483,
277,
184,
219,
65531,
153,
65478,
106,
236,
41,
155,
65487,
65459,
328,
120,
253,
51,
65339,
65316,
65450,
65434,
65303,
65234,
65330,
65282,
65382,
65427,
65041,
65481,
65506,
65358,
1,
65392,
65425,
107,
24,
65446,
65149,
65391,
11,
116,
65458,
65251,
65185,
65510,
65159,
65532,
65459,
65384,
65355,
65438,
65345,
65449,
65441,
65360,
147,
105,
17,
65325,
65248,
65470,
65513,
65467,
65364,
65473,
65256,
65471,
65363,
65285,
65372,
65369,
65286,
65114,
65323,
65420,
65357,
65440,
65050,
65247,
65180,
65195,
65279,
65273,
65352,
65177,
65402,
65172,
65176,
65222,
65318,
131,
65469,
65373,
65477,
65213,
65241,
265,
248,
65269,
65261,
65187,
65206,
65144,
110,
65301,
65416,
65135,
65370,
65511,
65265,
65522,
65331,
65197,
65372,
65294,
65224,
65376,
65522,
65255,
65126,
65504,
24,
65177,
65344,
65168,
65508,
65340,
65257,
65315,
65211,
65130,
65225,
65283,
65288,
65471,
65476,
65262,
65441,
71,
65397,
65395,
65361,
65486,
65429,
235,
283,
525,
228,
65144,
65464,
223,
488,
162,
65387,
65520,
6,
187,
198,
65171,
74,
65373,
130,
65531,
65526,
11,
65415,
65497,
187,
65319,
65295,
65260,
64961,
65205,
65432,
65167,
65001,
65134,
65201,
65526,
83,
61,
233,
65371,
65486,
67,
65502,
141,
357,
169,
212,
198,
235,
279,
65264,
65221,
65129,
65257,
65213,
65357,
65290,
65194,
65232,
65328,
65504,
142,
65451,
65255,
65378,
65292,
65378,
65509,
65283,
65502,
65171,
65440,
65317,
44,
65406,
65348,
65514,
65315,
65428,
38,
65343,
65378,
65304,
65400,
65368,
65371,
5,
65324,
65284,
65359,
65500,
21,
65515,
153,
83,
65478,
65432,
266,
48,
29,
72,
65367,
65123,
65340,
65047,
65317,
65152,
65230,
65278,
65396,
65090,
65356,
65427,
58,
65413,
65436,
65477,
140,
175,
193,
66,
87,
233,
65451,
65446,
65497,
65530,
359,
508,
207,
65342,
65455,
206,
375,
133,
65522,
64989,
65365,
65340,
263,
7,
65138,
65500,
65399,
241,
65090,
65171,
65480,
65433,
245,
65473,
144,
402,
65424,
65353,
65272,
65513,
65527,
65444,
65511,
65424,
65502,
65297,
65195,
65319,
182,
65335,
65358,
65321,
32,
90,
90,
63,
112,
65499,
447,
164,
338,
322,
21,
65517,
65466,
65430,
24,
65359,
253,
251,
26,
89,
65499,
267,
116,
47,
102,
65221,
65475,
240,
65386,
65334,
65464,
65303,
65457,
65151,
65442,
65443,
65242,
65425,
65368,
65388,
65278,
65185,
65293,
65339,
65508,
65327,
84,
65493,
169,
45,
65503,
87,
74,
196,
19,
106,
65366,
65458,
65346,
59,
197,
65279,
65268,
65526,
65260,
144,
65488,
90,
65460,
10,
65490,
65449,
132,
83,
65521,
211,
65419,
102,
65415,
65495,
102,
312,
259,
65528,
111,
95,
65476,
65534,
65364,
65528,
237,
65508,
65388,
109,
65395,
65527,
65475,
108,
65441,
65447,
238,
8,
65420,
203,
14,
130,
65465,
65375,
42,
187,
135,
65160,
113,
65422,
103,
415,
65300,
65312,
15,
276,
330,
65430,
65399,
65374,
185,
431,
65439,
65202,
65360,
65352,
125,
414,
418,
691,
285,
65516,
211,
65520,
420,
0,
140,
65342,
52,
65507,
65482,
65406,
65501,
121,
32,
65274,
43,
65315,
21,
65427,
234,
64,
4,
616,
765,
593,
239,
65320,
208,
208,
262,
65410,
65289,
65531,
54,
219,
20,
17,
109,
43,
116,
65315,
65328,
65448,
65326,
65340,
65270,
65218,
65106,
65252,
131,
184,
65406,
65241,
65291,
65301,
65387,
65199,
65505,
42,
33,
65131,
65328,
65356,
65507,
65290,
65300,
50,
65473,
65497,
65335,
65500,
4,
208,
108,
236,
161,
65470,
65,
65335,
65441,
65328,
3,
65529,
65398,
65470,
67,
65493,
65535,
236,
244,
234,
290,
6,
40,
156,
234,
65373,
65313,
65532,
65332,
65431,
265,
219,
199,
65473,
65474,
322,
173,
65439,
65339,
65034,
304,
65489,
65170,
65227,
65440,
151,
232,
65440,
65308,
65491,
48,
65517,
214,
101,
140,
42,
65347,
58,
23,
1,
65445,
65370,
125,
138,
358,
33,
65439,
178,
49,
49,
65350,
65455,
40,
141,
65452,
194,
234,
336,
219,
65397,
100,
65375,
65308,
112,
10,
65485,
10,
65230,
65467,
65388,
65318,
65135,
65474,
65407,
133,
65360,
65498,
306,
75,
123,
65421,
65330,
65268,
65336,
65525,
102,
65480,
65202,
65269,
65411,
65421,
65448,
65257,
65457,
65327,
65214,
65455,
312,
107,
37,
65276,
65265,
65370,
81,
65264,
227,
377,
47,
65532,
65281,
65281,
14,
65533,
65441,
65517,
65197,
65498,
65532,
65414,
65450,
65308,
65521,
65216,
20,
65039,
20,
65281,
65354,
65437,
65294,
65033,
65177,
65293,
65438,
65274,
65239,
65130,
65373,
65376,
65134,
65062,
65356,
65230,
65260,
65384,
65189,
65134,
65084,
65376,
65447,
16,
65434,
65079,
65343,
65391,
65376,
287,
303,
557,
439,
29,
213,
229,
65480,
65453,
91,
216,
65470,
65246,
65384,
65371,
142,
168,
65425,
65229,
24,
181,
65290,
65478,
28,
