memory_initialization_radix=10;
memory_initialization_vector =
65490,
254,
104,
88,
65271,
147,
65454,
65453,
65485,
65204,
65431,
95,
150,
65501,
65236,
44,
383,
214,
133,
65351,
288,
297,
405,
127,
65207,
241,
152,
95,
9,
65471,
65446,
183,
65308,
65293,
65370,
65252,
298,
293,
215,
65388,
30,
65508,
351,
29,
233,
65461,
65243,
65140,
65333,
11,
147,
72,
65432,
65214,
65443,
14,
65394,
65360,
65375,
65311,
65359,
25,
65526,
30,
65132,
65236,
65171,
65316,
65479,
65500,
65017,
65186,
65057,
65269,
65327,
65493,
65525,
19,
65494,
65410,
88,
87,
65321,
65530,
65390,
24,
43,
65507,
20,
65181,
65462,
65318,
23,
65306,
65532,
65248,
61,
65447,
77,
65534,
31,
65416,
65531,
152,
65409,
65519,
130,
65498,
84,
65174,
65517,
331,
310,
65524,
65408,
65302,
51,
100,
65502,
47,
65320,
325,
50,
65282,
65139,
517,
212,
21,
65183,
65488,
282,
65245,
65509,
134,
65498,
44,
65447,
118,
65334,
65330,
65440,
203,
65485,
65291,
65095,
65408,
65386,
65249,
65395,
65460,
64,
65417,
253,
483,
22,
65396,
65253,
292,
396,
313,
157,
65403,
65172,
14,
40,
208,
195,
15,
85,
65489,
302,
710,
355,
189,
315,
65534,
406,
402,
234,
18,
65455,
65430,
65359,
130,
120,
65097,
65242,
65299,
31,
65478,
65432,
65398,
22,
24,
63,
72,
65389,
141,
65383,
65463,
109,
287,
65526,
250,
475,
127,
65417,
65464,
39,
168,
65251,
49,
65500,
162,
199,
65486,
105,
41,
207,
65433,
236,
57,
65510,
55,
182,
65529,
1,
65385,
65465,
18,
65414,
131,
65272,
65469,
65436,
65287,
65426,
45,
65400,
65429,
65425,
65499,
125,
65459,
65306,
53,
65400,
98,
65461,
65521,
65446,
47,
298,
248,
390,
197,
221,
112,
65427,
130,
99,
246,
270,
74,
65392,
114,
65414,
308,
326,
65446,
65488,
171,
32,
65426,
65491,
87,
92,
65494,
42,
307,
65,
65472,
61,
65507,
360,
41,
65296,
65271,
8,
93,
399,
157,
172,
48,
65402,
160,
542,
623,
703,
290,
342,
41,
37,
141,
314,
65381,
163,
65367,
65467,
42,
252,
2,
65438,
214,
65335,
34,
320,
213,
30,
65449,
48,
65362,
24,
65509,
103,
65481,
70,
65367,
65208,
65507,
50,
65523,
20,
65216,
65295,
217,
103,
65242,
65418,
23,
201,
65420,
26,
70,
65244,
109,
65410,
65144,
65219,
65031,
309,
341,
478,
124,
65493,
65513,
65512,
23,
65396,
36,
65461,
65481,
65393,
65418,
65529,
70,
65367,
16,
65499,
65369,
65518,
65433,
33,
36,
65427,
152,
65493,
404,
65365,
65222,
65352,
65345,
65481,
111,
152,
0,
65400,
74,
65293,
65449,
94,
82,
65319,
89,
65275,
49,
65440,
181,
65373,
65308,
65388,
65499,
65466,
45,
48,
65491,
261,
49,
65452,
43,
65527,
65530,
134,
65465,
301,
65348,
65524,
65435,
28,
283,
65446,
122,
65266,
62,
65513,
22,
147,
311,
167,
71,
65307,
65389,
264,
182,
149,
65437,
65337,
65178,
65388,
65304,
64,
65243,
65490,
65499,
65279,
65301,
65298,
78,
65482,
65219,
393,
168,
65187,
65165,
65099,
65,
673,
517,
65282,
65102,
65469,
28,
245,
558,
65049,
64846,
65022,
177,
206,
185,
65287,
64959,
64959,
65228,
65045,
65422,
171,
65379,
65203,
64827,
230,
65490,
140,
62,
64836,
65443,
251,
104,
225,
65160,
65071,
65395,
65491,
6,
65287,
65112,
64767,
65389,
117,
65408,
65402,
24,
65466,
65320,
64987,
65486,
65478,
65526,
65265,
65147,
217,
94,
58,
65283,
65168,
85,
65515,
444,
289,
65506,
305,
77,
217,
50,
65192,
85,
65413,
119,
250,
477,
65439,
8,
65324,
105,
255,
397,
493,
193,
171,
118,
70,
39,
60,
321,
384,
65441,
65496,
165,
65377,
127,
65191,
65408,
28,
65492,
65038,
65114,
65247,
65268,
65279,
65126,
65326,
65333,
65285,
65276,
65259,
65238,
65359,
65358,
65352,
64964,
65347,
65423,
65477,
65218,
65202,
65329,
46,
13,
65475,
65311,
65527,
146,
76,
4,
77,
65516,
65509,
113,
65356,
20,
65435,
65522,
65410,
53,
65497,
72,
83,
31,
65312,
65274,
82,
65490,
65370,
65526,
65325,
65482,
65525,
65482,
65383,
65313,
65423,
65423,
65296,
65336,
65223,
28,
1,
270,
65516,
65432,
65188,
65413,
47,
174,
65434,
65478,
65329,
65530,
65242,
96,
65466,
65391,
65255,
65247,
65492,
65283,
65514,
87,
65220,
65411,
65423,
65412,
65448,
65321,
65226,
65469,
23,
65242,
65300,
65016,
65332,
65378,
65499,
65352,
65002,
65375,
65252,
65186,
65202,
65298,
65298,
65449,
65421,
65355,
65435,
65375,
65455,
65082,
65094,
64997,
65315,
65333,
65229,
65288,
23,
220,
65486,
178,
355,
254,
257,
65293,
65322,
72,
565,
65459,
65527,
65453,
65257,
99,
87,
465,
151,
196,
65384,
103,
154,
414,
460,
222,
65325,
65382,
79,
65411,
65453,
65452,
341,
207,
65339,
65380,
65342,
65316,
193,
65473,
65381,
65482,
65378,
65451,
65439,
65288,
65131,
65535,
75,
65373,
65129,
213,
136,
90,
164,
143,
65259,
65479,
8,
149,
275,
65335,
57,
65435,
65167,
65406,
43,
65502,
65472,
64971,
65310,
159,
65230,
64942,
65336,
65349,
327,
142,
45,
152,
198,
205,
65468,
27,
65451,
65426,
15,
115,
162,
213,
117,
163,
202,
9,
65516,
388,
118,
364,
45,
294,
274,
121,
65276,
65089,
65345,
65140,
394,
428,
80,
65378,
65531,
96,
56,
21,
33,
65240,
65182,
65297,
65312,
65279,
65324,
65021,
65282,
65276,
65408,
65075,
136,
272,
361,
112,
32,
65444,
65394,
65527,
312,
340,
65406,
65380,
65330,
65221,
184,
9,
168,
65472,
65464,
65439,
345,
116,
483,
85,
2,
65524,
123,
65449,
65363,
14,
146,
65396,
65404,
65353,
65453,
65410,
65433,
44,
173,
65504,
391,
48,
76,
65533,
65485,
326,
217,
175,
258,
22,
139,
79,
6,
375,
486,
144,
65490,
65331,
129,
84,
217,
299,
65335,
65450,
65351,
281,
444,
328,
73,
321,
65355,
65501,
316,
182,
65484,
65488,
65513,
65353,
65299,
65432,
220,
65440,
65332,
65468,
65173,
65272,
65411,
10,
171,
65368,
69,
75,
126,
65390,
65328,
65323,
143,
65310,
65001,
65130,
