memory_initialization_radix=10;
memory_initialization_vector =
64712,
64821,
64766,
64992,
64972,
64953,
64858,
64991,
65222,
64988,
65082,
65139,
65087,
65100,
65004,
65532,
65229,
65225,
65338,
65273,
65235,
65185,
65346,
65293,
65185,
162,
65523,
65119,
64797,
65036,
27,
65156,
65129,
65010,
65491,
150,
58,
65376,
64944,
83,
287,
149,
65431,
65030,
65460,
96,
161,
65252,
65106,
65296,
128,
68,
646,
942,
475,
265,
105,
44,
80,
65454,
248,
65262,
65364,
64875,
64921,
218,
65350,
65265,
65067,
65352,
157,
79,
43,
598,
575,
65070,
64928,
65038,
64905,
64779,
65101,
65006,
65223,
65114,
65041,
65182,
65396,
4,
65246,
65354,
129,
311,
156,
65360,
65503,
254,
272,
130,
36,
65446,
65405,
160,
441,
126,
65106,
65404,
76,
454,
86,
65308,
65509,
65297,
65322,
65335,
65298,
65333,
14,
65484,
65330,
65234,
65527,
65505,
65528,
65321,
64935,
65522,
65356,
65506,
189,
118,
64871,
64940,
64994,
65005,
65366,
7,
152,
11,
65232,
65202,
176,
136,
65425,
65154,
120,
65167,
64804,
64874,
46,
592,
65046,
64813,
65339,
421,
244,
65424,
65053,
65254,
71,
65501,
65454,
4,
65486,
65167,
65027,
65343,
65422,
65510,
65398,
65246,
65295,
65295,
65310,
65208,
65524,
118,
65399,
87,
152,
449,
157,
65486,
76,
502,
65419,
323,
167,
256,
308,
65482,
65534,
198,
67,
65199,
185,
106,
237,
264,
143,
75,
65388,
65380,
65154,
65368,
65202,
65494,
65513,
65260,
65431,
65193,
65453,
264,
65376,
65430,
65347,
65204,
65529,
219,
7,
65300,
65077,
65160,
65253,
65461,
65257,
65293,
65476,
122,
65507,
65382,
65254,
65506,
63,
42,
65468,
65232,
65521,
51,
37,
65447,
65286,
65161,
65176,
65286,
65457,
65244,
65308,
65204,
65257,
65192,
64938,
65315,
65210,
65438,
65278,
65421,
65402,
65247,
65112,
64920,
65422,
65463,
65396,
65117,
65055,
65513,
65425,
65262,
65456,
65452,
65327,
191,
168,
65518,
65403,
65227,
65334,
65011,
65214,
65533,
65265,
65144,
65007,
65018,
64942,
65408,
65506,
65329,
65295,
65328,
133,
79,
65276,
65219,
65349,
138,
49,
65172,
65297,
65003,
65151,
65273,
65233,
65340,
65420,
65320,
65162,
65330,
65203,
65194,
202,
65413,
65405,
65023,
64980,
65490,
65232,
65352,
65302,
65510,
65526,
65445,
65425,
65209,
210,
129,
370,
328,
655,
911,
65308,
0,
529,
30,
342,
65213,
65315,
65477,
17,
65510,
65507,
65473,
65416,
65394,
91,
65518,
205,
266,
65379,
401,
65024,
64857,
64834,
64646,
64908,
64943,
64994,
64914,
64894,
65079,
74,
5,
303,
442,
170,
82,
253,
535,
379,
232,
115,
65324,
54,
97,
255,
64762,
64978,
65075,
65202,
65101,
65157,
65142,
65170,
65258,
65145,
65478,
65264,
4,
65407,
65309,
65175,
65160,
65411,
65235,
65308,
65071,
65355,
65182,
65104,
64921,
65406,
65346,
65443,
23,
65208,
65262,
65375,
65445,
65434,
65458,
65520,
32,
65392,
50,
65376,
65432,
65389,
168,
70,
48,
65502,
65408,
177,
348,
257,
65285,
65042,
65108,
64871,
65007,
65002,
64876,
65088,
65189,
65340,
65108,
65472,
65423,
63,
254,
65506,
65398,
119,
99,
530,
252,
65428,
65527,
65528,
110,
65144,
64929,
343,
710,
429,
65230,
64848,
65035,
374,
430,
65218,
65016,
65028,
65333,
386,
65174,
65075,
64964,
65163,
65494,
65074,
64830,
64877,
64855,
65275,
189,
176,
406,
293,
11,
246,
65497,
65284,
65180,
24,
65477,
65399,
65204,
64982,
65269,
65395,
65396,
207,
109,
112,
65490,
460,
557,
68,
115,
437,
223,
158,
649,
165,
187,
65289,
65165,
41,
65382,
65339,
201,
146,
65314,
65140,
65481,
213,
287,
149,
65389,
65398,
353,
319,
169,
142,
65523,
65268,
65276,
65459,
65358,
65460,
168,
3,
42,
65205,
101,
65330,
65147,
0,
65335,
297,
280,
65408,
162,
89,
229,
347,
321,
258,
93,
65109,
65183,
65300,
65132,
65377,
65360,
65195,
65213,
65164,
65532,
65283,
65239,
65097,
65345,
178,
65518,
65428,
65263,
65416,
65,
65462,
65437,
65246,
65352,
78,
982,
137,
65483,
65526,
296,
65417,
285,
65428,
65409,
175,
202,
68,
65460,
65316,
185,
60,
99,
65362,
65492,
6,
83,
270,
65461,
112,
138,
65361,
267,
326,
242,
488,
65145,
65429,
175,
436,
317,
65147,
65063,
65403,
408,
566,
65414,
65337,
65011,
65528,
456,
65203,
65249,
65364,
65387,
140,
700,
1008,
914,
526,
386,
87,
547,
65445,
145,
270,
39,
47,
25,
65400,
113,
65507,
65358,
65474,
65426,
20,
225,
231,
65474,
65518,
384,
65173,
746,
839,
773,
575,
65215,
318,
430,
456,
65455,
65114,
65427,
264,
130,
64994,
65010,
65065,
65237,
65076,
64906,
65387,
65319,
65023,
64779,
64992,
65197,
65099,
65205,
65296,
134,
190,
61,
59,
65239,
65015,
65203,
73,
42,
65343,
64907,
74,
65417,
65140,
65021,
65145,
163,
100,
20,
65290,
65367,
65170,
65263,
65449,
65228,
65271,
65275,
65234,
65352,
47,
65247,
65278,
65175,
65258,
65386,
65448,
65210,
65463,
91,
286,
478,
65423,
39,
217,
377,
257,
146,
65495,
65470,
65122,
65145,
358,
373,
65416,
65092,
65314,
612,
256,
65245,
64914,
65017,
126,
234,
65088,
64989,
65050,
423,
122,
65198,
65213,
52,
65412,
318,
15,
312,
409,
300,
70,
65381,
94,
65377,
389,
114,
186,
484,
626,
44,
65410,
67,
65503,
65179,
273,
65394,
457,
461,
65365,
368,
430,
476,
65503,
65461,
65432,
65061,
65165,
65177,
65048,
65340,
65095,
65196,
64929,
65371,
65534,
75,
41,
60,
297,
182,
248,
346,
166,
289,
65411,
65196,
64958,
65084,
63,
65517,
65514,
65004,
65341,
65461,
65505,
65279,
65026,
65205,
44,
65509,
83,
65170,
65323,
65255,
60,
12,
65402,
65422,
65530,
50,
103,
65523,
281,
55,
65340,
65143,
65340,
144,
65391,
65438,
65253,
65352,
66,
65286,
65421,
65338,
65257,
65529,
65403,
228,
65502,
28,
65495,
50,
65197,
65041,
65190,
65372,
65239,
65297,
65108,
65192,
65380,
65368,
64926,
65197,
65430,
65352,
65332,
65469,
65233,
65343,
65218,
65294,
124,
268,
65391,
65007,
65371,
65249,
256,
695,
843,
590,
125,
84,
516,
165,
65224,
65429,
97,
65389,
65251,
65143,
6,
67,
65377,
65019,
65025,
334,
65365,
64921,
65308,
65369,
