memory_initialization_radix=10;
memory_initialization_vector =
384,
566,
305,
90,
309,
65442,
355,
65519,
59,
65503,
65302,
15,
65471,
65133,
65515,
65445,
44,
142,
65507,
189,
65402,
55,
215,
107,
2,
175,
206,
449,
574,
350,
65320,
65303,
65218,
65150,
398,
242,
65480,
65281,
65339,
65378,
65459,
154,
218,
239,
65339,
65074,
128,
480,
380,
301,
65188,
64984,
64663,
65101,
65282,
65235,
65142,
64976,
65048,
65403,
65097,
65332,
65260,
65510,
65452,
65437,
65436,
114,
179,
65409,
65279,
65094,
65317,
65465,
65255,
186,
228,
65504,
65373,
32,
65401,
142,
377,
65454,
102,
127,
123,
65358,
134,
274,
65367,
65376,
65533,
305,
65440,
65508,
65452,
48,
99,
65530,
64975,
65271,
65523,
65357,
65485,
65409,
65320,
65152,
74,
65406,
65444,
55,
173,
372,
65498,
65206,
16,
95,
201,
65075,
65443,
65178,
65324,
185,
65383,
65053,
65531,
65098,
64984,
169,
228,
336,
65207,
65399,
273,
65475,
65201,
55,
546,
384,
64966,
65085,
65507,
148,
65523,
65154,
142,
64,
65399,
64949,
65394,
65315,
65234,
65148,
65111,
280,
129,
108,
86,
65171,
163,
65519,
196,
115,
175,
65394,
65406,
78,
65492,
65454,
314,
351,
193,
14,
65292,
65468,
40,
65446,
285,
509,
65475,
40,
183,
65515,
124,
64926,
65064,
65384,
248,
206,
65165,
65010,
65111,
65253,
18,
112,
65524,
65399,
80,
22,
270,
415,
366,
345,
312,
65420,
149,
65413,
65254,
65313,
209,
235,
30,
65370,
410,
250,
65373,
169,
379,
555,
129,
65343,
65479,
108,
65533,
159,
73,
49,
65404,
65391,
65504,
1,
66,
65449,
83,
65489,
24,
65393,
65463,
30,
180,
240,
67,
141,
18,
71,
65519,
187,
162,
138,
243,
73,
65423,
43,
316,
65519,
65398,
65228,
151,
493,
558,
64,
71,
65484,
223,
516,
505,
261,
65375,
65502,
71,
97,
230,
108,
65322,
65271,
64962,
65284,
65062,
64806,
84,
31,
65441,
104,
62,
65519,
65459,
65432,
65398,
329,
12,
65374,
65375,
65400,
301,
35,
188,
401,
297,
241,
133,
54,
65429,
38,
271,
180,
296,
65366,
65487,
96,
65508,
65202,
65242,
116,
65496,
202,
210,
222,
178,
207,
111,
481,
440,
378,
65429,
534,
65398,
65119,
65117,
65110,
39,
65301,
65140,
65188,
65217,
50,
65451,
65196,
65184,
65319,
65523,
124,
65254,
65177,
65480,
65444,
65389,
65523,
65459,
65491,
503,
387,
327,
334,
241,
237,
644,
354,
106,
65315,
132,
65433,
65312,
65396,
65325,
90,
65143,
65266,
65178,
65277,
65346,
65322,
65339,
65427,
65084,
65,
193,
65386,
31,
65420,
70,
205,
392,
65375,
37,
65404,
65419,
118,
65371,
65467,
191,
65476,
158,
10,
50,
0,
62,
450,
240,
65468,
65239,
65469,
65449,
104,
73,
178,
247,
65465,
65481,
209,
137,
65503,
9,
65522,
85,
65306,
65412,
175,
105,
65384,
7,
13,
65381,
65352,
147,
65267,
194,
240,
261,
265,
65440,
439,
195,
65525,
243,
65194,
181,
483,
386,
65478,
65445,
65469,
65349,
65510,
65331,
65450,
65447,
65325,
15,
65066,
65097,
64671,
64531,
64777,
64811,
65349,
65412,
64948,
64724,
65005,
65513,
0,
65377,
64518,
64948,
77,
336,
338,
65143,
64972,
65208,
0,
65379,
65379,
65170,
64674,
64547,
64801,
65097,
65466,
65214,
117,
124,
65534,
65343,
65384,
14,
538,
156,
64849,
194,
438,
151,
65412,
64886,
65241,
14,
65330,
65221,
64822,
64931,
64816,
65159,
65160,
65011,
65285,
65193,
65108,
65220,
65054,
34,
65219,
65511,
65451,
65214,
151,
378,
206,
113,
65252,
17,
259,
65447,
219,
65205,
214,
246,
339,
65527,
128,
65438,
65412,
65239,
65403,
125,
15,
65423,
65383,
65346,
214,
65450,
142,
177,
83,
451,
229,
71,
61,
85,
419,
65316,
65488,
30,
38,
65216,
65237,
65263,
3,
65524,
65016,
65065,
65455,
62,
65178,
65068,
65020,
65049,
65241,
65155,
64970,
65120,
65103,
65065,
65005,
64854,
65284,
65362,
45,
65271,
65163,
65266,
65493,
6,
65534,
65271,
65335,
65338,
65359,
65344,
65174,
65297,
65353,
49,
65333,
65239,
65339,
65334,
65330,
65377,
65388,
65291,
65144,
65304,
65323,
19,
65146,
65232,
65308,
65352,
65304,
65377,
65166,
65079,
65175,
65376,
65267,
65223,
65381,
65011,
64976,
3,
19,
155,
65488,
65487,
65139,
65043,
65298,
65179,
65443,
65201,
65156,
65079,
95,
89,
65220,
65002,
65348,
65458,
65427,
65073,
65228,
65207,
18,
65214,
65316,
65367,
65499,
65274,
64958,
47,
65305,
64981,
65088,
64829,
65389,
65194,
65102,
65087,
65021,
38,
65255,
65124,
65271,
65126,
65268,
65326,
65182,
65531,
65248,
196,
105,
81,
65301,
65142,
200,
338,
153,
65201,
65112,
279,
42,
26,
205,
14,
65508,
65327,
65370,
65441,
441,
263,
65415,
65436,
65460,
229,
65447,
404,
497,
128,
190,
65417,
65264,
65203,
65360,
23,
65228,
65133,
107,
65516,
3,
83,
168,
491,
65443,
89,
65420,
364,
196,
65242,
65307,
125,
65455,
65172,
65160,
64999,
65466,
65522,
205,
124,
65484,
65497,
65188,
65298,
238,
155,
65376,
65043,
236,
379,
148,
65490,
121,
473,
186,
65486,
152,
71,
238,
65514,
65237,
162,
65479,
183,
517,
172,
65519,
65445,
141,
65532,
65488,
143,
65351,
48,
65517,
65266,
65440,
65142,
37,
65432,
65185,
65447,
87,
65372,
74,
156,
64589,
64693,
64615,
65041,
65222,
65274,
65060,
65368,
65350,
65345,
95,
495,
542,
475,
152,
194,
190,
254,
90,
65515,
65446,
64956,
65074,
65176,
64974,
184,
320,
92,
65512,
65521,
65288,
406,
646,
60,
65346,
65316,
65309,
113,
65480,
14,
65458,
65203,
65097,
65494,
77,
191,
65245,
65320,
380,
454,
64979,
65160,
64914,
65441,
65479,
124,
65517,
65446,
65386,
65434,
65317,
65436,
65186,
65342,
223,
65342,
65382,
65450,
65476,
234,
23,
184,
184,
303,
65211,
162,
505,
10,
200,
63,
148,
236,
65530,
148,
313,
65525,
65364,
65352,
77,
544,
257,
108,
72,
266,
269,
305,
479,
65519,
244,
101,
65275,
65269,
65050,
65376,
65439,
65514,
65275,
65337,
102,
122,
112,
129,
304,
337,
122,
65164,
65157,
199,
346,
27,
138,
77,
353,
220,
65268,
