memory_initialization_radix=10;
memory_initialization_vector =
65389,
65499,
65396,
65340,
182,
65422,
65324,
65306,
65395,
65228,
99,
195,
37,
65410,
65496,
39,
316,
65507,
60,
65459,
65436,
270,
3,
488,
48,
262,
453,
175,
401,
65440,
65372,
109,
65535,
65431,
65355,
65276,
192,
153,
612,
585,
404,
65509,
65516,
276,
510,
65434,
172,
349,
117,
506,
65487,
65530,
65381,
114,
14,
65403,
78,
115,
30,
65531,
218,
65488,
65463,
221,
151,
65354,
153,
65378,
65524,
16,
65406,
65049,
65498,
65248,
18,
65300,
65286,
65194,
167,
65142,
65458,
343,
155,
77,
65058,
228,
65517,
235,
65386,
264,
65283,
314,
65291,
597,
418,
194,
65496,
65330,
291,
65461,
65309,
80,
182,
65531,
65373,
65126,
235,
146,
221,
234,
41,
87,
258,
521,
561,
133,
65507,
594,
270,
148,
65402,
65414,
91,
47,
30,
244,
65264,
96,
307,
65253,
3,
141,
65523,
65461,
319,
82,
65517,
64948,
65469,
65418,
65355,
65086,
65460,
304,
236,
65366,
156,
365,
998,
65524,
97,
191,
365,
65490,
168,
262,
338,
245,
389,
637,
149,
49,
90,
397,
337,
296,
383,
276,
197,
433,
227,
472,
687,
393,
284,
65073,
29,
65383,
65401,
65226,
65199,
65277,
65532,
65509,
65278,
65144,
65227,
65367,
65343,
65029,
22,
65305,
65384,
65383,
65150,
161,
354,
65409,
65288,
65433,
36,
257,
493,
49,
11,
3,
65441,
65473,
65445,
65374,
65475,
65472,
188,
54,
65302,
240,
65470,
34,
65385,
12,
559,
498,
65434,
158,
170,
65285,
65468,
65191,
65197,
65324,
65254,
65496,
65359,
65474,
65408,
65333,
65252,
65523,
2,
65347,
65406,
65241,
65253,
65299,
65222,
65501,
65436,
65291,
65488,
65390,
65470,
65520,
74,
65308,
65207,
90,
31,
65360,
65534,
65313,
65524,
65517,
318,
419,
144,
437,
40,
106,
390,
90,
265,
65497,
65420,
129,
65473,
65528,
65356,
65359,
65360,
7,
65447,
65434,
67,
65509,
65348,
306,
41,
65317,
187,
65458,
297,
383,
219,
85,
155,
59,
194,
267,
352,
777,
65223,
65248,
65083,
65179,
283,
237,
65344,
65182,
65434,
171,
230,
581,
410,
352,
417,
472,
89,
229,
819,
376,
65434,
62,
65360,
149,
65366,
543,
41,
158,
65462,
65314,
281,
47,
65488,
7,
65296,
157,
65178,
65457,
126,
65491,
65442,
65468,
18,
85,
157,
65494,
46,
65452,
65431,
65418,
328,
204,
236,
142,
202,
201,
60,
113,
65502,
65406,
174,
120,
65325,
65307,
65281,
210,
65365,
65399,
65390,
65511,
65406,
65426,
65415,
65286,
65155,
39,
43,
267,
318,
502,
65106,
65478,
65404,
65433,
65487,
132,
66,
65516,
65444,
65358,
65310,
65224,
188,
65500,
94,
396,
65482,
65441,
65503,
117,
65460,
65269,
65314,
143,
65440,
65385,
9,
215,
65527,
83,
256,
99,
134,
65469,
103,
94,
17,
101,
65412,
65321,
65366,
13,
65299,
65324,
65287,
65295,
65152,
65433,
63,
65381,
65357,
65281,
65276,
35,
105,
35,
65384,
65473,
65185,
65144,
65455,
65406,
24,
65443,
65209,
65400,
34,
65378,
65220,
65475,
65469,
884,
627,
65046,
64996,
65401,
385,
310,
323,
64940,
65339,
65219,
108,
321,
266,
48,
65311,
65010,
237,
301,
90,
134,
88,
43,
409,
65283,
65336,
65472,
217,
65333,
29,
65509,
146,
580,
557,
65432,
112,
65533,
309,
588,
65070,
65340,
235,
225,
65427,
65198,
65511,
65532,
64978,
65217,
65285,
65271,
32,
16,
65176,
42,
70,
216,
65395,
65413,
825,
499,
574,
279,
41,
730,
441,
661,
211,
118,
869,
798,
775,
426,
28,
65147,
65172,
65199,
121,
65384,
182,
65422,
65208,
51,
65457,
489,
332,
264,
24,
86,
78,
473,
938,
381,
95,
52,
103,
413,
279,
46,
65207,
65264,
65258,
65271,
65376,
65270,
65322,
7,
65373,
65245,
65209,
65349,
65155,
65514,
65305,
65168,
65464,
65269,
65381,
65410,
65076,
65115,
65276,
65228,
65499,
32,
65518,
78,
93,
4,
65482,
65424,
65313,
65469,
49,
25,
65461,
65483,
65425,
65395,
65298,
65341,
127,
65314,
65325,
65270,
89,
65470,
65401,
65284,
234,
65398,
65385,
65421,
65312,
139,
17,
65517,
65333,
65337,
48,
65324,
305,
65249,
65407,
65287,
65365,
65394,
65508,
65486,
65497,
65340,
65418,
65508,
136,
65273,
65424,
65357,
65094,
65180,
65330,
65224,
65294,
65405,
65206,
65205,
65453,
65472,
65282,
65397,
65388,
121,
65302,
191,
65347,
65387,
121,
114,
65451,
39,
300,
65417,
65271,
65148,
65278,
65362,
65227,
65404,
65383,
65105,
65357,
65470,
65343,
33,
65156,
65372,
65076,
65253,
171,
65366,
80,
65337,
93,
148,
65173,
54,
94,
19,
406,
185,
65472,
65513,
10,
151,
663,
234,
141,
24,
65201,
123,
311,
60,
65362,
65480,
201,
65366,
65157,
65440,
579,
690,
58,
65375,
65377,
65249,
418,
65248,
65283,
48,
65489,
247,
65438,
65287,
156,
354,
18,
65141,
65490,
367,
65390,
65293,
65374,
3,
65501,
42,
65473,
79,
11,
65521,
63,
702,
65502,
65482,
65318,
65467,
152,
65501,
65484,
65362,
162,
97,
65525,
65352,
65430,
342,
61,
65527,
65363,
54,
65511,
65249,
808,
323,
367,
212,
138,
290,
73,
656,
438,
92,
234,
175,
366,
65490,
248,
65487,
65410,
270,
335,
284,
251,
69,
202,
168,
112,
65245,
65239,
65084,
65440,
65310,
65115,
65328,
65388,
65314,
65140,
65128,
65058,
65238,
65085,
65023,
64970,
65266,
65515,
65022,
65095,
65389,
65150,
65194,
65161,
65078,
500,
146,
65447,
668,
493,
374,
114,
65483,
65456,
137,
5,
65367,
65530,
7,
65370,
544,
46,
65327,
65213,
95,
100,
388,
123,
65500,
65364,
83,
64883,
64726,
65048,
83,
65188,
64614,
64978,
65228,
65245,
65255,
65260,
65361,
65378,
145,
336,
139,
65475,
261,
677,
662,
528,
485,
572,
624,
127,
214,
38,
65380,
53,
65325,
281,
65371,
65266,
15,
65450,
32,
122,
17,
242,
172,
510,
601,
762,
422,
384,
315,
293,
393,
211,
184,
65354,
65279,
65308,
65186,
80,
65490,
65480,
65069,
140,
72,
232,
65425,
28,
59,
65280,
209,
143,
76,
294,
65506,
65283,
65460,
169,
359,
