memory_initialization_radix=10;
memory_initialization_vector =
230,
136,
170,
294,
65462,
65340,
65506,
65383,
62,
65381,
65272,
47,
47,
124,
65325,
65437,
76,
322,
158,
47,
266,
595,
531,
618,
522,
65494,
51,
65500,
65261,
22,
65402,
65442,
65470,
65237,
64918,
65185,
65505,
65489,
42,
65273,
65473,
65114,
65455,
129,
141,
118,
65374,
65448,
65535,
65430,
65194,
65147,
65051,
65009,
64932,
64993,
65441,
65315,
65236,
65166,
65303,
65294,
65143,
65412,
65307,
65162,
65072,
65075,
65372,
65312,
64938,
64907,
65058,
64905,
64932,
65464,
65511,
70,
85,
47,
65525,
9,
65502,
65414,
65430,
65427,
65312,
65152,
65120,
65241,
65326,
65295,
65074,
65424,
65349,
65526,
65381,
65011,
65278,
65192,
65298,
65136,
65038,
65038,
65348,
65454,
65499,
65141,
65120,
65268,
65145,
65442,
65487,
65238,
65270,
64882,
65390,
125,
65311,
65051,
64653,
65362,
195,
65507,
65146,
261,
65531,
65268,
65150,
65194,
149,
65453,
65352,
65228,
65505,
65093,
64984,
65058,
65202,
65524,
65013,
65349,
65260,
65420,
65231,
64819,
65156,
65417,
65105,
64979,
74,
95,
25,
0,
312,
88,
65344,
65298,
65519,
65431,
78,
46,
65266,
65425,
44,
163,
65345,
42,
65396,
65381,
102,
214,
469,
267,
39,
65466,
340,
229,
65437,
13,
65199,
65311,
65312,
65503,
237,
64932,
65106,
65056,
65283,
6,
65179,
65283,
65189,
65370,
117,
69,
65518,
65360,
191,
334,
76,
406,
122,
253,
25,
65423,
65360,
9,
65467,
138,
65497,
101,
65507,
192,
144,
185,
65491,
2,
65437,
86,
367,
65480,
65328,
65426,
65497,
345,
515,
464,
65459,
65410,
15,
176,
236,
52,
111,
295,
246,
195,
308,
34,
85,
246,
388,
373,
273,
17,
4,
254,
374,
457,
252,
201,
571,
239,
382,
266,
60,
81,
65482,
76,
368,
196,
129,
383,
65329,
665,
346,
439,
287,
56,
721,
99,
65497,
65486,
146,
65472,
65421,
17,
274,
92,
65316,
135,
45,
65445,
155,
65401,
65324,
65290,
65375,
65418,
54,
195,
65456,
253,
65399,
51,
37,
241,
492,
304,
469,
390,
356,
368,
319,
206,
36,
105,
92,
65487,
192,
65445,
65371,
178,
107,
96,
46,
12,
164,
97,
2,
65388,
65524,
97,
104,
352,
89,
65505,
65365,
65081,
516,
63,
65496,
65229,
65421,
501,
280,
65460,
65215,
65486,
522,
53,
65410,
65255,
65305,
282,
60,
65267,
65172,
65090,
3,
440,
238,
103,
296,
125,
136,
106,
113,
0,
131,
65380,
65023,
65113,
65281,
143,
40,
65151,
65493,
65251,
223,
65483,
65312,
65357,
65398,
333,
222,
412,
46,
65472,
16,
65390,
209,
65389,
65465,
20,
65519,
65364,
65268,
65322,
206,
65493,
65379,
65315,
65293,
276,
135,
65319,
65439,
65258,
109,
65318,
71,
88,
65301,
264,
80,
121,
76,
78,
79,
65468,
220,
249,
64,
226,
37,
65400,
65279,
65484,
65422,
65402,
65472,
65407,
65475,
65260,
65381,
425,
103,
234,
69,
76,
359,
529,
94,
65148,
65453,
96,
65496,
65359,
37,
65530,
65485,
65394,
65307,
65460,
71,
65364,
65428,
65281,
65383,
222,
56,
64761,
64947,
65279,
347,
319,
65465,
65165,
65492,
270,
392,
211,
65433,
65446,
65249,
121,
129,
44,
65330,
64887,
65040,
65093,
64858,
64907,
65170,
65505,
65426,
65078,
65017,
68,
382,
461,
65360,
65258,
247,
238,
327,
65447,
64735,
65396,
65524,
107,
65357,
64532,
64849,
64969,
64982,
65126,
65150,
65016,
65270,
65155,
65190,
65480,
65094,
65107,
65166,
75,
65432,
65277,
65459,
4,
121,
65444,
65194,
6,
83,
65436,
4,
65451,
65337,
0,
65344,
63,
65406,
65478,
54,
202,
229,
65501,
65473,
65384,
2,
65426,
65505,
65405,
114,
65282,
65490,
65310,
88,
65460,
50,
65297,
65135,
65230,
65368,
65197,
65068,
65293,
65498,
65379,
65072,
64905,
64884,
65064,
65066,
64889,
64691,
64907,
64945,
65155,
65078,
64908,
64899,
65120,
64888,
65081,
64824,
64830,
65096,
65008,
64961,
65512,
65334,
138,
65365,
163,
65446,
115,
65450,
112,
65458,
65349,
134,
66,
172,
65374,
19,
65347,
3,
65522,
63,
65499,
39,
65506,
21,
43,
273,
65336,
65427,
65358,
65504,
46,
65357,
65316,
65302,
65254,
26,
165,
65399,
65294,
65473,
65329,
151,
172,
75,
48,
65328,
65276,
65534,
152,
105,
65504,
65321,
27,
65319,
227,
65325,
65321,
65262,
65384,
9,
65365,
65181,
65424,
28,
65475,
65156,
65344,
65090,
65393,
65404,
65087,
65392,
65404,
65184,
64944,
286,
192,
65488,
65149,
65270,
65154,
65346,
65333,
65088,
65221,
65245,
65394,
65170,
65218,
65339,
65322,
65369,
65062,
65030,
65168,
203,
62,
65408,
65399,
65332,
65521,
188,
65337,
65154,
90,
220,
199,
65333,
65110,
218,
262,
192,
44,
65341,
127,
55,
54,
65432,
138,
262,
65073,
65393,
45,
278,
289,
65013,
65026,
65234,
65293,
65430,
65202,
65362,
187,
65515,
180,
65195,
65516,
63,
25,
65231,
65235,
65331,
65224,
65039,
64775,
64964,
65322,
65381,
64868,
64839,
74,
65482,
65481,
33,
177,
65511,
65488,
65172,
128,
457,
65387,
65096,
65530,
24,
65489,
96,
65227,
222,
314,
65102,
117,
65429,
47,
65423,
64834,
65532,
67,
65510,
61,
6,
205,
65376,
65372,
65458,
65366,
292,
65260,
65371,
65099,
65416,
33,
65476,
65274,
65248,
51,
185,
163,
266,
65481,
198,
65367,
65238,
65084,
64941,
65148,
358,
508,
346,
312,
210,
210,
229,
376,
219,
264,
65263,
17,
65373,
65275,
65398,
64953,
65148,
65189,
65005,
64995,
326,
65509,
209,
309,
76,
65502,
65389,
65449,
65532,
65409,
65411,
65455,
65351,
65195,
65174,
199,
68,
56,
65334,
3,
96,
486,
353,
265,
113,
145,
73,
286,
146,
101,
65521,
53,
165,
65486,
65276,
65345,
65276,
65441,
65505,
53,
65356,
65412,
21,
65495,
72,
418,
383,
159,
464,
192,
255,
392,
207,
188,
470,
65491,
184,
65326,
65502,
97,
65477,
65476,
56,
65384,
65528,
112,
337,
357,
364,
53,
134,
65466,
65458,
127,
30,
313,
6,
65096,
65253,
65368,
146,
7,
65352,
65197,
65425,
65404,
65202,
65237,
59,
115,
65324,
65464,
65282,
99,
65439,
65377,
65317,
65416,
65535,
65356,
